@bb80 3d339cb5
@bb81 bd9dab23
@bb82 bca35a6e
@bb83 bd00ab4a
@bb84 bc9549cf
@bb85 bd77db81
@bb86 3d193260
@bb87 bc01ff52
@bb88 3daa0ed5
@bb89 3d30e29e
@bb8a 3cfdd6ac
@bb8b bd862846
@bb8c 3d7f50e7
@bb8d 3d166988
@bb8e bd01bdf7
@bb8f 3dab1238
@bb90 3d3f9fb1
@bb91 bd0a5bdc
@bb92 bd90df2d
@bb93 3de15015
@bb94 3ceaac08
@bb95 bdab4853
@bb96 3c937595
@bb97 bc5be9ab
@bb98 3ccb1279
@bb99 3c5ffbac
@bb9a bcb930d0
@bb9b bd518989
@bb9c 3c3d4597
@bb9d bd452792
@bb9e 3da7a651
@bb9f 3dd06a19
@bba0 3dc5d193
@bba1 b9c9118a
@bba2 bd1052be
@bba3 bcaa0527
@bba4 3dce51ef
@bba5 bd89caa5
@bba6 3d003f4c
@bba7 bca7e982
@bba8 bda61d26
@bba9 bd401500
@bbaa bd26b877
@bbab 3d6f9712
@bbac 3cd210a0
@bbad bcf4a533
@bbae 3cc6ef5d
@bbaf bc2fe058
@bbb0 3dff4263
@bbb1 3dfdd2ee
@bbb2 3d13f646
@bbb3 3d87f5f5
@bbb4 bcf0fde4
@bbb5 bd9bac2e
@bbb6 bd43b01b
@bbb7 bda3b6f6
@bbb8 bbec81cb
@bbb9 bc70956e
@bbba 3cd442a3
@bbbb bc286045
@bbbc bd2489d5
@bbbd 3d4c6830
@bbbe bd6eee06
@bbbf 3d8b652f
@bbc0 3cdb6d03
@bbc1 3d1a4413
@bbc2 3c3163c5
@bbc3 bd21fd1e
@bbc4 3d08b8fd
@bbc5 3cdf9186
@bbc6 3d4ff588
@bbc7 bdbc472c
@bbc8 bd056608
@bbc9 bd847ab0
@bbca bc9e95b1
@bbcb 3d24d71b
@bbcc bd9801b5
@bbcd 3d0c0d14
@bbce 3cd07f9a
@bbcf 3cb7d4cf
@bbd0 3d996c5d
@bbd1 3debf805
@bbd2 3aefb512
@bbd3 3c177348
@bbd4 bda647bf
@bbd5 bdb068e1
@bbd6 bd414f49
@bbd7 bd806033
@bbd8 3c9d121d
@bbd9 3dd00f73
@bbda bcbdbd52
@bbdb 3d08f215
@bbdc bd5d83a5
@bbdd bd190815
@bbde 3cef6f15
@bbdf 3c7a3c42
@bbe0 bd19b91b
@bbe1 bc1061b1
@bbe2 bd07a8bd
@bbe3 bd43b421
@bbe4 3c99a60c
@bbe5 3da3b5a0
@bbe6 bda3441a
@bbe7 3dd25cbd
@bbe8 3d2db76f
@bbe9 bbe9f6bd
@bbea 3c775b88
@bbeb 3d516d08
@bbec bdc466b1
@bbed 3da7bbf6
@bbee bcc140fd
@bbef bd0a14b3
@bbf0 bdbacd76
@bbf1 bb4fcbb5
@bbf2 bd8da3bf
@bbf3 3d9ec748
@bbf4 3bd9b4f7
@bbf5 3d77081c
@bbf6 3d51b976
@bbf7 bd123188
@bbf8 bd6c8321
@bbf9 bcb2f345
@bbfa bd5cb95d
@bbfb 3c88b8c9
@bbfc bdbaa056
@bbfd bc782cfd
@bbfe 3d8d4140
@bbff bc1e1ab6
@bc00 bdf02b94
@bc01 3d91d044
@bc02 bc680c4c
@bc03 3d895b40
@bc04 3d48e5ff
@bc05 3db548f5
@bc06 bdc5b8dc
@bc07 bd997487
@bc08 bd4317ad
@bc09 bbfd9b0b
@bc0a bc5e633e
@bc0b bdb47be7
@bc0c 3d9dfc72
@bc0d bdb133af
@bc0e bc85f9fc
@bc0f 39362a1d
@bc10 39a8c4d8
@bc11 3d64437e
@bc12 bda35402
@bc13 3cc9a472
@bc14 bc0c6aed
@bc15 bdb47296
@bc16 3d0c0b66
@bc17 bd71b84a
@bc18 3d4973cc
@bc19 baa807e6
@bc1a bd094331
@bc1b bca4a304
@bc1c 3cec6330
@bc1d 3d9f0c1b
@bc1e ba3b057d
@bc1f 3c2ef4f4
@bc20 3ca2ec28
@bc21 bcc11ff7
@bc22 3ae4acf0
@bc23 bd82e136
@bc24 bc4a37cf
@bc25 3d0ff1e8
@bc26 3d8c33a0
@bc27 bd14fdf8
@bc28 bd0bc468
@bc29 bdca86df
@bc2a 3da44cce
@bc2b bd34ce82
@bc2c baa5d15c
@bc2d 3c6f27d5
@bc2e 3ce044a2
@bc2f bdb8a028
@bc30 bd82c429
@bc31 bdc280cc
@bc32 bd8cf7be
@bc33 3d33d152
@bc34 bd605fa7
@bc35 3c544151
@bc36 3d9230d3
@bc37 3d8965ab
@bc38 3cf6b285
@bc39 bd66a987
@bc3a 3dd800ba
@bc3b 3e0274ee
@bc3c 3d986a9b
@bc3d ba17d3ec
@bc3e 3d88f662
@bc3f bd76678b
@bc40 3daff18b
@bc41 bc1e43dc
@bc42 bd85b5a7
@bc43 3da1d59c
@bc44 bd95c4c6
@bc45 3da159b3
@bc46 bda9405e
@bc47 bccf0be2
@bc48 bc4e2627
@bc49 bdb9e4a9
@bc4a bd0d73ae
@bc4b 3d69d014
@bc4c bd9c7cff
@bc4d 3d09c17a
@bc4e 3d60dc36
@bc4f bc869bbb
@bc50 bd8f3f07
@bc51 3d88565e
@bc52 3c667dcd
@bc53 3df9e520
@bc54 3d19b7c7
@bc55 bd0fbc61
@bc56 3da5ec86
@bc57 3ce5b286
@bc58 bc711d55
@bc59 bca23085
@bc5a 3d613ec5
@bc5b bcba2ed6
@bc5c bd3f7796
@bc5d 3d06077a
@bc5e bc145ced
@bc5f 3c946823
@bc60 3d438699
@bc61 bdd0042a
@bc62 3dbd69fa
@bc63 3d40b93c
@bc64 3d9f1515
@bc65 bd181dca
@bc66 3dbacbba
@bc67 3cd5bd8b
@bc68 3dcac99a
@bc69 bd7854e6
@bc6a 3d836bd5
@bc6b 3c863c02
@bc6c 3ad1858f
@bc6d 3c080815
@bc6e 3d68379f
@bc6f 3c4fa652
@bc70 bd2d7be0
@bc71 3d185625
@bc72 3cc069b7
@bc73 bd4c46b4
@bc74 bd9501ec
@bc75 bdb2d747
@bc76 bd45b45a
@bc77 3bb49180
@bc78 bd674a32
@bc79 3ce2b627
@bc7a 3d642932
@bc7b 3d4be209
@bc7c 3d4f1d84
@bc7d bd65b72b
@bc7e bc16c9ba
@bc7f 3d642860
@bc80 bd838db2
@bc81 3ca23834
@bc82 bd38a289
@bc83 3d915ad5
@bc84 3d2965f8
@bc85 3d3d449d
@bc86 3da53b6c
@bc87 bd74c92d
@bc88 3d9a9fc5
@bc89 bd94e81e
@bc8a bc813f1e
@bc8b bd6125b2
@bc8c 3db766d9
@bc8d 3d498ae0
@bc8e bdb833cf
@bc8f 3d424713
@bc90 3da78656
@bc91 bdac4b2c
@bc92 3d6b5e89
@bc93 bd582b34
@bc94 bd918fd7
@bc95 3cfe309f
@bc96 3aa03778
@bc97 bccce3b1
@bc98 3d656bb6
@bc99 bca26a22
@bc9a bda22e61
@bc9b bc97dc92
@bc9c 3d8d9d54
@bc9d 3daa625b
@bc9e 3d8b2b79
@bc9f bd96ea7a
@bca0 3d0c1ae4
@bca1 3d51e121
@bca2 bd100906
@bca3 3d108ec6
@bca4 bc70a1c4
@bca5 3c928e66
@bca6 bdab5ce1
@bca7 bc826168
@bca8 bd31fc07
@bca9 3d9a046a
@bcaa bd8500a0
@bcab 3c522a52
@bcac bc683103
@bcad 3d60fe19
@bcae 3d8ec607
@bcaf bcf95151
@bcb0 3ce43ae8
@bcb1 3daf56be
@bcb2 3d1df446
@bcb3 bd4fa803
@bcb4 bd3c2adb
@bcb5 3adaedaa
@bcb6 bd37db7d
@bcb7 bda77bf9
@bcb8 3d1d0098
@bcb9 bda004c7
@bcba bcfc9ddb
@bcbb 3d714c14
@bcbc ba5bae57
@bcbd 3b4708ff
@bcbe bcded2fa
@bcbf 3d94f0c2
@bcc0 bd92baf9
@bcc1 3d7595ef
@bcc2 bd5b7835
@bcc3 bdb605b4
@bcc4 3d5161f0
@bcc5 3d1db063
@bcc6 bb88807b
@bcc7 3cf2b560
@bcc8 bd498508
@bcc9 bc01bb01
@bcca bd8e8bdb
@bccb bd3b342d
@bccc bc6f87aa
@bccd bdac52fd
@bcce 3d38180f
@bccf 3d92cbe5
@bcd0 3d7a3a9d
@bcd1 bd146418
@bcd2 bd5ef6f7
@bcd3 3c36a0d3
@bcd4 bce9025e
@bcd5 3d4410cc
@bcd6 bbe77084
@bcd7 bd46a041
@bcd8 bd1a508c
@bcd9 3ca46800
@bcda 3da1433f
@bcdb 3cc90367
@bcdc bdbd209e
@bcdd 3d795e9f
@bcde bc8a313a
@bcdf 3da6ba8c
@bce0 bda238df
@bce1 3d065333
@bce2 bd36eefe
@bce3 3d6261d6
@bce4 3b346e13
@bce5 bd383e76
@bce6 bcc0a1c1
@bce7 3d72ef46
@bce8 3da0ba72
@bce9 b9eec361
@bcea bd3e688b
@bceb 3d4c7e52
@bcec bd56b05c
@bced bc9e8911
@bcee 3c3e7ade
@bcef 3ca22b17
@bcf0 bc9ccf18
@bcf1 bc81a9f4
@bcf2 3d91968f
@bcf3 3cd78579
@bcf4 bd028d86
@bcf5 3ad67d2d
@bcf6 3c93b9de
@bcf7 bd00f470
@bcf8 bde6510a
@bcf9 bc093c48
@bcfa bd12e473
@bcfb 3da55131
@bcfc 3d935cda
@bcfd 3dea4240
@bcfe 3d253d08
@bcff bd1a580a
@bd00 bc51f3e7
@bd01 3d1e431d
@bd02 bcb8ea1f
@bd03 3db933ba
@bd04 3d077d75
@bd05 3da42beb
@bd06 3bdde117
@bd07 3d8c61fe
@bd08 3d260ab3
@bd09 3daf522a
@bd0a bba1a5c7
@bd0b 3da5be9f
@bd0c bd824ad8
@bd0d 3b687719
@bd0e bd9bcbb1
@bd0f bc8968f4
@bd10 bc027931
@bd11 bce9dd87
@bd12 3db2cc2a
@bd13 3d1345d1
@bd14 bd2062ba
@bd15 bd0e36f4
@bd16 bd867df0
@bd17 3da6cf02
@bd18 bd64ccf1
@bd19 bd921e0d
@bd1a 3cdcdf56
@bd1b 3d513381
@bd1c 3c864833
@bd1d 3d337e5c
@bd1e 3bef7c55
@bd1f 3dc4a28e
@bd20 3da36f58
@bd21 3dad14c2
@bd22 3d465874
@bd23 3c4de76d
@bd24 bb8b52b3
@bd25 bc89056e
@bd26 3d0699f9
@bd27 bbfe6a4a
@bd28 3d1a4699
@bd29 3cfe4df1
@bd2a 3c707365
@bd2b 3ceb8abc
@bd2c 3d9b365c
@bd2d 3c10b614
@bd2e 3d91c27c
@bd2f 3c958391
@bd30 3beee4a6
@bd31 bc945ae0
@bd32 3d7146fb
@bd33 3d576a68
@bd34 bc772e55
@bd35 3ceefbbb
@bd36 3cd3c03f
@bd37 be0d92c5
@bd38 3d947033
@bd39 bd7313da
@bd3a 3df9a4df
@bd3b bd449dae
@bd3c bd171064
@bd3d bd600d5f
@bd3e bbe44113
@bd3f 3c44c280
@bd40 3d1d8c57
@bd41 bd60698d
@bd42 3dc5dae8
@bd43 bd532a0b
@bd44 bd9d0ea3
@bd45 bd11810e
@bd46 3c1cad32
@bd47 bce33411
@bd48 3c3f8bfa
@bd49 bd2c6096
@bd4a 3d44e7a8
@bd4b 3cd044de
@bd4c bd835650
@bd4d 3d65c206
@bd4e bb4a6bdc
@bd4f 3da4f96c
@bd50 3adbc69a
@bd51 3d4470be
@bd52 bdd63889
@bd53 bd7e2942
@bd54 3dbc319e
@bd55 bd2e5047
@bd56 3d15b782
@bd57 b945ed51
@bd58 bc8b5663
@bd59 3d63c3bc
@bd5a bd8c9e13
@bd5b 3db03833
@bd5c 3dbdca7b
@bd5d bdec8718
@bd5e 3dcd6921
@bd5f bddd8994
@bd60 3bb45e2a
@bd61 bd9901ce
@bd62 bcaf1ca1
@bd63 3d719378
@bd64 3d664b93
@bd65 3d83c243
@bd66 3cd43cf2
@bd67 3d8751ce
@bd68 3be4913b
@bd69 3d91412c
@bd6a bdaa081b
@bd6b 3d4dab15
@bd6c 3df18776
@bd6d 3cc96a35
@bd6e 3d5f7391
@bd6f 3c602460
@bd70 bd328f4b
@bd71 bd812509
@bd72 bd63d1c7
@bd73 3ba4ca55
@bd74 3b18c299
@bd75 bd5e0290
@bd76 bd985f98
@bd77 3c64b9c8
@bd78 bc750031
@bd79 bdac2afd
@bd7a 3d122138
@bd7b 3cc67135
@bd7c bcd23b92
@bd7d bc59816b
@bd7e bcc1502c
@bd7f bda0531f
@bd80 bd83b33f
@bd81 3ddb0eaa
@bd82 3d950d0f
@bd83 3da74b77
@bd84 bdbb878e
@bd85 3daf1d40
@bd86 bcacb1c1
@bd87 3d506fad
@bd88 bdcf2bfe
@bd89 3c38ad11
@bd8a 3d9c8335
@bd8b bd35e66b
@bd8c bda1f950
@bd8d bd500dd6
@bd8e 3d636a17
@bd8f bd497610
@bd90 bb06a11b
@bd91 3c437d36
@bd92 3bc0dfac
@bd93 bcb02b4c
@bd94 bd331989
@bd95 3d212ef1
@bd96 3dbfc990
@bd97 bdc3b471
@bd98 bd88c9d8
@bd99 3d5f7862
@bd9a bd01982e
@bd9b bd6b8290
@bd9c 3d975c95
@bd9d 3b921fdb
@bd9e bdaa1ffa
@bd9f bd9c37ca
@bda0 bc19b736
@bda1 3d478b5d
@bda2 3dc67ddb
@bda3 bb3dba5b
@bda4 bdbeb7b4
@bda5 3d8ff0cd
@bda6 3d9a91ee
@bda7 3dcd19a5
@bda8 3d400b0f
@bda9 be03ca6c
@bdaa bd979f46
@bdab bda60479
@bdac bdb2ba13
@bdad 399c7a1c
@bdae bdafc3d9
@bdaf 3c894cd9
@bdb0 3d25fce3
@bdb1 3d94bde1
@bdb2 bdb49c87
@bdb3 3d85d6b6
@bdb4 3d0f25be
@bdb5 3d5da3da
@bdb6 bd176d53
@bdb7 3cd1abb4
@bdb8 3d555bb5
@bdb9 bdbad7ce
@bdba 3db50390
@bdbb ba9244aa
@bdbc bd0d319f
@bdbd 3d51acae
@bdbe bdab9b7e
@bdbf bd78cfd9
@bdc0 bd338059
@bdc1 3d199c14
@bdc2 3ce10e8d
@bdc3 bd996a60
@bdc4 bc2f34f2
@bdc5 bd9ca262
@bdc6 bdad034f
@bdc7 3da08147
@bdc8 3d47fea4
@bdc9 bbb31fc3
@bdca 3d069e9b
@bdcb bd4f0a99
@bdcc 3d5cbb23
@bdcd 3cd0417a
@bdce bd29c884
@bdcf bc8423f8
@bdd0 3b71f878
@bdd1 3d4327eb
@bdd2 bd855d9c
@bdd3 bd7b33d0
@bdd4 3c6dbb57
@bdd5 bdaccf93
@bdd6 3c6f89fb
@bdd7 3de607b0
@bdd8 b7bf92d3
@bdd9 3d0ba5bf
@bdda 3d6b72e3
@bddb bcf90821
@bddc be01965c
@bddd 3e0812b3
@bdde bdfee8e2
@bddf 3d9ad3fa
@bde0 bd72e4fd
@bde1 bd7dff80
@bde2 bd321b4a
@bde3 3d625b9d
@bde4 bd49e7cb
@bde5 3d8704ad
@bde6 3d45ec00
@bde7 3da3de9c
@bde8 bd168053
@bde9 3c491406
@bdea 3becfd41
@bdeb bcf20309
@bdec 3db52c9d
@bded bd2e872e
@bdee bd973648
@bdef 3d553cc9
@bdf0 3d95476d
@bdf1 bd6f4af3
@bdf2 3c15f5fa
@bdf3 bd5b9694
@bdf4 bd9dfcf6
@bdf5 3cc2f60e
@bdf6 3c81c1de
@bdf7 3d314953
@bdf8 bcbdde16
@bdf9 bd48aaa3
@bdfa 3bc712c7
@bdfb bc584a52
@bdfc 3d846613
@bdfd bc90e8dd
@bdfe 3d4cd524
@bdff 3d09bd31
@be00 3db4a055
@be01 bd2a8963
@be02 3cdb8a4f
@be03 bdb719e4
@be04 bcab1b10
@be05 3d9eba86
@be06 bcc01312
@be07 3bb66d63
@be08 3da27964
@be09 bd03a64a
@be0a 3d750333
@be0b 3d3594ae
@be0c 3cf9a18c
@be0d 3da75033
@be0e 3d611079
@be0f 3bd1c971
@be10 3dac956a
@be11 bc92b82e
@be12 3e05a7ba
@be13 3dccf717
@be14 3d8da29e
@be15 3df7381c
@be16 3d2ed1cc
@be17 3c652647
@be18 bda7f0b6
@be19 bcf8066b
@be1a bddc0e7d
@be1b bdade99e
@be1c 3d77b993
@be1d 3d53816a
@be1e bd2b8a34
@be1f bc923a2d
@be20 3cca0f43
@be21 3bf9bcda
@be22 3d6d0e69
@be23 bdd2b35f
@be24 bd552b21
@be25 bd414013
@be26 3d8234ee
@be27 bd8798c0
@be28 bd9b2cd1
@be29 bc29ceff
@be2a bd89f443
@be2b bd3bdd1f
@be2c bdc0bedb
@be2d 3d9fc68d
@be2e 3bf61bb8
@be2f 3d036c47
@be30 3ad92a15
@be31 3cf38a8a
@be32 bc12c032
@be33 3c17778d
@be34 3d5cb000
@be35 bc10e4ab
@be36 3b7aaee6
@be37 bd1013e5
@be38 bd89a13e
@be39 bbd83a4c
@be3a 3d75d7fb
@be3b 3d745277
@be3c 3d3dd0a6
@be3d 3b2c22fc
@be3e bce28236
@be3f 39b72361
@be40 bd9cd2b6
@be41 3b4dce13
@be42 3cbd602e
@be43 3b727a78
@be44 bc0b3e8e
@be45 bd326776
@be46 3c0f4065
@be47 bc2ff7ba
@be48 3c74ff88
@be49 3cb6e764
@be4a 3de38ff4
@be4b bc078b57
@be4c bcfd38f0
@be4d 3e0e21ec
@be4e bd97ecda
@be4f bbba4f78
@be50 bd772c17
@be51 3d913b3a
@be52 bdab818d
@be53 bc8e2cad
@be54 bda49f09
@be55 3d403ac0
@be56 bd7d3013
@be57 3d8cb37e
@be58 3d149636
@be59 3d745c00
@be5a 3d0569fa
@be5b bd0c0a5b
@be5c 3da19b0d
@be5d 3d73bfde
@be5e 3c8bb7ca
@be5f bd963c6d
@be60 bcbc3355
@be61 bc394bab
@be62 bdab24f9
@be63 3d9a1851
@be64 bd79530d
@be65 3cfa1fea
@be66 bd3852f3
@be67 3c1d2154
@be68 3ca5a22b
@be69 bd787db2
@be6a bd84d9a1
@be6b 3c0294f4
@be6c bcf1af15
@be6d 3d939646
@be6e bc70f290
@be6f 3d1e233e
@be70 bc522812
@be71 3d1391b4
@be72 3ccca688
@be73 bd9523a7
@be74 3d4babfe
@be75 bda1ba3a
@be76 bcbb37eb
@be77 bcf09cd5
@be78 3d6d60aa
@be79 bd5323e4
@be7a 3c775079
@be7b bd52bfe3
@be7c bd8f0620
@be7d 3d5d60a7
@be7e 3dbfb359
@be7f bdf6db89
@be80 3dd5ca4c
@be81 bdb65fe2
@be82 3db4f8db
@be83 bd939f8a
@be84 bb09016c
@be85 3c0d3d1d
@be86 3c5dce47
@be87 bcaa60b4
@be88 bd0ec47b
@be89 bd2dde84
@be8a be0360f2
@be8b 3d6b89ad
@be8c 3c369572
@be8d bbbc685f
@be8e 3d0e3532
@be8f 3d82cf4b
@be90 3d058ac2
@be91 3b8832c9
@be92 bda5364d
@be93 bd56458e
@be94 bd2b237b
@be95 3c4e6f7b
@be96 bcc5676c
@be97 3d3d8c94
@be98 bce4919e
@be99 bc847814
@be9a 3cf33807
@be9b 3dabd5da
@be9c bd1f399d
@be9d bd7dead2
@be9e bd32abdc
@be9f 3dcd6c71
@bea0 bb911083
@bea1 bd0cabf4
@bea2 3cc6b81c
@bea3 3d35a1be
@bea4 bdba835e
@bea5 3d95538a
@bea6 3bcba8b6
@bea7 3d7546d5
@bea8 3d3ac6eb
@bea9 bbe8cbd4
@beaa bd4004c4
@beab bdbdebd2
@beac 3c0516cc
@bead bd7431b5
@beae 3d9528c1
@beaf bdc9dfb5
@beb0 3d8fe9ff
@beb1 bb8d852f
@beb2 3d263849
@beb3 3c97268e
@beb4 bd8ea845
@beb5 bdc3f801
@beb6 bc7ccfeb
@beb7 3cc7404d
@beb8 3d999f02
@beb9 bdb9e7ab
@beba 3d144629
@bebb bc7923c1
@bebc 3c766c04
@bebd bda0baa3
@bebe ba93b854
@bebf 3d254cd1
@bec0 bd00b6fe
@bec1 3da30170
@bec2 bd0981a7
@bec3 3b90b651
@bec4 3d00240f
@bec5 3dadeb97
@bec6 3d1d82a0
@bec7 bc7469ba
@bec8 3d113b9f
@bec9 bd9728b9
@beca 3d7bd7f0
@becb bc3dfa63
@becc 3d4b9528
@becd bdd049fa
@bece bbb6c5a8
@becf 3da84289
@bed0 bd399507
@bed1 3b9fe2e2
@bed2 3cd38663
@bed3 bccf3c4e
@bed4 bce0596b
@bed5 3ccd5ecc
@bed6 bd88fcf8
@bed7 bd028ddf
@bed8 3c8668f7
@bed9 bd8bb4b3
@beda bd626e94
@bedb 3daa5489
@bedc bd836b74
@bedd 3c93355d
@bede 3d86fb53
@bedf bdb0b0b6
@bee0 3c64125a
@bee1 bd73de9c
@bee2 bd1cf03f
@bee3 bd12117e
@bee4 bd912ec4
@bee5 3d57f6eb
@bee6 bc9ec9f7
@bee7 3c3b5d6a
@bee8 3d7beb29
@bee9 3c3e9e7a
@beea 3d19f4c2
@beeb 3d6bfd03
@beec 3ddf42ae
@beed bd57737e
@beee 3b50e770
@beef bdc267fa
@bef0 bcd8dca1
@bef1 3c99367a
@bef2 3cf75f83
@bef3 3d9ef3f1
@bef4 3d635f0a
@bef5 bd200586
@bef6 bce0b3e9
@bef7 bd5b3a33
@bef8 3da14357
@bef9 bc275809
@befa bda7e4c4
@befb 3d834ba9
@befc 3d2d6f64
@befd 3ca1a92d
@befe 3d162301
@beff bd488b1f
@bf00 3d4fa376
@bf01 3d8b1461
@bf02 3d9caa6c
@bf03 bd073184
@bf04 3d8be726
@bf05 bc6914fe
@bf06 3daf96f2
@bf07 3d9b5ef6
@bf08 3d9481f6
@bf09 ba5ec519
@bf0a bc8392a5
@bf0b 3d14dad7
@bf0c 3db17360
@bf0d 3d056c66
@bf0e 3d092ade
@bf0f bd6c6e82
@bf10 bd3a6aad
@bf11 3dc93cab
@bf12 3dba6891
@bf13 bd3cddd9
@bf14 3db2fbac
@bf15 3d76f276
@bf16 bd189793
@bf17 bb4fa55a
@bf18 3d892f11
@bf19 3b9c3cc2
@bf1a 3dc045a0
@bf1b 3da33d13
@bf1c bd9f789f
@bf1d 3d677576
@bf1e bd18b280
@bf1f bd82ab1a
@bf20 bd8b15b6
@bf21 3dbc9d93
@bf22 bbba3695
@bf23 3c85facd
@bf24 3cd0ca2a
@bf25 3da556bb
@bf26 3ca5600d
@bf27 bd7afa57
@bf28 3da6ba29
@bf29 3db75acf
@bf2a bdda6067
@bf2b bd8d3b15
@bf2c 3d5e4c5d
@bf2d bcc97a8f
@bf2e ba393789
@bf2f bccad96d
@bf30 bc0bfe6b
@bf31 3dd1d991
@bf32 bd893ece
@bf33 3d352cdc
@bf34 3d25987b
@bf35 bc9ad871
@bf36 3d145634
@bf37 bc8d9883
@bf38 3d2dde9d
@bf39 3d98925c
@bf3a bae8a326
@bf3b bca7c77a
@bf3c 3b3c9717
@bf3d bd605df4
@bf3e bca9fc13
@bf3f 3d294643
@bf40 bd0dd576
@bf41 bc7c9855
@bf42 bd8b7640
@bf43 bd242d69
@bf44 3d4281ee
@bf45 3d9a998c
@bf46 bdb37e87
@bf47 3cb74d74
@bf48 bd7c7a47
@bf49 3baa31f1
@bf4a bce4aa98
@bf4b bd1123c8
@bf4c bdada412
@bf4d bda27d5a
@bf4e 3d64b95a
@bf4f bd8f4f26
@bf50 3c7f70cf
@bf51 3c55aaa6
@bf52 bd409cef
@bf53 3cbcca5d
@bf54 3dd56e7e
@bf55 bdabb9d0
@bf56 3c09dc78
@bf57 bd412e07
@bf58 bc5c3939
@bf59 3ced6350
@bf5a bb9f3d9b
@bf5b bd240a5b
@bf5c bd0a4f2f
@bf5d 3d99ecea
@bf5e bc83bdd9
@bf5f 3d8a7c97
@bf60 bcd11369
@bf61 b977f148
@bf62 3c757c77
@bf63 bca3a108
@bf64 bbf18180
@bf65 bc12b8d1
@bf66 3d8aea51
@bf67 3d98ef66
@bf68 bd356b90
@bf69 bd08858b
@bf6a 3be75eb0
@bf6b 3d223aea
@bf6c bcd1afe2
@bf6d 3cb63b01
@bf6e 3c9c8ecb
@bf6f 3b87edc9
@bf70 3d601a69
@bf71 3c9a0191
@bf72 bd0a6c80
@bf73 3d6bd3dd
@bf74 3d8eb50f
@bf75 3daebf35
@bf76 3da52964
@bf77 bd5a7ea6
@bf78 bd5f5fdb
@bf79 bd1ff1e5
@bf7a 3dc8ab87
@bf7b bb9a23f3
@bf7c bc9f2fb4
@bf7d 3d2c1960
@bf7e 3ca7a751
@bf7f bc3fe828
@bf80 bd68ca20
@bf81 bd07c481
@bf82 bd96afdd
@bf83 3d733898
@bf84 3d1df606
@bf85 bc11f668
@bf86 3c1d2860
@bf87 3d9e0c76
@bf88 bcf159fb
@bf89 3cd397ad
@bf8a bdae164f
@bf8b 3da34eb4
@bf8c bbd568df
@bf8d bd6c3a8a
@bf8e bccd728b
@bf8f bda97472
@bf90 3db29b61
@bf91 3cd13cc0
@bf92 3ca83ac5
@bf93 3db4af40
@bf94 3cc22d4f
@bf95 3dd3ade6
@bf96 3da95049
@bf97 bd6de5ba
@bf98 3b3c6108
@bf99 bd568801
@bf9a 3d99dddf
@bf9b 3d8d60f6
@bf9c bd28e9b1
@bf9d bd684a26
@bf9e 3d5f764e
@bf9f 3d5faa6f
@bfa0 3d9a935e
@bfa1 bdafb84f
@bfa2 bd3ec1b0
@bfa3 bd8243ae
@bfa4 bdd16196
@bfa5 bd777d97
@bfa6 3d22210f
@bfa7 bdbdb403
@bfa8 bc901400
@bfa9 bd32abfe
@bfaa 3cbdb31b
@bfab bc021464
@bfac 3dc04344
@bfad 3da3e762
@bfae 3d4187ce
@bfaf bc45aab3
@bfb0 3c72bc4e
@bfb1 3d5b98e7
@bfb2 bd0b65ab
@bfb3 bae2b62e
@bfb4 3ce5398a
@bfb5 bca1d67a
@bfb6 3d32564f
@bfb7 3d952c7c
@bfb8 3d75e956
@bfb9 3c971891
@bfba bc103a10
@bfbb bd988bba
@bfbc 3d3f26d2
@bfbd bdcd3df8
@bfbe bcaacd21
@bfbf 3acbef1c
@bfc0 bcc750f5
@bfc1 bd785bc5
@bfc2 bdb8e9aa
@bfc3 bcc2fc3c
@bfc4 3da4f1f6
@bfc5 3c8bc2b8
@bfc6 3c98855c
@bfc7 3d92a7de
@bfc8 bd65bdc7
@bfc9 bb2717b5
@bfca bcaa4e6c
@bfcb 3d433f24
@bfcc 3d2cc053
@bfcd bdba946d
@bfce bc30fa47
@bfcf 3b3cc8de
@bfd0 3b520469
@bfd1 3d4a6f93
@bfd2 bdaa6a46
@bfd3 bdb4dbd7
@bfd4 3d7b7ac1
@bfd5 bd14497b
@bfd6 3ab9a930
@bfd7 bd400469
@bfd8 bbd3030a
@bfd9 3b89d3b5
@bfda bd8d8a33
@bfdb 3d5e8147
@bfdc 3d7c6817
@bfdd bce1d532
@bfde 3d390986
@bfdf bd84a10b
@bfe0 bdad7780
@bfe1 3d9a83da
@bfe2 3cc9fcd6
@bfe3 bd797943
@bfe4 bcaa44cf
@bfe5 bd29b465
@bfe6 3c79bade
@bfe7 bc0b6a01
@bfe8 3d2cb02a
@bfe9 3d199d39
@bfea 3da145fc
@bfeb bdb04b1a
@bfec bd8cc36a
@bfed bda9e8f1
@bfee 3cf8575d
@bfef bd4516b3
@bff0 bd949373
@bff1 bdbc79e8
@bff2 bddb4633
@bff3 3d5946a2
@bff4 3d6d3d94
@bff5 3d11905a
@bff6 3d622574
@bff7 3c9e0d0d
@bff8 3cfdea01
@bff9 3db30f2c
@bffa 3d1a4d07
@bffb 3d9b66cd
@bffc 3d2e130b
@bffd bc8937fa
@bffe bd849138
@bfff 3d83b24a
@c000 3dd42a3c
@c001 3d23b8de
@c002 bd809dbb
@c003 3d7b33c1
@c004 bd912f9d
@c005 3cd179b7
@c006 3ceaf610
@c007 3bd14129
@c008 3d5f4932
@c009 bc177cc4
@c00a 3d4bbd51
@c00b bd2918dd
@c00c 3d4d8037
@c00d 3d8a9e73
@c00e 3dc9a8b4
@c00f bce4a72e
@c010 bcfe16b2
@c011 baad9094
@c012 bc7efb87
@c013 bce6c686
@c014 bd9abc65
@c015 bd0fcf02
@c016 3cd2a2f4
@c017 bdd297fc
@c018 bda088d4
@c019 3d428e10
@c01a 3d3e2fd1
@c01b 3c374b19
@c01c 3d8da60b
@c01d bd11ef98
@c01e bd1445ca
@c01f bc5d3fe2
@c020 3db4c486
@c021 bdbe169a
@c022 3da0a264
@c023 3d1bdc96
@c024 bd28b47e
@c025 3ce9ba54
@c026 3d1818fe
@c027 bcf5a010
@c028 3dd38d0b
@c029 bd05cf80
@c02a bd770bca
@c02b 3b6860c9
@c02c 3dc7bd03
@c02d bd3a2b35
@c02e bd908193
@c02f 3dbb5840
@c030 3c393814
@c031 bd0a0bb3
@c032 bcaea598
@c033 bb01de3b
@c034 bdbdc04b
@c035 bda10e47
@c036 bd81882f
@c037 bdacd9b0
@c038 bd463653
@c039 3d742a6e
@c03a bc5dc002
@c03b bda44f98
@c03c bd9ccc2a
@c03d 3db41ed4
@c03e bd027072
@c03f bbba3820
@c040 3d89f6ba
@c041 3d4c7343
@c042 bd03fa42
@c043 bd126611
@c044 3d83246e
@c045 bdaeeb64
@c046 bd6e6a68
@c047 bbd31810
@c048 bd7bfd01
@c049 3d7ca76a
@c04a 3d8fa0b4
@c04b 3cd0ea10
@c04c 3d4fced4
@c04d bd4c7cdd
@c04e bd7356c8
@c04f bd77e2d8
@c050 3d546f42
@c051 bd8a515a
@c052 bd263e71
@c053 bb534530
@c054 bdc5ad39
@c055 3b441ef9
@c056 3c47a49b
@c057 bbdb890a
@c058 bd160af8
@c059 bc94905e
@c05a 3d91dd8c
@c05b bd879f51
@c05c 3d2b0a3e
@c05d 3d9def30
@c05e bcac9ba8
@c05f bd04a835
@c060 bd90f8b7
@c061 3db259c0
@c062 3d4acfae
@c063 3cafe202
@c064 bdbed01a
@c065 3d822e62
@c066 bd96d1da
@c067 3d70bdc8
@c068 3db4d4ea
@c069 bd88fbbe
@c06a 3c722dcd
@c06b 3d83563b
@c06c 3cab4f15
@c06d bda01c24
@c06e 3d590b84
@c06f 3d24b280
@c070 3d3ebf2f
@c071 bd49ec67
@c072 bd863dd1
@c073 3d5e7769
@c074 bd910eaf
@c075 3d4e0e7a
@c076 bd9bb142
@c077 3ce5a2b2
@c078 3d556ecf
@c079 baee0cdd
@c07a bdad6f57
@c07b 3d0a2a6d
@c07c bdaea098
@c07d 3cf74abd
@c07e bdad2631
@c07f 3d87a613
@c080 3b97ffd9
@c081 bcc35890
@c082 3d09a8b1
@c083 bd8d15e6
@c084 bcd79491
@c085 3b2db08e
@c086 3d835d6b
@c087 3d0224c3
@c088 bd2ac18d
@c089 bd521988
@c08a bd74ed36
@c08b bd916063
@c08c 3d4b80c2
@c08d bdb74a92
@c08e bcd1d607
@c08f 3d491f37
@c090 3cb13d52
@c091 babf7041
@c092 3da1f4f5
@c093 3d63b4f5
@c094 bbc2ea49
@c095 bc352596
@c096 bda7a9f8
@c097 bd975f41
@c098 3d2c18d7
@c099 bd147a30
@c09a 3d750015
@c09b 3ce18d61
@c09c bd2c2aea
@c09d 3d21535d
@c09e bc6da791
@c09f bc35907c
@c0a0 bd664b33
@c0a1 3ca23892
@c0a2 bce11409
@c0a3 bd84db45
@c0a4 bc83cda1
@c0a5 bdbe4771
@c0a6 3d81ccf8
@c0a7 bda463fa
@c0a8 3d3323c3
@c0a9 3d6c521b
@c0aa bd8c8503
@c0ab 3dd0dced
@c0ac 3c9025ec
@c0ad bd9add9c
@c0ae 3dc7472c
@c0af 3db84bb9
@c0b0 3dc0fc27
@c0b1 3be5813a
@c0b2 3bd64da6
@c0b3 3cd2927e
@c0b4 3d470d2d
@c0b5 bd8bf9d0
@c0b6 bd16415f
@c0b7 bd597919
@c0b8 bc6cc801
@c0b9 bd9287d9
@c0ba bdba3bd7
@c0bb 3dad2ad4
@c0bc 3d8f7462
@c0bd bd34055c
@c0be bd57ea16
@c0bf bd3d7573
@c0c0 bcc6577b
@c0c1 3d58f9f2
@c0c2 bc99de39
@c0c3 3c943fb9
@c0c4 bbf4ab3b
@c0c5 3d38fb8c
@c0c6 bdafe2cd
@c0c7 bda7ffe1
@c0c8 39f1e89d
@c0c9 3bcad863
@c0ca bd46e610
@c0cb 3d06aece
@c0cc 3d508796
@c0cd bd686bf8
@c0ce bd970b44
@c0cf 3d95e2bc
@c0d0 3ccd07aa
@c0d1 3d8d1163
@c0d2 bd704c63
@c0d3 bca5feed
@c0d4 3d0d375f
@c0d5 bd2f864a
@c0d6 3db9a5bf
@c0d7 bd3fe071
@c0d8 bd82ca4e
@c0d9 bd983d17
@c0da 3d906906
@c0db 3de5c1dc
@c0dc bd3a0364
@c0dd bd271aad
@c0de bc418b33
@c0df 3c80a13d
@c0e0 bd97ba5b
@c0e1 3cda4611
@c0e2 bcf0dcd0
@c0e3 3c951ea6
@c0e4 39054d46
@c0e5 bd95072b
@c0e6 3d0abf11
@c0e7 3cdb917c
@c0e8 bd8a2019
@c0e9 3d2cf381
@c0ea bd5b26b7
@c0eb 3d534a0b
@c0ec 3d116dce
@c0ed 3d886ac7
@c0ee bd9d6b49
@c0ef 3d4b2425
@c0f0 bcee95dc
@c0f1 bd33d47b
@c0f2 ba9a2f7e
@c0f3 3cc50bb0
@c0f4 3dc0e17a
@c0f5 3922c4d7
@c0f6 3d436920
@c0f7 3dd3ceb9
@c0f8 3cf091f9
@c0f9 bd938d0f
@c0fa 3d97a6c2
@c0fb 3d41bccf
@c0fc 3d79eb50
@c0fd bc93ce0e
@c0fe 3e0541d1
@c0ff bd294942
@c100 bdb7e241
@c101 bc6ccd10
@c102 3d1005f5
@c103 bc1435d1
@c104 bd32d04b
@c105 bd530f50
@c106 bd68c27d
@c107 bcd4377a
@c108 bc0c4004
@c109 bd8cf3c6
@c10a 3d9cc69c
@c10b bd4ef576
@c10c bdb1e46c
@c10d bda29ded
@c10e bda367ca
@c10f bcf9b532
@c110 bbea9ae2
@c111 3cf04948
@c112 3d0d41d6
@c113 3cc8a67b
@c114 bd2acc9c
@c115 bd03df85
@c116 bb0f0c34
@c117 3dbd770f
@c118 bd4d32a7
@c119 3da3e09b
@c11a bdb4ee27
@c11b bcd610a7
@c11c bd542d99
@c11d 3c2ccfdc
@c11e 3d8f17e8
@c11f 3c9d8706
@c120 3d3bb2c9
@c121 bcad6247
@c122 bd98b0f8
@c123 3d724bad
@c124 bcbe9110
@c125 3cd5cc9f
@c126 bd922268
@c127 bd95ffdc
@c128 bda67ea5
@c129 3d3db07b
@c12a bd8342d5
@c12b bc719f3c
@c12c 3d8abd43
@c12d bb727cf2
@c12e 3d0e5206
@c12f 3d854bb4
@c130 bd2abdc5
@c131 bd24d5ed
@c132 3d99c6fb
@c133 bd65b5f3
@c134 bbe69c59
@c135 bd0b4cb6
@c136 3c46e2a2
@c137 bd791a86
@c138 3dbae94f
@c139 bd0cc629
@c13a bd7d602d
@c13b bd6e06c4
@c13c bbf304c6
@c13d 3d608fb7
@c13e bb07fa5e
@c13f bc79c409
@c140 3c5cbd43
@c141 3daa4026
@c142 3d7567c2
@c143 bd9f9c95
@c144 bd85a9fa
@c145 bd82f15b
@c146 3d503707
@c147 3d2a4376
@c148 bd0d377a
@c149 3d96a240
@c14a 3d0e901c
@c14b bc91f80e
@c14c 3d4e6f82
@c14d 3d10337e
@c14e bd71a675
@c14f 3d37f994
@c150 3c91536d
@c151 3d24549c
@c152 bc92fce9
@c153 bdac77f7
@c154 bbfd67cf
@c155 ba962451
@c156 3d379a84
@c157 bd1d640f
@c158 bd83b20a
@c159 bd3027e5
@c15a 3d049ba6
@c15b bd3772bb
@c15c bda78603
@c15d 3d282d7e
@c15e bd9ccd6e
@c15f 3d613631
@c160 bbe4aaa8
@c161 bd856460
@c162 3cdc1455
@c163 bc0b4883
@c164 3d702255
@c165 bd9743e6
@c166 bd86348e
@c167 bd6f0ce8
@c168 3da91451
@c169 3be45af4
@c16a 3b334dfb
@c16b bc56b7cf
@c16c 3ce64b46
@c16d bcb76dab
@c16e 3d59f439
@c16f 3b85cf90
@c170 bcd698b4
@c171 3b9ded62
@c172 bd7a030f
@c173 3dc10b7e
@c174 3bf73e6f
@c175 bcbbee98
@c176 3d22f455
@c177 3bbedd82
@c178 bc7f2825
@c179 3d504914
@c17a 3ce08463
@c17b bd422971
@c17c 3dae242c
@c17d 3db208ff
@c17e 3d9e7339
@c17f bcb13d72
@c180 3d5e105f
@c181 bd98cac7
@c182 3d0d1037
@c183 3d7a3e57
@c184 3ca980c3
@c185 bd7b4f3d
@c186 bc9e6bb8
@c187 b9b4669f
@c188 bd6b55db
@c189 3c2e2dcf
@c18a 3d3fcd5c
@c18b bd43e838
@c18c bd9d6704
@c18d bd906d7c
@c18e 3d370ffe
@c18f bd53bf53
@c190 3d9d8214
@c191 bdc945a4
@c192 3d852e1b
@c193 bd8e48ae
@c194 bc9263ff
@c195 3d321e5d
@c196 bda67fe9
@c197 bb09b98a
@c198 bcd8aefb
@c199 3db28ac5
@c19a bda81de6
@c19b 3d0de246
@c19c 3c0ac3ed
@c19d bd2a0793
@c19e 3d84856d
@c19f 3b4e09de
@c1a0 bd7fb3f9
@c1a1 bd5c1ae8
@c1a2 bd2e4e46
@c1a3 3d2dfdb7
@c1a4 3c69327c
@c1a5 3d7c7b40
@c1a6 3c1866c8
@c1a7 3d6a2b74
@c1a8 bd6ea4de
@c1a9 bd825a06
@c1aa 3d43388d
@c1ab 3d3b8ffb
@c1ac 3da18be1
@c1ad bab24fb6
@c1ae 3d835ef7
@c1af bd5e6cff
@c1b0 bb864a6c
@c1b1 3d171a18
@c1b2 bb7dc548
@c1b3 bdab6ad5
@c1b4 3d4358c4
@c1b5 3da96d79
@c1b6 3be37adf
@c1b7 bd8f680f
@c1b8 3d00681f
@c1b9 3d4ec808
@c1ba 3cce8af6
@c1bb 3d9af6d7
@c1bc bd9c8e2d
@c1bd bc0e11b9
@c1be bd1918e1
@c1bf 3cfd02b0
@c1c0 3c7de7b2
@c1c1 bd53b827
@c1c2 3d8ef4c8
@c1c3 bcf916db
@c1c4 3c74a2ab
@c1c5 3cfb70af
@c1c6 3d9b5167
@c1c7 bd52fe89
@c1c8 bdbf4f83
@c1c9 bca9869e
@c1ca bc3add85
@c1cb bdb0fdd3
@c1cc bceeda0a
@c1cd 3d7dc6f0
@c1ce bc0b6c1b
@c1cf bdaf6115
@c1d0 3db7ac36
@c1d1 bd1f9f98
@c1d2 3be4baaf
@c1d3 bdb42b26
@c1d4 bdb64d6d
@c1d5 bd5ddd74
@c1d6 bd7dd16d
@c1d7 3dafdc98
@c1d8 bd9f5496
@c1d9 3c92c90f
@c1da bd336fa6
@c1db bcf60f8f
@c1dc bc92be99
@c1dd 3d282d94
@c1de bd2fea3d
@c1df bd664090
@c1e0 bd22113f
@c1e1 bd1b0674
@c1e2 3cc061d5
@c1e3 bbde5f81
@c1e4 3dad460b
@c1e5 bcc10ac3
@c1e6 3b5cbe1f
@c1e7 3db0ad82
@c1e8 bd58a685
@c1e9 3d27c089
@c1ea 3da80cd8
@c1eb bd91e8bc
@c1ec bd3285d9
@c1ed 3d754082
@c1ee 3d544ac2
@c1ef 3c471400
@c1f0 bb9fb9ab
@c1f1 3d2ed42b
@c1f2 bd72255d
@c1f3 3da3fda1
@c1f4 3da21129
@c1f5 bd3e63eb
@c1f6 bda0046c
@c1f7 3b8eff9b
@c1f8 bd1a53ed
@c1f9 3dafbf07
@c1fa bd36521b
@c1fb bccbb862
@c1fc 3d563d9f
@c1fd 3d817755
@c1fe 3d82d70d
@c1ff bd01b79f
@c200 bc80be0b
@c201 3da0eab0
@c202 bd69c943
@c203 bd277568
@c204 3d29cf2f
@c205 bcba96cf
@c206 bdaca98a
@c207 3db0d54f
@c208 bdae0de6
@c209 bb947b5c
@c20a bd9f7149
@c20b 3d3e2076
@c20c bd12f615
@c20d 3b9e1c89
@c20e 3d318ef2
@c20f 3c2f1030
@c210 bd95af34
@c211 bd5c0759
@c212 3c3706d7
@c213 bdc2ece5
@c214 3ddba158
@c215 bb801eaa
@c216 3de7e836
@c217 bc91d9b1
@c218 3d5850ed
@c219 bda89419
@c21a bd2e3172
@c21b 3d8ba29e
@c21c bda52be7
@c21d bd8153d8
@c21e bdba1d2d
@c21f 3d36a600
@c220 3d07706c
@c221 3c7d2f04
@c222 3cdbec47
@c223 bd492a11
@c224 3d7b9c0f
@c225 3dc595f0
@c226 3d80e900
@c227 3db764f3
@c228 3dc1f218
@c229 3d577eda
@c22a bd8953bc
@c22b bc19cdfe
@c22c 3d9b2789
@c22d bd939346
@c22e 3c1ee9f4
@c22f 3d0e7bda
@c230 bdc64f01
@c231 3dd07182
@c232 3d802e1f
@c233 3cdc514a
@c234 bdb4690e
@c235 3be2465c
@c236 bc1e5943
@c237 bd8d830d
@c238 3d844729
@c239 bcf3bfb7
@c23a bd9cf9ca
@c23b 3c83d4ed
@c23c bbbd708d
@c23d bd7713b4
@c23e 3d4c56ce
@c23f bdefcd69
@c240 3d5f1d97
@c241 bd0c7639
@c242 3ca37e31
@c243 bd86f937
@c244 bda67b43
@c245 bda2a0ce
@c246 bdebf11e
@c247 3d098c5f
@c248 3dbb4e3d
@c249 bd42586a
@c24a 3cd2c5f6
@c24b 3d0d961e
@c24c bd719603
@c24d 3d3f765e
@c24e 3dc44f8b
@c24f baef811d
@c250 bb78e89f
@c251 bd4059b4
@c252 bd3d95ed
@c253 bc26ee27
@c254 3defd55a
@c255 3d781817
@c256 bd1d0a7b
@c257 bbfeef01
@c258 bd160357
@c259 bd590a67
@c25a 3d820e1c
@c25b 3dacbe18
@c25c 3be3bfdd
@c25d bcdb2f06
@c25e bdb10810
@c25f bd6642ab
@c260 bdaa537a
@c261 3da628d9
@c262 3de6c836
@c263 bd5c88f8
@c264 3d0f9d57
@c265 bda54004
@c266 bd92caf5
@c267 bda73fae
@c268 bc52e622
@c269 399df532
@c26a 3dafd58a
@c26b bc00eb73
@c26c bc247b69
@c26d bd6738ee
@c26e bb580f75
@c26f bccf8703
@c270 bd0cbd64
@c271 3d884f35
@c272 3d54fc65
@c273 3c311441
@c274 bbf415b0
@c275 bb8d4fda
@c276 bd849653
@c277 bd25148d
@c278 bc8a6123
@c279 3d38bd93
@c27a bcc6c2ad
@c27b bc613b77
@c27c 3e1471e4
@c27d 3d4b9d4d
@c27e 3d0b3a2c
@c27f 3d3b30b4
@c280 3d68d238
@c281 3d81a038
@c282 bd1a2faa
@c283 3d9e4a6c
@c284 3dda1834
@c285 bde1df22
@c286 3d110078
@c287 3d865f8b
@c288 bd181bb0
@c289 3d388a40
@c28a bc01bd9c
@c28b 3da8289e
@c28c 3d6aa3d0
@c28d bcfc69ca
@c28e 3de0abfb
@c28f bb401a7a
@c290 bd974094
@c291 3cf3e36f
@c292 3d64994c
@c293 bc8f03be
@c294 bb084ff2
@c295 bd915fde
@c296 3d32db07
@c297 ba1ff980
@c298 bd5c5837
@c299 3db64eca
@c29a bd8622f3
@c29b bdccd588
@c29c 3dd6ea1a
@c29d bcb5a768
@c29e bc680169
@c29f 3c84855c
@c2a0 bd340f46
@c2a1 3db900a7
@c2a2 bbe68cad
@c2a3 bc6da59a
@c2a4 bcd81f63
@c2a5 3b95bf65
@c2a6 3d9f43a9
@c2a7 bd4cd4ac
@c2a8 bc35947f
@c2a9 bc53bc11
@c2aa 3cc00990
@c2ab bd67d255
@c2ac 3d27b6b6
@c2ad bd30f609
@c2ae 3c855ae7
@c2af 3ae3f7bc
@c2b0 bbfefb60
@c2b1 3d94ee9c
@c2b2 bd4f6c20
@c2b3 bd4e24fc
@c2b4 bcc69f30
@c2b5 3c235705
@c2b6 bd667245
@c2b7 bda17f55
@c2b8 3b8937a1
@c2b9 bd666f98
@c2ba 3d1de330
@c2bb bcdfd163
@c2bc bd489fa3
@c2bd bce3cf97
@c2be 3d88bd67
@c2bf 3c44b6e6
@c2c0 bd923f68
@c2c1 3d2be6a0
@c2c2 b9afbcb6
@c2c3 3db1688f
@c2c4 3da2c0a4
@c2c5 bc6990c0
@c2c6 bd8a9324
@c2c7 3d0fefa1
@c2c8 bd9ec050
@c2c9 bca610f5
@c2ca 3d0ca0db
@c2cb 3ab51f80
@c2cc 3db97952
@c2cd 3ce49702
@c2ce 3caa2f28
@c2cf bbda3c66
@c2d0 bd9c60e0
@c2d1 3d7cb6be
@c2d2 3ccffa54
@c2d3 3d3c8ec1
@c2d4 bc45703e
@c2d5 bd4242ef
@c2d6 3d946509
@c2d7 bd8aae80
@c2d8 3c647be4
@c2d9 bd7294bd
@c2da bced65db
@c2db 3b6b6a2f
@c2dc bd8bb1ad
@c2dd 3dc4715d
@c2de bd830214
@c2df 3c66d95a
@c2e0 bd5e669f
@c2e1 bcaaa4de
@c2e2 3d16d306
@c2e3 bd7a897d
@c2e4 bdb8c250
@c2e5 bca7e756
@c2e6 bdb6247e
@c2e7 3c108f0d
@c2e8 bb85dd9b
@c2e9 bd896110
@c2ea 3b281dc8
@c2eb bd2304fd
@c2ec 3ca4512f
@c2ed 3d1135fe
@c2ee 3c1e8e79
@c2ef 3d82f4a6
@c2f0 bcb95add
@c2f1 bcf31522
@c2f2 3cce024a
@c2f3 3c6e2821
@c2f4 3c16c6b7
@c2f5 bcc36243
@c2f6 bc4535fd
@c2f7 bd3ec1b4
@c2f8 3d0dd8c0
@c2f9 bd8db477
@c2fa 3dcafc0a
@c2fb bb83cdc3
@c2fc 3d9083de
@c2fd bd8ee073
@c2fe 3d647895
@c2ff bd52fd34
@c300 bd7b4ecf
@c301 3dbb1359
@c302 3da16745
@c303 bda006b0
@c304 3d01b1b0
@c305 3d0fedbe
@c306 3dc9df21
@c307 3d38171b
@c308 bd7684b6
@c309 bd83f428
@c30a 3d9219e2
@c30b 3d1c99f4
@c30c bc4f6f07
@c30d 3c79fb09
@c30e 3d614bac
@c30f bc3ac9a0
@c310 bd93f93d
@c311 bd95ae33
@c312 3d828aa9
@c313 bd83bf33
@c314 3bbc0096
@c315 3d9855a3
@c316 bd8c351d
@c317 3d93a22e
@c318 bd61af13
@c319 b988f028
@c31a bd980d36
@c31b 3d85c3c9
@c31c bb47ffcb
@c31d 3c9159b6
@c31e 3d19dbc4
@c31f bd868d0a
@c320 3d17fcbb
@c321 bd9dfc7c
@c322 3c58b443
@c323 bcdfed07
@c324 bdd06890
@c325 3d0bddde
@c326 3d3e25cc
@c327 bd15bd30
@c328 bd35af8d
@c329 3d434054
@c32a 3d1010d9
@c32b 3a58020e
@c32c bd861efd
@c32d bca16267
@c32e bd893a83
@c32f bb945f6b
@c330 bca9d13f
@c331 bce078c6
@c332 3d4bee76
@c333 3c91c2db
@c334 3d25ddb9
@c335 bc53123e
@c336 bca9bb3a
@c337 3d2197b4
@c338 3cf9b58a
@c339 3da7a477
@c33a 3d6300c4
@c33b 3ce0d2b7
@c33c 3d9acf07
@c33d 3c1ca36d
@c33e 3d1bea25
@c33f bd2e324c
@c340 bc3a905f
@c341 bdd3596e
@c342 bc704c0f
@c343 bdd969f6
@c344 3d706029
@c345 bd1a6df9
@c346 bb0f4f60
@c347 3d9fa593
@c348 3d4a5152
@c349 bcdb35a7
@c34a 3d6d967a
@c34b bd3caa69
@c34c bd6b9896
@c34d 3d47337f
@c34e 3d976251
@c34f be0a92e7
@c350 3dac83c1
@c351 bd3aa48f
@c352 3d6c3330
@c353 3dae7e89
@c354 bc89ef8a
@c355 3da3dc39
@c356 3da1ed30
@c357 3c5ff401
@c358 bbd0e6f5
@c359 3d392c7f
@c35a 3db6dc00
@c35b 3d86d026
@c35c bd402808
@c35d bd5a6b9e
@c35e bdacea51
@c35f bd0a37c8
@c360 bd665cd0
@c361 bd0f741b
@c362 bd7c7597
@c363 3d821750
@c364 3cd79e41
@c365 3dbffa37
@c366 bd80cded
@c367 3d6c8739
@c368 3d2dcc47
@c369 3beb0263
@c36a bd9079eb
@c36b bd8ad2d1
@c36c bd1ca8c9
@c36d 3c2287df
@c36e 3d943aa1
@c36f 3d999308
@c370 3c27f384
@c371 bd52d0b8
@c372 3db36e2c
@c373 bda01073
@c374 bc247c71
@c375 bd1cc98c
@c376 3bf4693d
@c377 3d2a763d
@c378 3bed312a
@c379 3ce4e512
@c37a bdaed8f7
@c37b bdaa5b1b
@c37c 3d1c6b71
@c37d bdb9dabc
@c37e 3d9b0de3
@c37f 3ca14424
@c380 bc81ebbd
@c381 bd30f0c6
@c382 3d185f45
@c383 3db871b7
@c384 bdb145dc
@c385 3da267f1
@c386 bc7298d3
@c387 3d6c3b7c
@c388 3db9b2c7
@c389 3daef7f0
@c38a 3c2e46c7
@c38b bd0d7523
@c38c 3d394d80
@c38d bc9e6a33
@c38e 3d34c34c
@c38f bc845098
@c390 3dad852f
@c391 3cce1622
@c392 bc52d4e4
@c393 3c17e3ca
@c394 3d6d8c73
@c395 bd129f0c
@c396 3d0117ce
@c397 3c8b8a59
@c398 3d02a9e9
@c399 bd686670
@c39a 3db460ab
@c39b 3d96896d
@c39c bd95d974
@c39d bd66a767
@c39e bd962f96
@c39f 3d9dfea0
@c3a0 3d653a5f
@c3a1 3d8aee80
@c3a2 bdb72b88
@c3a3 3d943b95
@c3a4 3d7acf3c
@c3a5 bd35882f
@c3a6 3da2cc71
@c3a7 bd972c68
@c3a8 bd893ad5
@c3a9 3d78afc8
@c3aa bdaa363c
@c3ab bbc94856
@c3ac bcce642a
@c3ad bd724e40
@c3ae 3d7d020b
@c3af bdb498e0
@c3b0 bd0fa550
@c3b1 bd849d34
@c3b2 3d318c86
@c3b3 bd1080e1
@c3b4 bbb2e706
@c3b5 bdadaacf
@c3b6 3c89c766
@c3b7 bca1b7e0
@c3b8 3d027cc4
@c3b9 3d942928
@c3ba bd21252f
@c3bb bcc5b27e
@c3bc bcf692cc
@c3bd bcf65126
@c3be bc84c788
@c3bf bc89e530
@c3c0 bd9ca595
@c3c1 3d09be2e
@c3c2 3d4fec37
@c3c3 3d70d310
@c3c4 3d2a34ca
@c3c5 bd554721
@c3c6 3cb895f6
@c3c7 bd523719
@c3c8 bd4ee1e4
@c3c9 3cfd833a
@c3ca bc99617c
@c3cb 3d93fcd1
@c3cc 3d530d1c
@c3cd 3d9ff3a2
@c3ce 3d07ef82
@c3cf bd54f3db
@c3d0 3bce95af
@c3d1 bd6f2fbb
@c3d2 bda5c174
@c3d3 bb530e01
@c3d4 3d9c697c
@c3d5 3d067f08
@c3d6 3d83aa1a
@c3d7 bcdaeb8f
@c3d8 bd557424
@c3d9 bc6934da
@c3da bd7b622f
@c3db bd789825
@c3dc bd6e0613
@c3dd 3d0d5d30
@c3de bcfb9959
@c3df 3d90faca
@c3e0 3d8f5db5
@c3e1 bda44048
@c3e2 3d6a7f6f
@c3e3 b96a5dd6
@c3e4 3d53595a
@c3e5 3c8ed969
@c3e6 3d6bb789
@c3e7 3d837a9a
@c3e8 3cbede51
@c3e9 bda6a4d0
@c3ea bd9c2abf
@c3eb bd488a4f
@c3ec 3da95221
@c3ed bd8a8fd7
@c3ee bda99071
@c3ef bca60ccb
@c3f0 3d7b8167
@c3f1 3cf7e0aa
@c3f2 3cc3af03
@c3f3 3d2c63e3
@c3f4 bd892736
@c3f5 3cf1c2e9
@c3f6 39a8065f
@c3f7 3d5862eb
@c3f8 bd82bc37
@c3f9 3d8f570f
@c3fa 3d0a9d87
@c3fb 3d026a8f
@c3fc 3d895480
@c3fd bc637ebb
@c3fe bd03b4f2
@c3ff bc247b50
@c400 3bb7195c
@c401 3b8fc5f1
@c402 3dd68f55
@c403 bdd2151f
@c404 3d75c5be
@c405 bdb95e47
@c406 bccc04e5
@c407 3cd2df14
@c408 ba033804
@c409 bd871249
@c40a bc09fea7
@c40b 3da0d8df
@c40c 3d32d468
@c40d bd6dc94f
@c40e 3ca0f0d1
@c40f bbea96f7
@c410 3cf90139
@c411 3cb1b27f
@c412 3d711af7
@c413 bda096ec
@c414 bd49505f
@c415 bcfd3c8a
@c416 bce8c472
@c417 3d6d5d4d
@c418 bb97e49e
@c419 3d0a68fa
@c41a 3d2173da
@c41b 3d0aedb5
@c41c 3cce0be7
@c41d bd3437e4
@c41e ba37ba73
@c41f 3d0f52ce
@c420 bae4a4b8
@c421 bd49f77b
@c422 bccaf904
@c423 3da8c76d
@c424 3cb02b4e
@c425 bd638af4
@c426 3dc33dd6
@c427 bdd71423
@c428 bcbb4ea2
@c429 3da41874
@c42a 3d7619a1
@c42b bd19086d
@c42c 3db98596
@c42d bbc6546f
@c42e 3b0cb50e
@c42f bdc28bc3
@c430 3d91bd35
@c431 3dc30386
@c432 bdae7179
@c433 bd2d1874
@c434 3d4d1da0
@c435 bd01e715
@c436 3c479488
@c437 bdbcf2fd
@c438 bd1f4478
@c439 bcb96c5c
@c43a 3d99372e
@c43b 3c67b534
@c43c bd5eec8b
@c43d 3d5b69f2
@c43e bd0d8332
@c43f 3abb403f
@c440 3c806254
@c441 bd90897b
@c442 bd524bbf
@c443 bcc8591b
@c444 3d07f135
@c445 bd9ad808
@c446 3d28e4a9
@c447 bd96cff5
@c448 3da1e2d5
@c449 3cf4fe33
@c44a 3d8c7a8e
@c44b 3ce92f8a
@c44c bd685dea
@c44d 3d356b5d
@c44e 3d8906e4
@c44f 3d505bbe
@c450 bcd2d135
@c451 3c8f327f
@c452 bd06eeaf
@c453 3dc2e879
@c454 bd192c7d
@c455 bd6eaf9c
@c456 bd84b0e3
@c457 bd4c9756
@c458 bda88a0c
@c459 bdd91f97
@c45a bd941794
@c45b bdaf7b79
@c45c 3ce07832
@c45d bbc17b72
@c45e bc887977
@c45f 3d64dbd8
@c460 3bd49f1d
@c461 3d4eacbc
@c462 3de210d4
@c463 bd08a816
@c464 bce8b796
@c465 bdbbc7d3
@c466 3d6db529
@c467 3dbeba20
@c468 bd0ee668
@c469 3d586b53
@c46a 3db1baf6
@c46b bd39e40b
@c46c bcd2e83c
@c46d 3db59b2b
@c46e bb89e891
@c46f bca4d171
@c470 3c9ebe7c
@c471 3db3f086
@c472 3bc00264
@c473 bd380fbc
@c474 bd1249bc
@c475 3c45320b
@c476 3b1100f6
@c477 bd4e506e
@c478 3d825b59
@c479 bd1ce573
@c47a bd830e19
@c47b bd10fcb2
@c47c 3d3e1338
@c47d 3dbadf0a
@c47e bc48ce89
@c47f bca0dc3b
@c480 bdb507d1
@c481 bd417dd9
@c482 bd1a1fc4
@c483 3c190272
@c484 bda7eb84
@c485 bdb2cf8a
@c486 bd7f7bd9
@c487 bcf9d4b5
@c488 3da2893e
@c489 bcfacfca
@c48a bdad1c72
@c48b 3c2a9b33
@c48c bd874488
@c48d 3cfea624
@c48e bd5c587c
@c48f 3cd9d611
@c490 bc6092aa
@c491 3b814fab
@c492 3cd47bdc
@c493 3cde90ca
@c494 3db8bd88
@c495 bd3eba1a
@c496 bcf1d1b0
@c497 3d537333
@c498 bd921a58
@c499 bc82911d
@c49a 3b41eff8
@c49b 3bdaba86
@c49c 3d7793e3
@c49d 3ce51688
@c49e bdaba3f1
@c49f bc319f92
@c4a0 bdb8e7cc
@c4a1 3d39ff9f
@c4a2 3dac6ebf
@c4a3 bd6d4bc1
@c4a4 3cefedd3
@c4a5 3cd82cd8
@c4a6 3d188ce6
@c4a7 3d49b4df
@c4a8 bc06cb4a
@c4a9 bc412306
@c4aa 3d211d0f
@c4ab bdb7f3e9
@c4ac bd4b0d3f
@c4ad bd91ad63
@c4ae 3d038dcc
@c4af 3c48987f
@c4b0 bcfc42d2
@c4b1 bd2048f9
@c4b2 3d925b5b
@c4b3 bd9a73e6
@c4b4 bd7c563e
@c4b5 3d033ead
@c4b6 bd963232
@c4b7 3ce44ef1
@c4b8 3ce5a7b7
@c4b9 bd5f9d27
@c4ba 3d22a649
@c4bb 3db40e2d
@c4bc 3c848a4c
@c4bd 3c60d197
@c4be 3be382ae
@c4bf bdadd2a3
@c4c0 bdafd97d
@c4c1 3d36df31
@c4c2 3d26ac29
@c4c3 bdb4d49e
@c4c4 bd7a0594
@c4c5 3d90b35f
@c4c6 bba94e78
@c4c7 bda1d2fe
@c4c8 3bd52290
@c4c9 3d266a00
@c4ca 3db5cdf5
@c4cb 3daccef8
@c4cc 3db294f6
@c4cd bd910ae3
@c4ce 3caa615b
@c4cf bdb6ce03
@c4d0 bdb140de
@c4d1 3c34c8bc
@c4d2 bcfaa293
@c4d3 3d901da2
@c4d4 bd1abfb2
@c4d5 bd27d1a9
@c4d6 3d2bf099
@c4d7 bc0d1f3c
@c4d8 3dae9ec6
@c4d9 3d8711ca
@c4da bd36cde4
@c4db 3c34a370
@c4dc 3d1156d5
@c4dd bdaa20fd
@c4de 3cacebf7
@c4df bc34a937
@c4e0 bcf4c019
@c4e1 3d060556
@c4e2 3d2aa1c4
@c4e3 3cb8cab6
@c4e4 bd137877
@c4e5 3d8a0d5b
@c4e6 bd11c2a3
@c4e7 bdb7b540
@c4e8 bdab3b26
@c4e9 3d16aaee
@c4ea bdae24dc
@c4eb bd16a564
@c4ec bda8b7bb
@c4ed 3cf1d4c7
@c4ee 3c857205
@c4ef 3d67b448
@c4f0 394f5859
@c4f1 3d6403a1
@c4f2 bc4da6a2
@c4f3 3c0ec619
@c4f4 bd64aa5e
@c4f5 3d420055
@c4f6 bd111e93
@c4f7 bd973609
@c4f8 3d818f33
@c4f9 bb2e2f4e
@c4fa 3c835854
@c4fb bc8a3905
@c4fc 3aa51f4e
@c4fd 3b86f1b6
@c4fe bcfcd617
@c4ff 3d4c1e6d
@c500 3d64b57b
@c501 bdbac833
@c502 3d9c1950
@c503 3d883047
@c504 3d911026
@c505 bc0d558a
@c506 3d973f8f
@c507 3c97c4e8
@c508 3be7e5c6
@c509 3c0def7f
@c50a 3da9edab
@c50b 3bafd253
@c50c bac9e2ac
@c50d bdb46e4e
@c50e 3d52c8b3
@c50f 3d678ac9
@c510 3d06ba7d
@c511 3d5510cf
@c512 bd91db4c
@c513 bd9b8682
@c514 3d7c9f9a
@c515 3cd1ff4a
@c516 3d27784d
@c517 3d672683
@c518 3d7892ef
@c519 bdb9e7c5
@c51a bdb00c07
@c51b 3daff444
@c51c 3b1fa741
@c51d bd71d96d
@c51e bdad7906
@c51f bd138ca5
@c520 3ce29b33
@c521 bc14d572
@c522 3d71109c
@c523 3d5e004d
@c524 bd07bf4f
@c525 3cfa81f0
@c526 bd85e504
@c527 3d9ee9f7
@c528 bdacad84
@c529 3c1e10fe
@c52a 3d125edd
@c52b bd96ca83
@c52c 39487938
@c52d 3cada9e2
@c52e 3d91867c
@c52f bd8728c3
@c530 3da4b6bb
@c531 bc604394
@c532 bda45671
@c533 3cb45011
@c534 3cd5aee9
@c535 3c837c93
@c536 bd6ef733
@c537 3caa8371
@c538 3c77dd11
@c539 bc2312ed
@c53a bc813631
@c53b bd05807b
@c53c bd0a7d8f
@c53d 3c943717
@c53e bd721913
@c53f bd6686f5
@c540 3d902755
@c541 bd74ecb1
@c542 bd4116a6
@c543 3dac109b
@c544 bcdc54dc
@c545 bd925414
@c546 bd868625
@c547 3d18ca16
@c548 3db2ea3e
@c549 bc83e381
@c54a bce9d031
@c54b bd1a2e5f
@c54c 3c31e0dc
@c54d bd2bd2ff
@c54e bda3e8a4
@c54f 3d740b64
@c550 3d70e42a
@c551 bd92c065
@c552 bc942853
@c553 3ca6f164
@c554 3d918f79
@c555 3d8f7a1c
@c556 bd9fc55b
@c557 bdbc6f98
@c558 3c46ffc4
@c559 bca9177a
@c55a bced8778
@c55b 3c2b7406
@c55c bc523b75
@c55d 3dd74b73
@c55e bd362734
@c55f 3d3f972f
@c560 3c05e3ec
@c561 3db885cb
@c562 3c833cd8
@c563 bcf0baa2
@c564 3c94a7d9
@c565 3db97414
@c566 3d343160
@c567 3d0a3d74
@c568 3ce49d6f
@c569 3d89a711
@c56a bd32f480
@c56b bca81d04
@c56c bd990104
@c56d bdd0c633
@c56e bad6e938
@c56f bd70a4ac
@c570 bd82c28c
@c571 3db00392
@c572 bd2163d9
@c573 3ce35015
@c574 3d8ed185
@c575 3d7256ca
@c576 bdb8b868
@c577 baf52df0
@c578 3dd7b860
@c579 bde21719
@c57a bd06234e
@c57b 3c3cbc84
@c57c bd8191c9
@c57d bc888230
@c57e 3d20bfa2
@c57f bd3537b8
@c580 bc8232e4
@c581 3d8791e2
@c582 3d7991fd
@c583 bd428c16
@c584 bcb91505
@c585 3c1dac1e
@c586 3d9aa9fc
@c587 3de455f1
@c588 bd883767
@c589 3d74189b
@c58a bd65295b
@c58b 3d88a3b4
@c58c 3d29ce37
@c58d bbfd4349
@c58e 3c37d47d
@c58f bcad0b26
@c590 bbd9194d
@c591 bcf922d8
@c592 3d7effa4
@c593 395d0394
@c594 bd7c80bb
@c595 3db0f392
@c596 3ca6e18a
@c597 bcd8a502
@c598 bdb01b7b
@c599 bc95309a
@c59a 3d9925ae
@c59b 3cbb050b
@c59c 3dad9875
@c59d bbf9428d
@c59e bd194784
@c59f 3c0f1701
@c5a0 3d99f905
@c5a1 bd80e1c6
@c5a2 bd403bec
@c5a3 bd8f7e29
@c5a4 bdbdceda
@c5a5 3d64356f
@c5a6 3d99d87b
@c5a7 3da3af16
@c5a8 bd9880b6
@c5a9 bdabd092
@c5aa bd75c330
@c5ab 3c811e84
@c5ac 3caddaf3
@c5ad bda1b72d
@c5ae 3d94c50e
@c5af 3cd0b584
@c5b0 bc9cd4b8
@c5b1 3d8d9c83
@c5b2 bce38a02
@c5b3 3ddeb01b
@c5b4 3d8eb402
@c5b5 3d6cc725
@c5b6 3d4a2cf7
@c5b7 3da55438
@c5b8 3da98928
@c5b9 3dab9ccb
@c5ba bcaae3d3
@c5bb bb2cadf3
@c5bc bd756fea
@c5bd 3da5d4cb
@c5be 3d0624a7
@c5bf 3dd6b932
@c5c0 3d2b7778
@c5c1 bc3bd612
@c5c2 3c006396
@c5c3 3c3fd3b0
@c5c4 bc9c0316
@c5c5 bd079581
@c5c6 3cdf11a9
@c5c7 3d5023d9
@c5c8 3c8abe3e
@c5c9 3d32a2b8
@c5ca 3dcb5ceb
@c5cb 3ca42e76
@c5cc bca8ee11
@c5cd bcb57660
@c5ce bde6dd59
@c5cf 3ddd0404
@c5d0 bd637833
@c5d1 3cd31d74
@c5d2 bdb0eec3
@c5d3 3db91ce0
@c5d4 3dee1cff
@c5d5 bd58773b
@c5d6 bd182717
@c5d7 bc7e3615
@c5d8 3d443900
@c5d9 bca77443
@c5da bd0fd640
@c5db bd91af7a
@c5dc 3afe0530
@c5dd bd319472
@c5de 3da5cc25
@c5df bd80cda6
@c5e0 3cece1eb
@c5e1 3d0fd4e9
@c5e2 bdd331e8
@c5e3 bd17a019
@c5e4 3b79cd7e
@c5e5 bd568835
@c5e6 3d96ba88
@c5e7 bbee7740
@c5e8 3da27e29
@c5e9 bda3b351
@c5ea 3d9b446a
@c5eb bda6cea6
@c5ec 3b31748e
@c5ed 3b9e3d19
@c5ee 3d9650e0
@c5ef bddefe24
@c5f0 3dad2a82
@c5f1 3dfcccf6
@c5f2 bb5e38f6
@c5f3 3daa5a5c
@c5f4 ba4b8b30
@c5f5 bde701fe
@c5f6 3c3e3f89
@c5f7 3d8f7de0
@c5f8 bcf41c03
@c5f9 3d8f08f8
@c5fa bd9b62e6
@c5fb bd8d21fd
@c5fc bd541ff8
@c5fd 3dc36264
@c5fe bd6221e1
@c5ff bd16d95e
@c600 bd57014c
@c601 3bb8ac0c
@c602 3d1d3f16
@c603 3d181eff
@c604 bda57707
@c605 3c0a2926
@c606 3d38859b
@c607 bdc13254
@c608 bd83a702
@c609 3d33d809
@c60a be187a93
@c60b 3d2f0bc2
@c60c 3de8cd2a
@c60d be03de4f
@c60e bd5f71d0
@c60f bd9b1b08
@c610 3da0001b
@c611 bca90f44
@c612 3ce0c1b1
@c613 bd0c0ea0
@c614 3d974042
@c615 3d9acfad
@c616 bc895b54
@c617 bd2e597a
@c618 3d9813de
@c619 3d43ef9f
@c61a 3d94686c
@c61b bd2dd119
@c61c 3d33061d
@c61d 3d4b7df8
@c61e 3d55ca1e
@c61f 3e1d9d6e
@c620 3da9757d
@c621 3ba9199c
@c622 3d7c1eaa
@c623 3dab59f7
@c624 bc398c25
@c625 3dd6d28b
@c626 3e0dadeb
@c627 3d78c549
@c628 3c975df6
@c629 bcb0a1e8
@c62a 3c46f8d3
@c62b bd28e07a
@c62c bd651487
@c62d bc9da8db
@c62e bd9a56f3
@c62f bdba3e0b
@c630 3d4ae591
@c631 3cc87e72
@c632 3db07697
@c633 bd1182ed
@c634 bd65a565
@c635 bd0198ff
@c636 be02bb03
@c637 bd29a2fc
@c638 3dbab096
@c639 3d09d160
@c63a bd8b6406
@c63b bdac145e
@c63c bdb7877e
@c63d bd88877b
@c63e bd669b8a
@c63f bd195bbb
@c640 bd20b906
@c641 3dddb63e
@c642 bcfa0f2a
@c643 3cae37dd
@c644 3ce037e9
@c645 bcb512de
@c646 bc0e8227
@c647 3c9c1300
@c648 bdb19652
@c649 bd20e923
@c64a 3d9b6898
@c64b 3cc9c784
@c64c bc9b0c5a
@c64d bd209348
@c64e b8b78543
@c64f bcc8d195
@c650 3d413c7b
@c651 ba93155a
@c652 3db6a1b4
@c653 3d5e00b0
@c654 bd971130
@c655 3c9fafca
@c656 3cae2604
@c657 3cc88de4
@c658 bd3ae2c0
@c659 3dabddb0
@c65a bc2f7bc8
@c65b 3da261a4
@c65c b9f469b8
@c65d 3ba6aa47
@c65e 3db22ef0
@c65f 3d9a32d2
@c660 3c55bded
@c661 3d4ff978
@c662 bd718665
@c663 3d1d2be9
@c664 bdb630c5
@c665 bd7ff871
@c666 3d814dc1
@c667 3dbb507b
@c668 3b2bf0ad
@c669 bdc512ad
@c66a bd940f27
@c66b 3bfa1eac
@c66c bdabc1af
@c66d bc71c1ce
@c66e 3d3080b4
@c66f 3d56bcbb
@c670 3d3e9c3c
@c671 bd7b3908
@c672 bc42558c
@c673 3d90110b
@c674 3c950433
@c675 3d096d9c
@c676 3c1b1e29
@c677 bd6e3e92
@c678 3d416b42
@c679 3da60c54
@c67a 3c3cd7f2
@c67b bcf9e024
@c67c bd8b9812
@c67d bd8acb49
@c67e bc3690a1
@c67f bd24007d
@c680 3c76ac21
@c681 bc3be7dc
@c682 bd0b8c24
@c683 3d81bca3
@c684 bd8e26a3
@c685 3db1e467
@c686 ba86f118
@c687 3d0bd87c
@c688 3aae0d40
@c689 3d860898
@c68a bd52f37d
@c68b bcae4865
@c68c bda78027
@c68d 3bcd93a1
@c68e bd2b4f9f
@c68f 3c9a7867
@c690 bd85c940
@c691 3d6f371a
@c692 3d81b083
@c693 bd6c9fb0
@c694 bd80d086
@c695 bd20f98f
@c696 3da03a2b
@c697 bbc7b3a2
@c698 bc8424e7
@c699 3d32a146
@c69a bd7e2d65
@c69b 3d871751
@c69c bd8e8e00
@c69d bd0041c5
@c69e 3d861913
@c69f 3d83cd76
@c6a0 3d167905
@c6a1 3d1edcbb
@c6a2 3cd4925b
@c6a3 bd738985
@c6a4 bc40c7ad
@c6a5 3ceb0d72
@c6a6 bdab9ec9
@c6a7 3cb77007
@c6a8 bd19f672
@c6a9 3cbf81a7
@c6aa 3d0741d7
@c6ab bd8589e0
@c6ac 3d90ae23
@c6ad bc49c092
@c6ae 3d40333c
@c6af 3cb2dc63
@c6b0 3d9d599c
@c6b1 bd2dd4ca
@c6b2 3d17d903
@c6b3 3ca19a24
@c6b4 bda7f0cb
@c6b5 bc85c152
@c6b6 bd8f85ef
@c6b7 bbf24407
@c6b8 bc0c82cc
@c6b9 3c2817f5
@c6ba bd2fe688
@c6bb 3cb0b34a
@c6bc 3d720b45
@c6bd bd472d6d
@c6be bc8a3fe2
@c6bf 3cfceea8
@c6c0 bd84fa85
@c6c1 3d877f7c
@c6c2 3d9a3e08
@c6c3 3c10ab32
@c6c4 bcaa032f
@c6c5 bbd690b2
@c6c6 bc8c39d6
@c6c7 bd2f8e24
@c6c8 3d01a275
@c6c9 3cfcd3be
@c6ca 3d573af2
@c6cb bd96baa9
@c6cc bc586023
@c6cd 3b26f7fb
@c6ce bd35ded1
@c6cf 3cc62a1c
@c6d0 bd84b391
@c6d1 3d492778
@c6d2 3c87a969
@c6d3 bd22844b
@c6d4 bd88cbbd
@c6d5 bcb1949f
@c6d6 3da97c2a
@c6d7 bd94b8e1
@c6d8 bc129a68
@c6d9 3db466ce
@c6da 3c2938e0
@c6db 3d9cbd45
@c6dc bd925f2a
@c6dd 3d72c7c3
@c6de 3c5376f8
@c6df bda4ed67
@c6e0 bd9531fb
@c6e1 bd917299
@c6e2 ba209248
@c6e3 bbb17b61
@c6e4 bac0a1c0
@c6e5 bdae8262
@c6e6 bd172557
@c6e7 bd48ebdf
@c6e8 3d76a6f8
@c6e9 bd8a932f
@c6ea 3da08854
@c6eb 3d8006d7
@c6ec 3d8c9ec8
@c6ed bd9c94d1
@c6ee 3d4a407c
@c6ef 3d9b1bc9
@c6f0 3cb3e3aa
@c6f1 bdb9cc2f
@c6f2 3c2e766b
@c6f3 bda1b431
@c6f4 bdb59c18
@c6f5 3c2735e4
@c6f6 3c628c98
@c6f7 bd2aa41c
@c6f8 bd892055
@c6f9 3b21dac8
@c6fa bdb2c176
@c6fb bd7efb9b
@c6fc bda3ecbb
@c6fd bbd77bcb
@c6fe bd964517
@c6ff bbe3f89f
@c700 39b51005
@c701 bcd71c96
@c702 3ce91a91
@c703 3d9fb725
@c704 bc45d806
@c705 3d8f24e4
@c706 3db19978
@c707 bd2899a2
@c708 bc5337b3
@c709 3d615cca
@c70a 3db932be
@c70b bd3fdd5f
@c70c bd9a5a37
@c70d bd8e4c90
@c70e 3b8d0d50
@c70f bdb7c14a
@c710 3cdd6ec4
@c711 3d2145fd
@c712 bdb91313
@c713 bda6094e
@c714 3d49224b
@c715 3dafea4c
@c716 bdb87511
@c717 bcfcc082
@c718 3cee6c2e
@c719 3d1fbceb
@c71a 3d8b83ef
@c71b bd3c3f3f
@c71c 3b8c4542
@c71d bcfe07a4
@c71e bd9dba74
@c71f bd62fa4b
@c720 3dab577a
@c721 bcc749c6
@c722 bd0b8139
@c723 bd3b27aa
@c724 bd46116d
@c725 bd082551
@c726 3cf455e2
@c727 bd8df9ed
@c728 3d7793bd
@c729 b90a371c
@c72a bd982f02
@c72b bb73b060
@c72c 3d0cd7f9
@c72d bdb1a21f
@c72e 3d870f26
@c72f bd9ec40a
@c730 bd010956
@c731 3c9bccb5
@c732 bc243dc5
@c733 3d5f36b1
@c734 bd7fc29f
@c735 3d8937c1
@c736 bd514e6a
@c737 3cbfb0a6
@c738 bd3ea116
@c739 bd813d74
@c73a bd90a45d
@c73b 3d916b8c
@c73c bd435d86
@c73d 3d94b958
@c73e bd981692
@c73f 3d9434ea
@c740 bd6dc1bc
@c741 3d638ad3
@c742 bd591359
@c743 3d4f48ad
@c744 3c1e4d7a
@c745 bd931a57
@c746 bca7a923
@c747 3d4ba188
@c748 3c57575c
@c749 bc127862
@c74a bcbdb5a8
@c74b baa18ada
@c74c bc8b187b
@c74d bc5b3e05
@c74e bcc3727f
@c74f bcc4ce6c
@c750 3d5a7ee7
@c751 bd702733
@c752 bd4d9e29
@c753 3da60d8b
@c754 bdb1fa6f
@c755 3c999c05
@c756 3db7c697
@c757 bd5c4dcc
@c758 bd710929
@c759 3de44537
@c75a 3cc4cedf
@c75b bd5f65a0
@c75c bb82421a
@c75d 3c18dec2
@c75e 3cb89afd
@c75f bbb679ef
@c760 bc93b38a
@c761 3d38d027
@c762 bc8db019
@c763 3d31d63f
@c764 3d59519e
@c765 3e021fa7
@c766 bd3ef8a2
@c767 bd16ec40
@c768 3b98c1f5
@c769 bd600588
@c76a 3d50c2c9
@c76b bb46d616
@c76c 3d3c7781
@c76d 3da31e54
@c76e 3d6b0a8d
@c76f 3d9338df
@c770 bd1dc6e7
@c771 bae36952
@c772 bc0c34a5
@c773 bd35f25c
@c774 3ca95e99
@c775 bd2a87e0
@c776 bd255b13
@c777 3d958e37
@c778 3c539779
@c779 3d1eef13
@c77a bdbb6beb
@c77b 3d7564fc
@c77c 3d7b4d0c
@c77d 3d187e07
@c77e 3d49ac54
@c77f 3d9c6b96
@c780 bd6a7c10
@c781 3d7ce6a4
@c782 ba8619c3
@c783 3d525142
@c784 3d06788d
@c785 3cbe4597
@c786 3c2cae5e
@c787 3de76631
@c788 3d201036
@c789 bd1e36b3
@c78a 3d6cf673
@c78b bdc07b37
@c78c 3c9d8c25
@c78d bd0cc67d
@c78e 3d750964
@c78f bda11367
@c790 3da7051c
@c791 bd2bed2a
@c792 3d817112
@c793 baad8678
@c794 3cc559b5
@c795 3b09e585
@c796 3d8334b8
@c797 bc403c01
@c798 3b43ad21
@c799 3d61b506
@c79a bdbc7337
@c79b bda2261e
@c79c 3d60c7a2
@c79d bd3d40f8
@c79e bdaf3457
@c79f 3da777da
@c7a0 3da6bdf5
@c7a1 bdb058f8
@c7a2 bd0abaa1
@c7a3 3ceb186c
@c7a4 bd650682
@c7a5 3c3122a4
@c7a6 3c984334
@c7a7 bbd99133
@c7a8 bdc376df
@c7a9 3df61596
@c7aa bbf5f21d
@c7ab bd689951
@c7ac bd08efb3
@c7ad bd9c13d1
@c7ae 3d79f2e4
@c7af bdb46c6c
@c7b0 bd8088b2
@c7b1 bd43d9f6
@c7b2 bcb91430
@c7b3 3d2f6982
@c7b4 bd32e7c6
@c7b5 bd36d081
@c7b6 bced65cf
@c7b7 bb639c55
@c7b8 bc87d587
@c7b9 bbb09fdb
@c7ba bd8b3402
@c7bb bdac9357
@c7bc 3d0f47fa
@c7bd 3c117f7c
@c7be 3c3f3842
@c7bf 3d175d88
@c7c0 3d504649
@c7c1 3d7b12d7
@c7c2 3da43e35
@c7c3 3c99e798
@c7c4 3db35a77
@c7c5 3c2142d6
@c7c6 3b0c7f6a
@c7c7 bdb361a9
@c7c8 bb782023
@c7c9 3d60dc74
@c7ca 3cab7a78
@c7cb 3d7dc8c6
@c7cc 3d2e9f29
@c7cd bc83c617
@c7ce bda0e514
@c7cf bd084d26
@c7d0 bd0ec0a8
@c7d1 3c739dad
@c7d2 3d064740
@c7d3 3db932b4
@c7d4 bc70cb08
@c7d5 bce267b0
@c7d6 bdb66a68
@c7d7 3d28a329
@c7d8 3bfbd9e1
@c7d9 bd273d7e
@c7da bd6a58e4
@c7db 3cbc5194
@c7dc 3c4ff4e4
@c7dd bd3baf5d
@c7de bc8cf7aa
@c7df 3d471442
@c7e0 3da77b14
@c7e1 bd9909c1
@c7e2 3d33ed6b
@c7e3 bd4857ad
@c7e4 3db6bdfe
@c7e5 3da92d6a
@c7e6 3d9aff07
@c7e7 3d4dd3b6
@c7e8 3c81dfeb
@c7e9 3d998f8b
@c7ea bd8627d2
@c7eb 3db40643
@c7ec 3c8bfa10
@c7ed bc6310ef
@c7ee bc9c7056
@c7ef 3db0caf0
@c7f0 bcb26568
@c7f1 bceb0c34
@c7f2 3d5c1024
@c7f3 3b91b805
@c7f4 bd960c5c
@c7f5 bd39fb17
@c7f6 bda9bae6
@c7f7 bd983fb2
@c7f8 3d49e31a
@c7f9 bd983424
@c7fa 3d2583ba
@c7fb 3b83f48b
@c7fc 3d1143b0
@c7fd 3d3e3d48
@c7fe bd63253b
@c7ff 3cf0a302
@c800 bbe0bab1
@c801 3d9f063b
@c802 3d87f3b8
@c803 3bd67532
@c804 3d390376
@c805 bd42bc67
@c806 3cce8e6c
@c807 bc318bb4
@c808 bdca9a10
@c809 3af5c1a4
@c80a 3c835aff
@c80b bda689e7
@c80c 3d73713c
@c80d bd22fab5
@c80e bd877fe0
@c80f bd89b283
@c810 bd6c3122
@c811 bcad6931
@c812 3d03e171
@c813 bd884e11
@c814 bdcc51e2
@c815 3d8df297
@c816 bce9811c
@c817 bd96fb22
@c818 bd7cbbff
@c819 bd720335
@c81a bd5990dc
@c81b bc905160
@c81c bd775fb2
@c81d bc0b4659
@c81e 3d245832
@c81f bd99631a
@c820 bda571d2
@c821 bd595454
@c822 bdc7dde8
@c823 bd9c0da3
@c824 bd6af3b8
@c825 bd407be8
@c826 bdae7b9a
@c827 bd8bc82c
@c828 bd93659f
@c829 3d488419
@c82a bd4ff6c7
@c82b bd55f12d
@c82c bd9b8a97
@c82d 3d582ef4
@c82e bcda1306
@c82f bd805d6b
@c830 bd269faf
@c831 3ca70fb5
@c832 bc2f672a
@c833 3d618de1
@c834 3d333e96
@c835 3d500fa5
@c836 bdc80a40
@c837 3d36345c
@c838 bc91bcbb
@c839 3d0d093e
@c83a bd4c29c5
@c83b bcb40609
@c83c 3b5bbdcf
@c83d 3c0a1aad
@c83e 3d034282
@c83f 3d309a9c
@c840 bd05365d
@c841 3c7f3fcc
@c842 b9ca4031
@c843 bb29df53
@c844 bc307696
@c845 bd8fac9b
@c846 3d7cd473
@c847 3cf225e6
@c848 3d135b96
@c849 baeaacc3
@c84a 3d8351e8
@c84b bda5b723
@c84c 3d9313c5
@c84d 3d29d4de
@c84e 3c33e909
@c84f bd98bc96
@c850 bc71e3c5
@c851 3d5ffaa3
@c852 3dac51f4
@c853 3d04ecfd
@c854 3c95bcfb
@c855 bce733db
@c856 3d2a9c27
@c857 3d9b5691
@c858 3db321dd
@c859 bdb2c973
@c85a 3dbc3fac
@c85b 3d570d88
@c85c bc6865a6
@c85d 3dcdca9d
@c85e 3d135bd7
@c85f bd610338
@c860 bc9d9a01
@c861 bc29eaea
@c862 3dcb05bd
@c863 bd081fdd
@c864 bd4b4f85
@c865 bd9275d4
@c866 3b15d0f6
@c867 bd9ea0a0
@c868 3cfbc22a
@c869 bd858af0
@c86a 3d67399a
@c86b 3de437da
@c86c 3d818752
@c86d 3da714da
@c86e bd054e7b
@c86f bc008258
@c870 bd8dba42
@c871 3cb4e040
@c872 3d67bf35
@c873 3cb29e4c
@c874 bd9d4d75
@c875 bdb07e25
@c876 3ce53458
@c877 bd747ffd
@c878 39eaa847
@c879 bdafb862
@c87a 3d2eb45e
@c87b bd90437e
@c87c bd744cc0
@c87d 3d86ee5d
@c87e bdd3fb4b
@c87f 3b8240b6
@c880 3c24d4b8
@c881 3baea872
@c882 3d905c74
@c883 3da06f94
@c884 bd980201
@c885 bd609720
@c886 bd6093e3
@c887 3dbd00bd
@c888 3dba4a7e
@c889 3d67ddc9
@c88a bda68cff
@c88b bd8a5126
@c88c bd8fbed1
@c88d bd11c55f
@c88e 3bfa43ad
@c88f 3cf83218
@c890 3cad7f3f
@c891 3c75befd
@c892 3d712868
@c893 bd5e85a1
@c894 3dd03aa6
@c895 3db6b469
@c896 3d804de3
@c897 bcbfdc9b
@c898 bda6eab0
@c899 bdaf1fef
@c89a 3d8cdbae
@c89b bb2fb5aa
@c89c 3cee8c68
@c89d bccc6638
@c89e bbc4bed8
@c89f 3d37b59f
@c8a0 bdbdd20b
@c8a1 bd1dc3b2
@c8a2 bd3eded4
@c8a3 bda48f8f
@c8a4 3dce5294
@c8a5 bcc7be3e
@c8a6 3dd7f2b2
@c8a7 3cd8bb79
@c8a8 bca7c894
@c8a9 bd8b2da7
@c8aa 3d83a386
@c8ab 3c988cf3
@c8ac 3d8922ff
@c8ad 3cf40f5c
@c8ae 3da58dc3
@c8af bc849d00
@c8b0 bd5bfc1e
@c8b1 3d1c86b7
@c8b2 3daa108c
@c8b3 bd99e38f
@c8b4 3de6c17f
@c8b5 bd213926
@c8b6 bd64a623
@c8b7 bda5f71a
@c8b8 bc2836b3
@c8b9 bd2addcd
@c8ba bd7e339b
@c8bb 3da124e4
@c8bc bd10a29f
@c8bd 3d9f72bf
@c8be 3d785bfe
@c8bf 3cb46a52
@c8c0 3c720d5a
@c8c1 bdb20d53
@c8c2 3dd932b0
@c8c3 bc56873a
@c8c4 bc79698f
@c8c5 bd5aa427
@c8c6 3bdb1512
@c8c7 3d8036ed
@c8c8 3da112f6
@c8c9 39d9a8a1
@c8ca 3d9eab61
@c8cb 3da5c175
@c8cc 3db801cd
@c8cd 3d62b762
@c8ce 3dc62c10
@c8cf bd3ea2c5
@c8d0 3d9a56d1
@c8d1 bddab574
@c8d2 bcb1e258
@c8d3 bcd4987d
@c8d4 3d5df7f7
@c8d5 3d36d356
@c8d6 bd2ab8f7
@c8d7 3d8d038e
@c8d8 bb91a911
@c8d9 bc8144b5
@c8da 3d7e1773
@c8db bc26a177
@c8dc bd8504db
@c8dd 3d40c248
@c8de 3cf7ceea
@c8df 3da78427
@c8e0 3d0f1b36
@c8e1 bd7353ea
@c8e2 bc66e01d
@c8e3 bdab7fd3
@c8e4 3d21a3d9
@c8e5 bdb83028
@c8e6 bc959f78
@c8e7 bd1314d4
@c8e8 3b927f9f
@c8e9 bd905a5f
@c8ea bd9a7de8
@c8eb bdce5c01
@c8ec 3dbff708
@c8ed 3ce7fb95
@c8ee bd086577
@c8ef bc1d6251
@c8f0 3d6636a9
@c8f1 bde34a63
@c8f2 3dcc5ac4
@c8f3 3c03b780
@c8f4 bdb89e4b
@c8f5 3de241d5
@c8f6 bce44ef0
@c8f7 bbf032f1
@c8f8 bd655df1
@c8f9 3d475685
@c8fa bd680551
@c8fb bdcb78a8
@c8fc bc93b96a
@c8fd 3d9f7ccc
@c8fe 3d9cf094
@c8ff bd82a377
@c900 bd309111
@c901 bd8b5706
@c902 3d2914bd
@c903 bcabb1f0
@c904 3d54d05f
@c905 bd722914
@c906 bd83eeea
@c907 bd0fdff3
@c908 bda5f42c
@c909 bb28abad
@c90a 3cadc28a
@c90b bbd9894d
@c90c 3caff718
@c90d bd914679
@c90e bbc13855
@c90f 3d35659f
@c910 3da6c8d1
@c911 bd967036
@c912 3db51bc7
@c913 bdb273b3
@c914 3c760e1c
@c915 bd92782c
@c916 bdb9e4bc
@c917 bd6fd32c
@c918 bd0d9828
@c919 3be03d26
@c91a 3d26f0a9
@c91b 3d783456
@c91c 3cbc55af
@c91d bd91a333
@c91e 3c66a386
@c91f 3cd59c6e
@c920 3c07afee
@c921 bd3f5433
@c922 bd73b0ca
@c923 3c61925c
@c924 bc92c4d2
@c925 bd9411ee
@c926 3cace76f
@c927 bccea54c
@c928 bd104e07
@c929 bd521b7a
@c92a 3dafa7f7
@c92b bca5c10f
@c92c bd2ddbdc
@c92d bd8c218e
@c92e 3d31c028
@c92f 3dba532e
@c930 3d99db3e
@c931 bcbfbc1c
@c932 3d80109b
@c933 bb9c22a6
@c934 3ba4db88
@c935 3c1b6943
@c936 3c0bcc19
@c937 bc7196a7
@c938 bb272f18
@c939 bcc3d934
@c93a 3d29a443
@c93b 3d70b4c6
@c93c 3beee357
@c93d bc7cf8d8
@c93e 3c53ef9e
@c93f bd9e8eb6
@c940 3d1650ed
@c941 bd71666f
@c942 3d98e5be
@c943 3d54792d
@c944 bd1f03f3
@c945 bd979f4e
@c946 3bc13134
@c947 3caf43cb
@c948 bd839e28
@c949 3acf236f
@c94a bd913f2c
@c94b 3da1e9dd
@c94c 3d9cd59b
@c94d 3d333a19
@c94e bc9fde7a
@c94f 3a90308a
@c950 3d27f24b
@c951 3da4bdc3
@c952 bd281880
@c953 bd447868
@c954 bd7b0235
@c955 bd88f0d7
@c956 3c944495
@c957 bd6bc5be
@c958 bd364c79
@c959 3d554f91
@c95a 3b959c67
@c95b bd8c74f5
@c95c 3d15588e
@c95d 3d8f5c5a
@c95e bd36c4ea
@c95f bdadb940
@c960 bbb62fd8
@c961 bb3316d1
@c962 3c3d065b
@c963 3c194bef
@c964 3d2510c8
@c965 bc81d86f
@c966 3b6d8bb1
@c967 bd2a058d
@c968 3ce73556
@c969 3d454ba8
@c96a bd80b2c0
@c96b 3c325b77
@c96c 3d7dc2b6
@c96d bd43ccbc
@c96e bcc5d357
@c96f bcd7fa53
@c970 bcd7182a
@c971 3d714b9b
@c972 bb8d8d30
@c973 3d0bcd94
@c974 3dab2267
@c975 bce6b0fb
@c976 3d8922f1
@c977 3d918830
@c978 3d87ce8f
@c979 bbca5f1b
@c97a 3da65f7c
@c97b 3d3a8378
@c97c bc442267
@c97d 3d6af673
@c97e bd93484a
@c97f 3c133cfa
@c980 3da76e33
@c981 bd82de46
@c982 3db3a5e6
@c983 bda5f64c
@c984 392447c9
@c985 bd86d54b
@c986 3c76e669
@c987 bc773a6b
@c988 bdb94d0c
@c989 3d39c79e
@c98a 37f24ca6
@c98b 3d28b28d
@c98c bc9eeed0
@c98d 3c27f573
@c98e bd857ed4
@c98f bdbe12d4
@c990 3cab06d5
@c991 3d882c4f
@c992 bd42c597
@c993 3d3ee91e
@c994 3dc7ce13
@c995 bc8b1451
@c996 3db42cb6
@c997 3d540ed3
@c998 bdc871a6
@c999 bd6de8f4
@c99a bd9b02ea
@c99b 3d01cf10
@c99c 3d19fef5
@c99d 3ae5bbfe
@c99e bc5fe9f2
@c99f 3d61121c
@c9a0 3da0a7e1
@c9a1 3d8cfda2
@c9a2 bd142faa
@c9a3 bdc9fc54
@c9a4 3d5361b0
@c9a5 3d106c70
@c9a6 bd23cb21
@c9a7 3d8148c1
@c9a8 bdd2adb9
@c9a9 bd96e9d9
@c9aa bcc37e85
@c9ab bd8b25ee
@c9ac 3d7ac37f
@c9ad 3be1630d
@c9ae bc5a551c
@c9af 3db47de3
@c9b0 3cb932b4
@c9b1 bd196f55
@c9b2 3d19b118
@c9b3 bd58bbbc
@c9b4 bd69e1d7
@c9b5 3d88da4d
@c9b6 bcdd0917
@c9b7 3d2edced
@c9b8 3cf85eaf
@c9b9 bd00ae92
@c9ba bd3b7823
@c9bb bd280f4c
@c9bc 3c657278
@c9bd bba15b00
@c9be bc6cff52
@c9bf 3de30d92
@c9c0 bd2c8459
@c9c1 3cfe6f32
@c9c2 3daef2b5
@c9c3 3d4ff8ef
@c9c4 bcfe057d
@c9c5 bd92f108
@c9c6 bdfb18a9
@c9c7 3c7b4244
@c9c8 bbddb797
@c9c9 bd39d588
@c9ca bcee3373
@c9cb 3df58de8
@c9cc 3d6af6ce
@c9cd 3d520688
@c9ce 3d9a6115
@c9cf 3dcc3233
@c9d0 3cc58440
@c9d1 3cbb6a2b
@c9d2 3d847ebc
@c9d3 bdd05b39
@c9d4 3d0a4403
@c9d5 3db4cae5
@c9d6 3d740ca0
@c9d7 bd39caf8
@c9d8 3cf9c591
@c9d9 3d32893c
@c9da 3d6168d0
@c9db bdc46438
@c9dc 3d841ac2
@c9dd bd0d3800
@c9de 3d669e83
@c9df 3d0be3bf
@c9e0 3c02deba
@c9e1 be01cf4d
@c9e2 3dc87d14
@c9e3 3d89a772
@c9e4 bdbb602e
@c9e5 3dd294a5
@c9e6 3d1460f2
@c9e7 3d31ba7d
@c9e8 bdd0336a
@c9e9 3d325095
@c9ea bcf48fb0
@c9eb bdd2be14
@c9ec bd51e238
@c9ed bbc1aa54
@c9ee bbfc1148
@c9ef bc8282a9
@c9f0 bd855df1
@c9f1 3da8aa47
@c9f2 3d6b9f5a
@c9f3 bc695cff
@c9f4 3c16df80
@c9f5 3a8f6f13
@c9f6 3dd57147
@c9f7 bcaf02e7
@c9f8 3db3a3eb
@c9f9 bdc8fbc1
@c9fa 3c979c51
@c9fb 3d09fd5e
@c9fc 3a0a9ab3
@c9fd 3d44861a
@c9fe bcb729f7
@c9ff 3d9b0715
@ca00 bb6b75d6
@ca01 3d501274
@ca02 3cf15703
@ca03 3d3e70d0
@ca04 3dbe1ff5
@ca05 bdae619e
@ca06 bdc5377d
@ca07 3d670334
@ca08 bda3176d
@ca09 3d54d4cc
@ca0a 3dede720
@ca0b bd48d27e
@ca0c bd608820
@ca0d 3ba29cee
@ca0e 3b27e0c9
@ca0f 3c3d9311
@ca10 bd6cff47
@ca11 bdd8665e
@ca12 3d832aad
@ca13 bd86a68a
@ca14 bd130e84
@ca15 3d162687
@ca16 3db00ce3
@ca17 bd0c5df1
@ca18 3d76f1cc
@ca19 3d0eebac
@ca1a 3b20f061
@ca1b 3d7a99b1
@ca1c bdb4e396
@ca1d 3d841892
@ca1e 3db4c4b5
@ca1f 3db4ec23
@ca20 3c7e1dbc
@ca21 3d778318
@ca22 3d1eafbe
@ca23 3dfc2b1d
@ca24 3d80c73d
@ca25 3c6287ec
@ca26 bd154c0c
@ca27 bd85db7c
@ca28 bd919682
@ca29 bd78fd79
@ca2a 3d895729
@ca2b 3bbc3be0
@ca2c 3da0600d
@ca2d 3dcf5fd8
@ca2e bbe250f3
@ca2f 3b07963f
@ca30 3cf4054e
@ca31 3d258637
@ca32 3ceec8a8
@ca33 bd5d201d
@ca34 bd3a9ee1
@ca35 3dfbe891
@ca36 3d82ad68
@ca37 bd47d732
@ca38 bd6fa463
@ca39 bd8f13dd
@ca3a 3ce3cb5e
@ca3b 3d7fb3db
@ca3c 3d1bfd4b
@ca3d bd4ca246
@ca3e 3c6e5374
@ca3f 3ca26eb9
@ca40 bde1bdc9
@ca41 3d5852f0
@ca42 3a96ca21
@ca43 3d7cbea9
@ca44 bb6776ba
@ca45 bd868020
@ca46 3dbc0236
@ca47 3d42abcf
@ca48 3ba538c0
@ca49 3d8487aa
@ca4a bd8f6759
@ca4b 3cf017d3
@ca4c 3d92be10
@ca4d bda1ac98
@ca4e 3d2e401c
@ca4f bd9fee3e
@ca50 3dae6290
@ca51 3da434bd
@ca52 bdb114a4
@ca53 bcd765f1
@ca54 3d79584e
@ca55 bd3c3d45
@ca56 bda7036f
@ca57 3ca4ccbf
@ca58 bd9395d5
@ca59 bdb73798
@ca5a bd7618d1
@ca5b 3c632a51
@ca5c bc6b2a18
@ca5d bb59d594
@ca5e bd09791d
@ca5f 3db2fc3a
@ca60 3c61b206
@ca61 bd4c13e2
@ca62 3c8a61fc
@ca63 3dadb698
@ca64 3d7c328d
@ca65 3db236b0
@ca66 3ccd3e52
@ca67 3bb7f298
@ca68 bc50962b
@ca69 3cadef2c
@ca6a 3d04bf30
@ca6b 3c955408
@ca6c 3d9121d7
@ca6d 3d55ed2f
@ca6e 3b07a3f0
@ca6f 3d8daa36
@ca70 3db5adb4
@ca71 3d9dd330
@ca72 bb07fe2a
@ca73 3d8e2cde
@ca74 3cde83e1
@ca75 3c0946b7
@ca76 bd91312a
@ca77 3d35e750
@ca78 bb83889e
@ca79 3d2dce65
@ca7a 3dfa7fdd
@ca7b 3d4d916c
@ca7c bd3591db
@ca7d 3d3d6ceb
@ca7e 3c91a263
@ca7f 3c879391
@ca80 3db12afa
@ca81 3d532abf
@ca82 3da3cef9
@ca83 bc9f18df
@ca84 bb6aa90d
@ca85 b9c7bf83
@ca86 bd5cd3e4
@ca87 39c0607b
@ca88 bd7e4e1a
@ca89 3d7e150d
@ca8a 3cd4d846
@ca8b bda30fb0
@ca8c 3d670300
@ca8d bd1f3895
@ca8e 3d62e318
@ca8f 3d96d792
@ca90 3dc339b2
@ca91 bc2b5fed
@ca92 bbef1d9f
@ca93 bded26ae
@ca94 3d9036d3
@ca95 bd397de4
@ca96 bcaf5b1c
@ca97 3d414988
@ca98 bd242776
@ca99 3c8bb9ce
@ca9a bd0aba30
@ca9b bd4ddd56
@ca9c bd14e5ca
@ca9d bc59a4ac
@ca9e 3c9f3f97
@ca9f 3d2f66d9
@caa0 bd1a8fef
@caa1 bd5cffc1
@caa2 3d147d67
@caa3 3d4614c2
@caa4 3d00d6d4
@caa5 bdb11f35
@caa6 bd59071e
@caa7 3d9a6342
@caa8 bdc95fe0
@caa9 3c5972df
@caaa bd2297ed
@caab 3d9c0b71
@caac bdac3356
@caad bc3cf951
@caae bdb1c39c
@caaf 3d94fbaa
@cab0 bd808efc
@cab1 bd2d567b
@cab2 bd0d7ec8
@cab3 bccfd526
@cab4 bc080113
@cab5 3cc2c9ce
@cab6 3d2491f4
@cab7 3d0a42f3
@cab8 bd223cf5
@cab9 bb0bc984
@caba 3cc0c9e5
@cabb 3d87854c
@cabc bd6bb597
@cabd 3c43ec6a
@cabe bd1c0b6c
@cabf 3da0617a
@cac0 bd065bdb
@cac1 bd476e4a
@cac2 3c80bfb4
@cac3 bd91c19a
@cac4 bd80e4f3
@cac5 bd3992cc
@cac6 bd3c22b4
@cac7 bd12382a
@cac8 3d4423ce
@cac9 bad35482
@caca bd19c3ce
@cacb 3d16039d
@cacc 3cdc6d4e
@cacd bda4499e
@cace 3d325bbd
@cacf 3d912a3c
@cad0 bc2f4c41
@cad1 3ca237d2
@cad2 3d716b7a
@cad3 3cadae72
@cad4 3da0d0c0
@cad5 3d1bfa23
@cad6 3d7b629f
@cad7 3d89c594
@cad8 3bb25719
@cad9 bd8a1ca1
@cada 3c95bff9
@cadb 3d57a73f
@cadc 3b84890c
@cadd bda6a95f
@cade 3d49e2ae
@cadf 3d663fff
@cae0 3d70e800
@cae1 3d449cc9
@cae2 bdd52bf2
@cae3 bd48dfa4
@cae4 bc687a5e
@cae5 bd2c7158
@cae6 bd5439ea
@cae7 3d2aae8b
@cae8 3d862ab8
@cae9 3c160296
@caea 3c9f5c3c
@caeb bb98e55f
@caec bd97351a
@caed bd10d878
@caee bd92e04e
@caef bd016828
@caf0 bc7c87da
@caf1 bc32fb98
@caf2 bc03364a
@caf3 3c758450
@caf4 3d6a1a29
@caf5 3d94e6b5
@caf6 bcb52c80
@caf7 3d6e5428
@caf8 3d8550e7
@caf9 bcdbd3d9
@cafa 3cd64ee0
@cafb bd2be10b
@cafc 3d3de355
@cafd 3d1af162
@cafe 3d4ee1f3
@caff bd0a1388
@cb00 3d426f6a
@cb01 3d76a0fb
@cb02 bc6a9306
@cb03 bca55306
@cb04 3d0e84cd
@cb05 bc1cc72a
@cb06 bd88ee15
@cb07 3d95b302
@cb08 3b8b6663
@cb09 bd983a11
@cb0a bd92a051
@cb0b bd78c780
@cb0c 3d0ebb54
@cb0d 3d83e607
@cb0e 3d82b74e
@cb0f 3d88ee76
@cb10 3d9ba92a
@cb11 bd31203c
@cb12 3da41b77
@cb13 3c67923c
@cb14 3dad2e43
@cb15 bd425e8d
@cb16 3d294a39
@cb17 bd497006
@cb18 3da0adbe
@cb19 bdb1ecff
@cb1a bd847345
@cb1b bbb2eeac
@cb1c bba0c073
@cb1d b9faa625
@cb1e bd3d4135
@cb1f bd87564c
@cb20 3b87cb15
@cb21 bd25c8ff
@cb22 3cfa5983
@cb23 3c8f4ff6
@cb24 bda4e70a
@cb25 3d2c79c9
@cb26 bd102b1c
@cb27 bd711634
@cb28 3a8e38aa
@cb29 3d4ff353
@cb2a 3da04320
@cb2b bd071dee
@cb2c bb8bb8d6
@cb2d bccaef50
@cb2e bd726bfc
@cb2f 3d782df3
@cb30 3d26024c
@cb31 3d0f0551
@cb32 bc2bc190
@cb33 bd19a6f7
@cb34 bd26dfa1
@cb35 3cfadb4e
@cb36 bd8b294a
@cb37 3d7cc67c
@cb38 bd4b2fc9
@cb39 3d863986
@cb3a 3d6188e0
@cb3b 3d3a26ab
@cb3c 3cdb88d7
@cb3d bcc95511
@cb3e bd5757a3
@cb3f bd168b7d
@cb40 bb066f69
@cb41 bd53457a
@cb42 bcd7e49b
@cb43 bb0fa068
@cb44 3a01a292
@cb45 3c7c3f55
@cb46 3d5e8484
@cb47 3c386cff
@cb48 3c1f3005
@cb49 bd058043
@cb4a bd56b7a1
@cb4b 3d86430c
@cb4c 3bb9dd62
@cb4d 3ccd0f8d
@cb4e bcae87a6
@cb4f 3c03af22
@cb50 bcf076f0
@cb51 bc2f7d66
@cb52 3d351b2a
@cb53 bcd1645d
@cb54 3d5563be
@cb55 bd00785b
@cb56 3d860867
@cb57 bdb7c82a
@cb58 3d955667
@cb59 3cfb4d50
@cb5a 3cd5c3c9
@cb5b bda40a76
@cb5c 3d8b6d13
@cb5d 3d281f3f
@cb5e 3cb3920e
@cb5f bd6b774d
@cb60 bcb564a9
@cb61 3d842591
@cb62 3c8d9406
@cb63 bdaf74b8
@cb64 bd9df468
@cb65 bc9fb3f1
@cb66 3d6f87be
@cb67 bbf0bf44
@cb68 bd4597ad
@cb69 bd9229ff
@cb6a bd088be7
@cb6b bcf1a0f7
@cb6c 3d3095c7
@cb6d 3d0c66bf
@cb6e 3cb4bb68
@cb6f 3d327c44
@cb70 3dba035d
@cb71 3d9704d7
@cb72 bd86a5ca
@cb73 3cbaca80
@cb74 3d7a1fc2
@cb75 3d971c70
@cb76 bc9e8f23
@cb77 3d84366b
@cb78 3da97210
@cb79 3d80fa31
@cb7a bd8c9531
@cb7b 3d7190c1
@cb7c bd8fa63a
@cb7d bbd509c4
@cb7e 3d87fe9d
@cb7f 3db7becc
@cb80 3d0ac671
@cb81 3d01eaa6
@cb82 3dc9c2be
@cb83 bd3f5e2a
@cb84 bd9eee5a
@cb85 3dc50743
@cb86 3da8b316
@cb87 bbe08495
@cb88 3d929e0a
@cb89 3d0b51b3
@cb8a 3d2537ae
@cb8b bce09406
@cb8c 3db7f808
@cb8d 3da6ad8c
@cb8e 3daa7577
@cb8f bd043f13
@cb90 bc82603a
@cb91 3d95657d
@cb92 3d6a2b34
@cb93 bc540153
@cb94 bd3b851a
@cb95 bcee350e
@cb96 3b50af68
@cb97 bdce69d0
@cb98 bd9d127c
@cb99 bda18ecd
@cb9a 3d2a687c
@cb9b 3c426479
@cb9c bbd05caa
@cb9d 3dc631cd
@cb9e 3cf40edd
@cb9f 3d667a5e
@cba0 bc8bb0fa
@cba1 3cb5a9dd
@cba2 bcbaf978
@cba3 3db2ef7d
@cba4 be015780
@cba5 3c743794
@cba6 3dc6718c
@cba7 3d7a924b
@cba8 3a7baeba
@cba9 bd13181f
@cbaa 3caa443c
@cbab 3b22517b
@cbac bc42ea4f
@cbad bc9c9ccf
@cbae 3d34e7c6
@cbaf bdc9a790
@cbb0 bd85e5b2
@cbb1 bd9eeb9e
@cbb2 3dd41dd2
@cbb3 bd682696
@cbb4 3d9df60a
@cbb5 3d521aec
@cbb6 bd1951f2
@cbb7 3ddded53
@cbb8 bd153a0f
@cbb9 bc4b975d
@cbba 3d6b7ce7
@cbbb 3d941bd9
@cbbc 3d3c0e42
@cbbd bc0031d2
@cbbe bcb54d10
@cbbf 3d34daad
@cbc0 bdac62d3
@cbc1 bcfb19ca
@cbc2 bd16a0cb
@cbc3 bdb9142e
@cbc4 3dbe4234
@cbc5 3c8017e2
@cbc6 3cc83f21
@cbc7 bcf2bd97
@cbc8 bca0f4b1
@cbc9 bd872235
@cbca bda0fafc
@cbcb 3dabbd10
@cbcc 3d0818f9
@cbcd 3cf03f34
@cbce 3cc3aa9a
@cbcf baae2dd4
@cbd0 bd56625f
@cbd1 3d9d7001
@cbd2 bd79ce71
@cbd3 bd4a7383
@cbd4 3d7b623b
@cbd5 bdc5ca7a
@cbd6 bd89fa18
@cbd7 3cc4069e
@cbd8 bd7fb510
@cbd9 3daf608c
@cbda 3ccade76
@cbdb 3d5a419f
@cbdc 3c844fb5
@cbdd bd9ad802
@cbde 3c8e6fd2
@cbdf 3d626f70
@cbe0 3d89155b
@cbe1 3d42a38f
@cbe2 3cbd60f7
@cbe3 3bd4ffa7
@cbe4 3d1f0f5a
@cbe5 bcf0ce72
@cbe6 bd957882
@cbe7 3d10a8f6
@cbe8 3b14927a
@cbe9 3d45c845
@cbea bcd80fa2
@cbeb 3c484ef4
@cbec 3d248576
@cbed bd2ec53d
@cbee bcd9d581
@cbef 3dafdb36
@cbf0 3dc37f2b
@cbf1 3d068388
@cbf2 bc1ee223
@cbf3 3b4a5231
@cbf4 3c9f9b78
@cbf5 bd04f551
@cbf6 3d3c9d3d
@cbf7 3db1ff64
@cbf8 bd892039
@cbf9 3d197189
@cbfa 3d90693b
@cbfb bd98debb
@cbfc 3c201dcf
@cbfd 3cec1df4
@cbfe bd79e4c4
@cbff 3d31733c
@cc00 bd9b39db
@cc01 3ce4b72d
@cc02 3db17662
@cc03 3cefe129
@cc04 bc16e009
@cc05 3d911106
@cc06 bc01f6d3
@cc07 3ba76b4e
@cc08 3d911155
@cc09 bda75d51
@cc0a 3d2a13ad
@cc0b bd53c743
@cc0c 3a57d4bc
@cc0d ba97ae79
@cc0e bd3d07cb
@cc0f bd414930
@cc10 bd86bed8
@cc11 bd82cfb8
@cc12 bb7a244a
@cc13 bd5b00a6
@cc14 3d311532
@cc15 bc865f72
@cc16 bd145c71
@cc17 3dbf3fc8
@cc18 bd4496ed
@cc19 3da025b2
@cc1a 3cf752e1
@cc1b 3be378f7
@cc1c 3d65f2ce
@cc1d 3d0c5460
@cc1e 3de2b375
@cc1f bd8d19a5
@cc20 bcb384c5
@cc21 bd8fad25
@cc22 3ababbbc
@cc23 bd9c3470
@cc24 bd207d7c
@cc25 3daeaa24
@cc26 3d9c2c3f
@cc27 3dab2d4c
@cc28 bd9d3159
@cc29 bda3b254
@cc2a 3ca58de2
@cc2b 3d71435e
@cc2c 3d2b4bea
@cc2d 3d36c2ce
@cc2e 3bb8fdf0
@cc2f 3d86fc63
@cc30 3cc09dd7
@cc31 3d50de95
@cc32 3d51d13c
@cc33 bcb76b75
@cc34 3d742463
@cc35 3cf7bc58
@cc36 bd450d9a
@cc37 3d83527e
@cc38 3c14a86a
@cc39 3dea2d42
@cc3a bd25d662
@cc3b 3d4b6f8f
@cc3c bc9dc457
@cc3d 3da16d72
@cc3e bc832505
@cc3f 3db5214b
@cc40 3d539963
@cc41 bbcb0b6a
@cc42 bdce119a
@cc43 3cfc38fc
@cc44 bce30cab
@cc45 bcc896d2
@cc46 3d8033f1
@cc47 bd8f4750
@cc48 3d4973a3
@cc49 bdb53904
@cc4a 3dd5b225
@cc4b 3d6dcfe5
@cc4c bd351fec
@cc4d 3d183937
@cc4e 3d13cb56
@cc4f bcaecaee
@cc50 3da0cfb0
@cc51 3d7acfac
@cc52 3dbb0c87
@cc53 bcbe1c1c
@cc54 bdb71e66
@cc55 3d8f4e5e
@cc56 3d257feb
@cc57 3cac4b8b
@cc58 bbbe1188
@cc59 bc460491
@cc5a bd9d0376
@cc5b bdbba182
@cc5c bd44208f
@cc5d bc8f6f8f
@cc5e bc9e6a3f
@cc5f 3dff3063
@cc60 3d0a8010
@cc61 3db15cd8
@cc62 bcd5fc04
@cc63 bdc75ac7
@cc64 3cfba80b
@cc65 3d917d45
@cc66 bc9d8772
@cc67 bdb5baa2
@cc68 bd7168ec
@cc69 3d0db4d5
@cc6a bd2107fe
@cc6b 3d9a1741
@cc6c bd536c7d
@cc6d bdbb5848
@cc6e bd9b53f8
@cc6f bda65bc9
@cc70 3d8e94a3
@cc71 bc2dc413
@cc72 bcfedddf
@cc73 3d4e45b9
@cc74 3d04c6e9
@cc75 3c28038b
@cc76 bca870e6
@cc77 bdb0a3ee
@cc78 3db2d961
@cc79 3d3e5365
@cc7a 3d81579a
@cc7b 3bf534bb
@cc7c 3ca9793e
@cc7d 3d01866d
@cc7e 3d98618e
@cc7f 3d0429fd
@cc80 3cefd9c4
@cc81 3bddef4f
@cc82 3d0065e9
@cc83 bc419d4b
@cc84 3dd39549
@cc85 3bd06158
@cc86 bca86bd4
@cc87 3d88aac1
@cc88 3d47605d
@cc89 bd176e6c
@cc8a bc3ec7cf
@cc8b bb959b26
@cc8c 3d9559cf
@cc8d baf15ca2
@cc8e bdadff8b
@cc8f bd38c844
@cc90 3d577dd9
@cc91 ba6acc16
@cc92 3cd51724
@cc93 3d854fd6
@cc94 3d32bfdb
@cc95 3dcf66bf
@cc96 bd5bfb81
@cc97 bc3e951f
@cc98 bd090868
@cc99 3d8e953c
@cc9a bd67ca70
@cc9b 3dca3664
@cc9c 3d59d40f
@cc9d 3cfc8a81
@cc9e bc959334
@cc9f bd2a7d70
@cca0 bcd785fe
@cca1 bd06c6f5
@cca2 3dd84130
@cca3 3b387a65
@cca4 bd40ceb8
@cca5 bc6c1072
@cca6 bda63bf7
@cca7 bd174682
@cca8 bdca6f2e
@cca9 3cb22246
@ccaa bbd1d051
@ccab bc14a7f3
@ccac 3da1bcba
@ccad 3ce5b22a
@ccae 3affe887
@ccaf 3d15c4ee
@ccb0 3c99a157
@ccb1 bc935dd7
@ccb2 3d5bd1c6
@ccb3 3cd2c6e5
@ccb4 bab3d2c9
@ccb5 bd194b62
@ccb6 3ca22463
@ccb7 3d6c1507
@ccb8 bda95513
@ccb9 3c1fb1a5
@ccba bc344dc9
@ccbb 3dacb055
@ccbc bd6c17f2
@ccbd bd52cae1
@ccbe bd49d8b1
@ccbf bd4245e7
@ccc0 3d133804
@ccc1 bc8e779a
@ccc2 3c830aab
@ccc3 bd1b5811
@ccc4 bd95c595
@ccc5 bd6ec6cb
@ccc6 bc8699e1
@ccc7 bd4fb325
@ccc8 bda84e33
@ccc9 bd7106a6
@ccca bd1d1dca
@cccb 3d097b09
@cccc 3dcbe897
@cccd 3d0ba7f1
@ccce 3cfc42eb
@cccf bcb41c13
@ccd0 3db22751
@ccd1 3c06ab44
@ccd2 3c08b4bb
@ccd3 3db8b63e
@ccd4 3cd6d79e
@ccd5 3de4e8a3
@ccd6 3bfcf83b
@ccd7 3def4d30
@ccd8 3c968224
@ccd9 bdb03acd
@ccda bd942794
@ccdb 39224e2c
@ccdc 3d7016e5
@ccdd bda2c05b
@ccde bd073ba3
@ccdf 3d0a912d
@cce0 3c32f44b
@cce1 bcce61b7
@cce2 bce0e4c8
@cce3 3cfad3c8
@cce4 bd22fe7c
@cce5 3d98d022
@cce6 3dcec723
@cce7 bd792988
@cce8 bcc62ee1
@cce9 bcb4c2bc
@ccea 3dc3aff7
@cceb bd80ed60
@ccec bdb33b89
@cced 3c94398e
@ccee 3bd64391
@ccef 3d9b174d
@ccf0 bd03d1b1
@ccf1 3dacc781
@ccf2 3d5a4169
@ccf3 3c6b5825
@ccf4 3d17adc8
@ccf5 bc7301b7
@ccf6 bc60e439
@ccf7 3d247281
@ccf8 3dc486b6
@ccf9 3db355a0
@ccfa bd9e857e
@ccfb 3cea29f5
@ccfc 3ccbef72
@ccfd bca30a6e
@ccfe bd9560c9
@ccff 3d4d6e8b
@cd00 bd9c1b76
@cd01 3c367c5b
@cd02 3cc8f116
@cd03 3c4bce86
@cd04 bd86bf15
@cd05 3ceaefa9
@cd06 bbb6f2e2
@cd07 bb9f8bb4
@cd08 bce7eb73
@cd09 3ddb6152
@cd0a 3c1abd16
@cd0b 3d2f7dc0
@cd0c bc7f21f4
@cd0d bd5f2176
@cd0e 3d987628
@cd0f 3cda7016
@cd10 3d4321c1
@cd11 bd1ffd58
@cd12 3b208b6e
@cd13 bd155373
@cd14 3cb4bd4a
@cd15 bde56ebc
@cd16 bd975b09
@cd17 bda6de8f
@cd18 bdb0b5b7
@cd19 3d289364
@cd1a 3de20304
@cd1b bdb159ad
@cd1c bdac9930
@cd1d 3aa7b515
@cd1e b995a600
@cd1f 3db4f2f2
@cd20 bc441380
@cd21 3d5ac897
@cd22 3d8c3483
@cd23 3cff4fef
@cd24 bd5b2f94
@cd25 3d8794f1
@cd26 3d1b16b6
@cd27 3db12f9f
@cd28 3d0d3aad
@cd29 3e096a47
@cd2a bdb52154
@cd2b bd3fe4aa
@cd2c 3de652c0
@cd2d bd6442a5
@cd2e 3d3dafab
@cd2f 3ca3737f
@cd30 3d13e6d7
@cd31 3d7fe759
@cd32 3d6a4aae
@cd33 bcec107c
@cd34 3d928e38
@cd35 3bb418a4
@cd36 3d1643e7
@cd37 bcb7ebf6
@cd38 bd9a63ea
@cd39 bd201a65
@cd3a 3deb8893
@cd3b bd7a9953
@cd3c 3a0815ed
@cd3d 3ca64f42
@cd3e bcbb5341
@cd3f 3dd912c2
@cd40 bd14c545
@cd41 bd5a48e5
@cd42 bd9fb3e4
@cd43 3db3cb8b
@cd44 3ce2f94c
@cd45 bcf85378
@cd46 3c682219
@cd47 3da0f22c
@cd48 bd852ca9
@cd49 bd967baa
@cd4a bd53edc8
@cd4b 3c7b5a77
@cd4c 3dd43a4f
@cd4d bdce0509
@cd4e bd6da3ab
@cd4f 3dbae4eb
@cd50 3d74f143
@cd51 3db6823b
@cd52 3c93c280
@cd53 3d253cfe
@cd54 bd8055df
@cd55 bdd69698
@cd56 bd80f44f
@cd57 3d0a77f8
@cd58 bccf82a0
@cd59 3d34d314
@cd5a 3d291b36
@cd5b 3d4ecb48
@cd5c bd920158
@cd5d 3db04f24
@cd5e bda0dd22
@cd5f bd9a607a
@cd60 3daa0d84
@cd61 3d7b431a
@cd62 bd8c83a3
@cd63 bd3849a1
@cd64 3d1a9bd2
@cd65 3b4423bf
@cd66 3d741bee
@cd67 3d7ac880
@cd68 3d96e6e3
@cd69 3d028201
@cd6a bd979c15
@cd6b 3dcc65ad
@cd6c 3db3a60a
@cd6d 3cf78fda
@cd6e 3dbcea16
@cd6f bcf937ed
@cd70 bd6011ce
@cd71 3dcba84c
@cd72 bda91ecb
@cd73 bd0365ad
@cd74 3d71ef2f
@cd75 bdaf0bbc
@cd76 bd300a6b
@cd77 3aa9c90e
@cd78 bc860042
@cd79 bd97d8f1
@cd7a 3d7a4161
@cd7b 3db5c4ba
@cd7c 3d892830
@cd7d 3d4fcd1b
@cd7e bbc2c3d4
@cd7f bda0e5e5
@cd80 bd514fb4
@cd81 bd78f194
@cd82 3d2d4015
@cd83 3d8a107b
@cd84 bd379e90
@cd85 bc6f568e
@cd86 3c4f7105
@cd87 3c80b257
@cd88 bd7a863a
@cd89 3c9e52ff
@cd8a bcc0c1c5
@cd8b bd998e64
@cd8c bc99e76b
@cd8d 3ceca6b4
@cd8e 3d8063f0
@cd8f bd55069b
@cd90 bc979e14
@cd91 3da47e73
@cd92 bcf6e093
@cd93 bcf73e41
@cd94 bd9fb20d
@cd95 3c895a9e
@cd96 3c80c918
@cd97 bd3e4f20
@cd98 3cc00e5c
@cd99 3d879e3f
@cd9a 3d317d42
@cd9b 3d59f1cc
@cd9c bba5c20c
@cd9d bd913753
@cd9e bd670b91
@cd9f 3dee0535
@cda0 3d161586
@cda1 3c80e736
@cda2 bd8221c7
@cda3 3c6e9367
@cda4 bc54ccaf
@cda5 3c9af05d
@cda6 bc8317f6
@cda7 bcb8b624
@cda8 bd516000
@cda9 3d80aa34
@cdaa bda43075
@cdab 3daa6a68
@cdac 3d9dfa22
@cdad bd72f9ff
@cdae bdaf5658
@cdaf 3cf38318
@cdb0 3d7aca36
@cdb1 3d8f635a
@cdb2 3dceff31
@cdb3 bc2ff9ef
@cdb4 3c99bf3d
@cdb5 bcd713a3
@cdb6 bcfb94f8
@cdb7 bd90489d
@cdb8 bd015ea3
@cdb9 bcf75795
@cdba 3db08c39
@cdbb 3c66aae7
@cdbc 3dc8dff0
@cdbd 3db1bcda
@cdbe bcaa072f
@cdbf bdc3731d
@cdc0 3ca3a9bd
@cdc1 3b721248
@cdc2 bd19e22e
@cdc3 bd1e85b3
@cdc4 bc84325b
@cdc5 bd9bcd86
@cdc6 bd0e7dbb
@cdc7 3d699915
@cdc8 bd445071
@cdc9 3d121a0c
@cdca bd317026
@cdcb bd613eff
@cdcc 3d948a55
@cdcd bcbe6312
@cdce bd1f7868
@cdcf bd8842b9
@cdd0 3e0e2f3c
@cdd1 3ddf023f
@cdd2 bd85d316
@cdd3 3d2519e1
@cdd4 bd359424
@cdd5 3d05133b
@cdd6 3db7f73c
@cdd7 3d8b8cae
@cdd8 bdcb5e6e
@cdd9 bd40b964
@cdda 3d287160
@cddb 3dbf88cc
@cddc bda9ae52
@cddd 3cd8c9f2
@cdde bd8b7bc3
@cddf 3cb06b93
@cde0 bd927ff8
@cde1 3c6dd254
@cde2 3b82e8bc
@cde3 bdd14453
@cde4 3da83db5
@cde5 bdb496a5
@cde6 bd5e2465
@cde7 3d313932
@cde8 bd9b146e
@cde9 bdaddc69
@cdea bdb44d61
@cdeb bd77ba6e
@cdec 3d631447
@cded bdaab7ed
@cdee bc710dd4
@cdef bb8308ae
@cdf0 3d355172
@cdf1 3d4072a6
@cdf2 3d298ad3
@cdf3 3da67c6e
@cdf4 bd322c74
@cdf5 bd1dc762
@cdf6 bd1e0f25
@cdf7 3d1e7b84
@cdf8 3db8e96a
@cdf9 3de01c44
@cdfa bc61ae3d
@cdfb bda08574
@cdfc 3d39e643
@cdfd 3c47b36e
@cdfe 3d15cdd2
@cdff 3d104a4e
@ce00 3dbf6f56
@ce01 3d9da4d9
@ce02 3d8655c7
@ce03 bdf4db42
@ce04 3da12d80
@ce05 bd4bca29
@ce06 bdaeb261
@ce07 bd978f2e
@ce08 bd87d222
@ce09 bb9bccca
@ce0a 3dcac0e1
@ce0b 3d09690b
@ce0c bbb7395e
@ce0d bbcbde8d
@ce0e 3da24a48
@ce0f bdc4432b
@ce10 3d970d43
@ce11 bd6a1cce
@ce12 bd2c2d82
@ce13 3dba2d34
@ce14 3dc26775
@ce15 bb60f47d
@ce16 3d8bc726
@ce17 bc3a7a1d
@ce18 3d41c3bb
@ce19 3d4b0bcd
@ce1a 3b80d04e
@ce1b bd5c8619
@ce1c bc01bda6
@ce1d 399c476c
@ce1e bd8294c1
@ce1f 3db075a0
@ce20 3e04544b
@ce21 bd65535b
@ce22 3cba52e1
@ce23 bcd45a11
@ce24 3d35b325
@ce25 bcc3db2b
@ce26 bb92d899
@ce27 3da1636a
@ce28 bdb8c17f
@ce29 3bf89226
@ce2a 3c8563f0
@ce2b bb8fef5b
@ce2c ba2657cd
@ce2d 3c91683e
@ce2e 3dda40a2
@ce2f bd5e6b78
@ce30 3cff4dd0
@ce31 3d9fede9
@ce32 3d1032f1
@ce33 3d186d06
@ce34 bc9f98db
@ce35 bcf259ca
@ce36 3ae918fb
@ce37 bb9e7379
@ce38 3d3618c4
@ce39 bdcc7c11
@ce3a 3a74e123
@ce3b 3d1d5b25
@ce3c 3dd17481
@ce3d b9c6a113
@ce3e 3cb8f9a2
@ce3f 3d9d8a07
@ce40 bd1b7ab2
@ce41 3bac0719
@ce42 bd375d1e
@ce43 3cad3cf0
@ce44 bda9e6de
@ce45 3c7e31f9
@ce46 3d26d02e
@ce47 3d3d377a
@ce48 bc0582d3
@ce49 3d8cf9e2
@ce4a 3d40c82e
@ce4b bc5a70a0
@ce4c 3d98c2c8
@ce4d 3d708263
@ce4e 3d8a5428
@ce4f bd7d28ce
@ce50 3b35cf1f
@ce51 bda218f3
@ce52 badaf5a4
@ce53 baa29760
@ce54 3dbc3edb
@ce55 3d6e1a98
@ce56 bd5e508f
@ce57 3d16e26d
@ce58 3d81f849
@ce59 bd07bc50
@ce5a bce981d7
@ce5b bd69b5d4
@ce5c bb2cce3d
@ce5d 3d4e2ad0
@ce5e 3ce9f136
@ce5f 3d98f8b1
@ce60 bd7a0539
@ce61 3d8e3824
@ce62 bd3abe62
@ce63 3d0e4413
@ce64 3d93715a
@ce65 bcf5616a
@ce66 bc4b938d
@ce67 bca594b4
@ce68 3cad4719
@ce69 bcc8d46a
@ce6a bbf8d2ce
@ce6b bd3243ce
@ce6c bd0bc08e
@ce6d bdadc0fe
@ce6e 3ce41e5e
@ce6f 3d5b4b38
@ce70 bd8c5739
@ce71 3b86fbdf
@ce72 bcd730ae
@ce73 3d7e0c78
@ce74 bd9ae890
@ce75 3da6cf78
@ce76 bd9ee8c0
@ce77 3b7e74ed
@ce78 bd4c89e9
@ce79 3daacdb0
@ce7a 3d8266f2
@ce7b bccd7536
@ce7c 3be92460
@ce7d 3d0011a0
@ce7e 3d5fc4e6
@ce7f bd94dea4
@ce80 3d21c009
@ce81 3c8c4864
@ce82 bd16f94d
@ce83 bc254fad
@ce84 3ca560e8
@ce85 3d369fc2
@ce86 bd8ceefa
@ce87 bda53f25
@ce88 bcbff358
@ce89 3d408557
@ce8a 3d6f5268
@ce8b bda2a9a3
@ce8c bb17655e
@ce8d bd57a6b2
@ce8e bd78bbdd
@ce8f bcdab455
@ce90 bd9fb18f
@ce91 bd8189cd
@ce92 3d1d85f9
@ce93 3d298e8f
@ce94 3d887303
@ce95 3b39f930
@ce96 3d3fed3e
@ce97 3d5c09f5
@ce98 3d9777c1
@ce99 bcf3384c
@ce9a bda53577
@ce9b bd1c51f1
@ce9c 3c1e790c
@ce9d bd9dcf25
@ce9e bd2b4196
@ce9f bd832c5f
@cea0 3d04aac0
@cea1 bcd5280c
@cea2 bc4d85db
@cea3 3c87ec57
@cea4 3ca4b845
@cea5 bd25e8bc
@cea6 3d5cc7fe
@cea7 3d4cea09
@cea8 3d47faab
@cea9 3dacad4e
@ceaa bcf9a269
@ceab bd4085e5
@ceac 3d35a2e2
@cead 3d20da76
@ceae 3c98b791
@ceaf bda615e7
@ceb0 3d926ee9
@ceb1 bc04dbc6
@ceb2 bb2a4be0
@ceb3 bdb54e31
@ceb4 bdb598a5
@ceb5 bd32b879
@ceb6 bb0e8207
@ceb7 3a6e4b7d
@ceb8 bd0b95de
@ceb9 3c34fa71
@ceba 3d3e4a99
@cebb 3d0de406
@cebc bdeb90c6
@cebd bc5303e0
@cebe 3c700a9b
@cebf bd52aa7c
@cec0 bdabb750
@cec1 bd10ddf9
@cec2 3da28ac8
@cec3 3c2df63f
@cec4 3d9bc335
@cec5 bd52b51b
@cec6 bc47e5d2
@cec7 bdb40361
@cec8 bd3a2d4c
@cec9 3d7ec143
@ceca 3c0d0c4a
@cecb bd54e612
@cecc 3d5f9116
@cecd bd28db87
@cece bdadd102
@cecf 3d4c55fa
@ced0 3d4f639e
@ced1 bd18fc0c
@ced2 3d942970
@ced3 3dd20400
@ced4 3cc5515d
@ced5 3d02d4f6
@ced6 bcb6efa6
@ced7 bd64a3aa
@ced8 3d4a768f
@ced9 3d896947
@ceda bc855101
@cedb bd1eda00
@cedc 3d8f284a
@cedd 3b8c7e32
@cede 3d2aada8
@cedf bcfa8c87
@cee0 3d841ec4
@cee1 3c833e1b
@cee2 3caf2759
@cee3 bd7dbd16
@cee4 bb961a1a
@cee5 3de13267
@cee6 3d817483
@cee7 3d8e2077
@cee8 bd46c2cc
@cee9 bca30d22
@ceea 3db3e858
@ceeb 3d3e83be
@ceec bb333685
@ceed 3d07b65e
@ceee 3c3f041c
@ceef 3d3c5b8d
@cef0 bd1d8a02
@cef1 bda0f58c
@cef2 bd1ec75d
@cef3 3d8b7f7f
@cef4 3da7e471
@cef5 3da961ac
@cef6 bd714126
@cef7 3dbdf195
@cef8 bd8b9741
@cef9 3d8dc4a0
@cefa baf0a57d
@cefb 3d71c338
@cefc 3dc18bf5
@cefd 3d955d32
@cefe 3d2a6f50
@ceff bda80079
@cf00 3c28e6d0
@cf01 bdbdcebf
@cf02 ba7733eb
@cf03 3d9a4176
@cf04 3d222d15
@cf05 3d869de5
@cf06 bdabbb37
@cf07 bcaa34b6
@cf08 bd91ca41
@cf09 bd6cefd4
@cf0a bdd0c2a2
@cf0b bd611adf
@cf0c bd9f5ae6
@cf0d 3d9ef59c
@cf0e bd85929f
@cf0f 3da2440b
@cf10 3d4d7e75
@cf11 bd9bfdf9
@cf12 3dc8a69b
@cf13 3ddca762
@cf14 3d455a29
@cf15 3de8751d
@cf16 bd01298a
@cf17 3d5915e8
@cf18 bd54e414
@cf19 bcb3b76f
@cf1a bc9f367e
@cf1b 3d8a5e11
@cf1c bdb33205
@cf1d 3d9fc7c6
@cf1e bd806f9c
@cf1f 3d63c450
@cf20 bca6ff9a
@cf21 bdb9da3e
@cf22 bd82aafc
@cf23 3cd117d4
@cf24 bca4e5f6
@cf25 3cf1269e
@cf26 3dbc03a6
@cf27 bb47f010
@cf28 bda9a78f
@cf29 3dd3979a
@cf2a 3da4fd0a
@cf2b 3db1c00e
@cf2c bd1d62e6
@cf2d 3ce9381d
@cf2e 3d1e1837
@cf2f bd4ef925
@cf30 3c6d4bdd
@cf31 3dbbfec9
@cf32 bc966a60
@cf33 bd806368
@cf34 bd464306
@cf35 bd18ed07
@cf36 bc656691
@cf37 bd8247e7
@cf38 bd93f9bb
@cf39 bd0df804
@cf3a bd86f995
@cf3b 3cba9b37
@cf3c bd57fe9f
@cf3d 3d0ad384
@cf3e bc1078b7
@cf3f bdb943a2
@cf40 bd8ff560
@cf41 bc912c23
@cf42 3cec83d6
@cf43 bd2f5571
@cf44 b9bc8827
@cf45 bc59aaeb
@cf46 3dae14d3
@cf47 bd255fcb
@cf48 bd977dfe
@cf49 bd730458
@cf4a 3d9ba044
@cf4b 3d2c85fd
@cf4c 3d8e63c4
@cf4d bc0deab3
@cf4e bd41da80
@cf4f 3caee3ca
@cf50 3a330600
@cf51 bcc9764f
@cf52 bce3de77
@cf53 bd68e3c2
@cf54 3d7ea321
@cf55 bc2d745d
@cf56 bd9d0326
@cf57 3da1e5a7
@cf58 3d10bb36
@cf59 3d171175
@cf5a 3db685a9
@cf5b bcb4df32
@cf5c 3d11f522
@cf5d 3ce46cc8
@cf5e 3d7fa345
@cf5f 3db140ac
@cf60 bcbeedf5
@cf61 3d5515d0
@cf62 bb399c16
@cf63 bcc6787e
@cf64 bca3bcfb
@cf65 3d928db0
@cf66 bc09247d
@cf67 3dbbc626
@cf68 3cf0f574
@cf69 bd4a07e5
@cf6a 3d03a032
@cf6b bd81831b
@cf6c bdb863db
@cf6d 3da6021d
@cf6e 3dae80ba
@cf6f bd2cd038
@cf70 bd9b2c09
@cf71 bba653ec
@cf72 bd646eb4
@cf73 3c2b9f26
@cf74 3d46796d
@cf75 3d8da3d2
@cf76 bd6d97e8
@cf77 bd94898b
@cf78 bd2fadd6
@cf79 3d1839b9
@cf7a bcadbfd8
@cf7b 3ba25e1f
@cf7c bc3df2ac
@cf7d 3da14259
@cf7e 3b631c9b
@cf7f 3d11c74a
@cf80 bce86a3e
@cf81 3d5eca5d
@cf82 bc878078
@cf83 3d96824f
@cf84 bd0c7019
@cf85 3d76eec1
@cf86 3dbd4c6a
@cf87 b943b6bc
@cf88 3d4784cd
@cf89 3ba73e24
@cf8a 3dd08f56
@cf8b 3c2ffb42
@cf8c bd91fb8b
@cf8d 3b37da46
@cf8e bd0e1979
@cf8f bd1f140f
@cf90 bcd72ece
@cf91 3d29d9b0
@cf92 bdbec54e
@cf93 bd477761
@cf94 bc575767
@cf95 3db522ae
@cf96 3c38b8b5
@cf97 3c7b987a
@cf98 3d17e921
@cf99 bdaf4f42
@cf9a bd0ea6a1
@cf9b 3d6ceade
@cf9c 3dafd995
@cf9d 3d339da1
@cf9e 3ca728fe
@cf9f 3d878f06
@cfa0 3d3240e4
@cfa1 3d0a6140
@cfa2 3d29b01c
@cfa3 3d363410
@cfa4 3d99d3d2
@cfa5 3db64029
@cfa6 bcc858f0
@cfa7 bd0f46ca
@cfa8 3aa0de1e
@cfa9 3bd5bb9d
@cfaa bd2036a1
@cfab 3d6805a4
@cfac bc602eab
@cfad bdcf7750
@cfae 3d36d972
@cfaf 3cc02c5a
@cfb0 3d19f529
@cfb1 3d790036
@cfb2 3d1b33b9
@cfb3 b9c0da3c
@cfb4 3daaa383
@cfb5 bd9a495d
@cfb6 bd1404a9
@cfb7 bcb3b7e0
@cfb8 3da1416a
@cfb9 bd351620
@cfba bb77c3ac
@cfbb bac7323b
@cfbc 3cdc1d57
@cfbd 3db86735
@cfbe bcb42180
@cfbf 3c240e08
@cfc0 3a49cbec
@cfc1 3d8e39e9
@cfc2 bcc1a4c3
@cfc3 3e03f1e8
@cfc4 bdb4c1f6
@cfc5 3c61d67b
@cfc6 3cd34cb8
@cfc7 3db73faa
@cfc8 3d52db22
@cfc9 bdd1eeab
@cfca 3c950de1
@cfcb 3d7a0816
@cfcc 3ca1dd96
@cfcd bd0f0a55
@cfce 3db37c87
@cfcf bbfba12a
@cfd0 bcc2e57b
@cfd1 bd1bed00
@cfd2 3d6821b5
@cfd3 bbb5fc39
@cfd4 3d2ffdba
@cfd5 3dbab1f2
@cfd6 bd23a1d7
@cfd7 3dcc1254
@cfd8 3c4a91b7
@cfd9 3d9bc1dc
@cfda bd6087ed
@cfdb 3da9a293
@cfdc 3d5edb9c
@cfdd 3cc8f62b
@cfde bbcd9b5f
@cfdf bca84ff3
@cfe0 3cbb887c
@cfe1 3d72f92a
@cfe2 3c9cf13b
@cfe3 3ccca0cc
@cfe4 bd8628b7
@cfe5 bda1b757
@cfe6 bd5c6639
@cfe7 3ca47d56
@cfe8 3d855d78
@cfe9 bd46b5da
@cfea bdb072ec
@cfeb bd482a61
@cfec 3caa5dbd
@cfed bd714ecb
@cfee 3cfaabe8
@cfef 3d533b7a
@cff0 bd20f08d
@cff1 3cb7e820
@cff2 3d13b8fd
@cff3 bdf2372b
@cff4 3d840f64
@cff5 3d89ad2c
@cff6 bd672ab0
@cff7 3ad2ff8a
@cff8 3d6bb046
@cff9 bd925841
@cffa 3cf22f55
@cffb bda5597f
@cffc 3d40a456
@cffd 3dd085eb
@cffe bd7bfc10
@cfff 3b42a852
@d000 bde8f001
@d001 bd63407a
@d002 bd6ace00
@d003 3d1ca105
@d004 bc0f6900
@d005 3d718915
@d006 3d6a51be
@d007 3cf7e176
@d008 bdb5aafd
@d009 3c778ab6
@d00a bdb23a54
@d00b 3c710c77
@d00c 3d98bd09
@d00d 3d375c6a
@d00e 3d8b7d0a
@d00f 3c3f3962
@d010 3d377020
@d011 bd87a18f
@d012 3d3af9b3
@d013 bd2b1268
@d014 3d90b55b
@d015 bc96c470
@d016 bdd23bda
@d017 3c903978
@d018 3ce71877
@d019 3d6d96d6
@d01a 3d01fb0d
@d01b bd90d82b
@d01c 3d16e589
@d01d 3d6a39eb
@d01e bd35c55c
@d01f 3c07ba21
@d020 bd19eb6e
@d021 3da71371
@d022 bd872784
@d023 3d729e4f
@d024 bbf5c278
@d025 3d256b51
@d026 3d92c442
@d027 3db793d9
@d028 bc9c4896
@d029 3d522250
@d02a 3c0048f8
@d02b 3cd99322
@d02c bdc34b08
@d02d bc8b55ab
@d02e 3d36ff2f
@d02f bb986fb0
@d030 bc465c0e
@d031 bcc9b04b
@d032 bd1aed9d
@d033 bd831aef
@d034 bd168e16
@d035 bd47159a
@d036 3d9fa27c
@d037 bd127898
@d038 bcc00402
@d039 bd5b57fa
@d03a bd08c898
@d03b bcade4aa
@d03c 3cbb948c
@d03d 3d4f2de9
@d03e 3ccdd3e6
@d03f bcf85134
@d040 3c41a5c6
@d041 3cfb505d
@d042 bc2be391
@d043 3d6e35f5
@d044 3d7e092c
@d045 bd760f11
@d046 bc6c979b
@d047 bd42a7b5
@d048 bcd58c45
@d049 3d04b030
@d04a bda49b37
@d04b 3d877726
@d04c 3d9c58e3
@d04d 3d66f59c
@d04e bdad96da
@d04f 3daef5dc
@d050 3cb85915
@d051 3da4a797
@d052 3d8d6c24
@d053 bdb62018
@d054 3cb1647d
@d055 bd8323d7
@d056 3d0165fb
@d057 3d02773e
@d058 bd1ae822
@d059 3da06818
@d05a 3d59dd37
@d05b 3d3f3153
@d05c bd13e88a
@d05d bc982a10
@d05e 3ca69a27
@d05f bdba99d2
@d060 3cfd577d
@d061 bd40399d
@d062 3cfbf832
@d063 bd85420d
@d064 bb8ec1b6
@d065 bd268574
@d066 3bdd11d0
@d067 bd025c51
@d068 bd91d52a
@d069 3daa7708
@d06a bc23c446
@d06b bd1609db
@d06c 3d306489
@d06d bd96ca2b
@d06e 3d98f0ee
@d06f bd30b122
@d070 3d4fdeae
@d071 bcbe9a4f
@d072 3d83431b
@d073 3d83bdf5
@d074 3d8c2f74
@d075 bd15a963
@d076 bd426d8a
@d077 bb4edd80
@d078 bd8a7b99
@d079 3ce002c3
@d07a 3daa31d5
@d07b bdc3f3c0
@d07c bb8aee29
@d07d bd05ecae
@d07e bc020885
@d07f 3d44c726
@d080 3db3d47b
@d081 3d5ffb56
@d082 bd6bb9b5
@d083 3d22f427
@d084 bdb45d15
@d085 bd299299
@d086 3d9f2e3a
@d087 3ba4040d
@d088 bbaa30d0
@d089 3d829f36
@d08a bd4e37cb
@d08b 3d459e4e
@d08c 3d5d6c43
@d08d 3d5c0e08
@d08e 3d35d7cf
@d08f bd9de2b9
@d090 3d0a596a
@d091 bd625bb2
@d092 bd159401
@d093 3d8b5671
@d094 bd4b15ed
@d095 3cec398d
@d096 3d9a3402
@d097 bd08b41b
@d098 3ce56995
@d099 3d8a4d43
@d09a baa2101d
@d09b 3d2ac821
@d09c bd902be5
@d09d 3d3802ab
@d09e 3ca91d2e
@d09f bca38126
@d0a0 3dc59ae9
@d0a1 3db7e444
@d0a2 bbeb7f05
@d0a3 bd063974
@d0a4 3d9d376d
@d0a5 3d8252fb
@d0a6 bdb2e06d
@d0a7 3baf2920
@d0a8 bbdb2e21
@d0a9 bd982572
@d0aa bd87210a
@d0ab bbfb2f65
@d0ac 3d188065
@d0ad bdbcdb99
@d0ae 3d0604d8
@d0af 3d955b33
@d0b0 3d4d5d7f
@d0b1 3cf77563
@d0b2 3d992937
@d0b3 bd7f7321
@d0b4 3d64fb3c
@d0b5 3c2d954a
@d0b6 3b68a431
@d0b7 bdacfa9a
@d0b8 3d68d630
@d0b9 3d5cb72c
@d0ba 3d519613
@d0bb 3cc7e0aa
@d0bc 3cf6fe64
@d0bd bdeb2176
@d0be bd8d6ba6
@d0bf bd731b9d
@d0c0 bce6d573
@d0c1 3d7762bb
@d0c2 3dadb9fa
@d0c3 bcf79fed
@d0c4 bd066983
@d0c5 bd19c719
@d0c6 3d2c8bde
@d0c7 bb037fcf
@d0c8 bda1ae5d
@d0c9 3d686526
@d0ca 3da5a73f
@d0cb bd580df9
@d0cc bdd3224f
@d0cd 3cd01853
@d0ce 3db9bb7c
@d0cf bd97fe42
@d0d0 3d9420ae
@d0d1 3d90898e
@d0d2 bd9fb55b
@d0d3 bdc7328d
@d0d4 3c4c1bd4
@d0d5 bc95f924
@d0d6 3bf67fc2
@d0d7 3d874b62
@d0d8 3c9e9de0
@d0d9 3c3084d4
@d0da 3b12dfd3
@d0db 3d87e4c9
@d0dc 3b86703f
@d0dd 3d3786ba
@d0de bd3ec640
@d0df bca9f65c
@d0e0 3d3fa800
@d0e1 bdc34cac
@d0e2 bdac8ce2
@d0e3 3e01e555
@d0e4 3d07b439
@d0e5 3dab7d06
@d0e6 bb8957de
@d0e7 3e02a208
@d0e8 bd4d199a
@d0e9 3dc80caa
@d0ea b92da0e8
@d0eb bd7eed21
@d0ec bc25dd72
@d0ed 3d80355c
@d0ee 3caea247
@d0ef bd845d96
@d0f0 3d9d34c2
@d0f1 3d7c3a7f
@d0f2 3c8a5cfe
@d0f3 3bc579a3
@d0f4 bda79c77
@d0f5 bd950e98
@d0f6 3dba5f10
@d0f7 bd64bb5a
@d0f8 3d6918de
@d0f9 bde9815f
@d0fa 3dad30ec
@d0fb bd89ce76
@d0fc 3d005bde
@d0fd 3d877e6d
@d0fe bc064779
@d0ff 3c9d117f
@d100 3c8fc5bb
@d101 3cf8f900
@d102 3d6c54bf
@d103 bd0ee76d
@d104 be11d84b
@d105 3d760237
@d106 bd3ab4f3
@d107 3d807ccf
@d108 3cd1e55d
@d109 3d85f0e2
@d10a bd0f014d
@d10b 3b352190
@d10c 3db0857d
@d10d 3d4a30d3
@d10e 3d24c038
@d10f 3d56b4a4
@d110 bd018019
@d111 3d16bad7
@d112 bda9a648
@d113 bd347533
@d114 bd067f84
@d115 3d30970a
@d116 3db227b6
@d117 3b03cb46
@d118 3d23e69e
@d119 bcd8c363
@d11a 3d14fe07
@d11b bdad695e
@d11c 3d0b327a
@d11d 3dadf6e3
@d11e 3dc54653
@d11f bd87455d
@d120 bd82d6d6
@d121 3d1c4eee
@d122 3dacabe0
@d123 3d2a2770
@d124 bd8ea09f
@d125 bcf0fe81
@d126 bd80855d
@d127 bd8a9582
@d128 bcfefea3
@d129 bcfc8c3d
@d12a 3c4dcf9d
@d12b 3c4376fa
@d12c bda9a59c
@d12d 3c52a676
@d12e bbb4a1c0
@d12f bce353ec
@d130 bd83c2c2
@d131 bd3b5828
@d132 bd460308
@d133 bd63425e
@d134 3d5821ca
@d135 3c9fca61
@d136 bd33dbe3
@d137 3daf546b
@d138 3d0f2063
@d139 3d9f6c4f
@d13a 3d2ab6df
@d13b 3c14140c
@d13c bd5b067f
@d13d bd3e4b14
@d13e 3d3fa654
@d13f 3d6fec68
@d140 bc3b5b2f
@d141 3c21c06d
@d142 bc4ccf23
@d143 bda00c39
@d144 3d474b3c
@d145 3d16a290
@d146 3ce30d9f
@d147 bd147a94
@d148 3da4a77b
@d149 bd0705fd
@d14a 3d74e3cf
@d14b 3d894fcd
@d14c 3db239f6
@d14d bd3894b6
@d14e 3d8944ee
@d14f 3d082c36
@d150 3a13248a
@d151 bd0e78bb
@d152 bd7625f3
@d153 3d6ce7e4
@d154 bbd2bf1f
@d155 bd83f46e
@d156 bd7ad628
@d157 3cb09fa8
@d158 bd939d4f
@d159 3b08a80f
@d15a 3ad5cbff
@d15b bdbea2f1
@d15c bd333002
@d15d bdb5260b
@d15e 3d9781fa
@d15f 3b8981df
@d160 bd8359dd
@d161 3c6c53b0
@d162 3d61d541
@d163 3d85d6e7
@d164 bda391d8
@d165 3d603918
@d166 bddd1259
@d167 bd9ce1fd
@d168 3da2308d
@d169 3d438f59
@d16a 3c90a1d5
@d16b bdc5b40a
@d16c 3d77afc2
@d16d bd87258d
@d16e 3db8c423
@d16f 3d1588ad
@d170 3d8670a7
@d171 bd9fe536
@d172 3c79ab90
@d173 bd808337
@d174 bd562e88
@d175 3c299ad8
@d176 bc128434
@d177 3d164811
@d178 bd77916c
@d179 bd8e080a
@d17a bdb3600a
@d17b bc66cc69
@d17c bcd1d9a8
@d17d bd0965dd
@d17e bd8a9a5b
@d17f bd9efeea
@d180 3d8b9fd7
@d181 3d2afdc0
@d182 39f2cb74
@d183 3a960336
@d184 bd805db7
@d185 3da22c23
@d186 bd1d76da
@d187 3d909595
@d188 3c5f211a
@d189 bc4328e8
@d18a 3d39a03c
@d18b 3c66009c
@d18c bd9af548
@d18d 3c95327d
@d18e 3d50a0bf
@d18f 3ce13b8a
@d190 bc16d091
@d191 bda18afe
@d192 bd84cb85
@d193 bca4b5ce
@d194 bd69ce8a
@d195 ba7020fe
@d196 3d6b5846
@d197 bd8f950e
@d198 3cb676cd
@d199 bd1e185e
@d19a bd58a136
@d19b 3cadbed1
@d19c bd7fc08a
@d19d 3d8b2c3c
@d19e 3d4416bd
@d19f 3d31247e
@d1a0 bcdea02f
@d1a1 bd17a469
@d1a2 3d432f73
@d1a3 bd76010f
@d1a4 bd39791a
@d1a5 3d739e56
@d1a6 3d4b0fd6
@d1a7 3cd99379
@d1a8 3d8e206c
@d1a9 bd0517b1
@d1aa bd51d5b9
@d1ab 3c035129
@d1ac bd8b1a82
@d1ad bd92a40e
@d1ae bd0e09b1
@d1af 3db7bd4d
@d1b0 3dc1277e
@d1b1 3ce70336
@d1b2 3db94bef
@d1b3 3c7bd72f
@d1b4 3d81e3cf
@d1b5 bd7598df
@d1b6 bd9c7a2b
@d1b7 3db046c6
@d1b8 3c833236
@d1b9 bb789d27
@d1ba 3daebd6f
@d1bb bcb18331
@d1bc bd82c6ee
@d1bd bc2bd08f
@d1be bd3ece08
@d1bf 3d1cce59
@d1c0 bc960d38
@d1c1 bd60f2c7
@d1c2 3d47f39e
@d1c3 3d89c284
@d1c4 bd234606
@d1c5 bd7d5a0d
@d1c6 3dbcdcb3
@d1c7 bd0ecad6
@d1c8 bc0d71e2
@d1c9 3da04af0
@d1ca 3d365fd4
@d1cb bcd65ad2
@d1cc 3ca9f719
@d1cd bdad7ae2
@d1ce 3d5e92b8
@d1cf bd5b0f8b
@d1d0 3db606e8
@d1d1 3d92d006
@d1d2 3da71981
@d1d3 bd89d663
@d1d4 bd034db4
@d1d5 3d0356a4
@d1d6 3d42886b
@d1d7 bd4eec10
@d1d8 3d71d85d
@d1d9 3cf6d9d9
@d1da bd439247
@d1db bcbe1458
@d1dc 3bdb6046
@d1dd bd2bf586
@d1de 3d7f808f
@d1df 3da8ac90
@d1e0 bdb07dcc
@d1e1 3dbbb1b2
@d1e2 bc9a767a
@d1e3 3ca35441
@d1e4 3dac0ab2
@d1e5 3c06c366
@d1e6 bd7e3e7e
@d1e7 bd24d29f
@d1e8 3bbf523f
@d1e9 3c5b70e2
@d1ea 3d8ecb2a
@d1eb 3dab79b6
@d1ec bceb1ca2
@d1ed bd7dd4f6
@d1ee 3d4c8e7d
@d1ef bd4a43b0
@d1f0 3d9be41d
@d1f1 bdb42bbb
@d1f2 3d80dbc4
@d1f3 3d8f9705
@d1f4 3da8966f
@d1f5 bcab074f
@d1f6 3b86df8f
@d1f7 bd8327af
@d1f8 3b2d96b9
@d1f9 bb4cc863
@d1fa 3ba427d7
@d1fb bcc81404
@d1fc 3cb9a81d
@d1fd bd073e18
@d1fe bc8241dd
@d1ff 3d38fdd0
@d200 bc9e66b7
@d201 3db6aa51
@d202 3c8098a9
@d203 3d96d5d9
@d204 3b82cace
@d205 3daa9ec6
@d206 bd0bca24
@d207 3d9202c9
@d208 bd7fce25
@d209 bb9b506c
@d20a bc707cbc
@d20b bda6c80c
@d20c bc894a11
@d20d bcb2c4a1
@d20e 3c9baace
@d20f bb1eb6a0
@d210 bd23c873
@d211 bc6bd392
@d212 bd988adb
@d213 bd9c0dc2
@d214 bbc09414
@d215 bcd3f0bd
@d216 bcd91377
@d217 bd14ef81
@d218 bc7d645c
@d219 bdadb2bd
@d21a bc1103b0
@d21b 3c0caeae
@d21c 3db67a82
@d21d 3d5eab73
@d21e 3d1cef28
@d21f 3d9d9b82
@d220 3ba13ca4
@d221 bc6ff153
@d222 3c629879
@d223 bd8c93cf
@d224 3d01d437
@d225 3d1e8714
@d226 bdb91939
@d227 bda40a65
@d228 3cdc31bf
@d229 3b645bcc
@d22a 3d2b73c9
@d22b 3dc29947
@d22c bcf410ea
@d22d 3d553154
@d22e bd671728
@d22f 3caa4ef3
@d230 bd88e6ff
@d231 bdf5b1e7
@d232 bd2b49af
@d233 3c3539b8
@d234 bd569205
@d235 bc4f8f19
@d236 bd61df31
@d237 bd9e75fd
@d238 bd316634
@d239 3d6be3ca
@d23a bd728216
@d23b 3d919acf
@d23c 3d5e8195
@d23d 3db902b4
@d23e 3c54013f
@d23f bd06f447
@d240 bdb6bf22
@d241 bc256d1c
@d242 bd8a784f
@d243 3d43faf3
@d244 bdb2b6ac
@d245 bafa2c2a
@d246 3d6b1a94
@d247 3da18e91
@d248 3cc56046
@d249 bcf28947
@d24a bda56c33
@d24b bdd374d2
@d24c 3d4a6bdd
@d24d 3d4f3a63
@d24e bda4eb32
@d24f bd0c5d36
@d250 3cb60099
@d251 bd0ee576
@d252 bcfa9c5c
@d253 bd07e23e
@d254 3cc3f20c
@d255 3de32894
@d256 3d5da840
@d257 3d22a708
@d258 bd5622fa
@d259 bddacd61
@d25a 3dd83a88
@d25b 3bf8e742
@d25c bd93e0fb
@d25d 3d89cb63
@d25e 3d1eedcb
@d25f 3da60d97
@d260 bd275d30
@d261 3c912744
@d262 3da79a20
@d263 bcede4d0
@d264 3d811fc7
@d265 3ca1235a
@d266 bd98f7fb
@d267 bc4153bc
@d268 3d1b173e
@d269 bd9dd894
@d26a 3d0968c5
@d26b bbe3db8d
@d26c 3dea82d2
@d26d 3d6de566
@d26e 3cf395d8
@d26f bd8ade95
@d270 bd7967da
@d271 3baf7d9a
@d272 3ddacf4f
@d273 3d801f42
@d274 3a8e6f1e
@d275 3d8d47ea
@d276 bae9796b
@d277 bda15082
@d278 3d031099
@d279 3c486c48
@d27a 3df0e31d
@d27b bd775432
@d27c 3d93caeb
@d27d 3d8fabbb
@d27e 3dce6dda
@d27f bd9b45b4
@d280 3dc4faca
@d281 bd0b2a56
@d282 bdb09dfc
@d283 3d3ab878
@d284 bd730c84
@d285 3d8c896e
@d286 3ab3f861
@d287 3db76ae6
@d288 bda953f8
@d289 3d5f7614
@d28a bc3a5a8d
@d28b 3b4bebff
@d28c 3c9156fc
@d28d 3d85bdc9
@d28e 3cb57b2a
@d28f bd8c9ebd
@d290 bd56d5d4
@d291 bdb085cb
@d292 bc5b95ab
@d293 3da4931a
@d294 bc58385a
@d295 bd82aba9
@d296 bc5b71ec
@d297 3de0c2a0
@d298 3d38ddc2
@d299 bcb6fec1
@d29a 3d0d1de2
@d29b bc4330b2
@d29c bdbf1e1f
@d29d 3dc3f64f
@d29e 3cc88121
@d29f bd3093f4
@d2a0 3d23b530
@d2a1 bda4e17f
@d2a2 bbecee5f
@d2a3 bd216878
@d2a4 3db74522
@d2a5 bbf3931e
@d2a6 bd3285c9
@d2a7 3c851d0f
@d2a8 bdb68f4e
@d2a9 bd8bf478
@d2aa bd6f243c
@d2ab 3daacc5b
@d2ac bd8338da
@d2ad 3d916d09
@d2ae 3cf11585
@d2af bc93d463
@d2b0 3cefa2bd
@d2b1 bd676779
@d2b2 3ddb084a
@d2b3 3d5e4833
@d2b4 3dc0ab67
@d2b5 3dac07b1
@d2b6 3d614a2f
@d2b7 bceef43c
@d2b8 3dad3a93
@d2b9 3c2609ed
@d2ba bd0ee0bd
@d2bb bc0b894b
@d2bc bd22d7a1
@d2bd bdaae0b7
@d2be bc84e56c
@d2bf bda8906f
@d2c0 bcc7ea7e
@d2c1 bd4d0688
@d2c2 3d918cfa
@d2c3 3c4cf467
@d2c4 3d20e8f0
@d2c5 bd9e1b6a
@d2c6 3c85809c
@d2c7 bd1965e9
@d2c8 bc55ff9f
@d2c9 3c73ed5e
@d2ca 3c746e55
@d2cb 3d5ea93e
@d2cc bd82c015
@d2cd bd070bcb
@d2ce 3c5f47b4
@d2cf 3dae3f48
@d2d0 3dbfbd53
@d2d1 3cd927a8
@d2d2 bd897e57
@d2d3 3d8c09b2
@d2d4 3d27d3dd
@d2d5 bd7df6a4
@d2d6 3d9e6294
@d2d7 3d833abc
@d2d8 3d8135d4
@d2d9 baa7c7c9
@d2da bc7dcc58
@d2db 3d68fa7f
@d2dc 3d8e6f0a
@d2dd 3dba46d1
@d2de bd431e4f
@d2df 3dcdc790
@d2e0 3d1686e9
@d2e1 bd692fde
@d2e2 bd9e9526
@d2e3 3d41e4a0
@d2e4 3c2bff6d
@d2e5 bc241bd5
@d2e6 3c428556
@d2e7 3d904639
@d2e8 3c017410
@d2e9 3d3fd734
@d2ea bd568972
@d2eb 3d95e921
@d2ec bc840a2a
@d2ed bd12ea4d
@d2ee 3d3e7c41
@d2ef bce284ca
@d2f0 bc74d24a
@d2f1 bcbda1a7
@d2f2 3ce8412b
@d2f3 3c326ed4
@d2f4 3d777f4a
@d2f5 3cf395c9
@d2f6 3bb926e9
@d2f7 3b6f47ee
@d2f8 3d8cc730
@d2f9 3d6207ed
@d2fa bb20ce16
@d2fb 3d40c0bd
@d2fc bd872d91
@d2fd 3cc30f2c
@d2fe bd30db1a
@d2ff 3d002a3a
@d300 3e05cb14
@d301 3d89034d
@d302 bde6718a
@d303 3cbd9b43
@d304 bdb50483
@d305 bdaec91d
@d306 3c4ceec4
@d307 3c6248b3
@d308 3da59cb0
@d309 3d03f64c
@d30a bc2836d7
@d30b 3d2a8e12
@d30c baaccca6
@d30d bdb1b71b
@d30e bd90ae38
@d30f bc8336dc
@d310 bd03ef08
@d311 3d0c0e74
@d312 bdac8bf5
@d313 3d673c98
@d314 3cf2ce2f
@d315 3d721bac
@d316 bd07b3d4
@d317 3da1ba6c
@d318 bdb0fc2f
@d319 3d6c43d9
@d31a bd8d799a
@d31b 3d49bf59
@d31c 3d2cd145
@d31d bdc7750d
@d31e 3cad0c09
@d31f 3cffd7ce
@d320 bdc6c9df
@d321 3cefae31
@d322 3c62bf37
@d323 3d2208eb
@d324 bd7d2dd4
@d325 bd1c111f
@d326 3caeb732
@d327 3ddbb188
@d328 3c8e5608
@d329 bd13b17a
@d32a bd1526de
@d32b 3d86c56f
@d32c 3c4f989e
@d32d 3c97f87a
@d32e 3dcf750b
@d32f 3dd95b3f
@d330 3c1d9d97
@d331 bd879c83
@d332 bceddde9
@d333 bdc9af4d
@d334 3d926418
@d335 bd158e9e
@d336 bd8d43a2
@d337 3c5fa716
@d338 bd90564e
@d339 3dcbb6b0
@d33a bd64f1da
@d33b 3d92c4ec
@d33c 3db5412e
@d33d bcff6e4a
@d33e bdb2cb22
@d33f 3db71ee8
@d340 3cba9300
@d341 bd710cec
@d342 3bb61415
@d343 3d6124aa
@d344 39ff8a46
@d345 3dba0ff4
@d346 3e181994
@d347 3cf16890
@d348 bd190bda
@d349 bd81a8ad
@d34a bbb7d9e7
@d34b bd90d9df
@d34c 3d7e36fc
@d34d bd95e2e9
@d34e bdae5bfe
@d34f bd204f9a
@d350 3d9de4b6
@d351 3dd8fee7
@d352 3c6e04d3
@d353 bd6d9237
@d354 bc626f7d
@d355 bc68b249
@d356 bdc73157
@d357 bdb39716
@d358 3d99dd18
@d359 3d3e97d4
@d35a bbf9b1d1
@d35b 3d972e3f
@d35c 3d5d7f9e
@d35d bcdd32d2
@d35e bd89e6ca
@d35f 3da1d136
@d360 3dab0baa
@d361 bcc744f1
@d362 3b26c695
@d363 bd31f17b
@d364 bd4192b5
@d365 39433726
@d366 3da2397c
@d367 3db34a35
@d368 bd97be1d
@d369 bd2c818b
@d36a bd2fc848
@d36b bc9d1d03
@d36c bc70e2f5
@d36d bdf951c2
@d36e 3ca6e34d
@d36f bdb912ef
@d370 3d7bc406
@d371 bda0ce12
@d372 3c40d24b
@d373 3c637d20
@d374 3d8096b4
@d375 bc087e0b
@d376 bdadfe66
@d377 3d321830
@d378 3de4cf13
@d379 bd985087
@d37a 3d95d6dd
@d37b 3cd438f4
@d37c 3ca7c533
@d37d baa14663
@d37e 3d853fd9
@d37f bd6b2dff
@d380 bc5d0609
@d381 3cdec65c
@d382 bb559aa6
@d383 3d12cfb4
@d384 3d8f817a
@d385 bd3ce2f8
@d386 3d26105b
@d387 bde6ee4e
@d388 3dac0f6b
@d389 bd4ac078
@d38a 3dc9f2d0
@d38b 3da165ec
@d38c 3c4dd85a
@d38d bcb9e639
@d38e 3d6a2801
@d38f 3c06b4c8
@d390 bdab326f
@d391 3daed456
@d392 bd30fab9
@d393 bd64db89
@d394 3db2c68e
@d395 ba3d26c0
@d396 3db75b91
@d397 bcb3bcf6
@d398 3d50ef9c
@d399 bd1eab78
@d39a 3dc905bc
@d39b 3d919313
@d39c bde3d6cb
@d39d 3c067fa0
@d39e bd229ca7
@d39f bd6fe15a
@d3a0 bdbfcc24
@d3a1 3cf14b3f
@d3a2 bd9a9d9a
@d3a3 bc749066
@d3a4 ba1efe39
@d3a5 bd901d6f
@d3a6 3dde2f28
@d3a7 3d87123d
@d3a8 3d7aed24
@d3a9 3da141e4
@d3aa 3d137dc3
@d3ab bcc30c0a
@d3ac bc466bdc
@d3ad 3da7cfa8
@d3ae bd82cd1c
@d3af 3d909140
@d3b0 bcc41162
@d3b1 3da6f4b3
@d3b2 bd11afaf
@d3b3 bcb83f8f
@d3b4 bd0ea94f
@d3b5 3da0e735
@d3b6 bbbb9150
@d3b7 bc8fc4cb
@d3b8 bccfbfd8
@d3b9 bd907fe1
@d3ba bcbd2bb1
@d3bb 3da9e409
@d3bc bd6611c5
@d3bd 3dcfa11d
@d3be 3d984291
@d3bf 3d0bb106
@d3c0 bcd2a212
@d3c1 bde6e913
@d3c2 bc30408a
@d3c3 3c042ead
@d3c4 3da6b28a
@d3c5 bc1b1905
@d3c6 3b88a44b
@d3c7 bce219d2
@d3c8 3da6578f
@d3c9 bc9249e6
@d3ca 3b6e857f
@d3cb bd8a7d7d
@d3cc bc2db682
@d3cd 3ba93c5f
@d3ce bd8be71a
@d3cf bcb5ffcd
@d3d0 bd8924b6
@d3d1 3d80b15b
@d3d2 3ce44d2e
@d3d3 3d84a73c
@d3d4 3e07b1b8
@d3d5 bbae9787
@d3d6 bd0e39de
@d3d7 bd7f9031
@d3d8 3d766280
@d3d9 3dc0598a
@d3da bba381d3
@d3db 3cd5c404
@d3dc 3d0607a3
@d3dd bd866453
@d3de 3d941d6f
@d3df 3dabb330
@d3e0 bdbb90a6
@d3e1 bdb424f9
@d3e2 bd45525f
@d3e3 3a43ddf3
@d3e4 bd362d69
@d3e5 bbf4301f
@d3e6 bc2660a9
@d3e7 3d841317
@d3e8 b9ab8f24
@d3e9 3d780d74
