@0000 b58a9523
@0001 b517cf47
@0002 34b3d291
@0003 b452dbcf
@0004 33336850
@0005 b3c69187
@0006 3522ce86
@0007 342530f7
@0008 b5041a5b
@0009 b54534da
@000a 3505ebed
@000b b5a587b7
@000c b561a1f7
@000d b3b2ecae
@000e 33e8ec7b
@000f b3c14e14
@0010 b4d42118
@0011 b48a774f
@0012 b0fb9175
@0013 b5009be6
@0014 3452c4c0
@0015 b4fd4119
@0016 32ca1f6a
@0017 3534835f
@0018 3491bee3
@0019 34a9fcf0
@001a b4c642ee
@001b 34184bd5
@001c b509a431
@001d b3e440bc
@001e b2d3161f
@001f 3501da83
@0020 bf588e82
@0021 bfe73c9c
@0022 bfc890ee
@0023 bf7f7323
@0024 c014ddb3
@0025 c08b70e2
@0026 c01622a6
@0027 41be063d
@0028 423df066
@0029 418c0616
@002a c043ae5c
@002b 41410bcb
@002c 421ac50c
@002d 418a9b8d
@002e bfa0d6ac
@002f bfc73fdc
@0030 bf7e0fda
@0031 bf213405
@0032 bf2fc742
@0033 bf00344c
@0034 bed864a0
@0035 bdac79f5
@0036 34a3e32c
@0037 b5322f56
@0038 b5497f0f
@0039 34d8fc8f
@003a bdd73c23
@003b 409e5478
@003c c20bdfeb
@003d c28fe9ab
@003e c2867345
@003f c1866549
@0040 c2966156
@0041 c2e667b7
@0042 c2e4169d
@0043 c2e85497
@0044 c3045278
@0045 c37bc090
@0046 c3ada321
@0047 c3b5c50f
@0048 c39b3228
@0049 c3a98b97
@004a c383eef6
@004b c34b60ab
@004c c3235ff1
@004d c2c5e420
@004e c2635d1f
@004f c20a0f9e
@0050 c144dd0a
@0051 c0b051c2
@0052 bdac7a4d
@0053 b48517fc
@0054 3509d8f3
@0055 be0fbacf
@0056 c128aeee
@0057 c1dea32e
@0058 c304efef
@0059 c366b9e5
@005a c3806ece
@005b c3869448
@005c c3dd71a3
@005d c40dda6d
@005e c40ea8b3
@005f c41591a2
@0060 c4581ddd
@0061 c488c992
@0062 c4a8ed28
@0063 c49b1c43
@0064 c48e7318
@0065 c4b32998
@0066 c4c14c04
@0067 c4a0b772
@0068 c4825b18
@0069 c441bfc5
@006a c3d80d31
@006b c33303d7
@006c c23db17f
@006d c1940349
@006e bfe2dc24
@006f b5094d3a
@0070 b485efe1
@0071 bfa0c69a
@0072 c289a5c5
@0073 c3355b12
@0074 c39004c9
@0075 c3d35691
@0076 c3fa7258
@0077 c4039ed7
@0078 c415ed42
@0079 c3daa940
@007a c3ad2471
@007b c3be1b76
@007c c40448fc
@007d c3eb6f4d
@007e c4534ee3
@007f c398451e
@0080 c3d07e2c
@0081 c3979ab2
@0082 c40a5b92
@0083 c430946c
@0084 c430269c
@0085 c415f45e
@0086 c40fc6bb
@0087 c3f1f37f
@0088 c32b1b26
@0089 c2e9054c
@008a c1a9ee0d
@008b b3994f6f
@008c b4112a01
@008d c1e6a549
@008e c315132d
@008f c38b8936
@0090 c3d10500
@0091 c4189f7e
@0092 c41ca48d
@0093 c41073bc
@0094 c3d2f35f
@0095 c35b0bea
@0096 c35c1b06
@0097 c3671ef8
@0098 c30310eb
@0099 438b1a13
@009a 43353fe4
@009b 433b9dba
@009c 4393cdc5
@009d 431407a3
@009e 43765214
@009f 41451885
@00a0 c38a2a19
@00a1 c38d66eb
@00a2 c3dab5ea
@00a3 c40fe75d
@00a4 c3b4e7b5
@00a5 c31d46ca
@00a6 c19b652c
@00a7 c041cf90
@00a8 bf1bf0dc
@00a9 c22608a0
@00aa c30a258f
@00ab c398d7ab
@00ac c3df73aa
@00ad c40013b0
@00ae c405075d
@00af c3b439b8
@00b0 c2306781
@00b1 c229b606
@00b2 bf11eecc
@00b3 41a624df
@00b4 4002c802
@00b5 43a53eda
@00b6 43b8b452
@00b7 442820ca
@00b8 4410fa53
@00b9 43f001f4
@00ba 440428a4
@00bb 43af23ca
@00bc 436b7ffd
@00bd 43adb714
@00be 43542b9b
@00bf c312322a
@00c0 c4005010
@00c1 c35f170e
@00c2 c219e179
@00c3 c11b2d7c
@00c4 c1329c90
@00c5 c211b2a6
@00c6 c2f0dc0b
@00c7 c39d8eb4
@00c8 c3f23723
@00c9 c400aee3
@00ca c3e8d173
@00cb c39a4a7a
@00cc c36c56fd
@00cd 4379e066
@00ce c3707953
@00cf 424509fa
@00d0 420eff54
@00d1 c30590c8
@00d2 437f4f64
@00d3 4396d9ef
@00d4 438bda45
@00d5 43cac056
@00d6 43264d82
@00d7 41c97c32
@00d8 c2e97fcc
@00d9 4366eff8
@00da 4383507d
@00db 43023850
@00dc c3ca77ff
@00dd c3842ed4
@00de c2598285
@00df c14b254d
@00e0 be884d64
@00e1 c14f2043
@00e2 c29deb81
@00e3 c3a2a97d
@00e4 c409a186
@00e5 c42700ee
@00e6 c3a0e41d
@00e7 c3ad606d
@00e8 c3720833
@00e9 c3129c83
@00ea c1da3083
@00eb 419ab448
@00ec 43071b3b
@00ed 439d8adc
@00ee 43d2bda5
@00ef 43ac7c02
@00f0 4406a631
@00f1 43aecf04
@00f2 432e6de1
@00f3 423fc82a
@00f4 c2476a5a
@00f5 c31477c4
@00f6 423a6943
@00f7 437262a6
@00f8 c3dcdfa9
@00f9 c3d027bb
@00fa c2a6e663
@00fb c1a225ef
@00fc be1501fb
@00fd c0582c3e
@00fe c2091f71
@00ff c38a77f9
@0100 c4194477
@0101 c440085e
@0102 c36ee45f
@0103 c3828f87
@0104 c21cf375
@0105 4338e039
@0106 438a8933
@0107 c2f106c7
@0108 3fc18bf6
@0109 435cdf48
@010a 42b20135
@010b c2c0eae2
@010c 4353153e
@010d 42ba100a
@010e 439ec835
@010f 43c5a598
@0110 4394cfdb
@0111 43586071
@0112 4389e35e
@0113 43b400f9
@0114 c38c8f2d
@0115 c3c21b1d
@0116 c253aff6
@0117 34dd6760
@0118 b41d7d37
@0119 bf0dfffd
@011a c14d13ed
@011b c37ec3cc
@011c c425c3db
@011d c3fb9c76
@011e c3a1e293
@011f c39e1002
@0120 c2f6466f
@0121 c0155d5c
@0122 c372f642
@0123 433c5983
@0124 43a872b3
@0125 42e53045
@0126 4404e64d
@0127 434b0d1d
@0128 4389bea4
@0129 439aac3b
@012a 438f4853
@012b 43913c7d
@012c 42b3fc75
@012d 437dcdff
@012e 43f3cc7b
@012f 436bdadf
@0130 c3953884
@0131 c3c1f6d2
@0132 c295a8bf
@0133 b49ff398
@0134 35214a75
@0135 be6032c6
@0136 c20b05a3
@0137 c398bf6b
@0138 c456587b
@0139 c3f6ea30
@013a c38fc7ea
@013b c2e57959
@013c c2f4554f
@013d c1824962
@013e c339194f
@013f c2d9a82d
@0140 c30ecb6a
@0141 c2bd2152
@0142 c397d139
@0143 c3c15316
@0144 c3068d21
@0145 c33c27c8
@0146 c3800e49
@0147 4369ae98
@0148 4378f59c
@0149 44373540
@014a 44007f7a
@014b 440f4799
@014c c34cf80f
@014d c3b9e4fe
@014e c267b07d
@014f 34213e4b
@0150 b40fe260
@0151 bdededa9
@0152 c218667c
@0153 c3d127be
@0154 c456c659
@0155 c3ade2db
@0156 c2f2d11e
@0157 c3961dda
@0158 41c2f39b
@0159 c256bd12
@015a 425f07f7
@015b 432f064f
@015c c2afefe2
@015d c38656c0
@015e c3eed20d
@015f c3d329e9
@0160 c38f3475
@0161 c326c8a9
@0162 41aa83d8
@0163 c1ee3698
@0164 435e6ec1
@0165 44012bc0
@0166 441bd5ab
@0167 443eeed8
@0168 425bd4d6
@0169 c390f202
@016a c25c22b8
@016b 34b23bef
@016c 346e8f8b
@016d be4b852a
@016e c2506a21
@016f c4167c81
@0170 c478a202
@0171 c3378cba
@0172 4281feb0
@0173 c2a90e2b
@0174 c206db8b
@0175 c343e072
@0176 42f47efe
@0177 c29232b7
@0178 c33c75b3
@0179 c3dfbaa6
@017a c42b816e
@017b c44f2f08
@017c c40886d0
@017d c2e4ad55
@017e c32b1e03
@017f c39016dd
@0180 c217e0ab
@0181 43cb594d
@0182 440bfafa
@0183 44683312
@0184 c0963dc8
@0185 c382d282
@0186 c16fb87c
@0187 34c9aec0
@0188 bdc6ad5d
@0189 c0f7aa7f
@018a c2a6f088
@018b c4709b5b
@018c c48cfd50
@018d 439889e4
@018e 41c61c7c
@018f 42ffc751
@0190 4314dc85
@0191 428e0f3c
@0192 42e023f9
@0193 c34d2ac0
@0194 c36cf4f1
@0195 c33c12c1
@0196 c419ba51
@0197 c453eceb
@0198 c428b8c6
@0199 c3000bd0
@019a c202ba26
@019b 4281cadc
@019c 43a8a65f
@019d 440b7c72
@019e 43aa8be8
@019f 44815d1c
@01a0 42c865d5
@01a1 c383017f
@01a2 c10d9e45
@01a3 b4c79f13
@01a4 be46adbb
@01a5 c0fdc3f1
@01a6 c2b8885f
@01a7 c4a34734
@01a8 c44ac603
@01a9 43eedf47
@01aa c25e976e
@01ab 4305976b
@01ac 43b17fd8
@01ad c227dc44
@01ae 43ab362c
@01af c37f11a1
@01b0 c3bf0ccf
@01b1 c40d8fc1
@01b2 c45d7626
@01b3 c4273e6a
@01b4 c40c16fb
@01b5 c37b8eb1
@01b6 43043d22
@01b7 428ca06a
@01b8 4396cc3e
@01b9 43030927
@01ba 43a852af
@01bb 44831c9e
@01bc 43208841
@01bd c380dbdd
@01be c0c6948e
@01bf b4e24a44
@01c0 34810256
@01c1 bfb9ee17
@01c2 c3122cfd
@01c3 c4d2cd0f
@01c4 c4457801
@01c5 43cdcc17
@01c6 43cb8c63
@01c7 43232702
@01c8 43b46cdf
@01c9 c2eba324
@01ca 431c4b1f
@01cb c301d78b
@01cc c3ca73ad
@01cd c4328bd5
@01ce c413c8ef
@01cf c3c1ef4a
@01d0 417b979d
@01d1 43afbe27
@01d2 43b6c573
@01d3 43cd2136
@01d4 431d96bc
@01d5 c291e1b4
@01d6 c1f24bb1
@01d7 441baf73
@01d8 430d9d3d
@01d9 c3834a6c
@01da c19be1bb
@01db b4aff05a
@01dc b53e6331
@01dd bfb4ca16
@01de c3477078
@01df c4f1dc1b
@01e0 c43111a3
@01e1 43969515
@01e2 43631569
@01e3 c24fd63c
@01e4 435de38d
@01e5 42d12917
@01e6 43b96819
@01e7 423baeb4
@01e8 413c9025
@01e9 c40ed1cc
@01ea c412e09e
@01eb c364745d
@01ec 430b2f73
@01ed 4304e58d
@01ee 41fc5ca1
@01ef 43471994
@01f0 424bbbc2
@01f1 c2c4cd44
@01f2 4395028f
@01f3 43a82954
@01f4 43816081
@01f5 c3344c0a
@01f6 c19321cb
@01f7 b4a0b107
@01f8 357056fd
@01f9 bfaca387
@01fa c37612b8
@01fb c4f64577
@01fc c4251373
@01fd c23c62b8
@01fe c2a29f6d
@01ff c3524292
@0200 42aa8fb1
@0201 c3a246be
@0202 427e023e
@0203 41f89c86
@0204 c39e8b13
@0205 c406c2d1
@0206 c429cfd2
@0207 c35dd467
@0208 c2aa3795
@0209 c23edf42
@020a c3116910
@020b 41d7a90e
@020c c2f1d252
@020d 4341e0a9
@020e 4396506d
@020f 43262334
@0210 433c2660
@0211 c2c0553e
@0212 c180de5f
@0213 b4821793
@0214 b32c9dd0
@0215 bffcf71d
@0216 c390425b
@0217 c4e5f766
@0218 c4551e59
@0219 c2fd5c9b
@021a 4240fade
@021b c3888e06
@021c c13d0786
@021d c339d7ef
@021e c363e889
@021f 405993ce
@0220 43622dd6
@0221 c376fba9
@0222 c350ad9a
@0223 c337edea
@0224 42386587
@0225 c2fb31c4
@0226 428e78e1
@0227 c37ae7c4
@0228 c343c394
@0229 430b7476
@022a 41bbd7e1
@022b c1cba907
@022c 426b445c
@022d c2b0d88f
@022e c16560b6
@022f b44fa067
@0230 32f8532f
@0231 c031fbfb
@0232 c380f2e9
@0233 c4be81c0
@0234 c45fc15d
@0235 c302aee8
@0236 c0dd8429
@0237 c392aad7
@0238 c34c5276
@0239 4300b5dc
@023a 43cbbccf
@023b 44042fe7
@023c 440088a6
@023d c1ef3633
@023e c3c66c0a
@023f c1b92365
@0240 c371223c
@0241 4263d2ab
@0242 c32b98b7
@0243 c3459b31
@0244 c2ce75c0
@0245 4266d461
@0246 c2b9df14
@0247 c2eff4b4
@0248 c28ecdfe
@0249 c2dadb5c
@024a c0a04fce
@024b b592da46
@024c 35006610
@024d c0da1f6d
@024e c337f284
@024f c474465a
@0250 c4811562
@0251 c2bf66ac
@0252 43980271
@0253 411e5920
@0254 4253d9a8
@0255 436ed891
@0256 43a22cea
@0257 44295cb6
@0258 43e53ef4
@0259 4243852d
@025a c30725ef
@025b 425c1f7e
@025c c190139c
@025d 405ac742
@025e 4187b3c2
@025f c3ad217a
@0260 c37d9dd2
@0261 c36a77fd
@0262 c32bce8a
@0263 c31be75c
@0264 c29fac68
@0265 c279fe61
@0266 41aa727d
@0267 34047884
@0268 b50b313e
@0269 bfbdfa18
@026a c2e74034
@026b c4168af3
@026c c47b6c1c
@026d c428ce36
@026e 43362168
@026f c369a7ec
@0270 430b51fb
@0271 438e46ae
@0272 435da2b9
@0273 43a007e9
@0274 443a3bf9
@0275 44770f14
@0276 4411460c
@0277 43b93085
@0278 c2af8dc7
@0279 c1876776
@027a c2dcbc06
@027b c3962533
@027c c3c8da73
@027d c392d25f
@027e c33776c7
@027f c2a53baa
@0280 c2852ce9
@0281 c184d95a
@0282 3f712c0e
@0283 34003682
@0284 b41d9a7c
@0285 beff79d7
@0286 c26d500a
@0287 c39a6f76
@0288 c42656ad
@0289 c45c37ab
@028a c3fba2f1
@028b c30b5a31
@028c c217c4c9
@028d 43b27445
@028e 4356b71e
@028f 439cedc4
@0290 43f83db7
@0291 435d8c74
@0292 43391054
@0293 43850aa9
@0294 c12e52fa
@0295 43273250
@0296 c2d16385
@0297 c3df3290
@0298 c4098242
@0299 c3b8f774
@029a c3162ca9
@029b c2a8723a
@029c c2c17d7e
@029d c1ed1445
@029e c0a11920
@029f 3367d01d
@02a0 354427e6
@02a1 be11c784
@02a2 c1b15840
@02a3 c2b59a17
@02a4 c2c007f7
@02a5 c37b3472
@02a6 c3e323b8
@02a7 c419d1cc
@02a8 c4172383
@02a9 c40944cb
@02aa c402c04c
@02ab c3ea688e
@02ac c34c2bfe
@02ad c375aa02
@02ae c363a782
@02af c2e067fb
@02b0 c3146beb
@02b1 c361c753
@02b2 c372b645
@02b3 c39b7738
@02b4 c38e538e
@02b5 c31aedb2
@02b6 c2a7cf22
@02b7 c2370cb1
@02b8 c20c8acf
@02b9 c1c05fa6
@02ba c08406f4
@02bb 3483551c
@02bc 33db5700
@02bd 33e4c315
@02be bf9cedb2
@02bf c1487d2f
@02c0 c1f44d1f
@02c1 c2b8975d
@02c2 c3597350
@02c3 c3c092cd
@02c4 c3ef9a18
@02c5 c4105d46
@02c6 c41edd89
@02c7 c40dcec1
@02c8 c406abec
@02c9 c40e796a
@02ca c40c902c
@02cb c3e9ca2e
@02cc c3b851b7
@02cd c38704c1
@02ce c3327cc3
@02cf c2d98160
@02d0 c2ac326a
@02d1 c2590216
@02d2 c1b13627
@02d3 c1431a55
@02d4 c1076174
@02d5 c04c7c4c
@02d6 bd65f827
@02d7 349da72f
@02d8 338bf363
@02d9 b4dc3bb6
@02da bc58f213
@02db be0fb321
@02dc bf7e38e1
@02dd c1a892b8
@02de c212b130
@02df c2874ccb
@02e0 c26f4c3b
@02e1 c2bab583
@02e2 c29ce6c8
@02e3 c2288bf6
@02e4 c1e17cd8
@02e5 c212bd82
@02e6 c1feb6b7
@02e7 c252b4ed
@02e8 c2089fd3
@02e9 c1029421
@02ea bfa10adb
@02eb bfbfcd02
@02ec c17aa0ca
@02ed c137bb80
@02ee bebd911a
@02ef be4c5200
@02f0 be2d7b2a
@02f1 bd65f87f
@02f2 33fd3302
@02f3 3395d478
@02f4 b517da8c
@02f5 31321916
@02f6 35045c16
@02f7 3471b9d1
@02f8 b483ca23
@02f9 32a4ad31
@02fa 32cf9b24
@02fb b43189f8
@02fc b433d3c5
@02fd b497efb1
@02fe bcbec8ee
@02ff be4852c1
@0300 be56a3e4
@0301 c02cac04
@0302 c0e4c24d
@0303 c00488f4
@0304 b3a2d6e6
@0305 35068133
@0306 345ec64e
@0307 b5402fcc
@0308 31971447
@0309 b400ab76
@030a 336c82ee
@030b 334c43e8
@030c 340656ad
@030d 3455604c
@030e 352293f2
@030f 3526fe92
@0310 b4331b20
@0311 b5064dab
@0312 b4867e0b
@0313 35a2d186
@0314 b49baa1c
@0315 350a097b
@0316 34cb9896
@0317 347cac02
@0318 339ca7a0
@0319 b48e0768
@031a 34df3d6e
@031b b4a910d9
@031c 35192dd0
@031d b547ddb5
@031e b5292b43
@031f 341764a9
@0320 b400b194
@0321 b4b6b54e
@0322 3511972a
@0323 b5235c7d
@0324 b56bd8a8
@0325 b54346fc
@0326 b4b34406
@0327 b3c8cd51
@0328 344fbc67
@0329 b40a5212
@032a 3434ac96
@032b b40a9227
@032c 346d8d76
@032d b573b3ff
@032e 352bb97e
@032f be7c6748
@0330 bd666f3e
@0331 bbcc1de1
@0332 bc0c6fcd
@0333 bf109b2b
@0334 bfc21cd0
@0335 bfbb8038
@0336 c0656f93
@0337 c0dd566d
@0338 c1135435
@0339 c1847bed
@033a 41d9a1aa
@033b 416d339c
@033c c0d589e8
@033d c0d2e0f6
@033e c160d28d
@033f c113edec
@0340 c0c0045d
@0341 c0d2fcbf
@0342 c0be81c1
@0343 c082d119
@0344 c02414e1
@0345 34939ee5
@0346 3503d275
@0347 b4fb96dd
@0348 33c89293
@0349 3523a444
@034a be6ffc10
@034b c08e22ed
@034c c08cca64
@034d bfb757ab
@034e bffe0f44
@034f c1370a69
@0350 c2201020
@0351 c2de256d
@0352 c337f2e0
@0353 c36a4bf0
@0354 c38a5951
@0355 c3645785
@0356 c358f2bf
@0357 c329271b
@0358 c38eef28
@0359 c3bca53a
@035a c3b41dfd
@035b c3929239
@035c c3851ee4
@035d c34707af
@035e c2e2f287
@035f c287f014
@0360 c208df54
@0361 c0b30984
@0362 be437f5a
@0363 b423a480
@0364 33f5463c
@0365 b527128a
@0366 c050e6a2
@0367 c0f5373b
@0368 c105df12
@0369 c102af58
@036a c13590ce
@036b c1b86776
@036c c2b584b1
@036d c397fa55
@036e c3f363a5
@036f c42e509a
@0370 c477425e
@0371 c490992d
@0372 c4844585
@0373 c49b045a
@0374 c4b48895
@0375 c4bbf30f
@0376 c4cc0d69
@0377 c4a4a4d7
@0378 c467f0d6
@0379 c4261075
@037a c3ae5888
@037b c331d3a7
@037c c2dd52af
@037d c242fedb
@037e c138d0c8
@037f b4f08f01
@0380 b4c73b0d
@0381 beff17e7
@0382 c0c221e9
@0383 c174c9d8
@0384 c1a28e88
@0385 c1f13a56
@0386 c2303b15
@0387 c2bff083
@0388 c2cea221
@0389 c39445a7
@038a c3797fbb
@038b c3f7e92b
@038c c40172e0
@038d c3dd4b47
@038e c3d01fe3
@038f c3d66e0e
@0390 c3d75ca7
@0391 c3fec1b4
@0392 c3fe4856
@0393 c3528ca0
@0394 c3ae2f9a
@0395 c3be7967
@0396 c340b849
@0397 c2bc193a
@0398 c35cb82e
@0399 c32532fa
@039a c1d5c43a
@039b c0374b84
@039c 34c8dda9
@039d bf9ad0e5
@039e c1a179cf
@039f c23e2d4f
@03a0 c259fa1f
@03a1 c1b8be61
@03a2 c22f3ece
@03a3 c2c86df6
@03a4 c35003a9
@03a5 c3409103
@03a6 c365a323
@03a7 c327e34c
@03a8 c19ca014
@03a9 42e88a5c
@03aa 42779745
@03ab 43e01773
@03ac 427ecbba
@03ad c3050351
@03ae 4355bb27
@03af c2f14894
@03b0 43193193
@03b1 43a5c2dd
@03b2 438eba7f
@03b3 429f6814
@03b4 c30efdce
@03b5 c3856a5c
@03b6 c2415211
@03b7 c0874a06
@03b8 bed104fb
@03b9 c2013835
@03ba c285590b
@03bb c290d7ed
@03bc c2999b7e
@03bd c2f3d1d8
@03be c33e4e0b
@03bf c3899b60
@03c0 c3b5c106
@03c1 c35b23e5
@03c2 c327c615
@03c3 c2f37fe9
@03c4 c32a5cb7
@03c5 c35b2a13
@03c6 c36417d8
@03c7 c3ad2fb5
@03c8 c3a3d970
@03c9 c380824f
@03ca 42f23768
@03cb c230a9cf
@03cc 434f2841
@03cd 436a7a09
@03ce 428515e2
@03cf c2d51cbe
@03d0 c3134458
@03d1 c342e337
@03d2 c18f14d9
@03d3 c094a465
@03d4 bf0b58ab
@03d5 c22d4d39
@03d6 c24dfdc4
@03d7 c26d9f8a
@03d8 c27b3f53
@03d9 c334abe2
@03da c386308b
@03db c340e195
@03dc c3ad4393
@03dd c3a2bcc1
@03de c3906f34
@03df c34986f9
@03e0 c0b2f733
@03e1 c37a517e
@03e2 c112f867
@03e3 c30db0c8
@03e4 c34e2892
@03e5 c376048e
@03e6 c3394602
@03e7 4110f578
@03e8 43146462
@03e9 4375b6cd
@03ea 4230cfcb
@03eb c393e695
@03ec c3bafa07
@03ed c35205b7
@03ee c193b292
@03ef c040949b
@03f0 bf0b58a8
@03f1 c219cdfb
@03f2 c20d7733
@03f3 c24d1c91
@03f4 c2a3456e
@03f5 c328517a
@03f6 c3775777
@03f7 c302c49b
@03f8 c35e8bc7
@03f9 c3cb18a7
@03fa c3ed8bda
@03fb c39c19f9
@03fc c1aeed0c
@03fd c377615a
@03fe c240d6ac
@03ff be0048a8
@0400 c35c95b4
@0401 413cb0c2
@0402 42d10f81
@0403 c31864f3
@0404 c3015845
@0405 42b997a2
@0406 c35c6818
@0407 c3f83f32
@0408 c3ccced0
@0409 c3158f14
@040a c0d7ceaf
@040b 331863a5
@040c bf0b58a2
@040d c18ff795
@040e c1c3b8e7
@040f c218f0a9
@0410 c28b9fba
@0411 c324a995
@0412 c38c5b52
@0413 c2e48d1a
@0414 c27ccfeb
@0415 c3444881
@0416 c37d034a
@0417 c3758e2c
@0418 c2f3ed2c
@0419 42db8f33
@041a c1a45cf7
@041b 43e67170
@041c 433e7619
@041d c22d6aae
@041e c140ba56
@041f c2c57234
@0420 412b3f4c
@0421 c302025d
@0422 c39cb925
@0423 c3974b77
@0424 c34360e4
@0425 c2abbb83
@0426 bee07512
@0427 34b44e42
@0428 3483bc9c
@0429 3f828e9d
@042a c1c2b355
@042b c25b1a5d
@042c c2c4b9fe
@042d c3423f49
@042e c399ef5d
@042f c2ef693f
@0430 c0853184
@0431 41ec87cf
@0432 4303bc27
@0433 c19ebec5
@0434 c315a788
@0435 4374e9bf
@0436 43c8c779
@0437 441bf930
@0438 439ee1b2
@0439 41fb0daa
@043a c2883b70
@043b 42c0c0ce
@043c c2dcae6c
@043d c34ec60f
@043e c301b464
@043f c30ad132
@0440 c30d6d38
@0441 c20e902d
@0442 40e07163
@0443 40996d4a
@0444 b3ad8b1f
@0445 3f95288a
@0446 c1f39ea5
@0447 c25db7a9
@0448 c2da7cf4
@0449 c308bafc
@044a c36dc9ba
@044b c29af43d
@044c c2b3bde3
@044d c2900625
@044e c1d6a3cf
@044f c2798a11
@0450 c3acc0f7
@0451 42e4fd5c
@0452 442f5b66
@0453 443681b1
@0454 434b73c0
@0455 c35e7399
@0456 c25d4ab4
@0457 c24a5aba
@0458 c3281d8c
@0459 c303f694
@045a c30cedfc
@045b c2d2a56c
@045c c2d2fc91
@045d c19f2ee8
@045e 417a75e1
@045f 3f915a11
@0460 b4cb3244
@0461 c00cfb6b
@0462 c2010de2
@0463 c1dc55dd
@0464 c2d06fff
@0465 c2c28df5
@0466 c298a206
@0467 c2c7fc7c
@0468 c33430fe
@0469 c2585937
@046a c2602027
@046b c3f55a4b
@046c c3b62b41
@046d 43b1e994
@046e 443b6d90
@046f 4424ec01
@0470 434633d4
@0471 c38834ba
@0472 c3106dc0
@0473 c3823de2
@0474 c2882b0c
@0475 c2a8be77
@0476 c2fd756a
@0477 c2ba1ab9
@0478 c2db83ae
@0479 c23d9564
@047a c180e139
@047b 34307158
@047c 3f8dd3db
@047d bfe01854
@047e c1ee20fc
@047f c2163940
@0480 c26e1679
@0481 c2694cec
@0482 c13041fb
@0483 c2bc4237
@0484 c1463d72
@0485 bf3d18a4
@0486 c3418acd
@0487 c422d460
@0488 40db8f82
@0489 4390c23f
@048a 4428c93e
@048b 4403c2bc
@048c 43bd1b22
@048d 413edc63
@048e c3fe988e
@048f c3ac6d6a
@0490 c2d10ff9
@0491 c308c8d3
@0492 c2dcdb5e
@0493 c2c05bef
@0494 c2bdb35d
@0495 c21c0755
@0496 c089676d
@0497 b47a6d60
@0498 344994cc
@0499 c0843027
@049a c1f1eda3
@049b c27d2337
@049c c20b72e2
@049d c2ac467e
@049e c2a4388e
@049f c2c245ee
@04a0 c1bf176f
@04a1 4251dc4b
@04a2 c4012a8a
@04a3 c46e7603
@04a4 422dc2cd
@04a5 43e70c40
@04a6 43ee84d1
@04a7 4401723d
@04a8 439d32a8
@04a9 c3c138e9
@04aa c3f5da8f
@04ab c35b020a
@04ac c2bc3425
@04ad c2f0d0e0
@04ae c2ca0b1c
@04af c29a0962
@04b0 c251708d
@04b1 c2029e6d
@04b2 c029f553
@04b3 34822aac
@04b4 b4392dcd
@04b5 bf79319e
@04b6 c21a9dbb
@04b7 c2a893b1
@04b8 c2945891
@04b9 c30a7b75
@04ba c31c657a
@04bb c264d4d9
@04bc 41dd358d
@04bd c2b061da
@04be c43a63ff
@04bf c381d2aa
@04c0 434a6151
@04c1 44228b3e
@04c2 443180a8
@04c3 4356def0
@04c4 c2661a56
@04c5 c452276d
@04c6 c3dbb2b4
@04c7 c33b0845
@04c8 c32ab909
@04c9 c3518024
@04ca c314d96d
@04cb c2b79b53
@04cc c260db64
@04cd c20eada9
@04ce c06d3be7
@04cf 3495f5ab
@04d0 b3996ec4
@04d1 c07aa0f7
@04d2 c26b2e55
@04d3 c2c9668e
@04d4 c2c49baa
@04d5 c2efe0b7
@04d6 c3418c5f
@04d7 c30c3181
@04d8 c241152d
@04d9 c30adb1c
@04da c3de5e56
@04db c333c812
@04dc 4290fa5f
@04dd 43a4c257
@04de 441fb23b
@04df c36c711f
@04e0 c404990b
@04e1 c43bfc5c
@04e2 c3c86b71
@04e3 c32aed40
@04e4 c34e32c8
@04e5 c30d1fe5
@04e6 c2aec0a0
@04e7 c25f2d8a
@04e8 414e1b13
@04e9 c26795cf
@04ea c112b3c4
@04eb 3281ff0a
@04ec b4947dab
@04ed c09b8fcc
@04ee c2964672
@04ef c2e36baf
@04f0 c2fddd9e
@04f1 c329a09c
@04f2 c380cab3
@04f3 c372fc46
@04f4 c3114ca5
@04f5 c373111d
@04f6 c3af3a6c
@04f7 c39a8a6a
@04f8 c1e5a3a9
@04f9 43c77341
@04fa 4369f7e8
@04fb c2f8d136
@04fc c3f48f36
@04fd c3e44aef
@04fe c389d22d
@04ff c1223f74
@0500 420585b2
@0501 432e5262
@0502 4317afef
@0503 429f170b
@0504 4219723f
@0505 c23885a8
@0506 c08e48d1
@0507 3ea3c1b7
@0508 b4b06ee6
@0509 c0075b9b
@050a c2869a14
@050b c2ecee33
@050c c311876e
@050d c375006b
@050e c3c4debc
@050f c3b655f6
@0510 c309b452
@0511 c293780c
@0512 c3ddf3d4
@0513 c3bd45b2
@0514 c36343ba
@0515 430889a2
@0516 41e46060
@0517 c243147e
@0518 c3225732
@0519 418c600a
@051a 423b531d
@051b 426ea172
@051c 43cc666a
@051d 43a4e03f
@051e 42fb0ef2
@051f 4288c660
@0520 41de3558
@0521 41e7e8d0
@0522 3d0250af
@0523 40a5092b
@0524 b469a9d5
@0525 c0893e0e
@0526 c2be2e01
@0527 c320bc88
@0528 c34ba529
@0529 c3c0e956
@052a c3a0c995
@052b c31b3497
@052c c31693a1
@052d 43025ae8
@052e c3269b49
@052f c1b1d8b5
@0530 c38319b4
@0531 c11c5cb0
@0532 c22b7170
@0533 40f3fd1c
@0534 43aa92c7
@0535 43065aa9
@0536 437ead55
@0537 4373b912
@0538 43372ca4
@0539 4306e3c1
@053a 42abb21c
@053b 42b637f0
@053c 429a2518
@053d 41048ac4
@053e c0781997
@053f 407fde93
@0540 351c7ded
@0541 c0dbdd08
@0542 c2e59a8d
@0543 c341cb24
@0544 c359cf14
@0545 c3980df7
@0546 c2f7b7a0
@0547 c155f751
@0548 4208095e
@0549 4394c30c
@054a 43a26ef2
@054b 43e010e4
@054c 42e1aaf3
@054d 428985b1
@054e 43c3d98e
@054f 432b99ee
@0550 43ad9eba
@0551 43bc7ac3
@0552 4425d192
@0553 43e96661
@0554 437a02e2
@0555 42f11eb5
@0556 41c36c26
@0557 c1ac28b7
@0558 41d157a7
@0559 c208a8b1
@055a c05fb79b
@055b b33978f3
@055c 34d746eb
@055d c10e1632
@055e c3166206
@055f c3064e17
@0560 c2c6af7d
@0561 41f5b7af
@0562 435ffdc0
@0563 434201f7
@0564 426fc6f0
@0565 4397e434
@0566 438a7f24
@0567 4317cb45
@0568 c28177e9
@0569 c2ce8540
@056a 43740645
@056b 43a3d436
@056c 4284b352
@056d 43202eaa
@056e 43ddf65d
@056f 438cfebb
@0570 43539f9a
@0571 42e053d7
@0572 c30d2d0b
@0573 c32203f2
@0574 c289510d
@0575 c11a730b
@0576 4132f791
@0577 b4b1776d
@0578 355e58fd
@0579 c04c35d0
@057a c2a6d34e
@057b c309d081
@057c c2c54225
@057d 43a769d9
@057e 43955469
@057f 4302e581
@0580 42b4152f
@0581 434aad30
@0582 416b03e3
@0583 c38861f7
@0584 c384de85
@0585 c3e26fb0
@0586 43195cb9
@0587 426f2460
@0588 c1e0c63e
@0589 43b11616
@058a 43ecd948
@058b 42da3342
@058c 4293cacc
@058d 4188515e
@058e c326c23e
@058f c21c7e59
@0590 c09de481
@0591 4189d86a
@0592 41df40f8
@0593 345dff7f
@0594 b5110408
@0595 c05f637c
@0596 c23c9838
@0597 c33402be
@0598 c2cc1eb2
@0599 43117cb7
@059a 432d03b1
@059b c1cf204b
@059c 4225664c
@059d 43846746
@059e 43a11b04
@059f 43b5ab12
@05a0 43ac2fa8
@05a1 c28633bb
@05a2 c27986c7
@05a3 433dd866
@05a4 432a83f4
@05a5 437068e5
@05a6 c26e6b39
@05a7 41f897e3
@05a8 42114349
@05a9 c28d7008
@05aa c2d119d5
@05ab c2352868
@05ac 3f991c75
@05ad 4127c1f2
@05ae 423d24d9
@05af b52379e0
@05b0 341a124f
@05b1 bf277992
@05b2 c1bbbec2
@05b3 c2bd8851
@05b4 c321d59b
@05b5 c300e7de
@05b6 c3920f9f
@05b7 c3cf1932
@05b8 c4259b7a
@05b9 c40c0d15
@05ba c41832e6
@05bb c403cb16
@05bc c39eded5
@05bd c3a91bf1
@05be c40030c4
@05bf c3f00529
@05c0 c3aeca7b
@05c1 c2db44ac
@05c2 c34bf8dd
@05c3 c2cfc7fb
@05c4 c175e3a5
@05c5 c198b500
@05c6 c1f40d56
@05c7 c1347f09
@05c8 c081dc79
@05c9 41d8f6d3
@05ca 40a59b77
@05cb b536ac50
@05cc b5843f91
@05cd be103f5c
@05ce c0be38e9
@05cf c1dac416
@05d0 c26607f8
@05d1 c303d266
@05d2 c39a6fba
@05d3 c3d685f7
@05d4 c3cfba7d
@05d5 c3c40d7f
@05d6 c3f2fdec
@05d7 c41806a9
@05d8 c3eda045
@05d9 c397bcfd
@05da c3d4300a
@05db c409d233
@05dc c3cbdfdc
@05dd c35b2db6
@05de c308e69e
@05df c29ed9a6
@05e0 c1ba5642
@05e1 c1572df4
@05e2 c11fd1de
@05e3 c18998b8
@05e4 c0dae3f3
@05e5 bfa48475
@05e6 b3047a7f
@05e7 b4bfea0f
@05e8 b557367a
@05e9 34a7be45
@05ea bc582949
@05eb bf3af918
@05ec bf6a6a27
@05ed c05b3ddc
@05ee c161da7a
@05ef c14a4d9f
@05f0 c15a7c00
@05f1 c14e0ffd
@05f2 c16cc943
@05f3 c20150ab
@05f4 c270893b
@05f5 c2454461
@05f6 c27153d0
@05f7 c274c6b9
@05f8 c1dacb40
@05f9 c10d6914
@05fa c1d370de
@05fb c18124f7
@05fc bdd670d8
@05fd be908396
@05fe be862abd
@05ff bde99e0c
@0600 bd666ed0
@0601 3504d785
@0602 b4eeee14
@0603 b3e2d8d0
@0604 321d176a
@0605 3498171d
@0606 3502d2d4
@0607 3416ca08
@0608 b23a99fe
@0609 b3ab2cbc
@060a b4e14e8b
@060b b4274b4d
@060c 34c89843
@060d b49d5e26
@060e bcbf7000
@060f be4900a7
@0610 be574d54
@0611 bd758080
@0612 34aced14
@0613 34c078ed
@0614 bd6a14a4
@0615 c0112dfc
@0616 c0ec3974
@0617 bd9d7bc6
@0618 b4a27a8b
@0619 35266ade
@061a 3321cc69
@061b 35532ad6
@061c b3f3255c
@061d b44c22b2
@061e 34c9bf45
@061f 33dc6450
@0620 b4fe84c4
@0621 350bef8d
@0622 330e82b4
@0623 b52f8708
@0624 b4a2eef8
@0625 b486a39a
@0626 b46dd816
@0627 b59ba47a
@0628 b5674526
@0629 334eaccc
@062a b44d0f4c
@062b 343ac047
@062c b481314a
@062d b578923a
@062e 340de91f
@062f b4bbdbb7
@0630 3461044b
@0631 3332860c
@0632 33567008
@0633 34abbf87
@0634 3430bf60
@0635 b49024dd
@0636 b58d81b5
@0637 31834c48
@0638 b4072f72
@0639 3416a2ff
@063a 34e2edd8
@063b b4876020
@063c b51d01a9
@063d 3515cbd6
@063e b494e779
@063f b3c9f6eb
@0640 be620c88
@0641 be951d4a
@0642 bf80df53
@0643 c08ab7ba
@0644 c118e09c
@0645 c17273cf
@0646 c0f15fc7
@0647 bf6795b9
@0648 409d0c74
@0649 c0946e9b
@064a c17a7c35
@064b 4193bb22
@064c 428a265b
@064d 4074b52c
@064e c121e0b4
@064f c1684c3d
@0650 c066a248
@0651 c0b5e4e4
@0652 c005d835
@0653 c0008330
@0654 bfa51b08
@0655 be8b38cc
@0656 b53910ca
@0657 35588f77
@0658 34a0e961
@0659 b3ad28ba
@065a bf9a7629
@065b c1077118
@065c c1aa8b13
@065d c22afc03
@065e c281cf69
@065f c28e9bd3
@0660 c2ebf68d
@0661 c2a32051
@0662 c2ca2168
@0663 42a545a5
@0664 42c9a90d
@0665 c301a2e3
@0666 c32b9b22
@0667 c2f529a9
@0668 c2571082
@0669 c2f11fe2
@066a c31707b7
@066b c337862d
@066c c30355e8
@066d c2f8850f
@066e c2c65ea3
@066f c2777c09
@0670 c1a3a73c
@0671 bffa1016
@0672 bd65c9ae
@0673 b46b971e
@0674 be53ba26
@0675 bf165885
@0676 c15c66ad
@0677 c2431c75
@0678 c2df043b
@0679 c327067d
@067a c34318a9
@067b c29310cb
@067c 416f992d
@067d 42f4173f
@067e 4301dbaf
@067f 43504d13
@0680 4326d241
@0681 43913ee7
@0682 4283f842
@0683 c1e85416
@0684 4292c921
@0685 c14d3c16
@0686 c3b879ad
@0687 c3c2cd15
@0688 c3ada36f
@0689 c3b6881f
@068a c3a316e1
@068b c35a0b9a
@068c c2aab4ef
@068d c19d97e6
@068e c0073bb6
@068f 34a8cf0e
@0690 c1982dd4
@0691 c10a2d56
@0692 c2829977
@0693 c308764a
@0694 c34ed7c6
@0695 c31e7e73
@0696 c329bac9
@0697 41c7a0e4
@0698 42ad32b1
@0699 43897d23
@069a 434375ec
@069b 438aeae9
@069c 43ecedf8
@069d 43209173
@069e 4364e814
@069f 430fe2d9
@06a0 43111325
@06a1 c2fefeb3
@06a2 c38b30e1
@06a3 c312e42a
@06a4 c19cb40b
@06a5 bfd1bbc6
@06a6 c3a7599e
@06a7 c3ca293c
@06a8 c374a227
@06a9 c236e6da
@06aa c009dc58
@06ab b4bd9235
@06ac c114deec
@06ad c10fa803
@06ae c33e4792
@06af c3cfab3a
@06b0 c40b01a5
@06b1 c3d3e3aa
@06b2 c30fe810
@06b3 43641604
@06b4 438194f3
@06b5 43928e35
@06b6 439d0f92
@06b7 43dda259
@06b8 4402277e
@06b9 43daab52
@06ba 43ec3d01
@06bb 436a9a48
@06bc 43cfc613
@06bd 43d3b041
@06be 4388e1ed
@06bf 4374bda7
@06c0 40472fd9
@06c1 423701b2
@06c2 c33c3b9a
@06c3 c4131258
@06c4 c3e35235
@06c5 c2c979f8
@06c6 c0a0cae6
@06c7 b2b3cb05
@06c8 b51ed937
@06c9 c18e764b
@06ca c39fea31
@06cb c43c0adc
@06cc c45e7b62
@06cd c3f143c5
@06ce 42230b15
@06cf 4378bca5
@06d0 4343734e
@06d1 436e62b9
@06d2 439da15e
@06d3 43db5416
@06d4 43c76dd2
@06d5 439afb2d
@06d6 43eb260f
@06d7 440723df
@06d8 43a3a46d
@06d9 42fa5006
@06da 43adaa91
@06db 41403818
@06dc 41a1d11d
@06dd 41eb44d8
@06de c2d2f2f9
@06df c44977b7
@06e0 c42cd237
@06e1 c33b5582
@06e2 c104bc26
@06e3 34cc0187
@06e4 b4a4b2d8
@06e5 c19753da
@06e6 c3a1e346
@06e7 c4535199
@06e8 c4406396
@06e9 c337e153
@06ea 43ab0d33
@06eb c21c4f16
@06ec 4332f062
@06ed 4306826f
@06ee c30f5404
@06ef 42897a88
@06f0 42e9a7be
@06f1 43c3ee1c
@06f2 43477fec
@06f3 c244c68f
@06f4 432fb41f
@06f5 c37d1730
@06f6 41171eda
@06f7 421af973
@06f8 c37d29c6
@06f9 4368828b
@06fa 43658ac4
@06fb c430d003
@06fc c425a37a
@06fd c316a669
@06fe c18c419b
@06ff b3882d87
@0700 34a13171
@0701 c1531338
@0702 c384812e
@0703 c44a1f8f
@0704 c406c1d2
@0705 c30a5dc8
@0706 432a0ffd
@0707 42b142e5
@0708 c1edcc38
@0709 42a16a91
@070a 43c1f9cc
@070b 436a8e20
@070c c2679589
@070d 42a887f1
@070e 42d1bf8b
@070f 424e9c1e
@0710 c2449cd4
@0711 c2f44a1f
@0712 c357087c
@0713 434da9a2
@0714 c2e6501c
@0715 4359b6cb
@0716 4335928e
@0717 c3ad632f
@0718 c4186460
@0719 c3182932
@071a c082e0c2
@071b 328034d7
@071c b40147b6
@071d c197f0de
@071e c3675487
@071f c43139b7
@0720 c3a3564b
@0721 439d5e1f
@0722 43a12207
@0723 4313d0a6
@0724 c3306e76
@0725 c3425742
@0726 c2a6937c
@0727 c2ec310e
@0728 c362dc9a
@0729 c341afc6
@072a c0c05196
@072b 42b96cdc
@072c c287b537
@072d c35afc89
@072e 4311727a
@072f c254360c
@0730 4313df55
@0731 43256ea1
@0732 43953c15
@0733 c3bbd663
@0734 c401df39
@0735 c2a710ec
@0736 c1cd96ef
@0737 b50735f8
@0738 b5259e5d
@0739 c15d87f5
@073a c342c2a1
@073b c4057a0e
@073c c3c3007c
@073d 43515b78
@073e 43eac6ca
@073f 42156cc0
@0740 42bda195
@0741 c28d1313
@0742 421dd8c5
@0743 c3580965
@0744 c370e125
@0745 c2c7d156
@0746 c30a2819
@0747 c1f91898
@0748 c211092a
@0749 43be2cd5
@074a 42db4cec
@074b 43401d99
@074c 432b548b
@074d 4303ba37
@074e 4330e5d9
@074f c3cd4a6a
@0750 c3c48273
@0751 c2d9bf38
@0752 c202b7d4
@0753 b480a153
@0754 34821209
@0755 c1323e1a
@0756 c31aba01
@0757 c3e4f132
@0758 c40577c4
@0759 428efebe
@075a c1d47025
@075b c3de9410
@075c c4039c02
@075d c429547f
@075e c46f6f85
@075f c43861ae
@0760 c4261a60
@0761 c45bc093
@0762 c41b5e01
@0763 c3ad6a82
@0764 c2a88414
@0765 415a8eb0
@0766 c2e5bf68
@0767 433b0511
@0768 c1a7a88d
@0769 430c4ae5
@076a c2fb0b3c
@076b c3ac5ba3
@076c c35e9e59
@076d 42dafeec
@076e c11ec36f
@076f bdacb29b
@0770 b339fb21
@0771 c1c41a53
@0772 c3031125
@0773 c3deda7e
@0774 c4245896
@0775 c3f77cce
@0776 c42fda7e
@0777 c484d6dd
@0778 c451ad1a
@0779 c44ca887
@077a c45143c8
@077b c4708a1a
@077c c445a289
@077d c43425a7
@077e c3e7b467
@077f c4179afd
@0780 c3d54a32
@0781 c31bd511
@0782 c30014fb
@0783 43e1853f
@0784 c23d17c1
@0785 4139189d
@0786 c3d7a5bd
@0787 c3e11dbf
@0788 42a06e65
@0789 43a4d9be
@078a 42a27300
@078b 413a1269
@078c 35219f31
@078d c166528b
@078e c3179325
@078f c3eb8498
@0790 c456cc8c
@0791 c476f47f
@0792 c48c8c59
@0793 c480cb9c
@0794 c40f9cd0
@0795 c3a74164
@0796 4251f4fe
@0797 c32d1120
@0798 c35b734c
@0799 c300935b
@079a c2342194
@079b c3e1ff6d
@079c c25ad527
@079d 4210be2b
@079e 4307eb99
@079f 41203c2c
@07a0 42a215f0
@07a1 c292f77b
@07a2 c3bc2ef4
@07a3 c2066061
@07a4 43a9c620
@07a5 43ba871c
@07a6 4347b1ee
@07a7 428079c8
@07a8 3546b2a2
@07a9 c1bbad4a
@07aa c36a86d2
@07ab c4144f69
@07ac c44dcc25
@07ad c4732901
@07ae c3f2eab0
@07af 4232bb3f
@07b0 416d8ba5
@07b1 c326a874
@07b2 c109093f
@07b3 428ca27a
@07b4 42d10c14
@07b5 43251fe3
@07b6 42c7f353
@07b7 c3a2707d
@07b8 430cc69e
@07b9 c372ebc4
@07ba 42c0463f
@07bb 4253781b
@07bc 438e5448
@07bd c3851921
@07be c3d69b26
@07bf c3054026
@07c0 43a6ff46
@07c1 43a76f0e
@07c2 4377ef1a
@07c3 410e7e94
@07c4 b4689323
@07c5 c1ae3de3
@07c6 c381e3c5
@07c7 c3e97587
@07c8 c3cd7985
@07c9 42e252ca
@07ca 438afd4c
@07cb 42f6a325
@07cc 438996cd
@07cd 42c50428
@07ce c141d90f
@07cf 42877017
@07d0 c014200b
@07d1 4387c5ac
@07d2 43a6e277
@07d3 421c1695
@07d4 c2849d90
@07d5 3fa15d83
@07d6 4131eaad
@07d7 434cb420
@07d8 c380cf96
@07d9 c3728cf7
@07da c3c41d8c
@07db c295caa4
@07dc 43e18810
@07dd 44020e48
@07de 43d473d9
@07df 42450147
@07e0 b501b755
@07e1 c1b08c9a
@07e2 c37a1fc8
@07e3 c3b3038b
@07e4 c30f2a9e
@07e5 43c3b842
@07e6 43d7ce91
@07e7 431f59bd
@07e8 c32a150b
@07e9 4278bf12
@07ea c0c982d8
@07eb c28f667d
@07ec 43b87bbe
@07ed 43d85db6
@07ee 43a450f1
@07ef c1da5cc8
@07f0 43b3b599
@07f1 43ddd228
@07f2 43a8b582
@07f3 424ef47a
@07f4 42bb1967
@07f5 43ea8d52
@07f6 439b117e
@07f7 43e2f87b
@07f8 43f4e78f
@07f9 443a0ccb
@07fa 43d758df
@07fb 4212d0f5
@07fc b51a499a
@07fd c1b18e50
@07fe c3559052
@07ff c3bddea2
@0800 432a6ccd
@0801 432f4d59
@0802 435afc60
@0803 c26b9203
@0804 42c9b933
@0805 43911900
@0806 438e72f7
@0807 42b5757e
@0808 4364d1e3
@0809 43399863
@080a 425fa5a5
@080b 43630cb5
@080c 422c5370
@080d 425d84b1
@080e 43174f87
@080f 40936c5c
@0810 433f5d5f
@0811 42f0ef5d
@0812 433ccf33
@0813 4385853c
@0814 4406503f
@0815 444d124d
@0816 439391a8
@0817 4232f350
@0818 33bc928b
@0819 c1a27923
@081a c3c15b38
@081b c3edfd9b
@081c 4319ffce
@081d 432bdf88
@081e 4384f0f0
@081f 43979ca1
@0820 c3082816
@0821 4313827b
@0822 4415ae67
@0823 42a75dde
@0824 43c6c684
@0825 43825532
@0826 436e2833
@0827 c28be849
@0828 42e2916d
@0829 42df0e53
@082a 4309c1af
@082b c221d7c2
@082c c3bd690f
@082d c23af174
@082e 43165588
@082f 43d98dc8
@0830 443f7de6
@0831 441765b2
@0832 434bcd44
@0833 4215e2ea
@0834 b4d94c93
@0835 c1780a7b
@0836 c3e33369
@0837 c42a5c0b
@0838 42abce17
@0839 c25d6060
@083a 438a25de
@083b 4381be9f
@083c 42d75659
@083d 4238c1db
@083e 42c543d6
@083f 434eb6b1
@0840 439bcaeb
@0841 42e27ab3
@0842 43301083
@0843 43eb0ead
@0844 4367ac2a
@0845 c32f10f6
@0846 c31a4897
@0847 c3002d7e
@0848 43c46594
@0849 43dca587
@084a 43d1482f
@084b 437cda5e
@084c 431689a5
@084d 436ac0e4
@084e 4339e889
@084f 408238b8
@0850 34801bfc
@0851 c163016b
@0852 c3c07b4d
@0853 c3ea635c
@0854 42884d9c
@0855 c24698da
@0856 c2032fb2
@0857 4181ea16
@0858 43b70682
@0859 433c47ab
@085a 43404400
@085b 43fead99
@085c 4307a94e
@085d c25e808f
@085e c2e6cc61
@085f 4346b7b0
@0860 439ba628
@0861 c3487977
@0862 4316eddf
@0863 4419561f
@0864 44079f52
@0865 43c76886
@0866 4386b4e1
@0867 439d49b4
@0868 42e65efb
@0869 c2e9b8de
@086a 422ecce3
@086b b48e07f0
@086c b47c1d5a
@086d c154d908
@086e c397c1a6
@086f c3f8f358
@0870 c2d94e3f
@0871 42ae1cd2
@0872 43657a0c
@0873 4306ec76
@0874 42d70157
@0875 43e9e7ba
@0876 438b1a31
@0877 434d57ae
@0878 428ec8a4
@0879 c20e8b3b
@087a 42f2157c
@087b c214b557
@087c 429f3966
@087d 42ffe71d
@087e 42512e28
@087f 43caaee4
@0880 c2a77e92
@0881 4304bcd9
@0882 43609d47
@0883 43ec0799
@0884 43665303
@0885 c2012772
@0886 41ff6ae4
@0887 336f8e89
@0888 b40c7787
@0889 c1819912
@088a c391050e
@088b c4126114
@088c c3a86311
@088d c347c6f7
@088e 42cb06ce
@088f 431738fa
@0890 4290623c
@0891 41194be9
@0892 40bb1e2d
@0893 41f85bde
@0894 4202c6d3
@0895 c34e883a
@0896 c328b024
@0897 c2d9f1d3
@0898 42f76258
@0899 c235fc79
@089a 438ca210
@089b 430c4213
@089c 4398d695
@089d 432bb764
@089e 438904a3
@089f 42491b4f
@08a0 c2331d3e
@08a1 c118a1e6
@08a2 c081e2a4
@08a3 3458b8d3
@08a4 b42cc2ac
@08a5 c11013b3
@08a6 c34d2969
@08a7 c41fff48
@08a8 c41e1e1b
@08a9 c3f2c2cc
@08aa c3316275
@08ab c3335527
@08ac c357c1a0
@08ad c39425b0
@08ae c3cbb335
@08af c33039c4
@08b0 42b8c1bc
@08b1 c34e7f0d
@08b2 c34d4bf1
@08b3 c3691fa4
@08b4 c3a042f4
@08b5 c32d84ca
@08b6 c31be4d9
@08b7 4057cb13
@08b8 425f62db
@08b9 c14aca08
@08ba c26b0f06
@08bb c361afb0
@08bc c33dcf22
@08bd 41ce168e
@08be be4c7ac2
@08bf b38d2078
@08c0 3457edba
@08c1 bffdc87a
@08c2 c26c6f61
@08c3 c38d989f
@08c4 c3d9a096
@08c5 c40e1aa4
@08c6 c3fd4ca4
@08c7 c3f593e6
@08c8 c41b69af
@08c9 c3f9480a
@08ca c3e17324
@08cb c389fd7e
@08cc c362c75d
@08cd c3412364
@08ce 428ccee5
@08cf 42043599
@08d0 c3a311fe
@08d1 c3be963c
@08d2 c3bfcdff
@08d3 c3bba923
@08d4 c3924b17
@08d5 c3a7aecc
@08d6 c3b94918
@08d7 c3786b31
@08d8 c10a41f4
@08d9 424f8b83
@08da 417b465f
@08db 35011c07
@08dc 338d748d
@08dd be33b4a5
@08de c12d4958
@08df c24eb448
@08e0 c2ea3252
@08e1 c327e81d
@08e2 c32a2a43
@08e3 c3a17e15
@08e4 c3e0dfdd
@08e5 c3d4c06c
@08e6 c3c39ef2
@08e7 c3a5af37
@08e8 c3917a38
@08e9 c36fe571
@08ea c25007e2
@08eb c233e3a7
@08ec c35a796c
@08ed c34ddfcd
@08ee c36c41f1
@08ef c388af38
@08f0 c367bb9e
@08f1 c38895d6
@08f2 c37be207
@08f3 c301be02
@08f4 c271dc20
@08f5 c1b6ba48
@08f6 418155fc
@08f7 b311704a
@08f8 34046899
@08f9 351d21bd
@08fa bd95843e
@08fb bf843b32
@08fc c02426f2
@08fd c05ceb28
@08fe c0df608c
@08ff c1275812
@0900 c1cc5dd2
@0901 c15f0566
@0902 c19fce2c
@0903 c2212162
@0904 c18351f9
@0905 c15a1615
@0906 c14a7c2f
@0907 c1bb3b60
@0908 c256281d
@0909 c228d08b
@090a c1afb904
@090b c11391e3
@090c c1179f9e
@090d c132e1bd
@090e c10b34d8
@090f c05a7743
@0910 c07d8a81
@0911 c0772d8b
@0912 bf0307e4
@0913 344bcf93
@0914 b5106318
@0915 3535a124
@0916 b4b972c8
@0917 33c01926
@0918 b49022f3
@0919 b35d9dcf
@091a 34af0168
@091b b50a0436
@091c b539d8a4
@091d 3399426d
@091e bcbff0d6
@091f be4987e6
@0920 be580037
@0921 bd76866e
@0922 351e8829
@0923 b3b7ffd8
@0924 bd66b5ad
@0925 343ca92c
@0926 b52a5c25
@0927 349450dc
@0928 34d1d20a
@0929 b44acee6
@092a b4c72710
@092b b499170a
@092c b4a80908
@092d 34cd24b8
@092e 34c78cd5
@092f 3337ad13
@0930 34efcf30
@0931 34de3a6d
@0932 356f2a2e
@0933 3451168b
@0934 b320cec5
@0935 32a32e62
@0936 b2d03ca5
@0937 b4b729de
@0938 33e2971e
@0939 34e9fed2
@093a b50b88ba
@093b 34c47ea7
@093c 33c87fe0
@093d b4701f42
@093e b39fdbae
@093f b597f14b
@0940 332b548e
@0941 347aeecb
@0942 34926c5d
@0943 34178305
@0944 3482e7fb
@0945 b534bbae
@0946 b48f1016
@0947 b44674bc
@0948 33a46429
@0949 b5255fe0
@094a b568be1b
@094b b3676409
@094c b413c3f7
@094d b3ce149f
@094e 33a03eb5
@094f b492bcc5
@0950 be556507
@0951 bed8938e
@0952 bf4120a9
@0953 c012d4a2
@0954 c1096920
@0955 c124a86a
@0956 c143835f
@0957 c195dbc7
@0958 c13dfc20
@0959 c1461da8
@095a c18c973c
@095b c1e80b62
@095c c1a369cb
@095d c1b4cb18
@095e c1a77eaa
@095f c17498f1
@0960 c12ae15c
@0961 c11ca2ad
@0962 c0fa3ec9
@0963 bf50c872
@0964 bf6d76e0
@0965 be319d1c
@0966 33802a1b
@0967 b27dcfab
@0968 b15d4c24
@0969 34887608
@096a be03cae2
@096b c09b1658
@096c c196553d
@096d c211d1d7
@096e c282cef0
@096f c2c59fc4
@0970 c315ed6f
@0971 c3584966
@0972 c3834860
@0973 c3a37f4c
@0974 c3bfea31
@0975 c3f6fcb4
@0976 c405794e
@0977 c40e8135
@0978 c4098313
@0979 c3f63233
@097a c3f3ebb8
@097b c3bcc74b
@097c c38e6687
@097d c3585376
@097e c31b24aa
@097f c263eaf5
@0980 c214790b
@0981 c1704b9d
@0982 be162e46
@0983 356f99ce
@0984 34750ab2
@0985 bcea760b
@0986 c0d98b51
@0987 c2290012
@0988 c2d241a1
@0989 c28a020c
@098a c383f23e
@098b c3dc7067
@098c c41d03d8
@098d c422c99a
@098e c41d5cf5
@098f c4056c44
@0990 c3f4996b
@0991 c3de5b63
@0992 c3913495
@0993 c3aae51d
@0994 c39c5f78
@0995 c360948a
@0996 c3bc1357
@0997 c40b709f
@0998 c3e76c1a
@0999 c40ae23e
@099a c3e4a9af
@099b c3644a4f
@099c c2e6c6f1
@099d c210f7a6
@099e bf935af6
@099f 3301880a
@09a0 34d7e2c6
@09a1 bfbcbef2
@09a2 c23045be
@09a3 c2ef8dad
@09a4 c2aa0add
@09a5 42aad869
@09a6 c2732451
@09a7 c28246e3
@09a8 4327b7ff
@09a9 42b6b97e
@09aa 42c49bd9
@09ab 42c57d01
@09ac 4385ea8f
@09ad 439c1ae6
@09ae 437eb9e8
@09af 421ca81d
@09b0 41d16749
@09b1 c2a9b41d
@09b2 41d0b69f
@09b3 c339a740
@09b4 c3f84992
@09b5 c4212f56
@09b6 c41c0b19
@09b7 c408de3c
@09b8 c370f280
@09b9 c282fa5f
@09ba c0166fa4
@09bb 349f728a
@09bc 34bf5866
@09bd c05d9dee
@09be c2c00e78
@09bf c354a889
@09c0 c3293768
@09c1 431fe965
@09c2 43b28e25
@09c3 43dc8482
@09c4 42f131bb
@09c5 c25954f5
@09c6 43544ddb
@09c7 438bb068
@09c8 43486c82
@09c9 43acbac0
@09ca 4300a0ed
@09cb c219caf9
@09cc 43351dca
@09cd c3a45f4c
@09ce c3029311
@09cf c209413d
@09d0 c3298b40
@09d1 c3ee5cb2
@09d2 c41669b3
@09d3 c41344ed
@09d4 c3de90f2
@09d5 c310d88b
@09d6 c0b78c8b
@09d7 b2899775
@09d8 b54945f1
@09d9 c13a3107
@09da c32635ef
@09db c31ce72e
@09dc c25c61b7
@09dd 433e3b16
@09de 43a3308e
@09df 435ea588
@09e0 436d09e2
@09e1 4329ade5
@09e2 43831c87
@09e3 43870297
@09e4 bee7ab55
@09e5 43d25a15
@09e6 43a2f033
@09e7 43de0dad
@09e8 43a69a86
@09e9 c3061ce3
@09ea 43004d74
@09eb c3237d98
@09ec 4335f8b7
@09ed 4148a37f
@09ee c38de6f6
@09ef c4128e75
@09f0 c4063110
@09f1 c32155f9
@09f2 c0d3629e
@09f3 354b36c7
@09f4 348372f5
@09f5 c04e19e0
@09f6 c369f1dc
@09f7 c34541f7
@09f8 4297c69d
@09f9 438f18ef
@09fa 426769aa
@09fb c26b07dd
@09fc c2c21a68
@09fd 435315bf
@09fe 418d658d
@09ff 4388738b
@0a00 43f26d4a
@0a01 4288917f
@0a02 43268527
@0a03 43aa8b0e
@0a04 4109e80a
@0a05 c3129c5c
@0a06 c33435be
@0a07 4382c862
@0a08 42ea67aa
@0a09 c2fd425f
@0a0a c3c6ed5f
@0a0b c4401899
@0a0c c4314463
@0a0d c3349871
@0a0e c09a56b9
@0a0f 352b5067
@0a10 b48d9979
@0a11 c06c64a3
@0a12 c3268fa1
@0a13 c29dec7c
@0a14 430bd0f2
@0a15 43bd6d87
@0a16 43af0313
@0a17 43c8cf6d
@0a18 415fc2bd
@0a19 c33bf5da
@0a1a 43920ed6
@0a1b c2651484
@0a1c 4314d29c
@0a1d 42014527
@0a1e c26914b9
@0a1f 4367c99a
@0a20 4257f497
@0a21 4335e91e
@0a22 4405b393
@0a23 439b1a7b
@0a24 43527412
@0a25 4327c97c
@0a26 c3569255
@0a27 c44adda3
@0a28 c43f4eca
@0a29 c36e5e43
@0a2a c1888cd9
@0a2b 34a7ef85
@0a2c be0ab366
@0a2d 40ae68ea
@0a2e c171d413
@0a2f 42a00b5c
@0a30 434b606d
@0a31 4331ef8c
@0a32 435c6a0e
@0a33 42c70b9b
@0a34 c2f834af
@0a35 420bb84f
@0a36 c38efe11
@0a37 c3f0f545
@0a38 c3839bb3
@0a39 c2b3c47e
@0a3a c29cd377
@0a3b 438a9c5c
@0a3c 4359ea55
@0a3d 439ac358
@0a3e 42e0e2bc
@0a3f 4216af3c
@0a40 434335ed
@0a41 430225fb
@0a42 42bea877
@0a43 c3d89a9d
@0a44 c40fa37b
@0a45 c3102093
@0a46 c0d52afc
@0a47 b4eed05b
@0a48 3531c151
@0a49 4010109f
@0a4a c2433718
@0a4b 4259369a
@0a4c 429c5527
@0a4d 42a15f28
@0a4e 430e9d32
@0a4f c2d46bf8
@0a50 c3a428b1
@0a51 c3f8f07e
@0a52 c4561037
@0a53 c43ae80f
@0a54 c405fcfd
@0a55 4294d091
@0a56 4359aea9
@0a57 43233edf
@0a58 43a470dd
@0a59 c2ecd810
@0a5a c2fc4989
@0a5b 4361f6b3
@0a5c 4270bd45
@0a5d 435a7ccf
@0a5e 438b7dd0
@0a5f c38970e6
@0a60 c3b20746
@0a61 c2c9dea6
@0a62 c06da52f
@0a63 350c40da
@0a64 b56aa63c
@0a65 3f600b11
@0a66 c2db2543
@0a67 c2c388dc
@0a68 c21c4612
@0a69 c3121a27
@0a6a c39ba93d
@0a6b c41747ad
@0a6c c468c34b
@0a6d c445bac4
@0a6e c3b6acfd
@0a6f 4257b3d0
@0a70 436885f8
@0a71 43f311b6
@0a72 44008a33
@0a73 4394d3b2
@0a74 c2db8e2b
@0a75 4334c1d8
@0a76 42b35e3f
@0a77 439b14e1
@0a78 439a6821
@0a79 c382471a
@0a7a c2bb06b7
@0a7b c36981df
@0a7c c38305c5
@0a7d c27290df
@0a7e c0c6432d
@0a7f b3e9ce98
@0a80 b410e202
@0a81 c144254a
@0a82 c337c5f7
@0a83 c39e4e38
@0a84 c3862485
@0a85 c39b4d49
@0a86 c3e9aef3
@0a87 c3cbea1a
@0a88 c3c41816
@0a89 c24267e6
@0a8a 43096fef
@0a8b 4305f458
@0a8c 430253a0
@0a8d 43727cf1
@0a8e 43bf5695
@0a8f 430f3238
@0a90 42b49021
@0a91 4327899b
@0a92 43155449
@0a93 4291eab1
@0a94 c0d43d8c
@0a95 c4208a14
@0a96 c3dcd8cc
@0a97 c3a4c1f9
@0a98 c3304640
@0a99 c23c5e25
@0a9a c07d5a07
@0a9b 351b4789
@0a9c 34885648
@0a9d c19c808c
@0a9e c36f4486
@0a9f c3ba8dd7
@0aa0 c3e7f198
@0aa1 c3adff26
@0aa2 c38f792b
@0aa3 c3857f88
@0aa4 423ee3b2
@0aa5 434c9276
@0aa6 3fdea90c
@0aa7 c120335f
@0aa8 3fa399f3
@0aa9 43b4344a
@0aaa 4381d441
@0aab 42d9bb99
@0aac 43f0fdca
@0aad 433b1e7f
@0aae c112dca5
@0aaf c3c255b7
@0ab0 c42ae384
@0ab1 c4290ab0
@0ab2 c4063580
@0ab3 c385f94b
@0ab4 c33b191a
@0ab5 c2583f7b
@0ab6 c09a2df6
@0ab7 34b7fdd8
@0ab8 bdb8ef0c
@0ab9 c1f0a9cf
@0aba c3846779
@0abb c3ceb9d7
@0abc c3c237aa
@0abd c3a9694e
@0abe c4056230
@0abf c3d9ad14
@0ac0 c314b3f6
@0ac1 42ba25b8
@0ac2 40376b2e
@0ac3 c2e7ee11
@0ac4 41e95694
@0ac5 43a6ac5b
@0ac6 43afe6cb
@0ac7 43c157bc
@0ac8 4274291f
@0ac9 41a7027c
@0aca 43385c2a
@0acb c378cfee
@0acc c3bc86c9
@0acd c25429a3
@0ace c3ccfd8a
@0acf c3793cd7
@0ad0 c361fcb7
@0ad1 c2f38352
@0ad2 c12bc329
@0ad3 33899055
@0ad4 be38ef18
@0ad5 c1c54276
@0ad6 c37cdeab
@0ad7 c3d984cf
@0ad8 c3323005
@0ad9 c3853b2f
@0ada c3c6823b
@0adb c3a738fa
@0adc c3d40d4c
@0add c3abf335
@0ade c3114f65
@0adf 42c414c9
@0ae0 42c8bdb0
@0ae1 430021b1
@0ae2 42cd3cb6
@0ae3 42722c55
@0ae4 c3a41f3f
@0ae5 c32a47d1
@0ae6 c3a94fb3
@0ae7 4368d4ab
@0ae8 43e17f1b
@0ae9 43be668e
@0aea 424dab5b
@0aeb c382b50b
@0aec c330793b
@0aed c3032288
@0aee 41cd863c
@0aef b444fc06
@0af0 b5242327
@0af1 c125a1ee
@0af2 c324bcc7
@0af3 c3298d6e
@0af4 4172465d
@0af5 c276847a
@0af6 c35a769e
@0af7 c3de657d
@0af8 c425d39b
@0af9 c3a42147
@0afa c3581071
@0afb 42c67f26
@0afc c22997c1
@0afd 42423a21
@0afe c35aa604
@0aff c383895d
@0b00 c3fdcc4e
@0b01 c0ed6945
@0b02 435db6d4
@0b03 4425ddd3
@0b04 43c95653
@0b05 43cdd91e
@0b06 4341c7d3
@0b07 c397a044
@0b08 c2ac90fb
@0b09 c2f1c380
@0b0a c01b3366
@0b0b 354ca722
@0b0c 34ef826f
@0b0d c0e35184
@0b0e c2e9e6e4
@0b0f 42d26f75
@0b10 4346c657
@0b11 42a4246b
@0b12 c327e2a8
@0b13 c39a2859
@0b14 c4466064
@0b15 c4943ef0
@0b16 c4835924
@0b17 c445f27f
@0b18 c428d054
@0b19 c39384bc
@0b1a c4115e85
@0b1b c3ae893f
@0b1c c28a86cd
@0b1d 4365743f
@0b1e 420bd4ca
@0b1f 439564db
@0b20 42912f78
@0b21 43858910
@0b22 43c1c098
@0b23 c34c93e2
@0b24 c3a48205
@0b25 c374a12f
@0b26 c1c5757b
@0b27 bfcd6ab9
@0b28 b402f0a8
@0b29 c15be70d
@0b2a c245808c
@0b2b 43a3c09e
@0b2c 43a4c53c
@0b2d 42f4946a
@0b2e 43a19733
@0b2f c2d83ec2
@0b30 c390a6ce
@0b31 c4217ec5
@0b32 c42c9782
@0b33 c46e5c79
@0b34 c4577f29
@0b35 c4338ea8
@0b36 c406289d
@0b37 42dc66a8
@0b38 437e78c1
@0b39 429eeced
@0b3a 42636c17
@0b3b 434ee88e
@0b3c c2a64782
@0b3d 43cea1e4
@0b3e 441ef89e
@0b3f c373be5d
@0b40 c4076b3e
@0b41 c395762b
@0b42 c20082d6
@0b43 bf08f1d8
@0b44 3185d2da
@0b45 bf7358ac
@0b46 420c1be8
@0b47 43d253a6
@0b48 43af94e4
@0b49 43ea4db3
@0b4a 43930c6a
@0b4b 429cb02c
@0b4c c297755f
@0b4d c2f3504e
@0b4e c30ea142
@0b4f c41a7ecc
@0b50 c3ab810e
@0b51 c299d2cf
@0b52 c299a24c
@0b53 4207abcf
@0b54 4247243b
@0b55 43ca93ab
@0b56 435ac6e4
@0b57 42e49585
@0b58 415d00ec
@0b59 43910ce1
@0b5a 43561df7
@0b5b c38edd85
@0b5c c3faf4b7
@0b5d c368541b
@0b5e c10c9514
@0b5f 33908762
@0b60 b1bc7058
@0b61 c0137065
@0b62 4187f9e9
@0b63 436f2f3a
@0b64 43754755
@0b65 4340b0f5
@0b66 439b5a24
@0b67 436344e5
@0b68 4343b396
@0b69 4341c244
@0b6a 43106e5c
@0b6b c28e21a6
@0b6c c33386d2
@0b6d c2adb679
@0b6e 42c6d237
@0b6f c333fc99
@0b70 42cdd705
@0b71 42fea2b9
@0b72 c0913584
@0b73 4264a129
@0b74 4407599e
@0b75 439ce173
@0b76 c27fdfec
@0b77 c3892f31
@0b78 c4003c29
@0b79 c319dd65
@0b7a c0ed7842
@0b7b b4bb6564
@0b7c b155043a
@0b7d be6f0603
@0b7e 41a4d292
@0b7f c1c8de16
@0b80 42a091e8
@0b81 4391237b
@0b82 4385f47b
@0b83 43918e34
@0b84 43225128
@0b85 c31a53d1
@0b86 c299f494
@0b87 c2b35546
@0b88 41a76082
@0b89 43291481
@0b8a c2950ed9
@0b8b 427061a7
@0b8c 429399ea
@0b8d 434aeb10
@0b8e 4326cb23
@0b8f 43a71efd
@0b90 431a99bb
@0b91 43111365
@0b92 c33e5bfb
@0b93 c3e760c6
@0b94 c3d12434
@0b95 c31c66d2
@0b96 c237310d
@0b97 c1faa3b3
@0b98 34f52dac
@0b99 c09f5121
@0b9a c24deada
@0b9b c319f932
@0b9c c138c0ed
@0b9d 4302d218
@0b9e 43a11b47
@0b9f 438c0a10
@0ba0 42f2976f
@0ba1 43f01f9f
@0ba2 430434e4
@0ba3 4337da69
@0ba4 41bb0da3
@0ba5 427a5aa4
@0ba6 42bd52f6
@0ba7 438a317b
@0ba8 42376b60
@0ba9 42af9827
@0baa c3877e51
@0bab 4211a0d4
@0bac c29f438c
@0bad c3641fa9
@0bae c382219f
@0baf c3b5e7a7
@0bb0 c354135b
@0bb1 c27bc36d
@0bb2 c09cddbe
@0bb3 c0837ba5
@0bb4 34ebd269
@0bb5 c0446a01
@0bb6 c2b013fc
@0bb7 c25bc2b6
@0bb8 42ad1798
@0bb9 4305596f
@0bba 434125ff
@0bbb 42bce24c
@0bbc c33bbefa
@0bbd 432f0435
@0bbe 42d43685
@0bbf 42d8ea91
@0bc0 c34cbd3a
@0bc1 c2a67b8c
@0bc2 c3522ec2
@0bc3 c2dea42f
@0bc4 c3f2898a
@0bc5 c3066b8c
@0bc6 c2116915
@0bc7 c33ae975
@0bc8 c3b0d41f
@0bc9 c3c6ddc5
@0bca c3afe8b1
@0bcb c39a49bb
@0bcc c29fb33b
@0bcd c21eb9b2
@0bce 4100b40a
@0bcf b4892710
@0bd0 b42f61b5
@0bd1 bf02f12c
@0bd2 413fba17
@0bd3 4334ee5e
@0bd4 438de3a4
@0bd5 43749706
@0bd6 43ae15d1
@0bd7 439e663d
@0bd8 4300d42b
@0bd9 42b5583c
@0bda 435816e1
@0bdb 43b07861
@0bdc c187ef0b
@0bdd 41a097b5
@0bde 42bf0432
@0bdf 426cdac3
@0be0 c20c44d2
@0be1 c2a0b71f
@0be2 c3eb5f3a
@0be3 c3b3397c
@0be4 c395b18f
@0be5 c3522c38
@0be6 c32d9e2b
@0be7 c314a377
@0be8 c2b0ad5c
@0be9 c16e7dcd
@0bea be3131e0
@0beb b50c571b
@0bec b45e0ccf
@0bed 34a249eb
@0bee bf2d1212
@0bef 410e334c
@0bf0 425ea6ab
@0bf1 bf24bf4e
@0bf2 42ec7012
@0bf3 438a41ce
@0bf4 4363ee5f
@0bf5 42b8e9d7
@0bf6 4376f18e
@0bf7 43a2c849
@0bf8 43a30acf
@0bf9 43861bf4
@0bfa 43782572
@0bfb 42c4aefc
@0bfc 43200996
@0bfd 424af63d
@0bfe 42fc8ada
@0bff 432ad47e
@0c00 c09ac911
@0c01 c2510d07
@0c02 bf2ddea7
@0c03 c182cb9b
@0c04 c095b45f
@0c05 bf567284
@0c06 330226d5
@0c07 33a48197
@0c08 3546ac50
@0c09 35436cf4
@0c0a bd8e0a2b
@0c0b be9c6c50
@0c0c bf741ef7
@0c0d c105eaa8
@0c0e c10946b4
@0c0f c0f0f243
@0c10 c23256fd
@0c11 c2db6864
@0c12 420cb9fe
@0c13 42d02a11
@0c14 c073be18
@0c15 4287a7e4
@0c16 42b0b4a8
@0c17 427cf591
@0c18 42efe626
@0c19 430b01c2
@0c1a 42ab2bbf
@0c1b 42b2f1a1
@0c1c 42834bd6
@0c1d 4224b727
@0c1e 40ecce3f
@0c1f bdff39ff
@0c20 b3eb75e4
@0c21 354b1aa7
@0c22 b525eb61
@0c23 33004c4f
@0c24 351bbf25
@0c25 34511fe9
@0c26 b40dfec5
@0c27 33eca133
@0c28 b4adf156
@0c29 b546d20b
@0c2a 3409b1e9
@0c2b 3219798e
@0c2c b48bf134
@0c2d 34c9dde4
@0c2e bcbfb039
@0c2f be494573
@0c30 be578685
@0c31 bd75a5b7
@0c32 b4d36a06
@0c33 33d58c05
@0c34 34969018
@0c35 b07f05fc
@0c36 351d38f1
@0c37 b566c921
@0c38 b3a41937
@0c39 b32dd0b1
@0c3a b53490a5
@0c3b b4a6799e
@0c3c b40232bc
@0c3d b511a4cc
@0c3e b544089c
@0c3f b486e122
@0c40 b4d419fd
@0c41 349ce4e9
@0c42 3457dea7
@0c43 b47eea18
@0c44 b51cf34e
@0c45 34c0ff17
@0c46 358ebcd0
@0c47 357b8ded
@0c48 b5029013
@0c49 b506fcc8
@0c4a 348a1a1a
@0c4b b53915ac
@0c4c b2706246
@0c4d 334e4543
@0c4e 342fc2ac
@0c4f b442b631
@0c50 3469b943
@0c51 34b26a1c
@0c52 b5847aa7
@0c53 b3a46be5
@0c54 b533ce98
@0c55 b4ce8fee
@0c56 34dd98b2
@0c57 b4323987
@0c58 34074d4f
@0c59 3437e279
@0c5a b2223719
@0c5b 34bbb8d6
@0c5c 357bfcbb
@0c5d 33e11ac2
@0c5e b27e7ba3
@0c5f bebe8c8e
@0c60 bf66b0a1
@0c61 c07b9ba5
@0c62 c19f629b
@0c63 c1fe7a22
@0c64 c1eeb537
@0c65 c14915c4
@0c66 c19da0bc
@0c67 c1a3f820
@0c68 c28730f4
@0c69 c290b9f3
@0c6a c220bc2b
@0c6b c21936e6
@0c6c c263b98e
@0c6d c233322a
@0c6e c2110d11
@0c6f c2076717
@0c70 c1bcf6bc
@0c71 c10c9a83
@0c72 c1927e07
@0c73 c1a437f8
@0c74 c05a9d5b
@0c75 be87e96d
@0c76 b3f9d25e
@0c77 b57d03a6
@0c78 347913e7
@0c79 b570a280
@0c7a bec35162
@0c7b c1982a82
@0c7c c21dc3c9
@0c7d c2850cb8
@0c7e c291fe7c
@0c7f c3016f48
@0c80 c3131a75
@0c81 c33f3d73
@0c82 c34d6466
@0c83 c33a9932
@0c84 c37339a4
@0c85 c36b1c7b
@0c86 c304827f
@0c87 c35d140d
@0c88 c38af1cb
@0c89 c3bed632
@0c8a c3e5e6d1
@0c8b c3d40d74
@0c8c c3c908f1
@0c8d c385e036
@0c8e c32ce984
@0c8f c2f59f92
@0c90 c2adfad9
@0c91 c1f809c0
@0c92 be87e960
@0c93 34027d2d
@0c94 b47af6ef
@0c95 b4cf9705
@0c96 bf52c9ed
@0c97 c25671ad
@0c98 c30fbae6
@0c99 c363f854
@0c9a c3903fe8
@0c9b c3d74226
@0c9c c400745a
@0c9d c41c7cf5
@0c9e c431d436
@0c9f c4253448
@0ca0 c41f3349
@0ca1 c41e8cca
@0ca2 c3f9adba
@0ca3 c4051277
@0ca4 c405a4d4
@0ca5 c4368381
@0ca6 c45b93c1
@0ca7 c47d9bf2
@0ca8 c4892d0c
@0ca9 c44c08f2
@0caa c3fb1e50
@0cab c3af5fef
@0cac c3929f79
@0cad c2d8a8d9
@0cae c0682622
@0caf 34d601cd
@0cb0 b5301504
@0cb1 c104cb34
@0cb2 c1fafd74
@0cb3 c2866f34
@0cb4 c361c37c
@0cb5 c3b56e08
@0cb6 c3ea34eb
@0cb7 c421e01e
@0cb8 c417f2e7
@0cb9 c41983c6
@0cba c4335ac4
@0cbb c4326561
@0cbc c40eb925
@0cbd c3a04bca
@0cbe c3b5ebb7
@0cbf c3d32e43
@0cc0 c3bbcd88
@0cc1 c3dce387
@0cc2 c41f02f9
@0cc3 c4166ff8
@0cc4 c417820f
@0cc5 c4085250
@0cc6 c3a7a50d
@0cc7 c3c10a15
@0cc8 c3b97e1d
@0cc9 c36081a9
@0cca c185cf29
@0ccb 321d98c1
@0ccc 35256481
@0ccd c1469e06
@0cce c2e9a1c4
@0ccf c30d21c0
@0cd0 c397c033
@0cd1 c38b5d9f
@0cd2 c288e0de
@0cd3 c39cf95f
@0cd4 c3a2a4e7
@0cd5 c3078506
@0cd6 c37102a9
@0cd7 c383f2a8
@0cd8 c3855438
@0cd9 c3a62ee3
@0cda c2d12a6a
@0cdb c2fd81e8
@0cdc 42805a08
@0cdd 4362ee68
@0cde 4282d6e2
@0cdf c209358f
@0ce0 c315bf8c
@0ce1 c389c43a
@0ce2 c3395609
@0ce3 c15a76b0
@0ce4 c32498e0
@0ce5 40d76569
@0ce6 c0fe8567
@0ce7 354ce974
@0ce8 34dbeb28
@0ce9 c0f702fc
@0cea c30d8968
@0ceb c3239709
@0cec c3283433
@0ced c23425f9
@0cee c2d2c773
@0cef c31192e9
@0cf0 c2cccd58
@0cf1 c1ed9a3e
@0cf2 c08f7c62
@0cf3 c38ff0ff
@0cf4 c2c25452
@0cf5 c3464751
@0cf6 c3cdfa29
@0cf7 c3ca2d33
@0cf8 c382cf5b
@0cf9 c358d01a
@0cfa c3901ed5
@0cfb c31a9f89
@0cfc c2499f89
@0cfd 4286536e
@0cfe 42b7a820
@0cff 4382588d
@0d00 c30377ec
@0d01 4176a265
@0d02 42854189
@0d03 34a1892a
@0d04 343b0369
@0d05 c0840c00
@0d06 c316fe33
@0d07 c34fe951
@0d08 c3686def
@0d09 430edba7
@0d0a c2835f38
@0d0b c29bbea6
@0d0c c31f2d17
@0d0d 4288d699
@0d0e c23cf1d1
@0d0f c288342d
@0d10 c3bd71e1
@0d11 c11521dc
@0d12 c44a477d
@0d13 c443b6cb
@0d14 c393ce45
@0d15 c322eb9b
@0d16 c388f5bc
@0d17 c34c22c3
@0d18 c30eaeae
@0d19 43048798
@0d1a 43a94511
@0d1b 42c9096b
@0d1c c213a9da
@0d1d 42cd2e1d
@0d1e 42d86f8d
@0d1f 34b2cf01
@0d20 34f6a5f5
@0d21 c198ae1d
@0d22 c37d8e4d
@0d23 c3c171c8
@0d24 c331fb45
@0d25 c00e9352
@0d26 c2adc389
@0d27 c2ce1024
@0d28 c38c77b7
@0d29 404c4a72
@0d2a c30d37f9
@0d2b 427d06b3
@0d2c c3b935b1
@0d2d c34d49e3
@0d2e c401004e
@0d2f c3ab7c29
@0d30 c3a5c29f
@0d31 c251c92b
@0d32 c34b4075
@0d33 c20b5c68
@0d34 c368115b
@0d35 43019605
@0d36 4319ff2a
@0d37 c2800365
@0d38 c2b41c7d
@0d39 4343b18d
@0d3a 426f82ca
@0d3b 34f0b302
@0d3c b525730e
@0d3d c208474e
@0d3e c3992dfa
@0d3f c417ce66
@0d40 c3a341a7
@0d41 c32da2bd
@0d42 c3a7e27d
@0d43 c39293cc
@0d44 c24d0dd4
@0d45 c3146901
@0d46 c352857f
@0d47 c2d124fb
@0d48 4252dd4f
@0d49 42e814a9
@0d4a c42fb3be
@0d4b c3889f73
@0d4c 4314c331
@0d4d c2c14a71
@0d4e 418fd3a0
@0d4f 43205b51
@0d50 c327361e
@0d51 c32024b6
@0d52 c3213587
@0d53 c38b903a
@0d54 c38c7e1a
@0d55 41e286f2
@0d56 41809586
@0d57 c08af6c0
@0d58 3467b63b
@0d59 c1eb8827
@0d5a c3b14387
@0d5b c413f15e
@0d5c c386b724
@0d5d c37390f7
@0d5e c39d007c
@0d5f 41a0cdd7
@0d60 c2b03000
@0d61 c319a2c9
@0d62 c36d8ceb
@0d63 42a9f258
@0d64 43e4e99d
@0d65 c10774b2
@0d66 c435a7b4
@0d67 42a696cd
@0d68 4127ecc6
@0d69 438ab511
@0d6a 43375af8
@0d6b 42902e6d
@0d6c 42ac63ed
@0d6d c1cc4887
@0d6e c2c7dbf5
@0d6f c3e75c4f
@0d70 c3886985
@0d71 c2f22dbf
@0d72 c1a9660c
@0d73 3511ad76
@0d74 b3b85fea
@0d75 c18db7a0
@0d76 c3876868
@0d77 c3af982e
@0d78 c35315f9
@0d79 c30b0b7c
@0d7a c3404482
@0d7b 41ea422b
@0d7c c1c01bb5
@0d7d 435dc842
@0d7e 43622604
@0d7f 433fbc14
@0d80 440c1b1f
@0d81 c3f65629
@0d82 c413ba7a
@0d83 439dd680
@0d84 438eaaab
@0d85 41f36eb0
@0d86 42703242
@0d87 41113740
@0d88 c312cda5
@0d89 c318521e
@0d8a c38fcd3a
@0d8b c3d95ac9
@0d8c c3c55d90
@0d8d c3435d0d
@0d8e c1f4c601
@0d8f b4e448ab
@0d90 bef28f60
@0d91 c1e72ec1
@0d92 c35eb36c
@0d93 c39904c9
@0d94 c3541931
@0d95 c20b1b58
@0d96 4303fee6
@0d97 431038d3
@0d98 4399b0ba
@0d99 4390c821
@0d9a 4383af42
@0d9b 437d2f57
@0d9c 43de3cf9
@0d9d c37e8a79
@0d9e c3cd738c
@0d9f 438e55f9
@0da0 43ed8eec
@0da1 c27d6788
@0da2 4306d537
@0da3 c1106adc
@0da4 4244d044
@0da5 c29fc39d
@0da6 c360e088
@0da7 c3c1a0f7
@0da8 c369ff1c
@0da9 c35dcb32
@0daa c23eb4c3
@0dab c0eeeefe
@0dac be728f4b
@0dad c01c7f78
@0dae c3186c75
@0daf c355fe89
@0db0 41a0def7
@0db1 4312babe
@0db2 43af85a0
@0db3 432da020
@0db4 43ff6c5b
@0db5 43a0dbbb
@0db6 4391955b
@0db7 441b0fbe
@0db8 4302551a
@0db9 c3b244ca
@0dba c2760f98
@0dbb 43e4c244
@0dbc 4350f376
@0dbd 440056ea
@0dbe 4308383e
@0dbf 438f4aa3
@0dc0 43fc2474
@0dc1 43530597
@0dc2 c300325a
@0dc3 c3842ab1
@0dc4 c363d305
@0dc5 c33d5ab1
@0dc6 c08764c3
@0dc7 c1fa4327
@0dc8 b396264a
@0dc9 c1227222
@0dca c351fa63
@0dcb c3880686
@0dcc 4320f706
@0dcd 4388aa4b
@0dce 430daef7
@0dcf 43c726e0
@0dd0 43b73fc3
@0dd1 43c18f0d
@0dd2 439ce0d4
@0dd3 44089dd1
@0dd4 42face2d
@0dd5 c38d643d
@0dd6 43368f6f
@0dd7 43a2a0bf
@0dd8 43a0e424
@0dd9 4406cefd
@0dda 43937a2e
@0ddb 441b3947
@0ddc 43a878fd
@0ddd 42b63175
@0dde 42894b97
@0ddf c310b0c4
@0de0 c38dbcdd
@0de1 c374d53b
@0de2 c2404506
@0de3 c05e7494
@0de4 b3f4f997
@0de5 c17022f1
@0de6 c36582e7
@0de7 c3ad9cc5
@0de8 c15feb95
@0de9 4364e189
@0dea 439eefc7
@0deb 43c702b8
@0dec 42a9102f
@0ded 435fc965
@0dee 432c8f9b
@0def 4407fb12
@0df0 4203c685
@0df1 c37fcf6a
@0df2 43a5ca57
@0df3 43c5002d
@0df4 44045928
@0df5 436de6fb
@0df6 4235c0c3
@0df7 43444474
@0df8 4196fde2
@0df9 c30077b3
@0dfa 433cb701
@0dfb 40fee552
@0dfc c3b9a40f
@0dfd c3539cf5
@0dfe c23e0860
@0dff c11a53fc
@0e00 3435e0a4
@0e01 c1e32efe
@0e02 c38a9973
@0e03 c424f14b
@0e04 c3ed2187
@0e05 c2881162
@0e06 43bdbbfe
@0e07 43b0ff64
@0e08 44176531
@0e09 42cb9d7a
@0e0a c2500c7d
@0e0b 433e3cf7
@0e0c 3fbba3a4
@0e0d c1add5c8
@0e0e 43313794
@0e0f 441647ae
@0e10 441155a2
@0e11 437c02b2
@0e12 435b851a
@0e13 43a810f2
@0e14 43b90c67
@0e15 42c994dd
@0e16 408a0661
@0e17 c35102fb
@0e18 c3da8b6c
@0e19 c3f0669a
@0e1a c2b149bd
@0e1b c05d3c63
@0e1c 34cc47c8
@0e1d c246c39b
@0e1e c3b069b3
@0e1f c4345f0f
@0e20 c3fbb5fa
@0e21 c28c1ec1
@0e22 c327c561
@0e23 434fe928
@0e24 43477ef3
@0e25 4385f157
@0e26 418eaae7
@0e27 c2d54e6f
@0e28 c29d4f41
@0e29 43acd9a0
@0e2a 442344cc
@0e2b 43dd7f6b
@0e2c 43d1edd9
@0e2d 43b40c3f
@0e2e 43c5fe2b
@0e2f 436c692b
@0e30 4295cca7
@0e31 41c50f56
@0e32 c32c6660
@0e33 c3beef85
@0e34 c3f22cfa
@0e35 c3cbdbd9
@0e36 c2788994
@0e37 c1099914
@0e38 c00ea3c3
@0e39 c1b446a1
@0e3a c3a68f32
@0e3b c44624c8
@0e3c c412a38f
@0e3d c30ce298
@0e3e c29ca948
@0e3f 42e95a6d
@0e40 42877441
@0e41 420929b0
@0e42 c3b3e21c
@0e43 c10d1dab
@0e44 433e8023
@0e45 43239be0
@0e46 43a65ad9
@0e47 4261e2f2
@0e48 432740b5
@0e49 4092f31b
@0e4a 42a29582
@0e4b c20525cd
@0e4c 42c40631
@0e4d 430d6795
@0e4e c3443072
@0e4f c38933ce
@0e50 c3b875f3
@0e51 c37625f7
@0e52 c129c765
@0e53 35622323
@0e54 342b4b38
@0e55 c13f9aba
@0e56 c3a281e0
@0e57 c44eba92
@0e58 c435be05
@0e59 c1f77d84
@0e5a 424078f2
@0e5b c3823f7a
@0e5c c3b80de3
@0e5d c38798cd
@0e5e c3c2b68c
@0e5f c3654bd1
@0e60 c3d41485
@0e61 c351f4a9
@0e62 c3376abe
@0e63 4263e0f3
@0e64 4235a28b
@0e65 c379c659
@0e66 4270865e
@0e67 c30966a4
@0e68 c2d34458
@0e69 43151b72
@0e6a c3657d40
@0e6b c3b1684d
@0e6c c3a6d09d
@0e6d c30c8ca6
@0e6e c07d903f
@0e6f 3478f885
@0e70 34a7f41f
@0e71 c0f6a11d
@0e72 c374306e
@0e73 c44c96d4
@0e74 c46bd3b9
@0e75 c400c7e2
@0e76 c3a7ac41
@0e77 c3f3eb27
@0e78 c3b7fd04
@0e79 c38ad441
@0e7a c3ab2f9b
@0e7b c3b0f770
@0e7c c303097e
@0e7d c3af87ef
@0e7e c3881ba1
@0e7f 42cb16dd
@0e80 c284e798
@0e81 4101e07c
@0e82 436ef68d
@0e83 c300af95
@0e84 c37bcf05
@0e85 42740b32
@0e86 c3844462
@0e87 c35447a4
@0e88 c3187a36
@0e89 c173e040
@0e8a bfb4de40
@0e8b b4c358f4
@0e8c b49b1e7e
@0e8d c0f8c577
@0e8e c338404d
@0e8f c42e6246
@0e90 c443d342
@0e91 c40a7494
@0e92 c4185ab7
@0e93 c3e457fe
@0e94 c3395a27
@0e95 c30d8c1d
@0e96 c3a43d99
@0e97 c378a012
@0e98 c2e1eaa0
@0e99 c30002a9
@0e9a c30498ee
@0e9b 41d8d952
@0e9c c30daeb5
@0e9d c14005c6
@0e9e 42f4c1cf
@0e9f 430ae8a0
@0ea0 433b40bc
@0ea1 436b8d0d
@0ea2 42ea94eb
@0ea3 c182c283
@0ea4 c28b4693
@0ea5 41da9138
@0ea6 bfd1bcaf
@0ea7 33497ef2
@0ea8 3539ff1c
@0ea9 c0eeaa5f
@0eaa c3151c34
@0eab c3e39b9c
@0eac c3ff290f
@0ead c3effda5
@0eae c3ad28a7
@0eaf c36b72e5
@0eb0 c27ed1ab
@0eb1 c28c943a
@0eb2 4293230a
@0eb3 4343b798
@0eb4 c35979ab
@0eb5 c30df8c6
@0eb6 c30d0ca9
@0eb7 c3168b9b
@0eb8 c30b4008
@0eb9 41b1c6cc
@0eba 42fc5491
@0ebb 438a19f4
@0ebc 42b613ee
@0ebd 43627036
@0ebe 432393f0
@0ebf 41d080f3
@0ec0 c1d7134a
@0ec1 c0482608
@0ec2 34e229c4
@0ec3 b442014e
@0ec4 b4d58d4c
@0ec5 c0e9ebed
@0ec6 c305b9e8
@0ec7 c3895ece
@0ec8 c38eccbf
@0ec9 c39aa8b8
@0eca c31a1c18
@0ecb c22501f0
@0ecc 409569ca
@0ecd 42a26eea
@0ece 42133d8d
@0ecf 421f3ceb
@0ed0 c305f2f6
@0ed1 c2be7279
@0ed2 c0765f72
@0ed3 c27eda3a
@0ed4 c237c636
@0ed5 41151abb
@0ed6 439a453d
@0ed7 422bc150
@0ed8 432fb4b0
@0ed9 42f9ce14
@0eda c0b6bf19
@0edb c1d308d7
@0edc c29982a7
@0edd c22b1de2
@0ede c0709dea
@0edf b4d68c6b
@0ee0 33aea8f6
@0ee1 c0b27c63
@0ee2 c27e31fe
@0ee3 c2daaed9
@0ee4 c2f9a044
@0ee5 c30d91a6
@0ee6 c216d65b
@0ee7 c28769de
@0ee8 c2e66c21
@0ee9 42598bc1
@0eea c2fd3b5c
@0eeb c20cc7e7
@0eec c30bb3aa
@0eed c2b183ae
@0eee c2a60b2d
@0eef c1cf521b
@0ef0 41596678
@0ef1 c3459065
@0ef2 4300afd3
@0ef3 c2d186cb
@0ef4 c2d895ff
@0ef5 c0f579f1
@0ef6 41caa56b
@0ef7 c23574ad
@0ef8 c1fcc5b7
@0ef9 c01045d2
@0efa bee8aa9f
@0efb 34e0da2f
@0efc b4570b94
@0efd bfa9c525
@0efe c1f1a66b
@0eff c227ef9b
@0f00 c280491e
@0f01 c2f36d72
@0f02 c32520c2
@0f03 c37c4247
@0f04 c3a36575
@0f05 c2830ecb
@0f06 c2508a08
@0f07 c39c5087
@0f08 c3d43aa1
@0f09 c39d1a08
@0f0a c3d70ee8
@0f0b c3ab6493
@0f0c c389a671
@0f0d c3b4144f
@0f0e c3d02429
@0f0f c3ea994b
@0f10 c38c84dd
@0f11 c339da9d
@0f12 c2d9726c
@0f13 c2103dfa
@0f14 c1c6ee0a
@0f15 bea78a9b
@0f16 3407823c
@0f17 34309380
@0f18 b4f72019
@0f19 b5605f57
@0f1a bebf32c7
@0f1b c05f6e59
@0f1c c0897a6d
@0f1d c1285655
@0f1e c285ab55
@0f1f c28c831b
@0f20 c28e1f67
@0f21 c34cbf38
@0f22 c38e39f9
@0f23 c3ad210b
@0f24 c3a05e26
@0f25 c38798a4
@0f26 c3d2d1bf
@0f27 c3c523c5
@0f28 c3917527
@0f29 c38fcdb5
@0f2a c388416a
@0f2b c355031b
@0f2c c2dbf40b
@0f2d c284e380
@0f2e c1f614d9
@0f2f 3f8d26bf
@0f30 3e31ae45
@0f31 34f65cf2
@0f32 347ab4df
@0f33 33b3e7e6
@0f34 b54f975f
@0f35 b514bd12
@0f36 b45dc7bd
@0f37 344c6c82
@0f38 b4cf27db
@0f39 b56e23bf
@0f3a 348b8296
@0f3b 34fc03b0
@0f3c be2b4fa2
@0f3d c0ab4fc3
@0f3e c1306cce
@0f3f c14b7420
@0f40 c2355199
@0f41 c1a9b142
@0f42 c293ef1c
@0f43 c26937ef
@0f44 c1ac45b5
@0f45 c2163c6c
@0f46 c2146ad3
@0f47 c23b36e9
@0f48 c11df2ef
@0f49 c117b370
@0f4a c0c112ee
@0f4b b49fad9a
@0f4c 3588b548
@0f4d b298f05e
@0f4e b559f19d
@0f4f 351d1057
@0f50 b51904e4
@0f51 338e3e5b
@0f52 353a5220
@0f53 b380ae97
@0f54 b52a0936
@0f55 34d9a9fd
@0f56 34b5c41d
@0f57 33633c2b
@0f58 31b9159d
@0f59 344fcbd9
@0f5a 3580641f
@0f5b b2ce61ec
@0f5c 33db7455
@0f5d 359074ab
@0f5e b5960faa
@0f5f 34c5bf24
@0f60 35999788
@0f61 b2befeef
@0f62 35225e0c
@0f63 349d7c83
@0f64 b50162c5
@0f65 3353484f
@0f66 b35e5018
@0f67 34251351
@0f68 348905f6
@0f69 35146ddb
@0f6a b48bf7d5
@0f6b b49ce5ef
@0f6c 33b49f7f
@0f6d b48f9719
@0f6e b4b799cd
@0f6f b4cdc83f
@0f70 be1141aa
@0f71 be6691cc
@0f72 bfd684e6
@0f73 bf0bfe2e
@0f74 bf876985
@0f75 c0161148
@0f76 c0ceae5d
@0f77 c0f85b29
@0f78 c0e3dc4b
@0f79 c0b4e2af
@0f7a c08bf5d6
@0f7b c00148d9
@0f7c bff3664a
@0f7d c08bcd88
@0f7e c0c6309d
@0f7f c089277a
@0f80 c0af7cce
@0f81 c08bb19d
@0f82 c0b6361f
@0f83 c09ec127
@0f84 c061b571
@0f85 c09d833a
@0f86 bf8e989b
@0f87 b52cd121
@0f88 b5b0e4e0
@0f89 34b10102
@0f8a c0103cc5
@0f8b c0160769
@0f8c c0ae62f3
@0f8d c1162d12
@0f8e c1d83e02
@0f8f c1fe4e86
@0f90 c21db071
@0f91 c291593e
@0f92 c323693c
@0f93 c37b40b3
@0f94 c382a370
@0f95 c3852a0a
@0f96 c38af54f
@0f97 c367e13c
@0f98 c3367d29
@0f99 c34897f6
@0f9a c34af4c3
@0f9b c36a54b3
@0f9c c3707189
@0f9d c33cc7c5
@0f9e c31de4fb
@0f9f c2d3dad7
@0fa0 c28e8915
@0fa1 c23b55ca
@0fa2 c109bbb1
@0fa3 b51a428d
@0fa4 b4c29d9a
@0fa5 c0399d62
@0fa6 c1d59d1f
@0fa7 c1a5543e
@0fa8 c1c925ae
@0fa9 c2a43ddf
@0faa c2b990fd
@0fab c2ffb534
@0fac c3519fe1
@0fad c38032e7
@0fae c3fac80c
@0faf c4345871
@0fb0 c41c9007
@0fb1 c432268d
@0fb2 c409c589
@0fb3 c416b1d2
@0fb4 c434327b
@0fb5 c42e7d30
@0fb6 c43a7cd7
@0fb7 c42d6596
@0fb8 c454f69b
@0fb9 c4103bf5
@0fba c3b987f2
@0fbb c3684083
@0fbc c308e941
@0fbd c2cfee89
@0fbe c12cf958
@0fbf b49fa12a
@0fc0 c0074c50
@0fc1 c1f089aa
@0fc2 c30d1ef3
@0fc3 c2a183f7
@0fc4 c2c60b96
@0fc5 c36543e9
@0fc6 c3857b8b
@0fc7 c391fa1d
@0fc8 c3ed11fd
@0fc9 c3bdee4a
@0fca c3ea29ae
@0fcb c3e6ff21
@0fcc c3736d05
@0fcd c3aa4b3a
@0fce c2a64e97
@0fcf c305ece8
@0fd0 c24da79e
@0fd1 c333475b
@0fd2 c238ce57
@0fd3 c38738cb
@0fd4 c423112f
@0fd5 c373b855
@0fd6 c350445d
@0fd7 c28096a6
@0fd8 42816580
@0fd9 c294d78f
@0fda c19dff87
@0fdb bfe01e61
@0fdc c1aacfe4
@0fdd c21d6fec
@0fde c333ed7b
@0fdf c339c3b3
@0fe0 c3865e14
@0fe1 c3b1dadb
@0fe2 c400518c
@0fe3 c3b78695
@0fe4 c2f3cc3e
@0fe5 c3197a99
@0fe6 c2527036
@0fe7 4205bd5a
@0fe8 c2ee2656
@0fe9 c33c4428
@0fea c36cfad3
@0feb c396f18f
@0fec 4212067d
@0fed 43daddc5
@0fee 438e8f92
@0fef c10dc45d
@0ff0 431914db
@0ff1 42ee1f7d
@0ff2 43a21a89
@0ff3 42447777
@0ff4 4342d56d
@0ff5 425c0023
@0ff6 42c755ae
@0ff7 4041cf8e
@0ff8 c1d9900b
@0ff9 c27b5d13
@0ffa c3415743
@0ffb c3c6c6d6
@0ffc c3e89ba7
@0ffd c3c98bd1
@0ffe c3b76f6f
@0fff c29ed52a
@1000 c2ce93d6
@1001 4349d75c
@1002 424b009d
@1003 415a7033
@1004 c1160377
@1005 c2d35791
@1006 4353f944
@1007 42e0d334
@1008 43928412
@1009 4314dc03
@100a 433cf87f
@100b 42c004cb
@100c 43acf29a
@100d 439de7df
@100e 438983ea
@100f 43a2dec2
@1010 4418d154
@1011 439b29ce
@1012 434e9c74
@1013 41fe5877
@1014 c1e362d8
@1015 c29418bd
@1016 c34b74a6
@1017 c3e0186b
@1018 c4213b4f
@1019 c3e28bb1
@101a c2aa3652
@101b 425fb421
@101c 439a1971
@101d 42df7b69
@101e 43075fa4
@101f 439359af
@1020 41f82212
@1021 c38dfe7e
@1022 43e85ed3
@1023 c1a485e6
@1024 433d8368
@1025 4307c542
@1026 c24898b4
@1027 c2dca780
@1028 42ea38a9
@1029 43254e4e
@102a 431daab8
@102b 44270491
@102c 443e5130
@102d 4414e21b
@102e 439669a2
@102f 41edd920
@1030 c178cee4
@1031 c2129793
@1032 c32d9f3c
@1033 c3c7d7e4
@1034 c422762c
@1035 c3bc687b
@1036 c34d0c93
@1037 c2ef494d
@1038 43ac7193
@1039 c2ab962c
@103a c34d1b88
@103b 4338e3b8
@103c 431257bd
@103d 4348c706
@103e 430bf273
@103f c3a557f5
@1040 c31c5942
@1041 c30cfeea
@1042 43288523
@1043 435c864d
@1044 43c5d5f7
@1045 43bdcad2
@1046 433f9d13
@1047 43dbe681
@1048 4465e9ad
@1049 446a4f9f
@104a 43a12780
@104b 41ec44a6
@104c c10c8712
@104d c174dfa1
@104e c32175dc
@104f c3e2593b
@1050 c41e173d
@1051 c3bf1e1d
@1052 c0c987bd
@1053 42e5df1d
@1054 43951bd6
@1055 4347adb8
@1056 4162b44a
@1057 43c894ec
@1058 42f26edd
@1059 4307f65c
@105a 407be382
@105b c39fc862
@105c c4133f50
@105d c36e2a1c
@105e 42435fd7
@105f c2f56e99
@1060 4305ba1d
@1061 44218b1e
@1062 4420032a
@1063 44533685
@1064 44a411a1
@1065 4496875c
@1066 43cd4828
@1067 42090491
@1068 be15118e
@1069 c108ba16
@106a c311627a
@106b c3eadaa7
@106c c3f58181
@106d c3935894
@106e c27241d1
@106f 43957a92
@1070 4324cb64
@1071 43a89e32
@1072 41c0b0dd
@1073 4419114c
@1074 435dca91
@1075 44065226
@1076 43b55c4c
@1077 c2cbb570
@1078 c3c2b941
@1079 c402c5e1
@107a c2a5d7d2
@107b c3c5a294
@107c c2e54557
@107d 43419340
@107e 43d2e2a0
@107f 446eb0e1
@1080 44a411b6
@1081 44bfcbee
@1082 43efbd52
@1083 41fd0398
@1084 b3cc2678
@1085 c12fc90f
@1086 c2f3db56
@1087 c3c643d7
@1088 c3fabff8
@1089 c3b1a7c7
@108a 42c87f31
@108b 42115161
@108c 42b45b8a
@108d 436fb04c
@108e 428dc646
@108f 439c33de
@1090 437639e1
@1091 43b0164d
@1092 41eebcff
@1093 42a76d7a
@1094 c1cdcc14
@1095 c353a5f4
@1096 c38e4399
@1097 c43caf9f
@1098 c496afef
@1099 c48637d0
@109a c44bbd54
@109b c392bf49
@109c 4280916a
@109d 44170931
@109e 433a18b0
@109f 416e1954
@10a0 be3d26c1
@10a1 c13a9f8d
@10a2 c297566f
@10a3 c38af383
@10a4 c3e186c3
@10a5 c3649a37
@10a6 437ed45d
@10a7 431d4ad2
@10a8 42a437af
@10a9 42a43781
@10aa 43d5b661
@10ab 4410e1a0
@10ac 43bae9fa
@10ad 43f52973
@10ae 430469e0
@10af 429a1f6c
@10b0 c38a4872
@10b1 c3853179
@10b2 c4270ad6
@10b3 c3a7ac26
@10b4 c424724a
@10b5 c49ad159
@10b6 c4b33ebb
@10b7 c4ae71f0
@10b8 c481fffa
@10b9 c38bbdbd
@10ba 41af7235
@10bb 3531145e
@10bc bdbd26b3
@10bd c1148fb7
@10be c2fba7c8
@10bf c37fa754
@10c0 c393cfe2
@10c1 c35fc96e
@10c2 429b0456
@10c3 43622dbd
@10c4 440fcc4b
@10c5 43292287
@10c6 439f42e2
@10c7 43874a31
@10c8 438f9acc
@10c9 4324f54f
@10ca 437cf4ee
@10cb c35f9748
@10cc c38e05da
@10cd c310bd57
@10ce 43492611
@10cf 4323dcf1
@10d0 434da8d7
@10d1 c38bceb9
@10d2 c41eeea3
@10d3 c4640be8
@10d4 c46998e6
@10d5 c3b7f69e
@10d6 c1dc8c2f
@10d7 b4445906
@10d8 40ae20c4
@10d9 c239207c
@10da c35ddba8
@10db c3933cf6
@10dc c37e5547
@10dd c3a7c927
@10de c29d7886
@10df c2812560
@10e0 4245269c
@10e1 4349d752
@10e2 43ff5af3
@10e3 431d6dc8
@10e4 43638d80
@10e5 439d7c4e
@10e6 41c0f914
@10e7 c364c18c
@10e8 c2dc08ce
@10e9 41cf5837
@10ea 3f6fc072
@10eb 428906a3
@10ec 4399eef4
@10ed 43804c23
@10ee 4126c9d4
@10ef c399e275
@10f0 c3ed103e
@10f1 c399bcf7
@10f2 c2124029
@10f3 33bbcafa
@10f4 3fe40fb1
@10f5 c242d56c
@10f6 c3817f8a
@10f7 c3ae36f7
@10f8 c4079812
@10f9 c4101c72
@10fa c2ccf075
@10fb c34f8d06
@10fc c362fcc8
@10fd 4303f508
@10fe 43c27d86
@10ff 438f6152
@1100 430090e6
@1101 c26dc877
@1102 c3832279
@1103 c3b98f3e
@1104 c3025e6b
@1105 420151aa
@1106 43112eec
@1107 42628c53
@1108 438c07b7
@1109 43223d02
@110a 42e2acc7
@110b 428e369d
@110c c33b37a5
@110d c363b01c
@110e c1f2976c
@110f 3395d82d
@1110 34adf533
@1111 c1635dfe
@1112 c383f1a2
@1113 c3fd7367
@1114 c4196377
@1115 c3c2ebdf
@1116 c3a8a3d1
@1117 c4386b87
@1118 c3f88744
@1119 c3dac600
@111a 4113a621
@111b c1a3878b
@111c c3671dfe
@111d c369a5a9
@111e c363177f
@111f c3ab6c15
@1120 c394a2ab
@1121 4265105c
@1122 435a3ef8
@1123 422caca5
@1124 43b1e28f
@1125 4351d5b8
@1126 42e72670
@1127 43b3b971
@1128 410a97f3
@1129 c33144c4
@112a c1fde86f
@112b 351197df
@112c 351d4b54
@112d c1c15391
@112e c39b9ad9
@112f c450ad93
@1130 c4350a2c
@1131 c31941bb
@1132 43b32be8
@1133 c43c6385
@1134 c42e8455
@1135 c3e449a1
@1136 c4126d4f
@1137 c3a6399a
@1138 c44b22f8
@1139 c4550066
@113a c28cd77f
@113b 4200117a
@113c 41311468
@113d 438d0b2f
@113e 43cd1a08
@113f c20ba17d
@1140 c15c7e33
@1141 43982942
@1142 c2984a68
@1143 43b24cec
@1144 43004f2b
@1145 c2d6cab1
@1146 c1cd62ee
@1147 b5a6bb24
@1148 bf020963
@1149 c204e76e
@114a c3b7b6cf
@114b c462b809
@114c c3de02a4
@114d 41cffeff
@114e 447fb2ab
@114f 4396ed2d
@1150 c40c4f21
@1151 c420b3e8
@1152 c47836d7
@1153 c41cdc2f
@1154 c387eae6
@1155 4225e66a
@1156 43b780b0
@1157 42ef9b2a
@1158 4357ff77
@1159 43435f38
@115a 4385d0cb
@115b 429d953a
@115c 43b02a9e
@115d 432e81fa
@115e 435305be
@115f 43a0054d
@1160 43624209
@1161 c2421c1e
@1162 3ef71b78
@1163 34f9f62d
@1164 b46d6058
@1165 c123730f
@1166 c36b9d00
@1167 c48ac784
@1168 c4134dc0
@1169 c35b44e9
@116a 43d8b4f1
@116b 4421f800
@116c 43a49856
@116d c28b4b56
@116e 3f750947
@116f 43b3c8a4
@1170 43085de4
@1171 c1eff959
@1172 423569dd
@1173 43733a6a
@1174 4320ea6f
@1175 c35bd08e
@1176 4349616b
@1177 4310fdf6
@1178 43473837
@1179 437cc526
@117a 43c44866
@117b 43aa7cb0
@117c 4283e725
@117d c223dcaf
@117e c1904250
@117f b48edd40
@1180 352a90cf
@1181 c1732e89
@1182 c3920770
@1183 c470002a
@1184 c447ca37
@1185 c3395db9
@1186 c36c9e3c
@1187 c38661a1
@1188 424717a5
@1189 41116a4c
@118a 4148392c
@118b 437dea24
@118c c387e12a
@118d 431d5e4d
@118e c3a55cbd
@118f c3243c86
@1190 42a0a627
@1191 c2b30cdc
@1192 437a5487
@1193 42ca8755
@1194 c3378d63
@1195 c2d66587
@1196 43f1e9f3
@1197 439d41b8
@1198 c1610ef4
@1199 c13b1c24
@119a 3f9a6d1d
@119b b509a0a8
@119c 34a10472
@119d c1496384
@119e c390266e
@119f c44f3d1f
@11a0 c44bfb36
@11a1 c40125bb
@11a2 c3028672
@11a3 42c2b97c
@11a4 4323ead6
@11a5 42b3ea7a
@11a6 431bde0e
@11a7 43e18251
@11a8 410eb81f
@11a9 c268fbe7
@11aa 43872741
@11ab 4349c1a8
@11ac 43828ec9
@11ad 43858916
@11ae c36ecba2
@11af c2ac49e9
@11b0 42cc0650
@11b1 438a72df
@11b2 43842f4c
@11b3 43894331
@11b4 41eb5c18
@11b5 423fd010
@11b6 40c5df0d
@11b7 342208f4
@11b8 3551dffb
@11b9 c120bfa3
@11ba c353b6ae
@11bb c427ed5f
@11bc c42407c5
@11bd c408d843
@11be c3e5c5bf
@11bf c3ac9a56
@11c0 c31747a6
@11c1 c33ed3e1
@11c2 c1c062b8
@11c3 43e5e609
@11c4 44094ce6
@11c5 43da1424
@11c6 43cc77b4
@11c7 426ce1b4
@11c8 438776a7
@11c9 c293c37c
@11ca 42b36c7a
@11cb 42e738f4
@11cc 438a1454
@11cd c22363f0
@11ce 43269d3c
@11cf 4373eece
@11d0 424e5aa6
@11d1 423c55ea
@11d2 bfd19f96
@11d3 b477727b
@11d4 3542dd4e
@11d5 c112fd72
@11d6 c3341f60
@11d7 c3e514cc
@11d8 c3d7a857
@11d9 c38720e4
@11da c320cb7c
@11db c327176f
@11dc 41c857d7
@11dd c199b9e6
@11de 431e2e2a
@11df 42974ddf
@11e0 41fd968d
@11e1 c390f4e7
@11e2 c249680d
@11e3 c332b07b
@11e4 430c5cc6
@11e5 4165697b
@11e6 c3786d4b
@11e7 42a4f731
@11e8 42bd8062
@11e9 c2ce0ed1
@11ea 41deae67
@11eb 4319d64e
@11ec 42c2ee84
@11ed 4107aaba
@11ee bf5380c8
@11ef 35614bd0
@11f0 34aa5327
@11f1 c06ecff4
@11f2 c28321bd
@11f3 c32bd322
@11f4 c37c8071
@11f5 c38f896d
@11f6 c37347bb
@11f7 c3259860
@11f8 c329818d
@11f9 42bd5dce
@11fa c2e262a0
@11fb 41a8bef7
@11fc 4327feb2
@11fd 4380093b
@11fe 4315a856
@11ff 43640a86
@1200 4284aa03
@1201 42e55235
@1202 43143fe2
@1203 429cd393
@1204 4297e316
@1205 c2c15879
@1206 428203dd
@1207 42c19d13
@1208 42c1f178
@1209 c1b0ab08
@120a bebe4e4e
@120b 343a21b4
@120c b3f2d3c4
@120d bf12e40a
@120e c1433057
@120f c1c9ddbc
@1210 c2452a63
@1211 c2d15240
@1212 c2e34785
@1213 c2d809aa
@1214 c2e4d83c
@1215 41fe3af4
@1216 4329f77e
@1217 4370d5ff
@1218 438509dc
@1219 43a1613b
@121a 42fb221b
@121b 43442f3f
@121c 4342b3ba
@121d 43a976eb
@121e 43604617
@121f 42fa935a
@1220 4253e6de
@1221 41301bbe
@1222 42e5e738
@1223 431616af
@1224 42e80a9a
@1225 c12e48c0
@1226 be8e21be
@1227 35737e9b
@1228 33e326b5
@1229 3507c600
@122a bf6e6856
@122b bfb52555
@122c c011b032
@122d bfce032f
@122e c172b323
@122f c22b3638
@1230 c2029c0e
@1231 41fc453b
@1232 4209630b
@1233 430cf2c4
@1234 42c66397
@1235 42471cc3
@1236 4227d176
@1237 42e6892c
@1238 4318fdc3
@1239 42756ba0
@123a c175bf4f
@123b 41c8ca9c
@123c 42ad61bb
@123d 4260f370
@123e 4175124c
@123f c0b61d82
@1240 c093e5e7
@1241 bfd532a0
@1242 350b6126
@1243 353d1575
@1244 33b575f5
@1245 356667d6
@1246 b56d159a
@1247 3490d717
@1248 33b5f065
@1249 b56d7cad
@124a b470cea5
@124b 344e205f
@124c b4a7b387
@124d b575cf16
@124e bcbf3af5
@124f bf95590e
@1250 c0ce4621
@1251 bef1857b
@1252 34c7de8a
@1253 34b1d770
@1254 b3f17aaa
@1255 bf045bcf
@1256 c103c487
@1257 c081feb9
@1258 b458997f
@1259 34ba8c76
@125a b41de84f
@125b b505bc2d
@125c 33ba5a96
@125d 353d685d
@125e b4e0a35b
@125f b42b4cf8
@1260 b4958748
@1261 b5097dc6
@1262 32cf3e37
@1263 3523a9b6
@1264 341b5a4d
@1265 b3ce8acd
@1266 34c2d524
@1267 3411fb54
@1268 b36d0f5c
@1269 b20b5d34
@126a 34349cb7
@126b 338cd812
@126c 4136ff42
@126d 41c859ab
@126e 34817d9a
@126f 33a45534
@1270 b40df772
@1271 b511c431
@1272 34bbe366
@1273 35105b45
@1274 b25c2fc0
@1275 b303b282
@1276 b52ce267
@1277 b554f962
@1278 33ed4323
@1279 321835d9
@127a 31426e4f
@127b b5625516
@127c 35760d27
@127d 3359b50f
@127e b4f07fe1
@127f be413794
@1280 becfb210
@1281 be211a0e
@1282 4216789d
@1283 4285058c
@1284 42bb20f3
@1285 42056ca1
@1286 421682c1
@1287 4259cb4d
@1288 429a67a4
@1289 429f0602
@128a 4137557e
@128b 41721de7
@128c 41919935
@128d 427a3b14
@128e 42786ee3
@128f 42a9295d
@1290 4255fdf7
@1291 41b5177c
@1292 40f954cc
@1293 414226f1
@1294 bfed037a
@1295 bd1089b8
@1296 b343beea
@1297 3329b054
@1298 b4bce9fb
@1299 34d71654
@129a be4aca07
@129b c0d8f34e
@129c c170d9d4
@129d c1ab581c
@129e c104e878
@129f 42610853
@12a0 43218a27
@12a1 434a801a
@12a2 432098fc
@12a3 42c8a01c
@12a4 42aa69f1
@12a5 4302ec50
@12a6 4393564f
@12a7 436a7eff
@12a8 4384fc64
@12a9 4395f538
@12aa 437cd2ad
@12ab 432ea84a
@12ac 428f51c3
@12ad 42d806b9
@12ae 41c70d25
@12af c224e186
@12b0 c1cc6b3f
@12b1 c1538832
@12b2 be563df2
@12b3 b50ec66a
@12b4 35108063
@12b5 b4c953c9
@12b6 bfb1f7d6
@12b7 c0854670
@12b8 c1dfb9ff
@12b9 c2135403
@12ba c114cf73
@12bb 429377af
@12bc 43136a5a
@12bd 434d4253
@12be 4314589a
@12bf 400eae3c
@12c0 3ed94f10
@12c1 43661d95
@12c2 439c32ba
@12c3 43679a45
@12c4 42e2e0e1
@12c5 c2f2943e
@12c6 4211c810
@12c7 42cf9422
@12c8 42cc27e5
@12c9 430b090b
@12ca 423ade21
@12cb c22acc93
@12cc 4199b144
@12cd c14d472c
@12ce 420962de
@12cf b49beaf5
@12d0 b370a065
@12d1 bfc3f0ab
@12d2 c1503227
@12d3 c1bc2080
@12d4 c24262d0
@12d5 c26ab449
@12d6 c27d3e44
@12d7 430adba3
@12d8 42f285c4
@12d9 c1b126f2
@12da c1464518
@12db c33cd9be
@12dc c1cff46c
@12dd c25f586c
@12de c3029a8e
@12df c2cb0cee
@12e0 4360f4c8
@12e1 43071a48
@12e2 430c0b77
@12e3 434c08fe
@12e4 438b1c39
@12e5 438bdef6
@12e6 43693dda
@12e7 431a92dc
@12e8 41bc0b96
@12e9 42381926
@12ea 41184055
@12eb 41096c4c
@12ec b56b4f98
@12ed c021c947
@12ee c19d6551
@12ef c2763776
@12f0 c16dd052
@12f1 c2ef2fc4
@12f2 c2ba199a
@12f3 421aea7d
@12f4 4318344a
@12f5 4165d5ad
@12f6 428fe202
@12f7 c392e259
@12f8 c254592e
@12f9 c35fdfe2
@12fa 422cd341
@12fb 43075f41
@12fc 4309907f
@12fd 4367c6ab
@12fe 43fdf1e1
@12ff 440b6dc5
@1300 4379a74d
@1301 43908d53
@1302 42db35ba
@1303 43996293
@1304 434d9eb0
@1305 421067d7
@1306 4211f9f0
@1307 414adcd2
@1308 b4a946a2
@1309 c0c6da7e
@130a c1cc36ed
@130b c2d872fb
@130c c2b07da6
@130d c30da339
@130e c135e0eb
@130f 412ded94
@1310 c2570ac7
@1311 c1e24b41
@1312 c300430c
@1313 c33ca3fa
@1314 c2c5658c
@1315 42bc3eca
@1316 42130083
@1317 42e84f0a
@1318 c2704fb8
@1319 c084532e
@131a 42c260f3
@131b 4310a6bf
@131c c2afc101
@131d 420b1ad9
@131e c1f032a2
@131f 42c29e11
@1320 42b19ba0
@1321 42b1be10
@1322 42273cdd
@1323 4214f95b
@1324 b45906e1
@1325 c0caff94
@1326 c298c00e
@1327 c35cadea
@1328 c35d7457
@1329 c36b9119
@132a c34b062f
@132b c30ab007
@132c c309a3c4
@132d c3275afa
@132e c29c0bc0
@132f 4008c602
@1330 c30f37cb
@1331 c334f2d8
@1332 c2c064ee
@1333 429d2b0a
@1334 c35a479f
@1335 c34c9f65
@1336 c3539c15
@1337 c39e59c4
@1338 c3a6d025
@1339 c3885c57
@133a c2e1ab09
@133b c336f8b7
@133c 41aa2341
@133d 4185f6e9
@133e 42053bba
@133f 41bb9b2d
@1340 336d130e
@1341 c0cb6d69
@1342 c2a232b1
@1343 c35bd60e
@1344 c377f360
@1345 c38dbcfb
@1346 c3a76663
@1347 c38f22fd
@1348 c3046651
@1349 c2f4bbcc
@134a c300621c
@134b c2fc1dae
@134c c30b0a9e
@134d c343c033
@134e c37f1349
@134f c3e16d0a
@1350 c33ea221
@1351 c3567c0c
@1352 c41cf6c3
@1353 c4228cb0
@1354 c40ffe3b
@1355 c3c4b218
@1356 c3aa4730
@1357 c3f1a240
@1358 c3ae8884
@1359 c3350d46
@135a c2378b9e
@135b c11b7284
@135c bdd13cba
@135d c15a39c2
@135e c296b8b6
@135f c354f3a0
@1360 c38036b5
@1361 c39c04e8
@1362 c390ec94
@1363 c2c0e853
@1364 c240ca70
@1365 c230fb67
@1366 c33f7cd6
@1367 c2f987d9
@1368 c3093a79
@1369 c34b2f97
@136a c1d1b928
@136b c363802f
@136c c340fbb2
@136d c3ef74f8
@136e c3fb3a60
@136f c3e4dfe2
@1370 c3819a96
@1371 c304d69a
@1372 c365fad1
@1373 c3c22bb3
@1374 c3c688d6
@1375 c3856a1e
@1376 c297e322
@1377 bd92f1dc
@1378 340a8bfb
@1379 c153f60e
@137a c29f1471
@137b c3550a39
@137c c38f91d7
@137d c381c13c
@137e c34c6e3a
@137f c21a1382
@1380 c19f9c99
@1381 c2b2a0bf
@1382 c2d07169
@1383 c2918320
@1384 c34ee943
@1385 42fc6fe4
@1386 c349d9f1
@1387 c345add7
@1388 c39343cc
@1389 c32f9b9c
@138a c3a452f9
@138b c3aed1aa
@138c c3010491
@138d c2b04efb
@138e c2db6ff7
@138f c33e5785
@1390 c3843a52
@1391 c38f712e
@1392 c2cd9ff4
@1393 c1b9e228
@1394 b346c788
@1395 c0cc2457
@1396 c2b9326d
@1397 c3823b71
@1398 c3a2e59c
@1399 c356507c
@139a c2a4f353
@139b 42e9b8ed
@139c 4287bdcf
@139d 434c770f
@139e c19edb90
@139f c19c7a31
@13a0 412f4e9f
@13a1 43349f5c
@13a2 40e3cf28
@13a3 c3a4a582
@13a4 c16bbf84
@13a5 c301c658
@13a6 c2bd11d8
@13a7 c17ca669
@13a8 42defeee
@13a9 4371e429
@13aa 42a78c48
@13ab 43468e9b
@13ac c28f357f
@13ad c3930d1a
@13ae c2d8d2f0
@13af c18e8ea5
@13b0 b4ce0a88
@13b1 c0c44bea
@13b2 c2a83026
@13b3 c383eac0
@13b4 c3b2110d
@13b5 c2cfb8c2
@13b6 43214773
@13b7 4380a47f
@13b8 430aae2f
@13b9 4302a588
@13ba c3028cec
@13bb 433bd1b4
@13bc 43939a49
@13bd 4338d899
@13be c21267de
@13bf c30febe2
@13c0 4319d027
@13c1 4363c1a7
@13c2 c1225c17
@13c3 c3b6c8a4
@13c4 c2150f5a
@13c5 4371c13a
@13c6 434d1a08
@13c7 43ddd51b
@13c8 428a3bec
@13c9 c3956761
@13ca c2bac214
@13cb c0ae40e8
@13cc 353a8f3f
@13cd c0c7ef18
@13ce c28f4c71
@13cf c3531f81
@13d0 c3a808ab
@13d1 4078028f
@13d2 438dd832
@13d3 4210cd8d
@13d4 c2b1f5cf
@13d5 42ccbeae
@13d6 4212c0d6
@13d7 420eb125
@13d8 437b8749
@13d9 42397278
@13da c2cd0e7d
@13db 42c91a98
@13dc c2951292
@13dd c0b68788
@13de 4344cd85
@13df 42b79889
@13e0 c245db1b
@13e1 4339eb05
@13e2 4392b31c
@13e3 441ef087
@13e4 4350b6a8
@13e5 c38dcf73
@13e6 c2cbebef
@13e7 c1b683fd
@13e8 34859fb2
@13e9 c131c8b8
@13ea c2b1108e
@13eb c352278f
@13ec c3f53783
@13ed c2bdf43c
@13ee 43516fc7
@13ef 4293a222
@13f0 430173c8
@13f1 4385b42a
@13f2 41ef3d0f
@13f3 4355f3df
@13f4 42888d19
@13f5 c3221533
@13f6 40c1751c
@13f7 436158ae
@13f8 431be503
@13f9 c308a32b
@13fa 4342d5ec
@13fb 42cce3c0
@13fc 41e45b72
@13fd 4294ea4c
@13fe 43845aea
@13ff 43ceb790
@1400 413770b1
@1401 c33c2dab
@1402 c2f5cf74
@1403 c0223c71
@1404 b54504b2
@1405 c18f5763
@1406 c2c3d9c5
@1407 c3713ab6
@1408 c4089956
@1409 c39c07e9
@140a 431706fe
@140b 43260c5d
@140c 43675243
@140d 42685f67
@140e 431b0db8
@140f 4295f372
@1410 42db1b4f
@1411 c246d54e
@1412 429b4bb0
@1413 43867a72
@1414 430d302e
@1415 c1f1a020
@1416 437347bc
@1417 4314599c
@1418 438a1929
@1419 4370d56f
@141a 43933c29
@141b 428adda9
@141c 4243f0e0
@141d c2f50841
@141e c321de9f
@141f c0d69081
@1420 bf05e6a6
@1421 c0b3b862
@1422 c2425fa8
@1423 c350433e
@1424 c3df6e09
@1425 c382b6f5
@1426 431c4820
@1427 42cd5839
@1428 429e85fa
@1429 4379a414
@142a 438cbd36
@142b 43c849df
@142c c14a9c34
@142d 42a63c36
@142e 438b1f2d
@142f 438b91fa
@1430 433c3f69
@1431 4199b79b
@1432 43991103
@1433 43ae9212
@1434 bc2dfdb2
@1435 4304bc3a
@1436 43552828
@1437 43031302
@1438 42b559fa
@1439 c28f1e96
@143a c2e46340
@143b c1c75dbe
@143c c0563dcf
@143d c182fb2b
@143e c1e5b9df
@143f c332b7bf
@1440 c3f42f4e
@1441 c36a1115
@1442 c28978f0
@1443 43022fad
@1444 433c144d
@1445 43728604
@1446 43db7312
@1447 43cc8066
@1448 c12b4055
@1449 432ad6a6
@144a 43a502a9
@144b bf90b7e4
@144c 430a69c1
@144d 42801473
@144e 42defe0b
@144f 4342b85d
@1450 41c92e43
@1451 43384e28
@1452 432bd8c0
@1453 43358c93
@1454 4246e89f
@1455 c243773b
@1456 c26cc446
@1457 c121ffc8
@1458 35623e05
@1459 bfcd41af
@145a c237cbe5
@145b c34c92bd
@145c c3faa32a
@145d c3c76262
@145e c35ced15
@145f 434c79eb
@1460 429f7875
@1461 c1e74f1b
@1462 4368e45f
@1463 42b9a5a7
@1464 43339643
@1465 41983bbd
@1466 414b8738
@1467 434b198e
@1468 43d5c5b4
@1469 42d5da68
@146a 434b1d42
@146b 423825aa
@146c c2922500
@146d 42e68018
@146e 428d971e
@146f 42157f59
@1470 c336ef78
@1471 c2e1df57
@1472 c23c3e7b
@1473 c10171d9
@1474 349f6d49
@1475 bee7a8f0
@1476 c2012717
@1477 c349e822
@1478 c3c70d63
@1479 c3a27e0a
@147a c35205b9
@147b 3efad505
@147c c35a6c32
@147d c30e84a7
@147e 434aa875
@147f 43f8451a
@1480 437e1ec0
@1481 423ce90a
@1482 430a451d
@1483 43e5ffd1
@1484 43b57a5c
@1485 43638301
@1486 4286c054
@1487 42565ff9
@1488 42936822
@1489 4353d0c2
@148a 42f161b5
@148b 424d39f5
@148c c2c3666d
@148d c297d456
@148e c18f55ef
@148f b578bfd7
@1490 b56c7447
@1491 bea4a04a
@1492 c203ce52
@1493 c36aefc7
@1494 c39de431
@1495 c3b71d79
@1496 c25b1733
@1497 c21e4c45
@1498 404d6905
@1499 c1985e93
@149a 433b840d
@149b 43859c9f
@149c 432b3214
@149d c23e90c9
@149e 438a57e9
@149f 4379b2af
@14a0 4349bdd8
@14a1 433d610a
@14a2 431d67e5
@14a3 42b84000
@14a4 43027e52
@14a5 42b4ca7b
@14a6 4236873d
@14a7 c2cb1687
@14a8 c30d2330
@14a9 c21c6389
@14aa c0018dbc
@14ab 345efac9
@14ac b10de8b5
@14ad bfcd8049
@14ae c28abcdc
@14af c378befb
@14b0 c3cade1e
@14b1 c3e4575f
@14b2 c38af206
@14b3 c25c9804
@14b4 431a22f9
@14b5 c1a214f5
@14b6 c220240f
@14b7 42ef64dd
@14b8 43e3f1e9
@14b9 439fbf84
@14ba 433e0b30
@14bb 432057c7
@14bc 4360d025
@14bd 4318467a
@14be 43b2eb03
@14bf 41680724
@14c0 41c8ec84
@14c1 c2392bbe
@14c2 c18f68fb
@14c3 c32b32bd
@14c4 c2c5ccd8
@14c5 c2375407
@14c6 c0a4be78
@14c7 b50edcd1
@14c8 b08aa2ed
@14c9 c03c4417
@14ca c28d72b7
@14cb c3518ca1
@14cc c3af2f64
@14cd c3db3838
@14ce c41607ba
@14cf c3ac6762
@14d0 c3827890
@14d1 c3201f5b
@14d2 c149b8b7
@14d3 c291eaa9
@14d4 418edf90
@14d5 4258cedd
@14d6 c32fd5d5
@14d7 4139e1fe
@14d8 4295675a
@14d9 c146b0ab
@14da c2945c30
@14db c32fb461
@14dc c32ce6dc
@14dd c309f197
@14de c33bbbbf
@14df c330c6bb
@14e0 c3068dd8
@14e1 c241fdbb
@14e2 c00d568a
@14e3 340c86fd
@14e4 34b48584
@14e5 c0aa632c
@14e6 c291ec87
@14e7 c31e9f65
@14e8 c36e9e5c
@14e9 c38d2375
@14ea c3c5039f
@14eb c40b36e2
@14ec c407a129
@14ed c410fe2d
@14ee c3f4bd3c
@14ef c3cde9c8
@14f0 c394ded8
@14f1 c2dda870
@14f2 c360a034
@14f3 c3bef476
@14f4 c3f91485
@14f5 c42369c2
@14f6 c3d942e5
@14f7 c3d5a6dd
@14f8 c3c7ad6a
@14f9 c393b017
@14fa c3384652
@14fb c30b6251
@14fc c2daca91
@14fd c283bd07
@14fe c0250f08
@14ff 350ea0fa
@1500 b53634fd
@1501 bf85af93
@1502 c1e188c1
@1503 c2a9fbfe
@1504 c2e982fd
@1505 c30dd663
@1506 c34ae2bd
@1507 c3acfb1d
@1508 c3ee59ad
@1509 c418fec0
@150a c41bb0bc
@150b c4207517
@150c c42c4de3
@150d c44c7225
@150e c44fd098
@150f c4457794
@1510 c41de5ee
@1511 c41f7ebe
@1512 c3fc47ac
@1513 c3f6beb7
@1514 c3b98933
@1515 c3659d12
@1516 c2f87723
@1517 c2b13c4d
@1518 c2985c10
@1519 c27feecd
@151a c17ef1aa
@151b 354fc611
@151c b4ec365d
@151d be1089b2
@151e c1b61304
@151f c22ded92
@1520 c2366d8f
@1521 c2780fd6
@1522 c2beb97f
@1523 c2e7ea67
@1524 c310d684
@1525 c33d83c7
@1526 c339b9cd
@1527 c3349a00
@1528 c342d02a
@1529 c352bd4b
@152a c38d6438
@152b c3a49727
@152c c399e3b8
@152d c3807f99
@152e c3516f7a
@152f c344576e
@1530 c312f2d9
@1531 c283401d
@1532 c220380e
@1533 c1c38e12
@1534 c17e9f0e
@1535 c0ae6b44
@1536 be513c6f
@1537 b55638c8
@1538 b43032a6
@1539 34aabd88
@153a c08237ee
@153b c0619265
@153c bf833d67
@153d c051f932
@153e c071a655
@153f c0a6bea7
@1540 c13d7629
@1541 c167cce4
@1542 c11d8f2a
@1543 c1922990
@1544 c1d07181
@1545 c0e53879
@1546 c0c3c747
@1547 c13391b3
@1548 c1171b65
@1549 c0e86251
@154a c135674c
@154b c158df95
@154c c14de8ed
@154d c02cab20
@154e bffc7208
@154f bfd7e5f7
@1550 be143de3
@1551 3521ff00
@1552 3412ba0c
@1553 33fd7338
@1554 3592cba5
@1555 b4d3911c
@1556 b55c05d4
@1557 32ff753a
@1558 b50edd72
@1559 b5179872
@155a b48bea5b
@155b 3437c286
@155c b4f1ebec
@155d 34510578
@155e bcbfaa73
@155f be494030
@1560 be578e35
@1561 bd75c5c3
@1562 b4af2726
@1563 b4a30f60
@1564 3439b19d
@1565 34a28d79
@1566 b51adf4d
@1567 b4692d4b
@1568 b4d0206f
@1569 b4aa08bc
@156a b1b32e33
@156b b3ad5048
@156c 3460b203
@156d b278dd30
@156e b41eb823
@156f b51b73ac
@1570 b4cfe1fe
@1571 3560aa34
@1572 3530e113
@1573 33df644d
@1574 b519c8ff
@1575 34756afa
@1576 342663d2
@1577 34cdbf58
@1578 34c86dc6
@1579 b481b0aa
@157a 35372770
@157b 35189695
@157c b418f749
@157d b4764e71
@157e b497f29c
@157f 34a53372
@1580 339e5012
@1581 b314150b
@1582 b3cfc771
@1583 35511009
@1584 3370ea93
@1585 3561f26a
@1586 b3934175
@1587 3530809b
@1588 b559444b
@1589 31d2c4d9
@158a 34eb8043
@158b 350d8bdb
@158c b589d726
@158d b362cd5a
@158e 34b19d10
@158f b498c983
@1590 be355dd8
@1591 bdd0c27a
@1592 be87b086
@1593 bf125839
@1594 bfcfda45
@1595 bfdac02a
@1596 c0dadc41
@1597 c18626dd
@1598 c1f57c9d
@1599 c18e56d4
@159a c128b538
@159b c0d7b61b
@159c c0cbc29a
@159d c0b327b3
@159e c0c6d52e
@159f c0b426e2
@15a0 c13688ae
@15a1 c1719f88
@15a2 c0e6f1dd
@15a3 c106061d
@15a4 c0b90a33
@15a5 bd717449
@15a6 b46b9203
@15a7 b4fc27bf
@15a8 b4a46ecc
@15a9 35047a90
@15aa bebc62e5
@15ab c0ba4e68
@15ac c13131d6
@15ad c10d153b
@15ae c15b13ef
@15af c20dbc5a
@15b0 c245f826
@15b1 c25c49ce
@15b2 c2a59888
@15b3 c2d1a586
@15b4 c2e706d7
@15b5 c3044f43
@15b6 c31b405a
@15b7 c2ca8300
@15b8 c2d51c8b
@15b9 c30b2b28
@15ba c323eee2
@15bb c30c385f
@15bc c3086fe7
@15bd c2c54285
@15be c2885139
@15bf c2921b8b
@15c0 c26d11c4
@15c1 c141681d
@15c2 bf19b5e8
@15c3 351cac45
@15c4 35242954
@15c5 c1147bba
@15c6 c16d924b
@15c7 c1e09554
@15c8 c22b16bb
@15c9 c26837d3
@15ca c2be980e
@15cb c30a467a
@15cc c319c807
@15cd c32983fc
@15ce c3820424
@15cf c39ee3f9
@15d0 c3929c20
@15d1 c39c7cee
@15d2 c39dbb00
@15d3 c38e044c
@15d4 c3a0f552
@15d5 c3d31a82
@15d6 c3d61b56
@15d7 c3b8bfe3
@15d8 c39fdc9b
@15d9 c38d0cfe
@15da c368b22d
@15db c3198bf1
@15dc c2edd8ae
@15dd c268da94
@15de c0cbed73
@15df b441efaa
@15e0 b44c1457
@15e1 c16de35d
@15e2 c21c3692
@15e3 c242f477
@15e4 c2b9bff7
@15e5 c3183b54
@15e6 c35d538a
@15e7 c3821f16
@15e8 c38848cd
@15e9 c3baa9b6
@15ea c3fda07f
@15eb c3f9c2ad
@15ec c3c0021a
@15ed c3bcaf5b
@15ee c3d11acf
@15ef c3d0b1db
@15f0 c411232d
@15f1 c4355082
@15f2 c427292b
@15f3 c40691bd
@15f4 c3f8a028
@15f5 c3d0bd51
@15f6 c39ee2be
@15f7 c357de98
@15f8 c33c0e05
@15f9 c2c1ff45
@15fa c0d73fad
@15fb b4584ad2
@15fc bd755ffd
@15fd c18b9478
@15fe c2b0527a
@15ff c2f45de3
@1600 c32ce936
@1601 c34eaa30
@1602 c389b06a
@1603 c37738c3
@1604 c38a271e
@1605 c3a35f2b
@1606 c3e29167
@1607 c406e4eb
@1608 c3dda2b4
@1609 c3bbe85c
@160a c39e749e
@160b c388af07
@160c c3a5a325
@160d c4351d8d
@160e c4384986
@160f c4321be2
@1610 c430def0
@1611 c4076e6f
@1612 c3c7fe7d
@1613 c38a22f8
@1614 c36e6f14
@1615 c2ba4764
@1616 c191cca4
@1617 34da30e9
@1618 bdf55fa5
@1619 c1851e56
@161a c295ed21
@161b c331f04d
@161c c368c27f
@161d c32cf370
@161e c25cbecb
@161f c2de7c83
@1620 c295fa05
@1621 c22283b1
@1622 42efc8e0
@1623 435e7186
@1624 434253bd
@1625 c28fab89
@1626 c324b597
@1627 c31825f0
@1628 c29fec71
@1629 c295bfe7
@162a c392d545
@162b c397777e
@162c c3c01520
@162d c28ed09c
@162e c3045cf1
@162f c3c6e569
@1630 c3a67908
@1631 c32d8416
@1632 c23505a0
@1633 330415e4
@1634 bdf55fcf
@1635 c083f8b0
@1636 c1ae4545
@1637 c255103a
@1638 c2a934a2
@1639 c30f8bcd
@163a 424c3bd3
@163b 4391a03e
@163c 428b0a8b
@163d 433e7afe
@163e 437c520d
@163f 43ceb96c
@1640 43970382
@1641 41c38cad
@1642 c3601a90
@1643 430e09b4
@1644 438ebd23
@1645 43d053f0
@1646 43aa64a1
@1647 c27737d0
@1648 41d2bc9f
@1649 4247363f
@164a c2f5f6c5
@164b c3252c33
@164c c3bd6933
@164d c33b7331
@164e c1ec6fcc
@164f b5463ae3
@1650 bdf55fba
@1651 c0d50e0c
@1652 3f8cf0b3
@1653 41dd64e5
@1654 c19545f1
@1655 c208512a
@1656 434133fa
@1657 43ba090c
@1658 431a51d6
@1659 4245a442
@165a 41d64dde
@165b 43a0f034
@165c 43fe2f9b
@165d 4370ebea
@165e 435172b8
@165f 43ec5ed0
@1660 43dca6ef
@1661 43beaf3b
@1662 42827135
@1663 42885df5
@1664 4379f203
@1665 431f414b
@1666 c2854e3f
@1667 c2f7672b
@1668 c3a5dee1
@1669 c368d6c0
@166a c25cfef0
@166b 3559c93b
@166c b2bad918
@166d c216b756
@166e c2176aa2
@166f 427a5169
@1670 c25931cf
@1671 432a8b78
@1672 438288a2
@1673 42c57453
@1674 4364e96d
@1675 4338564f
@1676 4214458c
@1677 432164f3
@1678 43cd34b7
@1679 41efc8d9
@167a 438919c9
@167b 43073534
@167c 43d175fa
@167d 43a272ba
@167e 42f38142
@167f 43966b08
@1680 436f422d
@1681 43a9f16b
@1682 42c1e5c5
@1683 c3387853
@1684 c3afeaff
@1685 c3268cc3
@1686 41b9aa46
@1687 42a184be
@1688 b3e8cbd1
@1689 c0c5f91c
@168a c1794548
@168b c11c220c
@168c 422bfbdc
@168d 431f0cab
@168e c20c0579
@168f c349a281
@1690 c1d59eda
@1691 c2342b3f
@1692 430b6ee9
@1693 42a3472c
@1694 bf17cc1d
@1695 43da71d8
@1696 438326a2
@1697 43b58fe7
@1698 4422c3d6
@1699 43d24941
@169a 4406ad6d
@169b 43512ca0
@169c 438a5652
@169d 438616a9
@169e c1b8ec53
@169f c3281dbc
@16a0 c38fecf2
@16a1 c29d3094
@16a2 42197bbd
@16a3 41ae2fc8
@16a4 34f24e28
@16a5 410315b8
@16a6 42411bf6
@16a7 41cc1ea4
@16a8 43264f05
@16a9 42c66d99
@16aa c1aadf12
@16ab 42b80909
@16ac c2f966d1
@16ad 4146bcf0
@16ae 431a5ba1
@16af 430fa5b0
@16b0 c10e2cc7
@16b1 4170b48f
@16b2 419c3ae4
@16b3 439f9041
@16b4 43d4b7a1
@16b5 43eaecc8
@16b6 4411b52e
@16b7 42bb1239
@16b8 43af147b
@16b9 43bf1435
@16ba 4377f1d1
@16bb c2b0a917
@16bc c395cd07
@16bd c2b60142
@16be c10caa9d
@16bf 34878b93
@16c0 bfa619eb
@16c1 422aedc4
@16c2 4249f2f2
@16c3 432870f8
@16c4 43aa38c9
@16c5 43137661
@16c6 c196ff35
@16c7 43c7b4c7
@16c8 43c93ec0
@16c9 41b72468
@16ca 40925a98
@16cb 4240ea26
@16cc c3e6b9c2
@16cd c428765c
@16ce c381be78
@16cf 4377f7f0
@16d0 439ac56b
@16d1 44074113
@16d2 440d6760
@16d3 c329d736
@16d4 42ebe08c
@16d5 41a4ba36
@16d6 42fcd8ac
@16d7 c318cbbe
@16d8 c36996d1
@16d9 c2f4e0e7
@16da c0de6446
@16db b3d858f2
@16dc bfa619f4
@16dd 41fe95a1
@16de 42a00502
@16df 4320c469
@16e0 436faf4c
@16e1 42fe3028
@16e2 c22824f7
@16e3 c2349211
@16e4 c3762ed2
@16e5 c2c52bb6
@16e6 c0962052
@16e7 c3f8be3b
@16e8 c47f86ce
@16e9 c481d206
@16ea c362edfe
@16eb c28728fb
@16ec 431a32d2
@16ed c2e51c4e
@16ee c253afa9
@16ef c32a5e1f
@16f0 429a5872
@16f1 42d09bc8
@16f2 412719d8
@16f3 c2956c4f
@16f4 c2185a4b
@16f5 c2ffdf99
@16f6 c2289ec3
@16f7 b3069cb1
@16f8 3364893e
@16f9 4125fc50
@16fa 428d5169
@16fb 41c72d6e
@16fc c2d33066
@16fd 42998bd6
@16fe c297ac5c
@16ff c22b0dc1
@1700 41becaa6
@1701 c2b9eca0
@1702 c2929888
@1703 c43949da
@1704 c492c888
@1705 c44503c2
@1706 c2b2d337
@1707 c318c02e
@1708 41aff1e2
@1709 42c411a9
@170a 43a85923
@170b 43e19c61
@170c 4407a05c
@170d 43515264
@170e 434d2245
@170f 439abbef
@1710 bf712f2f
@1711 c2a051e4
@1712 c1a8c2ec
@1713 b2080b91
@1714 b59deb88
@1715 c03e8129
@1716 c159a7ba
@1717 4122c7f6
@1718 c3889950
@1719 c35c6d70
@171a 43650146
@171b c32154b1
@171c c38f29f7
@171d c38cdfd9
@171e c2bca3e6
@171f c40ea28f
@1720 c411901c
@1721 c3c2d2ea
@1722 c2817fc2
@1723 41ff2356
@1724 c2f2bfee
@1725 44471857
@1726 4423206c
@1727 441ba489
@1728 441d5c56
@1729 43acff2f
@172a 43e0f349
@172b 438434fd
@172c c2770f1c
@172d c2e28ce1
@172e c112c9f4
@172f b4af3bc5
@1730 b3151c04
@1731 c09a3904
@1732 c26dc5a6
@1733 c29691a9
@1734 c3167c5a
@1735 c3323654
@1736 432cb9e9
@1737 433d06d8
@1738 411c256d
@1739 c1f96022
@173a c3a3277b
@173b c42ac729
@173c c386fd2f
@173d c0e8ddd9
@173e c36f8bc8
@173f 438b6f2c
@1740 43144811
@1741 43c18ada
@1742 43c90ced
@1743 43d075d4
@1744 43a0ba49
@1745 43d174cb
@1746 43655380
@1747 425f88fb
@1748 c2c53c13
@1749 c30ea1f9
@174a c0f10024
@174b 3459316b
@174c 3382bc8d
@174d c16b7dc6
@174e c2b776e0
@174f c3819a48
@1750 c35b57ef
@1751 c31b1f64
@1752 c2b8cbaa
@1753 c2da96b6
@1754 c093ad29
@1755 c2d76e7f
@1756 c3e1b08b
@1757 c2ef826f
@1758 4313fbeb
@1759 42f1400b
@175a 41f6fcd0
@175b 42dec479
@175c 431c211f
@175d c2131457
@175e 42ec79c0
@175f 4366f240
@1760 4350cd15
@1761 436a1ee8
@1762 42240321
@1763 c1dc54d1
@1764 42956979
@1765 c204b164
@1766 407624b1
@1767 34bd2770
@1768 bfcae9a0
@1769 c124bd7b
@176a c2505e63
@176b c3849644
@176c c3863ed1
@176d c376cd8f
@176e c3c80e21
@176f c3d1457a
@1770 c39497ea
@1771 c3890e5f
@1772 c3e9b732
@1773 c2dd667a
@1774 43407be9
@1775 422f89f2
@1776 426b9022
@1777 4367d186
@1778 c26e5284
@1779 4334ffda
@177a 43698e83
@177b 42fb4bd5
@177c 42e3cddd
@177d c1845e62
@177e c369f570
@177f c39d235d
@1780 c368d24f
@1781 c2fff93d
@1782 4145d5c6
@1783 b3d4939c
@1784 b5bcbce0
@1785 bfe4802d
@1786 c1881ddd
@1787 c35d299b
@1788 c33dfee4
@1789 c38fff28
@178a c3a9ad9f
@178b c3ea987a
@178c c367bddf
@178d c33baafe
@178e c31d5086
@178f c2daa0cf
@1790 4243128a
@1791 c0e104ba
@1792 424a18fc
@1793 c32838b2
@1794 c37b6b36
@1795 c3654b4c
@1796 c3486cc3
@1797 c31e22fa
@1798 c30c43e9
@1799 c3a235b8
@179a c404ded6
@179b c3c74bc4
@179c c343565d
@179d c2be1acc
@179e c02d248d
@179f 356e89ac
@17a0 b4da418e
@17a1 bfc4fa2d
@17a2 c22a838c
@17a3 c326a80a
@17a4 c3550b1d
@17a5 c39c30ed
@17a6 c3f03bb3
@17a7 c3ce79e0
@17a8 c3697b23
@17a9 becdcfef
@17aa c3789a55
@17ab c3ab4590
@17ac 42a7df0c
@17ad 433cc7e0
@17ae 43aaeefd
@17af c21ff3de
@17b0 c3d2ab19
@17b1 c3bec423
@17b2 c3d10c2a
@17b3 c3a09e07
@17b4 c35f5943
@17b5 c3d89609
@17b6 c3f7dcd9
@17b7 c39914bc
@17b8 c3032748
@17b9 c2775de7
@17ba c010af2a
@17bb 340b176c
@17bc 33540785
@17bd bf97a2ca
@17be c225b4e4
@17bf c2ecde7f
@17c0 c30182a7
@17c1 c3296f81
@17c2 c3825b81
@17c3 c3b59c47
@17c4 c23f8f4a
@17c5 c2971dff
@17c6 c35a1ce1
@17c7 41555a9a
@17c8 4368cd56
@17c9 c301d77b
@17ca c3734266
@17cb c315d1f3
@17cc c312051a
@17cd c3942101
@17ce c3807261
@17cf c3c8276a
@17d0 c35ffffa
@17d1 c35f3786
@17d2 c3dc83be
@17d3 c3aceb87
@17d4 c316bd7f
@17d5 c20340e2
@17d6 bf9bbbf9
@17d7 b49f3ce5
@17d8 b3bec982
@17d9 c0971fb0
@17da c20e62bf
@17db c2d6956f
@17dc c2bf5003
@17dd 4267e547
@17de c1e1238d
@17df 42940292
@17e0 42fdae32
@17e1 c13e91b0
@17e2 c36bd9cb
@17e3 429877f9
@17e4 437ef31d
@17e5 c30772da
@17e6 42b6b3b7
@17e7 42e2b681
@17e8 42af5b4c
@17e9 c22dbaa4
@17ea c36f9f15
@17eb c3b336aa
@17ec c39917fa
@17ed c354ec9a
@17ee c3bbc9b5
@17ef c38523d5
@17f0 c309f0de
@17f1 c2553806
@17f2 c06c68e7
@17f3 b5531ced
@17f4 35882737
@17f5 bd0f4aaa
@17f6 c23080ec
@17f7 c2f4d56b
@17f8 41843c0f
@17f9 4337fd83
@17fa 43840892
@17fb 43c900bc
@17fc 42a3d710
@17fd c30fa9db
@17fe c2568013
@17ff c28fabda
@1800 c2090558
@1801 c24df7b4
@1802 c1a93d89
@1803 4044a302
@1804 41e51dbf
@1805 c20cf3c1
@1806 c2aaf061
@1807 c3a3f708
@1808 c33f8ca4
@1809 c33494f3
@180a c39d0ca0
@180b c382941a
@180c c2d09211
@180d c28a0295
@180e c0b5ccc0
@180f b50d3776
@1810 3490debb
@1811 bf5a4a47
@1812 c1d7ee3e
@1813 c22e99ec
@1814 42d40fb2
@1815 43a00664
@1816 43a0d7c9
@1817 43c1531a
@1818 439eb83b
@1819 43223f9b
@181a 433e95c2
@181b c23bc5b3
@181c 42d0dccd
@181d 4379d5c8
@181e 42ea50b3
@181f c2b1ea6c
@1820 c16db9bf
@1821 432a2d95
@1822 c135361d
@1823 c209a825
@1824 c00f62ba
@1825 c2d9a148
@1826 c380d75a
@1827 c3449cd8
@1828 c2ba6bde
@1829 c269e7b2
@182a c0c7ed49
@182b b56df4d4
@182c b41a3501
@182d bf7d42a9
@182e c0ca173d
@182f 423d03cb
@1830 434a2462
@1831 43534869
@1832 4374479c
@1833 43d0e36d
@1834 44014f49
@1835 43f6efce
@1836 4323b4da
@1837 4390db31
@1838 43d21118
@1839 42a7d831
@183a 4327e4a1
@183b 43a56ccc
@183c 437d7ee6
@183d 43dcd8ec
@183e 43b1c174
@183f 439133e9
@1840 4342ee42
@1841 42bca965
@1842 423a1e41
@1843 c12ec998
@1844 c188435a
@1845 c160c0e0
@1846 be3a8c4f
@1847 345f7f3e
@1848 35233d4f
@1849 be0bbade
@184a bf0f1c20
@184b bf94bd92
@184c 411f9e40
@184d 42092705
@184e bf52befc
@184f 42de3aaa
@1850 43931c28
@1851 43caf540
@1852 43d9b5bd
@1853 436b0269
@1854 43496aa3
@1855 43841bbf
@1856 439c6e37
@1857 43d3cd8f
@1858 43ebacb9
@1859 43d324cc
@185a 43e6060a
@185b 43e3850b
@185c 4370c15a
@185d 43520cd3
@185e 4337235c
@185f 4240a95e
@1860 33890c39
@1861 34633a2f
@1862 347fb532
@1863 35788f3d
@1864 35189b5a
@1865 b52a97f7
@1866 34bacd3d
@1867 3529a896
@1868 351344e4
@1869 346211d5
@186a 3fda2d0e
@186b 40cf91f8
@186c 415aa354
@186d 41c90947
@186e 42303c1f
@186f 417327bd
@1870 42003090
@1871 43355c31
@1872 437a2449
@1873 43284f1e
@1874 43008585
@1875 431118fe
@1876 430d4c85
@1877 42e4dec2
@1878 429595cb
@1879 42acde13
@187a 42f5156b
@187b 419ac988
@187c 34a826ab
@187d 3555836b
@187e 3522bb02
@187f 34ddf9c9
@1880 b51b6d91
@1881 b414b6c7
@1882 b4a83e80
@1883 3504bbb0
@1884 b445997c
@1885 34c1cbf1
@1886 b33eff0a
@1887 34a6b14f
@1888 34e76f56
@1889 34c96ba6
@188a 3509860c
@188b b523781d
@188c 3529d724
@188d b52e9f66
@188e b536f04f
@188f b4411384
@1890 3506126f
@1891 b50be5d2
@1892 355dbed8
@1893 b4a2eac7
@1894 325dd0db
@1895 b504cf22
@1896 3500ef37
@1897 352b5b21
@1898 b445674d
@1899 3509b9bf
@189a b5008372
@189b 352641dd
@189c 34ab9c07
@189d b53ab905
@189e 34e3bdfa
@189f bee9196d
@18a0 bf29518b
@18a1 becb95ae
@18a2 bfc568de
@18a3 c00cd704
@18a4 c0105b87
@18a5 c0846805
@18a6 c047e4e8
@18a7 c0a0fee9
@18a8 c120994f
@18a9 c156401b
@18aa c125fcf6
@18ab c0b41752
@18ac c112f42a
@18ad c11bad8e
@18ae c1273b4e
@18af c0d6832a
@18b0 c0c6e0f5
@18b1 c08ace79
@18b2 c09f3660
@18b3 c06eae18
@18b4 bfc1d599
@18b5 c0985bf8
@18b6 b47aa2d7
@18b7 3562b768
@18b8 350b71f3
@18b9 351cef3d
@18ba c04f7df8
@18bb c1a3f016
@18bc c1de3f60
@18bd c1d1d241
@18be c22f5b45
@18bf c286283b
@18c0 c2d15af5
@18c1 c303f83f
@18c2 c3296eb3
@18c3 c36f5ee7
@18c4 c39b33f9
@18c5 c3c5029a
@18c6 c3c4a60e
@18c7 c39f7abb
@18c8 c3adbc16
@18c9 c3a7fdd7
@18ca c39edbf0
@18cb c3a52e4f
@18cc c392febd
@18cd c344bc00
@18ce c2ecee34
@18cf c2807291
@18d0 c236ba45
@18d1 c2151047
@18d2 bf4b7660
@18d3 3508b0d6
@18d4 b4896b93
@18d5 be30a490
@18d6 c1469197
@18d7 c24734b5
@18d8 c298b4c1
@18d9 c2ee77b4
@18da c33971ae
@18db c387db81
@18dc c3d003ce
@18dd c3f4ac87
@18de c4232933
@18df c456123b
@18e0 c48b996d
@18e1 c4b1c291
@18e2 c4b47d01
@18e3 c4a4024c
@18e4 c4a8b6cf
@18e5 c48737eb
@18e6 c4807bf9
@18e7 c492a417
@18e8 c488120b
@18e9 c4330344
@18ea c3ace03a
@18eb c334c8e0
@18ec c312530b
@18ed c27fe990
@18ee c111c6ae
@18ef b50cf8ad
@18f0 33d56d8c
@18f1 c0d2cefa
@18f2 c293b49d
@18f3 c30639ef
@18f4 c32f346f
@18f5 c38b9423
@18f6 c3be07b5
@18f7 c3de0a22
@18f8 c3c96524
@18f9 c3af5091
@18fa c383ce77
@18fb c398f37b
@18fc c3e2ee67
@18fd c3efa787
@18fe 41f92fa8
@18ff c2cc75b1
@1900 c27dd957
@1901 c3a4176f
@1902 c3e9c3c4
@1903 c40ba0c8
@1904 c383ac68
@1905 c3873c1c
@1906 c39b646a
@1907 c3af64b3
@1908 c3583ce8
@1909 c26df00a
@190a 3fcaa50e
@190b bfd20739
@190c bef8efda
@190d c148e1ab
@190e c2ceb563
@190f c336ce1b
@1910 c38b82a3
@1911 c3eaa4ee
@1912 c3ed9c37
@1913 c3b83ca2
@1914 c3ed15d1
@1915 c317057c
@1916 c39ee501
@1917 429fa733
@1918 42467b54
@1919 41aa4a80
@191a 43589d76
@191b 439c391c
@191c 42a1cd3b
@191d 43b066f0
@191e 43bd3675
@191f c2b14b90
@1920 c17b1dd6
@1921 41b0cb8e
@1922 c3394529
@1923 c3deb98b
@1924 c330ade8
@1925 c2491de6
@1926 c20cf938
@1927 c0a0388b
@1928 c138c20a
@1929 c1cd398f
@192a c2de4195
@192b c37349b5
@192c c3d7832a
@192d c3dad033
@192e c3ccd73f
@192f c3e717df
@1930 c2af5967
@1931 c338d318
@1932 c3aff7ec
@1933 426cb85a
@1934 43810218
@1935 435f1f22
@1936 42d34095
@1937 43ead2a6
@1938 435fd4f4
@1939 3ffea887
@193a c3461c9c
@193b 439c5b3b
@193c c189ad43
@193d 43236d92
@193e 40f53268
@193f c2a03136
@1940 c3460a27
@1941 c2959058
@1942 416cb924
@1943 c01cc1cf
@1944 c14d2db8
@1945 c1b160cc
@1946 c301769c
@1947 c395f5b6
@1948 c3caec0c
@1949 c389e6db
@194a c3a66422
@194b c219d17d
@194c 4365f9cf
@194d c25b4743
@194e 425a94d3
@194f c2c30b54
@1950 42895a16
@1951 4345e412
@1952 402664cb
@1953 43a433a0
@1954 43407b84
@1955 c2ed0cdf
@1956 43996221
@1957 c18a96aa
@1958 4317791d
@1959 43bf89f5
@195a c2b3e329
@195b 43dd585c
@195c 41f39a2d
@195d c35bb5dc
@195e 42293d73
@195f bfbf06e9
@1960 c0619964
@1961 c1758385
@1962 c301c23f
@1963 c3c306e3
@1964 c3c968e1
@1965 c33ce40a
@1966 c0a71bbe
@1967 434b7feb
@1968 4282f782
@1969 43586352
@196a c2c3c824
@196b c33c678c
@196c 4344a43a
@196d 435ff3c5
@196e 41d04804
@196f c096803f
@1970 43d231e0
@1971 4309c64b
@1972 430daf6e
@1973 43915c49
@1974 430f233d
@1975 4365ed8b
@1976 43aabbce
@1977 43feae9f
@1978 43061454
@1979 c3793005
@197a 4282704a
@197b 41a17001
@197c b2a65573
@197d c182d45f
@197e c32acb19
@197f c3e93444
@1980 c3c73686
@1981 c2b86557
@1982 42d64f0d
@1983 4200d593
@1984 432b129b
@1985 428f2b47
@1986 c1440cc5
@1987 438873f1
@1988 c2d5af3e
@1989 4200d1ef
@198a c2729eff
@198b c44cc58b
@198c c3889dd4
@198d 43591839
@198e 42234ad6
@198f 428b0441
@1990 432d007d
@1991 43ff80d7
@1992 43bcbd14
@1993 43ac31c6
@1994 433cbe7b
@1995 c1e6ee3e
@1996 426685b6
@1997 c2af7933
@1998 345d8743
@1999 c16a2f54
@199a c327c226
@199b c3e19e90
@199c c39fe5fa
@199d c2df0c62
@199e 43e0b81b
@199f c1daf7ec
@19a0 c2365a98
@19a1 4360cb6a
@19a2 4396a2d2
@19a3 4282bd48
@19a4 433e7d1e
@19a5 c37063a2
@19a6 c3f2158d
@19a7 c4105f7d
@19a8 c3967738
@19a9 c230c560
@19aa 4387c1f0
@19ab 43e85a17
@19ac 4361edff
@19ad 4375ced1
@19ae 4390a29f
@19af 43afc563
@19b0 42cfc658
@19b1 c2a2f6cc
@19b2 42799014
@19b3 bf337980
@19b4 34ae4fd5
@19b5 c132bc50
@19b6 c31ad0b4
@19b7 c3ebd45e
@19b8 c3f01816
@19b9 c2e865d4
@19ba 439169b3
@19bb 4398c4bd
@19bc 43c4ab84
@19bd 440df54c
@19be 43a9cfce
@19bf 42ef0f85
@19c0 43fb24df
@19c1 4405d403
@19c2 c30058db
@19c3 c36f60aa
@19c4 c3c97bc3
@19c5 c36fc4be
@19c6 432012bc
@19c7 435fe8f9
@19c8 c2af43f6
@19c9 43198fd8
@19ca 44096b80
@19cb 438c4f9a
@19cc 43e35c9b
@19cd 42eae69e
@19ce 4316223d
@19cf 41c11583
@19d0 34f0f609
@19d1 c0183e14
@19d2 c2c36d44
@19d3 c3bc791d
@19d4 c3cca3ef
@19d5 c107834f
@19d6 43165c77
@19d7 43404e6f
@19d8 c252ca03
@19d9 439da006
@19da c36b1529
@19db 42c42e8c
@19dc 43885cf7
@19dd 428b9e02
@19de 42e23add
@19df 4355d237
@19e0 4316492f
@19e1 4301ba2d
@19e2 4328081a
@19e3 43725058
@19e4 4315e711
@19e5 43b11d3b
@19e6 430ab7b1
@19e7 43e2edaf
@19e8 43ee4ea6
@19e9 4337aff7
@19ea 432684df
@19eb 4122ccfd
@19ec b4b517a4
@19ed bf96a2c3
@19ee c26a36f0
@19ef c38776b0
@19f0 c3d99768
@19f1 c310d436
@19f2 423567ee
@19f3 42f0c204
@19f4 c229a87b
@19f5 c09c5b41
@19f6 c402162c
@19f7 41a92c83
@19f8 43bf209e
@19f9 43beb17c
@19fa c28f172c
@19fb 43e72c7c
@19fc 432ef147
@19fd c3859aa4
@19fe c391b574
@19ff 439604fb
@1a00 431d9a40
@1a01 c355ace0
@1a02 42b4764f
@1a03 431b2e21
@1a04 4348646f
@1a05 42b80dde
@1a06 4272252b
@1a07 40a60e87
@1a08 be32fcb2
@1a09 c11e6d22
