@0000 bbfbf99b
@0001 00000000
@0002 00000000
@0003 00000000
@0004 00000000
@0005 00000000
@0006 00000000
@0007 00000000
@0008 00000000
@0009 00000000
@000a 00000000
@000b 00000000
@000c 00000000
@000d b7cb3152
@000e b8bd7c37
@000f b82e2a46
@0010 b5e8385d
@0011 00000000
@0012 00000000
@0013 00000000
@0014 00000000
@0015 00000000
@0016 00000000
@0017 00000000
@0018 00000000
@0019 00000000
@001a 00000000
@001b 00000000
@001c 00000000
@001d 00000000
@001e 00000000
@001f 00000000
@0020 00000000
@0021 00000000
@0022 b5ce6afe
@0023 b8e08f65
@0024 b98b7e4d
@0025 b9c878a9
@0026 ba024566
@0027 ba3592bd
@0028 ba7ebf2b
@0029 ba98247c
@002a baa72291
@002b bac1cb43
@002c bab01af8
@002d baa156f0
@002e ba66a86e
@002f ba238823
@0030 ba00b576
@0031 b9ab0a68
@0032 b8fd2f3b
@0033 b8751f0d
@0034 b81ed855
@0035 00000000
@0036 00000000
@0037 00000000
@0038 00000000
@0039 00000000
@003a 00000000
@003b b74e6afe
@003c b6bb10f6
@003d b83a428b
@003e b7b300c8
@003f b9a37b3c
@0040 ba8fb38c
@0041 bb1384ce
@0042 bb80dc2b
@0043 bbcb96ea
@0044 bc18043b
@0045 bc69de12
@0046 bc9e1c0f
@0047 bcc7b1e7
@0048 bcdf0ec8
@0049 bce299e4
@004a bcce5872
@004b bcac4c20
@004c bc758b19
@004d bc0bd631
@004e bb8c93ad
@004f baf19186
@0050 ba236e56
@0051 b98db5f4
@0052 b870488b
@0053 00000000
@0054 00000000
@0055 00000000
@0056 00000000
@0057 b7f51f0d
@0058 b832325d
@0059 b8b7d74a
@005a ba1973ea
@005b bae3a25d
@005c bb9507d7
@005d bc18fc94
@005e bc8a681f
@005f bcde6309
@0060 bd26f83c
@0061 bd6501b8
@0062 bd97ac3e
@0063 bdb92466
@0064 bdcdeccd
@0065 bdcaf23a
@0066 bdb5f59d
@0067 bd9100a8
@0068 bd4e1d62
@0069 bcf9094f
@006a bc850efe
@006b bbfc1eb2
@006c bb460a2e
@006d baa2e06c
@006e b90f8664
@006f b7c32124
@0070 00000000
@0071 00000000
@0072 b6f51f0d
@0073 b76eabb5
@0074 b8c9fbb1
@0075 ba2a964b
@0076 bb5dc9d5
@0077 bc063e2b
@0078 bc9a1da5
@0079 bd18f17e
@007a bd8603cf
@007b bdd3f753
@007c be19b4d2
@007d be5429df
@007e be8a132e
@007f bea36618
@0080 beb12180
@0081 bead8262
@0082 be98a7bd
@0083 be734e35
@0084 be302c67
@0085 bde344d4
@0086 bd82cdc4
@0087 bd071cea
@0088 bc75a820
@0089 bbcb6689
@008a bac6fc13
@008b b966cf22
@008c b7c4bdfa
@008d 00000000
@008e 00000000
@008f b81e09ea
@0090 b9f538db
@0091 bb556906
@0092 bc417b6f
@0093 bce97db7
@0094 bd6538f3
@0095 bdcd658b
@0096 be27a8df
@0097 be78fe2c
@0098 beae32ca
@0099 bee708d0
@009a bf111299
@009b bf26f5ce
@009c bf31cba5
@009d bf2ec8e4
@009e bf1d753d
@009f bf012689
@00a0 bec161f6
@00a1 be8422a3
@00a2 be230b42
@00a3 bdbb21ff
@00a4 bd4657ca
@00a5 bcb514f4
@00a6 bbcc88d0
@00a7 ba85d961
@00a8 b841844e
@00a9 00000000
@00aa b54e6afe
@00ab b9815047
@00ac bae5120c
@00ad bc113dd6
@00ae bcd1bede
@00af bd6d389a
@00b0 bde0daaf
@00b1 be3f5fc1
@00b2 be93622f
@00b3 bed1fce8
@00b4 bf0c07d5
@00b5 bf2fe39c
@00b6 bf51b25f
@00b7 bf69e711
@00b8 bf74ae98
@00b9 bf700def
@00ba bf5d0071
@00bb bf3cf119
@00bc bf12d6be
@00bd bed1a2a6
@00be be887c78
@00bf be227a79
@00c0 bdb0b89a
@00c1 bd270019
@00c2 bc63d5f8
@00c3 bb330402
@00c4 b9a89f27
@00c5 b7179692
@00c6 b9135ae1
@00c7 ba56c894
@00c8 bb979d06
@00c9 bc8f4174
@00ca bd3bef81
@00cb bdc461a7
@00cc be320b42
@00cd be905b23
@00ce bed664f2
@00cf bf125425
@00d0 bf39f073
@00d1 bf5c6472
@00d2 bf7746f1
@00d3 bf83b822
@00d4 bf86610f
@00d5 bf841f97
@00d6 bf7addfb
@00d7 bf5ffd23
@00d8 bf37f4f6
@00d9 bf087fe8
@00da beb83390
@00db be5dc213
@00dc bdf17887
@00dd bd6168e6
@00de bca7eef8
@00df bb858f32
@00e0 b988783c
@00e1 b81a01d3
@00e2 ba02b982
@00e3 bb27868d
@00e4 bc281e24
@00e5 bcf116f6
@00e6 bd872867
@00e7 be0595b2
@00e8 be6b4985
@00e9 beba5c92
@00ea bf07ab24
@00eb bf336508
@00ec bf56a396
@00ed bf6c3a04
@00ee bf74bbb9
@00ef bf7528fe
@00f0 bf73e37b
@00f1 bf743388
@00f2 bf72d134
@00f3 bf663438
@00f4 bf467913
@00f5 bf184ce0
@00f6 bed110d4
@00f7 be7c7f74
@00f8 be039e5a
@00f9 bd6b6ed0
@00fa bcadf16e
@00fb bb77d143
@00fc b960c300
@00fd b6c7f7a6
@00fe ba527315
@00ff bb875acc
@0100 bc57f556
@0101 bd0f86ff
@0102 bd9dcb06
@0103 be1be788
@0104 be88db7d
@0105 bed9c80b
@0106 bf1bce39
@0107 bf44ade0
@0108 bf5ac731
@0109 bf5b38ef
@010a bf501535
@010b bf4606d7
@010c bf46acae
@010d bf505947
@010e bf5cfdaf
@010f bf5c31c9
@0110 bf43ddd8
@0111 bf185c12
@0112 bed17b7e
@0113 be7c1a02
@0114 bdfa2ae1
@0115 bd470559
@0116 bc802181
@0117 bb34f4b3
@0118 b947c40b
@0119 b44e6afe
@011a ba5c2cff
@011b bb7f63a8
@011c bc4acfc1
@011d bd0986c1
@011e bd9ee0e6
@011f be23b4ca
@0120 be931964
@0121 beedb58e
@0122 bf25e51b
@0123 bf4625b2
@0124 bf4b6de5
@0125 bf3a258a
@0126 bf25e470
@0127 bf1fa343
@0128 bf296c62
@0129 bf3bf108
@012a bf503fe7
@012b bf52675d
@012c bf3ab1a3
@012d bf0eb5c5
@012e bec0bb0d
@012f be64bca0
@0130 bdda4bed
@0131 bd1775b7
@0132 bc1eeae1
@0133 bae98e3f
@0134 b8fdfda6
@0135 b7ce6afe
@0136 ba00680e
@0137 bb464102
@0138 bc1fbef1
@0139 bcea5501
@013a bd9a2683
@013b be2823e2
@013c be9e2b00
@013d beff1c2c
@013e bf2cfcf0
@013f bf42d59c
@0140 bf3a9119
@0141 bf21f844
@0142 bf12bb44
@0143 bf187e5a
@0144 bf2a9601
@0145 bf41b213
@0146 bf555803
@0147 bf50bca8
@0148 bf308a6a
@0149 bf012eed
@014a bea96f8f
@014b be4a3ffa
@014c bdc90794
@014d bd0066d9
@014e bba1c2fc
@014f ba8163a1
@0150 b89ad03e
@0151 00000000
@0152 b9b56c09
@0153 bae1cb79
@0154 bbe2ca45
@0155 bcc90692
@0156 bd9bda6e
@0157 be35a4fb
@0158 bead3c02
@0159 bf08c77b
@015a bf326557
@015b bf4127d1
@015c bf33c392
@015d bf1dbc1e
@015e bf1e4524
@015f bf321451
@0160 bf49f139
@0161 bf601148
@0162 bf689a86
@0163 bf542f19
@0164 bf2738e8
@0165 bee8f83e
@0166 be9824ea
@0167 be3c60be
@0168 bdca9920
@0169 bd0a2b0b
@016a bb6a4fc3
@016b ba2b57d0
@016c b8a3aed7
@016d b6ce6afe
@016e b94e03c8
@016f ba66dc09
@0170 bba034aa
@0171 bcbd3a80
@0172 bdaa74ef
@0173 be4a54be
@0174 bebc0922
@0175 bf0f9569
@0176 bf34ceb1
@0177 bf3fa250
@0178 bf34a380
@0179 bf2cdbad
@017a bf416870
@017b bf5d3ce1
@017c bf75d50b
@017d bf80dfcb
@017e bf79d86b
@017f bf563ce2
@0180 bf1fb7a9
@0181 bed9ddaa
@0182 be934d32
@0183 be3ea36e
@0184 bdd9eb45
@0185 bd240a5c
@0186 bb936b01
@0187 ba1a9ca4
@0188 b8870f01
@0189 b7b63a74
@018a b8c79070
@018b b9cd355d
@018c bb64d18a
@018d bcc307be
@018e bdc48fea
@018f be614b92
@0190 bec77efa
@0191 bf119018
@0192 bf323481
@0193 bf3c3d0d
@0194 bf39b107
@0195 bf43a15f
@0196 bf668252
@0197 bf81b35c
@0198 bf8ac534
@0199 bf881a4e
@019a bf7c94c9
@019b bf5229bb
@019c bf1c23e5
@019d bedd22d3
@019e be99bb79
@019f be4a3bd8
@01a0 bdea4c56
@01a1 bd361223
@01a2 bbcfb25b
@01a3 ba362d8d
@01a4 b77b9265
@01a5 b70de98e
@01a6 b83b10f6
@01a7 b9b606d9
@01a8 bb711d6a
@01a9 bcddae6b
@01aa bde2e4ad
@01ab be74876a
@01ac bec94659
@01ad bf0cc844
@01ae bf291fb5
@01af bf350337
@01b0 bf3b79ec
@01b1 bf51aece
@01b2 bf758016
@01b3 bf86d007
@01b4 bf8a6702
@01b5 bf828e1c
@01b6 bf6f3bad
@01b7 bf472c54
@01b8 bf19c404
@01b9 bee541cb
@01ba bea2158f
@01bb be5536ba
@01bc bded3b86
@01bd bd3ad37b
@01be bc0a8860
@01bf bab31a95
@01c0 b8ce6afe
@01c1 b70102df
@01c2 b83fe778
@01c3 ba22b9b8
@01c4 bb958a77
@01c5 bd092cda
@01c6 be006549
@01c7 be8005d6
@01c8 bec47930
@01c9 bf02fc7f
@01ca bf19e62f
@01cb bf25809e
@01cc bf312fb9
@01cd bf489b9f
@01ce bf663102
@01cf bf7b6d58
@01d0 bf7d6906
@01d1 bf6f9bb1
@01d2 bf5b45f9
@01d3 bf3b82ad
@01d4 bf1818d5
@01d5 beea4ed4
@01d6 bea54a78
@01d7 be5259af
@01d8 bde14368
@01d9 bd33de51
@01da bc223b21
@01db bac63a8f
@01dc b89cd44a
@01dd 00000000
@01de b841844e
@01df ba77b102
@01e0 bbe8eb5e
@01e1 bd34e228
@01e2 be0edea1
@01e3 be83842c
@01e4 bebdc7a1
@01e5 beefba21
@01e6 bf0931a7
@01e7 bf13d22a
@01e8 bf1f6a30
@01e9 bf30e864
@01ea bf4a5ef9
@01eb bf600b42
@01ec bf652845
@01ed bf5d4f5c
@01ee bf4e042c
@01ef bf363bc3
@01f0 bf17f8f1
@01f1 bee99648
@01f2 bea127ec
@01f3 be44ade6
@01f4 bdcab8ad
@01f5 bd26429d
@01f6 bc361e3b
@01f7 badf12d0
@01f8 b89c6d14
@01f9 b7247d42
@01fa b75b51ae
@01fb bacd01c3
@01fc bc420c93
@01fd bd672dad
@01fe be1db8d4
@01ff be897fcd
@0200 bebe4e09
@0201 bee6f222
@0202 bf028f3a
@0203 bf0e0d19
@0204 bf16e181
@0205 bf243518
@0206 bf3ceee8
@0207 bf53f87f
@0208 bf5de08c
@0209 bf5aa268
@020a bf4e6c13
@020b bf38a255
@020c bf16b7a0
@020d bedf6236
@020e be9574eb
@020f be321f03
@0210 bdb26053
@0211 bd12de81
@0212 bc24f7d2
@0213 baa3e272
@0214 b8e906c8
@0215 00000000
@0216 b886a7cc
@0217 bb23ff79
@0218 bc85cd48
@0219 bd8543ce
@021a be28f274
@021b be91468e
@021c bec86db3
@021d bef4b185
@021e bf0c3896
@021f bf19b7fc
@0220 bf235023
@0221 bf31f638
@0222 bf48f9bc
@0223 bf5e95ae
@0224 bf67ede8
@0225 bf63abcd
@0226 bf533330
@0227 bf360305
@0228 bf0dac3a
@0229 bec9a39a
@022a be819415
@022b be13b066
@022c bd8f7fd7
@022d bce33b27
@022e bc005d93
@022f ba6d7615
@0230 b85e8b5a
@0231 00000000
@0232 b8afc71c
@0233 bb36ebd8
@0234 bc9522da
@0235 bd852897
@0236 be21fb87
@0237 be914c60
@0238 bed1c2a6
@0239 bf060cde
@023a bf1eeb7c
@023b bf327bd4
@023c bf41fc4f
@023d bf538e33
@023e bf686ac6
@023f bf7711b3
@0240 bf77a517
@0241 bf68c84b
@0242 bf4cf1cc
@0243 bf262ec8
@0244 bef356ed
@0245 bea356a0
@0246 be45818f
@0247 bdd6659a
@0248 bd4d6afc
@0249 bca4623f
@024a bba8bc2e
@024b ba1b9ea9
@024c b7214396
@024d b6ce6afe
@024e b8dfc0fa
@024f bb192682
@0250 bc6e5d7f
@0251 bd510809
@0252 be044611
@0253 be8075f7
@0254 bec925aa
@0255 bf09233d
@0256 bf2ace66
@0257 bf475d4a
@0258 bf5f4031
@0259 bf73bccd
@025a bf8153b4
@025b bf82849e
@025c bf771a31
@025d bf59819e
@025e bf317f80
@025f bf0446cf
@0260 beb59bcf
@0261 be6439a6
@0262 be026d4f
@0263 bd884203
@0264 bcfee4a9
@0265 bc4d4f2b
@0266 bb455f3d
@0267 b9e92096
@0268 b6fb9265
@0269 b6c7f7a6
@026a b727b6ee
@026b bab953df
@026c bc0b98e9
@026d bcf888b3
@026e bda88791
@026f be36e29f
@0270 be9e9a59
@0271 beee6dd9
@0272 bf1ea372
@0273 bf4337eb
@0274 bf5fbde1
@0275 bf7273e3
@0276 bf77b7f0
@0277 bf6e9256
@0278 bf54dff9
@0279 bf2dc1a7
@027a bf02bc21
@027b beb4a874
@027c be65e036
@027d be08f98d
@027e bd95ffe2
@027f bd1a04d9
@0280 bc89cdb6
@0281 bbd09dcd
@0282 bab1eb68
@0283 b909addd
@0284 b768385d
@0285 00000000
@0286 00000000
@0287 b9dc53b3
@0288 bb4de9fb
@0289 bc5a99d6
@028a bd1c9b3e
@028b bdbd19be
@028c be3c4f35
@028d be9ed706
@028e bee86782
@028f bf187381
@0290 bf3522ed
@0291 bf43fdc8
@0292 bf430c64
@0293 bf32c7fc
@0294 bf16306d
@0295 bee43c6c
@0296 be9fb1ea
@0297 be4cf188
@0298 bdf93778
@0299 bd8e6438
@029a bd16523b
@029b bc910bd8
@029c bbf87c34
@029d bb1f52e5
@029e b9ec26a7
@029f b89da2b5
@02a0 00000000
@02a1 00000000
@02a2 00000000
@02a3 b8dc874e
@02a4 ba6fc789
@02a5 bb890489
@02a6 bc4afb4c
@02a7 bd049de8
@02a8 bd8f8447
@02a9 be04cb9d
@02aa be564b7f
@02ab be96d67e
@02ac beb90984
@02ad bec9fb3d
@02ae bec85a72
@02af beb44efa
@02b0 be91e5e7
@02b1 be59be78
@02b2 be16f87c
@02b3 bdc20ac2
@02b4 bd6d079e
@02b5 bd04c093
@02b6 bc88d428
@02b7 bbf82048
@02b8 bb4afdb7
@02b9 ba56ef48
@02ba b9309587
@02bb b7bb10f6
@02bc 00000000
@02bd 00000000
@02be 00000000
@02bf b64e6afe
@02c0 b951710f
@02c1 ba936154
@02c2 bb782b92
@02c3 bc37b3d0
@02c4 bccb3628
@02c5 bd44d5c3
@02c6 bd9e1295
@02c7 bddd9484
@02c8 be01eb31
@02c9 be0bb719
@02ca be0b001d
@02cb bdfaee83
@02cc bdd01977
@02cd bda59153
@02ce bd752b59
@02cf bd287266
@02d0 bcd37df9
@02d1 bc6598b3
@02d2 bbea6990
@02d3 bb58bc7f
@02d4 ba9b7e69
@02d5 b98626c9
@02d6 b78c4cb8
@02d7 b7a7b6ee
@02d8 00000000
@02d9 00000000
@02da 00000000
@02db 00000000
@02dc b6f51f0d
@02dd b951d844
@02de ba8fd3cd
@02df bb80f795
@02e0 bc0d49e8
@02e1 bc902339
@02e2 bce03782
@02e3 bd1733cc
@02e4 bd34bba7
@02e5 bd43a6fd
@02e6 bd42248f
@02e7 bd3030f0
@02e8 bd0c49e6
@02e9 bcdb8e8e
@02ea bca0c497
@02eb bc5bd114
@02ec bc087eb0
@02ed bb92d031
@02ee bb0b87fa
@02ef ba4456c4
@02f0 b91c6d14
@02f1 b51ad03e
@02f2 00000000
@02f3 00000000
@02f4 00000000
@02f5 00000000
@02f6 00000000
@02f7 00000000
@02f8 00000000
@02f9 b7a2e06c
@02fa b8dbb8e3
@02fb b948c611
@02fc b9f4b7d8
@02fd ba5123a7
@02fe baa980ec
@02ff bb0a4be7
@0300 bb3c4d0a
@0301 bb831234
@0302 bb8b7cb1
@0303 bbab6e63
@0304 bb93b393
@0305 bb5eaed4
@0306 bb1d5886
@0307 bad81802
@0308 ba60dccd
@0309 ba03aea1
@030a b9693a63
@030b b936d544
@030c b7c1844e
@030d 00000000
@030e 00000000
@030f 00000000
@0310 bc1b5ed2
@0311 00000000
@0312 00000000
@0313 00000000
@0314 00000000
@0315 00000000
@0316 00000000
@0317 00000000
@0318 00000000
@0319 00000000
@031a 00000000
@031b 00000000
@031c 00000000
@031d b6b01ce0
@031e b79bfc40
@031f b704997e
@0320 b4b0cca8
@0321 00000000
@0322 00000000
@0323 00000000
@0324 00000000
@0325 00000000
@0326 00000000
@0327 00000000
@0328 00000000
@0329 00000000
@032a 00000000
@032b 00000000
@032c 00000000
@032d 00000000
@032e 00000000
@032f 00000000
@0330 00000000
@0331 00000000
@0332 b4396cad
@0333 b74d2b0c
@0334 b99d5736
@0335 bc57426c
@0336 bc4de7a6
@0337 bc1e1ac3
@0338 bbd90123
@0339 bbdc3003
@033a bb75c6a7
@033b 3c989ce7
@033c 3c99d294
@033d bd0f3559
@033e bc3cb87d
@033f ba49b1cc
@0340 b9574d85
@0341 b8d95ccd
@0342 b84d151e
@0343 b7747929
@0344 b69a6461
@0345 00000000
@0346 00000000
@0347 00000000
@0348 00000000
@0349 00000000
@034a 00000000
@034b b5b63c20
@034c b524fbfc
@034d b7185292
@034e b6532b4d
@034f b847cc40
@0350 bbb3e633
@0351 bd6af0aa
@0352 bde78c46
@0353 bdbb8726
@0354 bdc87cc4
@0355 bd6ac7d1
@0356 3dcdaf4d
@0357 bcc73ddf
@0358 3e1826b5
@0359 3dad93fe
@035a bd31610e
@035b bd07df72
@035c 3bb1d164
@035d bd6bdd5a
@035e bcd5cfd2
@035f bc4e8995
@0360 bb848506
@0361 bad32b84
@0362 ba73fb25
@0363 00000000
@0364 00000000
@0365 00000000
@0366 00000000
@0367 b667f7cc
@0368 b69e2d2f
@0369 b889856a
@036a bb614ab8
@036b bc6a4711
@036c bd9a7612
@036d be272503
@036e bec04aa6
@036f beef8368
@0370 bf054c6a
@0371 be6ba76d
@0372 be0322c8
@0373 be33fd62
@0374 be3a8462
@0375 bdcbf5ac
@0376 be5c80b6
@0377 bea1c668
@0378 be383048
@0379 be667731
@037a be553165
@037b bdcc3b27
@037c bdabaf8e
@037d bd82c156
@037e bcc5012a
@037f bd3050e1
@0380 00000000
@0381 00000000
@0382 b5909501
@0383 b63c8e37
@0384 bb6a40d6
@0385 bcb3befc
@0386 bcf0491e
@0387 bdbaae50
@0388 be2e307a
@0389 bd2b54ef
@038a be449777
@038b be5e0186
@038c bef2c454
@038d be72ab78
@038e 3dea6721
@038f be53ca2f
@0390 be6f9a30
@0391 bd54e4ca
@0392 bdb6a476
@0393 be579589
@0394 bd316ae6
@0395 be2a7595
@0396 be324a74
@0397 bdd37f33
@0398 be0a828a
@0399 be9ac5f4
@039a be3f6bff
@039b bcbae80c
@039c bc51aa40
@039d 00000000
@039e 00000000
@039f baae63ee
@03a0 bbc46a89
@03a1 3ac16b7f
@03a2 3de7b8f9
@03a3 3d89ba89
@03a4 bd6ed8e7
@03a5 be18e371
@03a6 be3d96b9
@03a7 bdf44a59
@03a8 bea3dd24
@03a9 be622fc6
@03aa bd7e4fc6
@03ab be23e943
@03ac 3e13b403
@03ad be6667c7
@03ae be66cb1e
@03af 3d814067
@03b0 be0f59e2
@03b1 bdae5486
@03b2 3e420b57
@03b3 3e1536cb
@03b4 3d122e4f
@03b5 bddaab61
@03b6 be5458e0
@03b7 bd61c922
@03b8 bc8fa036
@03b9 00000000
@03ba b61d3713
@03bb bc4bf0c5
@03bc bc929ff9
@03bd bd032f33
@03be bd3c29e1
@03bf bde4d7b0
@03c0 bea4c42c
@03c1 bed3056f
@03c2 be0db1e6
@03c3 bcadddc8
@03c4 be0559e3
@03c5 be945ed5
@03c6 be2c6b90
@03c7 bdd5aeb0
@03c8 be89e77b
@03c9 bdd19e35
@03ca be6a5bab
@03cb 3c40d6d3
@03cc be169e9c
@03cd 3dbb4cb3
@03ce bd16cc7f
@03cf be04f4b7
@03d0 be1d7720
@03d1 be593247
@03d2 be4ba1fb
@03d3 bd1506d3
@03d4 bba89e9a
@03d5 b5a4359d
@03d6 bb770dae
@03d7 bbe76d5b
@03d8 bc732d3d
@03d9 3caad399
@03da be36d24b
@03db beaa288a
@03dc be8482e3
@03dd bed6c1b5
@03de be8c225a
@03df be2ff46c
@03e0 be48c74c
@03e1 3e04e61f
@03e2 be5e7baa
@03e3 bcd36e19
@03e4 be6ec8ce
@03e5 bdb7b4d9
@03e6 bdd2bb6e
@03e7 be0977cc
@03e8 3d9986ce
@03e9 3d8bcdf8
@03ea bd50f740
@03eb bd1fe455
@03ec be77cbe2
@03ed beaab524
@03ee be411823
@03ef bcc63278
@03f0 bc6320e2
@03f1 b6a6d46d
@03f2 bb4ed83d
@03f3 bb0d58c1
@03f4 bbf920ef
@03f5 bc829633
@03f6 be39f6f3
@03f7 bea2c4e6
@03f8 be2e3074
@03f9 be878e8d
@03fa be9dcb29
@03fb bde211da
@03fc be3bdf59
@03fd 3d1ab5a0
@03fe bdab3e5b
@03ff 3cd35332
@0400 3bde3ade
@0401 be84d3ef
@0402 3de2c408
@0403 bd3da929
@0404 bd76dce7
@0405 be5eb4fd
@0406 bddeda7f
@0407 bde8ea54
@0408 beee3daf
@0409 bf079b6f
@040a be587761
@040b bd118176
@040c bc024250
@040d b5589de0
@040e bcd3d3bd
@040f bb3b56e3
@0410 bc30e111
@0411 bd4eed20
@0412 be752523
@0413 be8a3230
@0414 bdf56501
@0415 bd90ba81
@0416 be1f02ff
@0417 bdb8ca65
@0418 bbc42740
@0419 bdb973eb
@041a 3d8c926b
@041b 3c1d81ed
@041c 3e03c8d6
@041d 3caf3727
@041e bcda0ba6
@041f bd7a9f07
@0420 be348ba5
@0421 bdc619ad
@0422 bd024a08
@0423 be56692c
@0424 bee9393a
@0425 beb61b57
@0426 be391c3d
@0427 bd2804da
@0428 bc7f440a
@0429 b572a9b5
@042a bb4ffa3f
@042b bb24f366
@042c bc3773d4
@042d bdd8505c
@042e be77b4b1
@042f be8d75ce
@0430 be2e5893
@0431 bc24f253
@0432 bdc8df3a
@0433 bdb6877d
@0434 bdc3d1ce
@0435 3d37de09
@0436 3dffdbd3
@0437 3e908b50
@0438 3ec352d0
@0439 3c568fa9
@043a 3d875fc1
@043b be090068
@043c bc1e443c
@043d be4443f8
@043e be290e61
@043f be82ef30
@0440 bea78467
@0441 be886f52
@0442 bde8e366
@0443 bd514526
@0444 ba8a1e00
@0445 b8f2a9b5
@0446 3a18663d
@0447 ba918797
@0448 bba6f180
@0449 bd6bced4
@044a be11b58a
@044b be754f5c
@044c be1d18d6
@044d be805cf9
@044e be3ea606
@044f bce5492a
@0450 3c0c0702
@0451 bdb5bf58
@0452 3e0d5c80
@0453 3e422f14
@0454 3ebefcdd
@0455 3dbf3b14
@0456 bdc98a2f
@0457 bdd59010
@0458 be1d8e42
@0459 be0707ef
@045a be32ce0f
@045b be49a65c
@045c be091393
@045d bdba614f
@045e bc39d1ca
@045f bbec2dae
@0460 39f4c1d9
@0461 00000000
@0462 b9d59372
@0463 bc3f4b93
@0464 3b5fef20
@0465 bcd9b2be
@0466 bdbb4198
@0467 3cbd8e0e
@0468 bb426b20
@0469 be34f722
@046a 3d73eb52
@046b be1bf23b
@046c be23f1b8
@046d bdbbaaff
@046e 3dcc2f87
@046f 3f024cf8
@0470 3e4a8387
@0471 3d8ddc35
@0472 bd7cfbf1
@0473 3e014d6e
@0474 be97edd4
@0475 be5407b8
@0476 be228446
@0477 bdded197
@0478 bd86df48
@0479 bd4122aa
@047a bd0bcee5
@047b bcb980a1
@047c b7c125a0
@047d 3845dbf6
@047e ba1d837f
@047f bbb33869
@0480 3ad8876e
@0481 bbdf3b84
@0482 bd67fbd4
@0483 3d1abe6b
@0484 bd93b3be
@0485 3c905dfb
@0486 bda0e3fb
@0487 becf4344
@0488 be2ac1e6
@0489 3c4aedb9
@048a 3d28e9f6
@048b 3e9e28c8
@048c 3e0f9a9e
@048d 3d943808
@048e 3eb7bda5
@048f be02c91b
@0490 bea28d7d
@0491 be37e85e
@0492 be1588e3
@0493 bde5646d
@0494 bde19890
@0495 bdcf0dfd
@0496 bd4e4422
@0497 bc2f43a3
@0498 b877123a
@0499 b703ca7e
@049a b9d2bd19
@049b ba5f9478
@049c baa4b2a1
@049d 3d20018d
@049e bd2641e5
@049f bd9a947b
@04a0 be10421e
@04a1 bc835f7d
@04a2 bbdeb624
@04a3 bebb23f0
@04a4 be99555b
@04a5 bd8b81ee
@04a6 3d06418d
@04a7 3e0b1119
@04a8 3e63d569
@04a9 3c2b8575
@04aa bd3393fb
@04ab bebf392f
@04ac be770b39
@04ad be0f5a1e
@04ae be481af2
@04af bdd43c8d
@04b0 bdb61833
@04b1 bc8b114c
@04b2 bc082703
@04b3 3b8ae1bb
@04b4 b76f82ee
@04b5 b63c7bbe
@04b6 b6de8c32
@04b7 b95ffccb
@04b8 bae4e5f5
@04b9 bbf639a8
@04ba bdd28342
@04bb be3cf52f
@04bc bdc49797
@04bd 3c4a9f77
@04be be1693f0
@04bf bea5fe36
@04c0 3d6e5643
@04c1 3dac6dc9
@04c2 3e789022
@04c3 3e67b8fa
@04c4 bc2ab1a3
@04c5 3e409e5b
@04c6 be52b200
@04c7 beabe958
@04c8 be9f2a7a
@04c9 be45ac59
@04ca be4457ad
@04cb be0a1421
@04cc bdd2f65c
@04cd bd5f2aa0
@04ce bcad4bda
@04cf bb9856f4
@04d0 bae3f4fb
@04d1 b5b56571
@04d2 38e7e569
@04d3 b9b01c05
@04d4 bb685910
@04d5 bc2fe644
@04d6 bd8cad10
@04d7 be50bc66
@04d8 be3a2b6c
@04d9 bd3400c5
@04da 3dbee13d
@04db be24647f
@04dc bd9dd1a4
@04dd be150064
@04de bdce2893
@04df 3e96eaa8
@04e0 be8a4c63
@04e1 3dec2a12
@04e2 bebc6dfd
@04e3 beadf3c6
@04e4 be441fb0
@04e5 be1556c8
@04e6 bddc6ce3
@04e7 be07b28f
@04e8 bdea3198
@04e9 3d322269
@04ea bd05177e
@04eb bcda3c60
@04ec baa8d6be
@04ed 00000000
@04ee 3a170344
@04ef ba295621
@04f0 bc0304a4
@04f1 bcf956a8
@04f2 bde24670
@04f3 be818647
@04f4 be18b6d5
@04f5 3dd1b408
@04f6 bd8edbfa
@04f7 bd960c67
@04f8 be1b85d7
@04f9 3d9aa8db
@04fa 3e5f168a
@04fb 3e9d8187
@04fc bd0da891
@04fd bd893a11
@04fe bed7e425
@04ff be4b9f56
@0500 3d818bb1
@0501 bd203004
@0502 bcbb5616
@0503 bcf5bffe
@0504 bd96eb9d
@0505 3d950038
@0506 bdacb9b6
@0507 bd16d290
@0508 bbb5ee09
@0509 b791d6a4
@050a b831a327
@050b bb61bf78
@050c bc4d8190
@050d bd56f9c2
@050e be769439
@050f bf038072
@0510 be729061
@0511 3d4b778a
@0512 bd75528a
@0513 be3a4996
@0514 be09388f
@0515 bde59d7a
@0516 3d8a1c6d
@0517 3dd0126e
@0518 be098bac
@0519 beea4dad
@051a bddde3a1
@051b 3d686f90
@051c 3b4aa0a1
@051d 3e2f4fb1
@051e bd12fdd6
@051f be808f14
@0520 be11cc0b
@0521 3b924dc8
@0522 3d02ea37
@0523 bc68ae98
@0524 3c9bf7d2
@0525 00000000
@0526 bbd1ba2a
@0527 bcc1b944
@0528 bd182e8b
@0529 bda51585
@052a bedc1506
@052b beaa4cec
@052c bd83bdbe
@052d be325869
@052e 3ca13544
@052f bd8e2020
@0530 bc0f4efc
@0531 be6d489a
@0532 3d2fb64b
@0533 be78b7b2
@0534 3db690da
@0535 3e18e2d0
@0536 bdd7c645
@0537 3dbbd8cc
@0538 3de35b46
@0539 3d36557d
@053a bd9e3b28
@053b be12100b
@053c 3928bf90
@053d 3df314a8
@053e 3d7300aa
@053f bcd404a5
@0540 3c154f61
@0541 00000000
@0542 bc4212a7
@0543 bd07d017
@0544 bcf77334
@0545 bd8058b9
@0546 beb3be78
@0547 be74d340
@0548 be3e1276
@0549 3d06136d
@054a 3d8c267e
@054b 3da3b46e
@054c 3e652ff8
@054d 3df312cb
@054e 3bd2876c
@054f 3d9f64a1
@0550 be860263
@0551 3e0eb28c
@0552 3dd663e7
@0553 3e9b032e
@0554 3e1da620
@0555 3d3b27c0
@0556 3d9ef067
@0557 bd99bdd5
@0558 3d2b0596
@0559 3e6dc45f
@055a 3d9dd304
@055b bc38d783
@055c b6664079
@055d 398ec3c2
@055e bc2b5602
@055f bd21f9a2
@0560 3d996d39
@0561 3ddb6b33
@0562 3e42ec70
@0563 3df7e95c
@0564 3d1d182a
@0565 3e2988a5
@0566 3c6b346f
@0567 3e19b3cc
@0568 bd6e2b4a
@0569 3ce75dca
@056a 3c32bb40
@056b 3e361c9a
@056c 3de59b67
@056d bd3203f9
@056e bdcd0d24
@056f 3da03900
@0570 bdb2c24c
@0571 3de83296
@0572 3dcf36e8
@0573 be38413a
@0574 bda4ea43
@0575 3e1470d8
@0576 3dd188a9
@0577 bb7f6ed0
@0578 b55c20ee
@0579 398a4da4
@057a bb302ec0
@057b bd07e74f
@057c 3c20929f
@057d 3d825adc
@057e 3f03b885
@057f 3e693a8d
@0580 bc412763
@0581 3c66c81b
@0582 3bd73bac
@0583 be041cc1
@0584 be8f1303
@0585 be7d0518
@0586 be926868
@0587 bd1aabb1
@0588 3d1f2027
@0589 bd170955
@058a 3e2bdaab
@058b 3e9b0985
@058c 3d812798
@058d 3e073a83
@058e 3d8a16b7
@058f be624be6
@0590 bd957426
@0591 3d1a23be
@0592 3d5b6ddb
@0593 3bfdfae6
@0594 b5cb3216
@0595 00000000
@0596 00000000
@0597 bacaaf65
@0598 bdd9d1cb
@0599 be21966c
@059a 3e070996
@059b 3e98daeb
@059c bcae7386
@059d be1b7b22
@059e 3db597b0
@059f 3cbbd183
@05a0 bc6d8545
@05a1 3e84f269
@05a2 bda531d3
@05a3 be7104e4
@05a4 3db351b1
@05a5 3dfea3b0
@05a6 3e581fa1
@05a7 bd25abaf
@05a8 3bacc2fd
@05a9 3cea21c2
@05aa be0cfced
@05ab be3f5d7d
@05ac bdaf43ef
@05ad bb399525
@05ae 3c20f807
@05af 3cb5c87f
@05b0 00000000
@05b1 00000000
@05b2 00000000
@05b3 b7b3a012
@05b4 bd8e8ebd
@05b5 bdf90434
@05b6 be10cc05
@05b7 bdcee993
@05b8 bdf0a72e
@05b9 be93be74
@05ba be0d6456
@05bb be7330df
@05bc bebe28f2
@05bd be7bd06d
@05be beaa360c
@05bf be182770
@05c0 be83c08e
@05c1 bedb75f1
@05c2 bdf46753
@05c3 bdfa7505
@05c4 bc36ca6d
@05c5 bd52b20e
@05c6 bd8594c7
@05c7 bd4fae64
@05c8 bc49a1fa
@05c9 babd208d
@05ca 3bd60689
@05cb 3a972532
@05cc 00000000
@05cd 00000000
@05ce 00000000
@05cf b4c66c06
@05d0 bbd27d68
@05d1 bd8f3c75
@05d2 bddc71b7
@05d3 be2b8e59
@05d4 bebb630a
@05d5 bebbb95d
@05d6 bef1f6c1
@05d7 bf38d9c6
@05d8 bf2fb4f2
@05d9 bf1b6e5d
@05da beebfd56
@05db bee6be26
@05dc bf2af3e5
@05dd bf01f286
@05de beb71f7c
@05df beab72f4
@05e0 be6daaf2
@05e1 bdb5ddc6
@05e2 bc43b018
@05e3 bb85f549
@05e4 bb898439
@05e5 ba594f03
@05e6 b7b68ac4
@05e7 b7da3611
@05e8 00000000
@05e9 00000000
@05ea 00000000
@05eb 00000000
@05ec ba0101fc
@05ed bc1dc26b
@05ee bd342fd8
@05ef bd97f1b0
@05f0 bd83f5e7
@05f1 bd94ffc3
@05f2 bdecfb49
@05f3 be5aeaa3
@05f4 be7a9430
@05f5 bed6d2cb
@05f6 bed52cf4
@05f7 be8061f0
@05f8 be72d4e7
@05f9 be2d2ddd
@05fa bdf68067
@05fb be25c97b
@05fc bdba1899
@05fd bcdcdc3e
@05fe bbbd7877
@05ff bab37aaa
@0600 b9b25769
@0601 b3905a2e
@0602 00000000
@0603 00000000
@0604 00000000
@0605 00000000
@0606 00000000
@0607 00000000
@0608 00000000
@0609 b8b4628c
@060a b96c2a29
@060b b99b8a41
@060c b9896fe6
@060d b9834892
@060e b9935638
@060f bc96645f
@0610 bcba5484
@0611 bcc7f1f4
@0612 bd03b654
@0613 bbd362fe
@0614 bbae7e9b
@0615 bbe3bdd0
@0616 bcab8d60
@0617 bd59c8de
@0618 bb680212
@0619 ba3d5c32
@061a b8f4b70a
@061b b8766029
@061c b71558c2
@061d 00000000
@061e 00000000
@061f 00000000
@0620 bca7bd9d
@0621 00000000
@0622 00000000
@0623 00000000
@0624 00000000
@0625 00000000
@0626 00000000
@0627 00000000
@0628 00000000
@0629 00000000
@062a 00000000
@062b 00000000
@062c 00000000
@062d ba386304
@062e baa9d11b
@062f 398eaf18
@0630 373e3ecb
@0631 00000000
@0632 00000000
@0633 00000000
@0634 00000000
@0635 00000000
@0636 00000000
@0637 00000000
@0638 00000000
@0639 00000000
@063a 00000000
@063b 00000000
@063c 00000000
@063d 00000000
@063e 00000000
@063f 00000000
@0640 00000000
@0641 00000000
@0642 b71c19e3
@0643 bb217bbb
@0644 bbd7df94
@0645 bc8d8df1
@0646 bd0686c4
@0647 bd11c5f4
@0648 bca54291
@0649 bd0eefdf
@064a bd30e0bc
@064b bd241983
@064c bb8b749f
@064d 3c5f68c9
@064e bcd9959f
@064f bc94dbaa
@0650 bd084cea
@0651 bc8a1637
@0652 bb3f9427
@0653 babed3fd
@0654 ba44f7ba
@0655 00000000
@0656 00000000
@0657 00000000
@0658 00000000
@0659 00000000
@065a 00000000
@065b b69ebf27
@065c b71a5e66
@065d baf2d77c
@065e ba12f2c6
@065f bb49c094
@0660 bc83c91c
@0661 bd1b86b6
@0662 bd2de953
@0663 bdf785d1
@0664 be02026f
@0665 be1e48aa
@0666 be67784f
@0667 be8d5521
@0668 be4293d7
@0669 be468e77
@066a be865445
@066b be844793
@066c be4252b0
@066d bdc79bcf
@066e bd8c17f5
@066f bd42bc9b
@0670 bc3f4cc7
@0671 3a998d59
@0672 3ae70e47
@0673 00000000
@0674 00000000
@0675 00000000
@0676 00000000
@0677 b695044b
@0678 b848b358
@0679 ba9a13bf
@067a bc0fe5f7
@067b bc7b7b56
@067c bbc79def
@067d 3cefc47e
@067e 3dcbefa1
@067f 3de0fc21
@0680 3d894d91
@0681 3d35ebae
@0682 3d980eb0
@0683 bd177b65
@0684 bdc02d8d
@0685 bd384b39
@0686 bdfcd95e
@0687 be33c173
@0688 be3bbcf3
@0689 be1befe4
@068a bdfc9f46
@068b bdbb0788
@068c bd52ccb3
@068d bc44767c
@068e 3a91a6ec
@068f b973d33f
@0690 00000000
@0691 00000000
@0692 b890948a
@0693 b7c03cd6
@0694 bb9babd5
@0695 bcacc39d
@0696 bc7ef35d
@0697 3c00b2e6
@0698 3cf3bfe1
@0699 bce4d4ef
@069a 3d9038ea
@069b 3d67bc31
@069c bb29d7de
@069d 3d095f2c
@069e bd1305ba
@069f 3dae4ace
@06a0 3c8e423f
@06a1 3d07cf1e
@06a2 be169c27
@06a3 bda75a13
@06a4 be3c59f5
@06a5 be01e5c1
@06a6 be610dfd
@06a7 be8c8547
@06a8 be55677c
@06a9 bde1853a
@06aa bcacb9bc
@06ab bb88ea78
@06ac bb7644a7
@06ad 00000000
@06ae 00000000
@06af ba3e1e3c
@06b0 ba942177
@06b1 bc4252ef
@06b2 bd33816d
@06b3 bd9ce7a0
@06b4 bc1303ca
@06b5 3d0b8d45
@06b6 bd1d9fba
@06b7 3d3347b8
@06b8 3db04645
@06b9 3d964f39
@06ba 3d680042
@06bb 3d85e7e7
@06bc 3c44167d
@06bd 3dd3374b
@06be 3db2b874
@06bf 3d8e7edf
@06c0 bc8c7fd1
@06c1 bcab74eb
@06c2 bd140470
@06c3 be036c6e
@06c4 be63155c
@06c5 be45c273
@06c6 bd5991a4
@06c7 bc7963d3
@06c8 bbb5ee9c
@06c9 00000000
@06ca b506949f
@06cb bc4babd9
@06cc bd1d388f
@06cd bd844f26
@06ce bd4e1d2d
@06cf bcc1121e
@06d0 3d88086e
@06d1 3db1119a
@06d2 3d1cfae9
@06d3 3cd71221
@06d4 3d58bebe
@06d5 3c34aa63
@06d6 3b13d944
@06d7 bcf71b2d
@06d8 3de45132
@06d9 3c1db8b9
@06da bc023603
@06db 3cdd735e
@06dc bdc986e5
@06dd bdc96cea
@06de 3ca7e502
@06df bd8b14e5
@06e0 be77eec3
@06e1 be591c0a
@06e2 bd822f8d
@06e3 bc0cd79d
@06e4 ba7c00b1
@06e5 b829844d
@06e6 bae27086
@06e7 bb988e7a
@06e8 bce788b1
@06e9 bd08d864
@06ea bc3e91f3
@06eb 3d83fe8f
@06ec bcee0e54
@06ed 3d84bb33
@06ee bd41b883
@06ef bdd2946e
@06f0 3d4f2bf2
@06f1 bcb59ba7
@06f2 3ddbeebc
@06f3 3d85c80a
@06f4 bd85e234
@06f5 3d53d56f
@06f6 bdef6636
@06f7 bd172799
@06f8 bd98896a
@06f9 bdafcdc1
@06fa 3d1d668d
@06fb 3e156a9d
@06fc be52c964
@06fd be88e3c5
@06fe bdc09cc0
@06ff bca441d7
@0700 ba8d7141
@0701 b92c38cc
@0702 bbe25320
@0703 bc65b8a4
@0704 bd9f3e58
@0705 3abc2a72
@0706 3c83e49a
@0707 bd1b947a
@0708 bcfd31f9
@0709 bd142f0c
@070a 3cd05486
@070b 3e384e7b
@070c 3da49f05
@070d bdb60458
@070e bc9319c1
@070f bbbc486a
@0710 bd420011
@0711 bdab7288
@0712 bccbe07b
@0713 be098ba2
@0714 3e01bcd4
@0715 3cbfab8c
@0716 bd94ec67
@0717 3cd86c60
@0718 bd5d5dba
@0719 bebe009a
@071a be298b7f
@071b bca6fe1d
@071c ba5c08b2
@071d b7df9e30
@071e bc0f67f3
@071f bd6e5b3b
@0720 bde73942
@0721 3d3205f8
@0722 3e1f2946
@0723 bd84df02
@0724 bd53b2df
@0725 be12d81f
@0726 3a509367
@0727 bd335a33
@0728 3ccd377a
@0729 3c5673a7
@072a bd58c085
@072b 3b8cefee
@072c 3bab7593
@072d 3acc7fb5
@072e bdb2e095
@072f bab7021b
@0730 bdf3a88a
@0731 bdbee7cb
@0732 bdcaaf38
@0733 3c89a0e1
@0734 bd8d2fb8
@0735 bebda0da
@0736 be09258a
@0737 bcdedc28
@0738 bb0d2431
@0739 b509d829
@073a bbdc803e
@073b bd19fdea
@073c bdd3c2fc
@073d bcc484f8
@073e 3d807e68
@073f 3e023e49
@0740 3c375051
@0741 3e05f9cd
@0742 3dbb0c4e
@0743 3ca371af
@0744 3cb7c352
@0745 bdefcf31
@0746 bd3197aa
@0747 bd17d439
@0748 bdd53ade
@0749 bde42db1
@074a 3df3e840
@074b 3d879759
@074c bdad4d90
@074d bc7009b7
@074e bd2b7e35
@074f bcbae1a1
@0750 bdde8a1f
@0751 be18ac8b
@0752 bda5e9e1
@0753 bcd26aa6
@0754 ba441e77
@0755 b889d829
@0756 bac77fb5
@0757 bc257d89
@0758 be04b4ca
@0759 bdd19e28
@075a 3da13748
@075b 3ac4eac9
@075c be0c95f6
@075d be7d4aa4
@075e beaa48cd
@075f bec3764e
@0760 be69279b
@0761 be993ca5
@0762 bea1c6fa
@0763 be90ce60
@0764 be254a4b
@0765 b9d32e52
@0766 bd9c7367
@0767 bda9186f
@0768 3cdd503a
@0769 bd40dc96
@076a bcfe18e9
@076b bd0a623a
@076c be1e9f76
@076d bc95080d
@076e 3da41ebe
@076f bc34347b
@0770 bb8c8679
@0771 00000000
@0772 ba7f31d7
@0773 bb6b2fbb
@0774 be1099cd
@0775 be32360a
@0776 be4412d7
@0777 bee9760f
@0778 bf1705fe
@0779 bed5ea85
@077a beba9dba
@077b be93f6b1
@077c beb09abc
@077d be9a43bc
@077e be5275ac
@077f beb60e58
@0780 be675c03
@0781 bd6222bd
@0782 be2a3b60
@0783 bd7483b5
@0784 3e1dfc59
@0785 bd444321
@0786 3d764fdc
@0787 be278d07
@0788 beb67100
@0789 bb7fa6e3
@078a 3e71d1d1
@078b 3d85e679
@078c 3b49b00f
@078d b895db1e
@078e ba6f9b8a
@078f bb1af2eb
@0790 bdee9185
@0791 be8f2689
@0792 bef173b0
@0793 bf0e509f
@0794 becc0169
@0795 be57d979
@0796 bde0fd94
@0797 3c62a58f
@0798 bda1d60a
@0799 3cf0eaa9
@079a bd8877f8
@079b be2d1feb
@079c be0a6dfb
@079d bd1fd8a2
@079e bd7f4e16
@079f bd057470
@07a0 bdf3cfc6
@07a1 39016626
@07a2 bd1de5da
@07a3 be441529
@07a4 be41a66e
@07a5 3d747969
@07a6 3e87d456
@07a7 3dda225c
@07a8 3d042847
@07a9 b76e6bb6
@07aa bc46d548
@07ab bc0ef5c5
@07ac bdef3db0
@07ad be60820a
@07ae bee51ed1
@07af be172e23
@07b0 3d8b5630
@07b1 bd5b8071
@07b2 bd994ce0
@07b3 be01d9f8
@07b4 bd1bc129
@07b5 3d83787a
@07b6 bd2debc7
@07b7 bd72446c
@07b8 be1c0d7f
@07b9 3da39963
@07ba bd5378f9
@07bb bc645642
@07bc bdc16d4d
@07bd bd622f9a
@07be bdee7327
@07bf be2c49f5
@07c0 be3e0ace
@07c1 3ce99f99
@07c2 3e4a5448
@07c3 3e04bfe8
@07c4 3b9010d9
@07c5 b6a9b0ac
@07c6 bcb8d50e
@07c7 bce6e8ef
@07c8 bd369353
@07c9 bd716f94
@07ca 3db13f2e
@07cb 3e2fbe8e
@07cc bd80654d
@07cd bd07730d
@07ce 3d3af59f
@07cf 3ca3cbe5
@07d0 3d35afd6
@07d1 3cb2b9de
@07d2 bca055f0
@07d3 bd81c4eb
@07d4 bd0ab670
@07d5 3c20b8e6
@07d6 bdf5ba80
@07d7 bddce702
@07d8 3ba297b7
@07d9 be3a0d89
@07da bdd6aa40
@07db bdc7afb5
@07dc be22b188
@07dd 3d904bb3
@07de 3e780873
@07df 3e55f9a1
@07e0 3c8f9564
@07e1 b61aed7e
@07e2 bc403507
@07e3 bd4144ea
@07e4 bc585351
@07e5 3d91cce7
@07e6 3de5ca99
@07e7 3e116012
@07e8 bb1ea608
@07e9 bdb04a58
@07ea 3d5f58d4
@07eb 3d6d856e
@07ec 3d688e8b
@07ed 3dcf5461
@07ee 3e06c160
@07ef bdfa71a2
@07f0 3d10114d
@07f1 3d8643f3
@07f2 3da799d0
@07f3 bc291266
@07f4 3c23a3e0
@07f5 bce6746a
@07f6 3e34c1aa
@07f7 3d1cc851
@07f8 3d1de509
@07f9 3d769d9b
@07fa 3ebb67ca
@07fb 3e5ce8a5
@07fc 3baeee82
@07fd 00000000
@07fe bb961a35
@07ff bd28bc73
@0800 bd2f1003
@0801 3e316f31
@0802 3dd4919d
@0803 3dc2ea81
@0804 3d8e0b98
@0805 3db3fda2
@0806 3d606117
@0807 3c3db498
@0808 3cdb890b
@0809 3e22da18
@080a 3d20aa89
@080b bd007eb5
@080c 3e2342ca
@080d 3cd20917
@080e bbffb5b0
@080f 3ce3e641
@0810 bdd9e122
@0811 3be30282
@0812 3d3f3db7
@0813 3c68fa6e
@0814 3d770103
@0815 3e34f568
@0816 3ebbc1f9
@0817 3dee3603
@0818 3c20728c
@0819 b63aa19c
@081a b9442c9b
@081b bdbd705f
@081c be0c094e
@081d 3df3dc4a
@081e 3e29d9ad
@081f 3ddeb1c9
@0820 3e5487b9
@0821 3d2e120e
@0822 3d124a5d
@0823 3e1e607a
@0824 bcb897f2
@0825 3e02032e
@0826 3d10b889
@0827 3e07bc52
@0828 bd2d0609
@0829 3d2935ef
@082a 3d2831ce
@082b 3d89b7de
@082c bc8ce7e0
@082d bdbbf1f6
@082e bcbdcbcc
@082f 3df0ca5f
@0830 3e096a1a
@0831 3e942987
@0832 3e89ca66
@0833 3d24ec8b
@0834 3c05e700
@0835 00000000
@0836 ba08a303
@0837 bd9f0465
@0838 be45ede7
@0839 3d73b63b
@083a bcbf2bd4
@083b 3d6960c8
@083c 3e0f19ea
@083d 3da8f293
@083e 3e30249f
@083f 3d0885a9
@0840 3d6ad857
@0841 3da649b2
@0842 3da0f26c
@0843 3da24fa1
@0844 3dea689d
@0845 3cbe48b8
@0846 390650b1
@0847 3d15cd0e
@0848 bd80ac40
@0849 3de500e1
@084a 3dc6d306
@084b 3e09be28
@084c 3da5dc5a
@084d 3e348f4a
@084e 3e1de267
@084f 3d1b7ff8
@0850 3a8bf751
@0851 00000000
@0852 ba902a95
@0853 bc8473d7
@0854 bdac4173
@0855 3e010c2d
@0856 3d4e37c4
@0857 3e43b8e7
@0858 3e659f01
@0859 3e02fea6
@085a 3ddc684c
@085b 3d6f918f
@085c 3e473429
@085d 3ccb90f0
@085e bdb7125c
@085f bda23217
@0860 bc9d96b3
@0861 3dbe9f3c
@0862 bdcf017f
@0863 3c535217
@0864 3e07fdc8
@0865 3d9e8da7
@0866 3d299482
@0867 3d0a60ca
@0868 3e13328a
@0869 3e44cc4d
@086a 3da66e13
@086b 3c3cc9cd
@086c b6380f09
@086d b85d02aa
@086e ba50fe23
@086f 3aef4cff
@0870 bca0211b
@0871 3d49fd6d
@0872 bcbc0d84
@0873 3d7cb55f
@0874 3d904018
@0875 be032a35
@0876 3de31e0e
@0877 3cb25494
@0878 bc3d6ae7
@0879 bcba0ec3
@087a bd1b33a1
@087b bd7a9a45
@087c be1b7bb3
@087d 3d83db96
@087e 3e07c472
@087f bce10133
@0880 3e455f1a
@0881 3c913795
@0882 3d3273eb
@0883 3e266351
@0884 3ea02b75
@0885 3e27dce6
@0886 3dc77ce7
@0887 3b860bbd
@0888 b70b1a94
@0889 b8561a95
@088a b8341e35
@088b bc444e30
@088c 3c2afd9a
@088d 3dea2848
@088e bd36903b
@088f 3d557e2e
@0890 3e0caf5e
@0891 3db0c2f1
@0892 3e1ea5ff
@0893 bb92aa47
@0894 3dc00dd8
@0895 3d3e1e2c
@0896 3d480ea2
@0897 bd2bb233
@0898 be2a8956
@0899 bd91fb67
@089a 3bebaea5
@089b 3e099739
@089c 3cf09f3f
@089d 3e065df8
@089e 3d9d1af7
@089f 3e4b5897
@08a0 3ddca3a4
@08a1 3daaef98
@08a2 3d9a92e3
@08a3 bb6ad81b
@08a4 b780674e
@08a5 00000000
@08a6 00000000
@08a7 bb8375c0
@08a8 bce77e9f
@08a9 3cbdf96e
@08aa bd05c56a
@08ab 3c938461
@08ac bdc269ff
@08ad be0e0cbd
@08ae bdcb4784
@08af bd9855a0
@08b0 bdf9fef5
@08b1 bd3f13ce
@08b2 be24900a
@08b3 bdbfcfbf
@08b4 bde41456
@08b5 bdcf5fe9
@08b6 bd8a1102
@08b7 3d56e084
@08b8 3d7cae66
@08b9 3da74b9b
@08ba 3e1faf61
@08bb 3e2b2162
@08bc 3deeb9ce
@08bd 3d5f6252
@08be 3d92bfa5
@08bf 3a207de9
@08c0 00000000
@08c1 00000000
@08c2 00000000
@08c3 bb4928e0
@08c4 bd413188
@08c5 bdc64c9e
@08c6 be319fec
@08c7 be3b2a5b
@08c8 be1502a9
@08c9 be0b1e5a
@08ca be324edc
@08cb be0716a3
@08cc bd433448
@08cd bd7eb533
@08ce bc1d03a4
@08cf 3cb034e4
@08d0 bd2b5264
@08d1 be023362
@08d2 bd2f1182
@08d3 bad8bb63
@08d4 bd2a0052
@08d5 bbd49c99
@08d6 b9bb328f
@08d7 3cc73cd0
@08d8 3d2ebbab
@08d9 3db3f1e3
@08da 3d5b4538
@08db 3b4d4ee1
@08dc 00000000
@08dd 00000000
@08de 00000000
@08df b582fac7
@08e0 bcd0cd66
@08e1 bd99066f
@08e2 bdeb314f
@08e3 be150b36
@08e4 be7e1b58
@08e5 bea362f3
@08e6 beb23bf1
@08e7 bebbbc74
@08e8 beb8c0b8
@08e9 beb0b254
@08ea be953600
@08eb be4763ec
@08ec be036d89
@08ed be18dde0
@08ee be1417a3
@08ef be34a4de
@08f0 be446b47
@08f1 be13a290
@08f2 be15f8db
@08f3 bdc98f23
@08f4 bcf06967
@08f5 bc646e5a
@08f6 3b36cefa
@08f7 3b5a879b
@08f8 00000000
@08f9 00000000
@08fa 00000000
@08fb 00000000
@08fc b75d1be3
@08fd bb23e938
@08fe bc24a899
@08ff bcd3019f
@0900 bd3a9d71
@0901 bd80402c
@0902 bd8fc6db
@0903 bdd3c5e0
@0904 be19e935
@0905 be16f414
@0906 be249fc7
@0907 be1e23c2
@0908 be106d4e
@0909 be1800f2
@090a bdf9c447
@090b bdb929e3
@090c bd3979ec
@090d bd2622ac
@090e bd304083
@090f bc6e26a3
@0910 b9a3a5d2
@0911 b5c970b9
@0912 00000000
@0913 00000000
@0914 00000000
@0915 00000000
@0916 00000000
@0917 00000000
@0918 00000000
@0919 b736fda4
@091a b838e5e7
@091b ba111fc0
@091c bb00d2e5
@091d baae80fe
@091e bb8a5e08
@091f bc52155b
@0920 bc43efd6
@0921 bc849b1c
@0922 bc882b95
@0923 bcac5c30
@0924 bcabd474
@0925 bc8e858f
@0926 bc5df167
@0927 bba52df4
@0928 bb01dc84
@0929 bba64be5
@092a bb1e5f50
@092b bc650ecd
@092c b909d3ba
@092d 00000000
@092e 00000000
@092f 00000000
@0930 bd120713
@0931 00000000
@0932 00000000
@0933 00000000
@0934 00000000
@0935 00000000
@0936 00000000
@0937 00000000
@0938 00000000
@0939 00000000
@093a 00000000
@093b 00000000
@093c 00000000
@093d b7fd76ac
@093e b8ba3408
@093f b7d33a5c
@0940 b58cd193
@0941 00000000
@0942 00000000
@0943 00000000
@0944 00000000
@0945 00000000
@0946 00000000
@0947 00000000
@0948 00000000
@0949 00000000
@094a 00000000
@094b 00000000
@094c 00000000
@094d 00000000
@094e 00000000
@094f 00000000
@0950 00000000
@0951 00000000
@0952 b4bc3d46
@0953 b7ff4e40
@0954 b89b04b6
@0955 b976605c
@0956 b9b17511
@0957 ba156219
@0958 ba332d2b
@0959 ba0cf7e7
@095a b9ebeea4
@095b bbd9b4db
@095c bc0b26ac
@095d bb87aab9
@095e ba5353ea
@095f b95711b1
@0960 ba1c3d99
@0961 ba3dbd1c
@0962 b9147684
@0963 b801d1f9
@0964 b7109e77
@0965 00000000
@0966 00000000
@0967 00000000
@0968 00000000
@0969 00000000
@096a 00000000
@096b b63606a2
@096c b5a53716
@096d b74662f7
@096e b6b87036
@096f b9ac37db
@0970 bb6cfc53
@0971 bc3fc6f2
@0972 bcdc6dce
@0973 bcfa5d1d
@0974 bba954dc
@0975 b9b535a9
@0976 bc1c4dc1
@0977 bc2dbf69
@0978 bdaa457a
@0979 bd9324c0
@097a bd4fde9e
@097b bd376a16
@097c bd4c2156
@097d bd00c257
@097e bc76f6ef
@097f bbf45a18
@0980 bb690f87
@0981 b8b8518d
@0982 b77fecae
@0983 00000000
@0984 00000000
@0985 00000000
@0986 00000000
@0987 b90b02c8
@0988 b71d71f1
@0989 bb492747
@098a 3d36c75d
@098b 3bd5c8fa
@098c bcf92cd2
@098d bd9a8f3c
@098e bdbe1c4a
@098f be11e4bb
@0990 bdb420b7
@0991 bc316add
@0992 bd4c4b11
@0993 bc1b129e
@0994 3ce179cd
@0995 3d151f73
@0996 3d824fc7
@0997 3d50bd0d
@0998 bc9862a9
@0999 3de4750c
@099a bbb4b13b
@099b bd48f54f
@099c bc00138f
@099d ba73d225
@099e b8d9abce
@099f b76c6bff
@09a0 00000000
@09a1 00000000
@09a2 380e1a51
@09a3 ba007e1f
@09a4 3ac94e3e
@09a5 3ca43d63
@09a6 3dbd3500
@09a7 3d8b0eec
@09a8 3dc18e8e
@09a9 3e3a3941
@09aa 3dedad3b
@09ab 3dbceaa0
@09ac 3d83dea0
@09ad 3ca98b83
@09ae 3ce52b90
@09af 3d3a2ad7
@09b0 3d04dc67
@09b1 3c76192e
@09b2 bda92683
@09b3 3d9cf486
@09b4 3c82216c
@09b5 bde91083
@09b6 bdd2e2a4
@09b7 be0af4eb
@09b8 be21aa25
@09b9 bcf19dde
@09ba bb3f919a
@09bb b9204890
@09bc b7db3bd4
@09bd 00000000
@09be 00000000
@09bf 390b6d28
@09c0 3cdb86f9
@09c1 3da232bf
@09c2 3e18b70e
@09c3 3e120419
@09c4 3db56685
@09c5 bd2b8a88
@09c6 bd8791c6
@09c7 3da20865
@09c8 bca38f8d
@09c9 bc353512
@09ca 3c95487f
@09cb bd9a2885
@09cc bda4d43b
@09cd 3dbee83a
@09ce be431f40
@09cf bd28f5d1
@09d0 bcbbe90b
@09d1 bdf04342
@09d2 be649457
@09d3 be95a375
@09d4 be76b2b3
@09d5 bdc675f1
@09d6 bccc92ce
@09d7 bb0b5c92
@09d8 b8b07952
@09d9 00000000
@09da 35bce07c
@09db b997d1eb
@09dc 3de06229
@09dd 3e1f23cc
@09de 3d50dcda
@09df 3d9be242
@09e0 bd9cfb8e
@09e1 3df92fb6
@09e2 3da7574b
@09e3 3e108d67
@09e4 3dba6e9a
@09e5 bcf1e642
@09e6 3e0f4aff
@09e7 3ca2cab2
@09e8 3cc85087
@09e9 3dcd5404
@09ea bc641faa
@09eb 3db2a259
@09ec be0b94c4
@09ed 3cc779aa
@09ee bc0ed90b
@09ef bddaa01f
@09f0 be56f977
@09f1 be546ca6
@09f2 bd80c6fb
@09f3 bbb70e31
@09f4 b93efa05
@09f5 b8a5f249
@09f6 3b8bbfcb
@09f7 bd4ff807
@09f8 3d434f91
@09f9 3e0ddca7
@09fa 3d6109fc
@09fb 3d446123
@09fc bc90d2eb
@09fd 3d706672
@09fe 3c8f3148
@09ff bda764d8
@0a00 bd36340b
@0a01 3db0487c
@0a02 3c37b36d
@0a03 3c3a9480
@0a04 3dc508c5
@0a05 be05edcc
@0a06 ba4b4acb
@0a07 bd20f1c2
@0a08 3a9aa42b
@0a09 bc4bc6a4
@0a0a bdf086b1
@0a0b bdfecdfa
@0a0c bea975ab
@0a0d beb8bff3
@0a0e bdd9bd1a
@0a0f bc133503
@0a10 b9050e8f
@0a11 b9a89832
@0a12 bcbfc3c5
@0a13 bdfe3f72
@0a14 bd5d6cea
@0a15 3da36a0d
@0a16 3da81324
@0a17 3c98d638
@0a18 bca0e176
@0a19 bd8473c6
@0a1a be1ed5b1
@0a1b 3d921380
@0a1c bd849cf4
@0a1d 3ddd1bd2
@0a1e bd268600
@0a1f bd97d29d
@0a20 3d69d891
@0a21 3d7a0341
@0a22 3de2598a
@0a23 3d986742
@0a24 3e13b735
@0a25 3d715462
@0a26 3df2f230
@0a27 3c3701a6
@0a28 bf017784
@0a29 bf094c8d
@0a2a be39f5f4
@0a2b bc909eeb
@0a2c b8b5fafb
@0a2d b85ae877
@0a2e bcf94f53
@0a2f bdf4aec7
@0a30 bcd86f7d
@0a31 3e178730
@0a32 bd05f2bb
@0a33 bced59ff
@0a34 3d312274
@0a35 bbff1d64
@0a36 3c8efdd6
@0a37 bc7a1c41
@0a38 be81dd2f
@0a39 bdcaa0db
@0a3a bde0c388
@0a3b 3ca91b10
@0a3c 3d61c355
@0a3d 3d04ffeb
@0a3e 3daa3116
@0a3f bcb80412
@0a40 3da6aaf0
@0a41 3e07c984
@0a42 3e075bec
@0a43 3e21ffe4
@0a44 beba4c2c
@0a45 bf0196ca
@0a46 be0fdd37
@0a47 bc56fc4b
@0a48 ba375822
@0a49 b65e1a83
@0a4a bceb4d59
@0a4b bda7b70a
@0a4c 3cba4f30
@0a4d 3dc9d9d8
@0a4e 3d2de266
@0a4f 3a5fbba7
@0a50 3d9665d1
@0a51 bd8ff185
@0a52 be33c420
@0a53 be9ef0b8
@0a54 bea4f9b0
@0a55 be596c86
@0a56 3e14eb39
@0a57 3d83171b
@0a58 3d19c701
@0a59 3e50145b
@0a5a 3cc85032
@0a5b 3d732ef9
@0a5c bcfb6920
@0a5d 3d5623b4
@0a5e 3e10ba4a
@0a5f 3e12f31e
@0a60 be47b654
@0a61 be72a954
@0a62 bd95871f
@0a63 bc34930a
@0a64 b97b6343
@0a65 b9de1a83
@0a66 bc7ec5fc
@0a67 bd67a9af
@0a68 bc30b54d
@0a69 bcc47d50
@0a6a bd42e334
@0a6b be1ebafa
@0a6c be660f90
@0a6d beba6498
@0a6e be90f8b5
@0a6f be00db5d
@0a70 bdb4b49c
@0a71 3b999750
@0a72 3caec3e8
@0a73 3db9f095
@0a74 3deff1c9
@0a75 ba9f0847
@0a76 3d99a36a
@0a77 3e3b1838
@0a78 3d0a23d2
@0a79 3e4886df
@0a7a bd739ac6
@0a7b be48cfd1
@0a7c be3f85f6
@0a7d bddbb993
@0a7e bcc2c78e
@0a7f bb8deb09
@0a80 b7cf0d9f
@0a81 00000000
@0a82 bc8c8450
@0a83 bd543050
@0a84 bdc22a6e
@0a85 bdcaf383
@0a86 be20ee72
@0a87 be27d27f
@0a88 be367cd3
@0a89 be4a5fc2
@0a8a 3cb98334
@0a8b bc150dde
@0a8c be5861c2
@0a8d 3e219320
@0a8e 3c3fcdfd
@0a8f 3d8f1f49
@0a90 3e30aece
@0a91 3e0e05dc
@0a92 bcd566de
@0a93 3cc974e8
@0a94 bd874650
@0a95 3d6f8c12
@0a96 beb29145
@0a97 bef447f3
@0a98 be92894c
@0a99 bd8393f7
@0a9a b9a59537
@0a9b b9721c7d
@0a9c b7b6c9dc
@0a9d b946c08f
@0a9e bc869d02
@0a9f bd254119
@0aa0 bd2260d2
@0aa1 be1916ef
@0aa2 be3184cf
@0aa3 bdaec93f
@0aa4 be036926
@0aa5 bdce85bb
@0aa6 bd52db47
@0aa7 bdaf0823
@0aa8 bc17014b
@0aa9 3e138dec
@0aaa 3db3f757
@0aab bc6548ce
@0aac be142e45
@0aad 3e534ca5
@0aae bd8c2399
@0aaf 3d5bfb45
@0ab0 bdbc2f93
@0ab1 be8c4fed
@0ab2 beb816b7
@0ab3 bef2a308
@0ab4 be6cc02f
@0ab5 bd341b6f
@0ab6 bbfaf39a
@0ab7 bab913eb
@0ab8 b79a370a
@0ab9 bb9c2818
@0aba 3b14671b
@0abb bc8c5716
@0abc 3c0d8234
@0abd bdb78133
@0abe be0648d8
@0abf be4f87d4
@0ac0 be372569
@0ac1 3ce0d0f7
@0ac2 bc91f31c
@0ac3 be409c00
@0ac4 bdc3706a
@0ac5 3e62a3e2
@0ac6 bd299339
@0ac7 bda0d46a
@0ac8 3d1cf4c5
@0ac9 3d7b41c9
@0aca bd2912d4
@0acb 3d7a6da8
@0acc be84b3e5
@0acd be4918c6
@0ace 3d805bcb
@0acf be433940
@0ad0 be0d513b
@0ad1 bce2d8a3
@0ad2 bcab1fac
@0ad3 bb8e8d8f
@0ad4 b8f39c0b
@0ad5 bacd3432
@0ad6 3caaf4f5
@0ad7 3b75b57a
@0ad8 3ac6c46e
@0ad9 bc37f82d
@0ada bde9be9f
@0adb be0c2abc
@0adc be276b17
@0add be6e8031
@0ade bd8f5f7b
@0adf bddc8237
@0ae0 bc89133a
@0ae1 3e03d0a2
@0ae2 bd442ae3
@0ae3 be07d324
@0ae4 3e06cec1
@0ae5 3d53a4c8
@0ae6 be604e65
@0ae7 be0c9bcc
@0ae8 bd61dade
@0ae9 3e39e275
@0aea 3e480eb2
@0aeb 3e3b521d
@0aec 3d16b45e
@0aed 3c9f9cda
@0aee bd316a5f
@0aef bc469111
@0af0 bb275038
@0af1 b7f8c01c
@0af2 3c4a5a32
@0af3 3d2bd903
@0af4 3de0ebba
@0af5 3de3786a
@0af6 bc804811
@0af7 bd1e2ae9
@0af8 bdc74d13
@0af9 be7ff911
@0afa 3c0bbb31
@0afb bc9449b7
@0afc bd02b698
@0afd 3db5a892
@0afe 3d9719b7
@0aff be64d0b9
@0b00 bdc125ad
@0b01 be59a0f1
@0b02 bd3accb4
@0b03 3e2bc504
@0b04 3d9b08e9
@0b05 3de47795
@0b06 3e05dc76
@0b07 3e1de350
@0b08 3d2e0443
@0b09 3ccc12ac
@0b0a bdd9b5da
@0b0b bd133115
@0b0c bb1bb4cf
@0b0d 00000000
@0b0e 3b91e2d2
@0b0f 3d464be9
@0b10 3e6c4b52
@0b11 3dbca09c
@0b12 bd7a0766
@0b13 bcdc1206
@0b14 3d8d4190
@0b15 be27b525
@0b16 bebc17e1
@0b17 bf041417
@0b18 bed794b3
@0b19 bddeda99
@0b1a be355735
@0b1b be822bd2
@0b1c be7004f2
@0b1d bdc0f663
@0b1e 3de45221
@0b1f 3cabd234
@0b20 3e260986
@0b21 bda51638
@0b22 bcd1f9c8
@0b23 3e49ada1
@0b24 3d1cd941
@0b25 be425b0b
@0b26 be347025
@0b27 bd10156d
@0b28 bab0eef7
@0b29 b9977e64
@0b2a 39abf237
@0b2b 3d1db4c6
@0b2c 3e8d0b92
@0b2d 3d2d7bfd
@0b2e 3c753cf5
@0b2f 3d3d4edc
@0b30 bc8b1d4b
@0b31 3dd75157
@0b32 bdb951f1
@0b33 be9456ef
@0b34 bec7ba27
@0b35 bed699b3
@0b36 bec87452
@0b37 be7fe534
@0b38 3e1306e4
@0b39 3e330631
@0b3a 3dab48ce
@0b3b 3d6163da
@0b3c 3e3224e8
@0b3d 3ba586c3
@0b3e 3e3f5459
@0b3f 3e868ab9
@0b40 bd812740
@0b41 beaf072c
@0b42 be3b9fa3
@0b43 bd0ae602
@0b44 ba8c1215
@0b45 00000000
@0b46 b78bfe85
@0b47 bca4b207
@0b48 3e834bcc
@0b49 3e2022c1
@0b4a 3e3bfc21
@0b4b bd82b26d
@0b4c bd863b80
@0b4d bd17f225
@0b4e bd991535
@0b4f 3d0f76f3
@0b50 be4ecd12
@0b51 be08f0e9
@0b52 be23d422
@0b53 be2d90cb
@0b54 be03c306
@0b55 3d6d5a03
@0b56 3e2a3231
@0b57 3d9c7395
@0b58 3d14f6f2
@0b59 3d963d05
@0b5a 3d52c76b
@0b5b bccafb58
@0b5c bde60d11
@0b5d bea2a373
@0b5e be10412b
@0b5f bca73f7b
@0b60 ba02feae
@0b61 00000000
@0b62 397f6f55
@0b63 bb2465b3
@0b64 3e537fb4
@0b65 3e338c4c
@0b66 3e107a8e
@0b67 3de1e624
@0b68 3d70a457
@0b69 3d0f1535
@0b6a 3dd65d04
@0b6b bc208480
@0b6c bcbe131e
@0b6d bd57fdcf
@0b6e bdc6d574
@0b6f bccf1402
@0b70 bdf8acd1
@0b71 bbadbe5f
@0b72 bd70152d
@0b73 3dbed73c
@0b74 bd64261f
@0b75 3d7a8f19
@0b76 3c3a80e0
@0b77 bdcf0217
@0b78 be00f4b5
@0b79 be98d078
@0b7a bd96c038
@0b7b bc7c366f
@0b7c b76cc3b1
@0b7d b874a8ae
@0b7e 39af44f1
@0b7f 3c204547
@0b80 3da40ecb
@0b81 3e1741cb
@0b82 3d8cf88a
@0b83 3d4a0c98
@0b84 3cbc640a
@0b85 3cfcd574
@0b86 be09bf70
@0b87 bcc593ae
@0b88 bd7ff61e
@0b89 bda13908
@0b8a 3d3cdebc
@0b8b bdc76e44
@0b8c bd85f204
@0b8d 3d82e760
@0b8e bdc24cb9
@0b8f 3d93d4ee
@0b90 3e151905
@0b91 bc699002
@0b92 bc880f97
@0b93 bd22838f
@0b94 be522e38
@0b95 be83d882
@0b96 bd35b4dc
@0b97 bc2dc46a
@0b98 b65a40a7
@0b99 b86d0369
@0b9a 364951a6
@0b9b 3c819fd0
@0b9c 3d94ade0
@0b9d 3dd05115
@0b9e 3c36d6bb
@0b9f 3d94da67
@0ba0 3d92cb7d
@0ba1 bdf87052
@0ba2 3d8445b4
@0ba3 bc7a0460
@0ba4 3c8ca7f5
@0ba5 bd59206e
@0ba6 bd0c4f72
@0ba7 bd408638
@0ba8 3d117c2d
@0ba9 3b73b537
@0baa 3cc482d0
@0bab bd4f545a
@0bac 3d8141f0
@0bad 3d3b0acc
@0bae 3ca31c95
@0baf bd925b51
@0bb0 be26ad3b
@0bb1 bddc3e2d
@0bb2 bccbbc64
@0bb3 b98653a6
@0bb4 b6c976c1
@0bb5 00000000
@0bb6 00000000
@0bb7 3ca35b88
@0bb8 3dc55c16
@0bb9 3e30d4a6
@0bba 3e7bdad5
@0bbb 3e61d3a1
@0bbc bbf8d9ca
@0bbd bd17495b
@0bbe 3dbbe8ba
@0bbf 3c0913c8
@0bc0 3d89c713
@0bc1 bdd91a9a
@0bc2 3bb70b1b
@0bc3 bd93ca96
@0bc4 bdc109b8
@0bc5 be36d44c
@0bc6 bbf07b3b
@0bc7 3daabb57
@0bc8 3c7dadfe
@0bc9 bd88ffe8
@0bca bd8b9816
@0bcb be0f994c
@0bcc bdea44f0
@0bcd 3bdb72b7
@0bce baad347b
@0bcf 3a9c382d
@0bd0 00000000
@0bd1 00000000
@0bd2 00000000
@0bd3 bc076b5f
@0bd4 3dae1b8a
@0bd5 3e26328e
@0bd6 3ddec435
@0bd7 3e821320
@0bd8 3df99931
@0bd9 3d60fdd0
@0bda 3dcda384
@0bdb 3d5ff0a1
@0bdc 3d7acf4e
@0bdd bda77e93
@0bde 3d3c0b8d
@0bdf 3d3a8894
@0be0 bd2e0434
@0be1 3d0a1c4e
@0be2 bb8f4d99
@0be3 be80e9d1
@0be4 be5f66db
@0be5 be24c940
@0be6 bdaf8d65
@0be7 bd69e8af
@0be8 bccd4813
@0be9 bc554121
@0bea b9de1dd7
@0beb b7dbd247
@0bec 00000000
@0bed 00000000
@0bee 00000000
@0bef 3909c68b
@0bf0 bca1200c
@0bf1 bc6f1eb6
@0bf2 3d043de8
@0bf3 3d9624b2
@0bf4 3dc1f5de
@0bf5 3d8218f8
@0bf6 3d747fc9
@0bf7 bc153eff
@0bf8 3da2a9c0
@0bf9 3d91e370
@0bfa 3b124e47
@0bfb bd716829
@0bfc be2f9ed6
@0bfd be51cb07
@0bfe be851e86
@0bff be3f3f87
@0c00 bd1f7861
@0c01 bdc8d0df
@0c02 bdcd9792
@0c03 bcd2bcc6
@0c04 bbba5894
@0c05 b923724c
@0c06 b70375ef
@0c07 b71d25fd
@0c08 00000000
@0c09 00000000
@0c0a 00000000
@0c0b 00000000
@0c0c b9976098
@0c0d bb8100cc
@0c0e bc06c70d
@0c0f bc93c54f
@0c10 bd491942
@0c11 bdd458f3
@0c12 be38d71b
@0c13 be4cfcc6
@0c14 be7d5aba
@0c15 bebfcaf2
@0c16 bed3fd11
@0c17 bed11bdd
@0c18 bec46e25
@0c19 be81a404
@0c1a be26f2f4
@0c1b bdf91d09
@0c1c bd625978
@0c1d bd1c6700
@0c1e bceccba3
@0c1f bb81901f
@0c20 b9e68f16
@0c21 b40e3759
@0c22 00000000
@0c23 00000000
@0c24 00000000
@0c25 00000000
@0c26 00000000
@0c27 00000000
@0c28 00000000
@0c29 b73116a0
@0c2a b84a4ba7
@0c2b ba0ea2f2
@0c2c bb0a00c2
@0c2d bb183d5e
@0c2e bc188d8d
@0c2f bc853030
@0c30 bc9213b0
@0c31 bd05e962
@0c32 bd06f824
@0c33 bd376f67
@0c34 bd315576
@0c35 bd3539b0
@0c36 bd0dbba6
@0c37 bcc51acb
@0c38 bc786c67
@0c39 bbc8f92b
@0c3a baeca4b4
@0c3b ba274075
@0c3c b8a2c623
@0c3d 00000000
@0c3e 00000000
@0c3f 00000000
@0c40 bc8f6cbb
@0c41 00000000
@0c42 00000000
@0c43 00000000
@0c44 00000000
@0c45 00000000
@0c46 00000000
@0c47 00000000
@0c48 00000000
@0c49 00000000
@0c4a 00000000
@0c4b 00000000
@0c4c 00000000
@0c4d bbeb39b7
@0c4e bc944219
@0c4f bb2d881b
@0c50 b8e76024
@0c51 00000000
@0c52 00000000
@0c53 00000000
@0c54 00000000
@0c55 00000000
@0c56 00000000
@0c57 00000000
@0c58 00000000
@0c59 00000000
@0c5a 00000000
@0c5b 00000000
@0c5c 00000000
@0c5d 00000000
@0c5e 00000000
@0c5f 00000000
@0c60 00000000
@0c61 00000000
@0c62 ba8f5d25
@0c63 bd8d08b3
@0c64 be0efa8d
@0c65 bdcfdf89
@0c66 bd214d21
@0c67 bd98ab9b
@0c68 bd9bbc6b
@0c69 bdf617bc
@0c6a bdc81c6f
@0c6b bdbb2ceb
@0c6c be00e38c
@0c6d bdffdf39
@0c6e bd7a090a
@0c6f bd84bd93
@0c70 bd8dac54
@0c71 bcf577de
@0c72 bbca9c3a
@0c73 bc9038c9
@0c74 bcc2c05e
@0c75 00000000
@0c76 00000000
@0c77 00000000
@0c78 00000000
@0c79 00000000
@0c7a 00000000
@0c7b b833e169
@0c7c bb389641
@0c7d bab75c61
@0c7e bb84faf6
@0c7f bda1c648
@0c80 be50a226
@0c81 be66e5a0
@0c82 be2ecafd
@0c83 be801c74
@0c84 be82dfed
@0c85 beaa46b6
@0c86 bea53e29
@0c87 be93a85c
@0c88 bea77f36
@0c89 beb66ab7
@0c8a be83ae11
@0c8b be7acbf0
@0c8c be2251ea
@0c8d bdb47ddf
@0c8e bd80a8fe
@0c8f bd2636c3
@0c90 bd0a3311
@0c91 bc5fc2ce
@0c92 ba75dc4d
@0c93 00000000
@0c94 00000000
@0c95 00000000
@0c96 00000000
@0c97 b8c85b96
@0c98 bc08d225
@0c99 bb53b4f6
@0c9a bc97065a
@0c9b be06db1f
@0c9c be62947b
@0c9d be9928f4
@0c9e bec1b7d8
@0c9f bef5e32e
@0ca0 bee6f01a
@0ca1 bef53f0b
@0ca2 bf218c1a
@0ca3 bf027687
@0ca4 beebed8b
@0ca5 bed5debe
@0ca6 bed5185c
@0ca7 bea8cf3d
@0ca8 be2a63e1
@0ca9 bda55ecb
@0caa bcc0f736
@0cab bd1e2759
@0cac bd38bd9c
@0cad bce84f92
@0cae b9f3bc06
@0caf ba30aeec
@0cb0 00000000
@0cb1 00000000
@0cb2 b6937174
@0cb3 b6fbaa2f
@0cb4 b9b78aef
@0cb5 bb292052
@0cb6 3a894d0a
@0cb7 be107d3e
@0cb8 be64ee00
@0cb9 beb1a1ce
@0cba be98ae3e
@0cbb beb27f89
@0cbc be9425f8
@0cbd be872574
@0cbe be1989d2
@0cbf be45384e
@0cc0 be584400
@0cc1 be00c715
@0cc2 be158cbd
@0cc3 be450f3b
@0cc4 bd99aec6
@0cc5 bca216dc
@0cc6 3d497668
@0cc7 3e11059a
@0cc8 3dda6472
@0cc9 3d3d2c6c
@0cca bd1e1cae
@0ccb bc61ea4e
@0ccc bb1fddec
@0ccd 00000000
@0cce 00000000
@0ccf bae0f84c
@0cd0 b9d5f922
@0cd1 3a501efa
@0cd2 3d39e3f1
@0cd3 bc3bf72c
@0cd4 be088397
@0cd5 be3c0825
@0cd6 bdc0f053
@0cd7 bdb2b098
@0cd8 bde2f05f
@0cd9 be18e4d7
@0cda be64923a
@0cdb bbe636fd
@0cdc bc96f016
@0cdd bcb986b4
@0cde 3dd589e9
@0cdf 3d2462ea
@0ce0 3d5e8800
@0ce1 bd1f3f22
@0ce2 bd958fc9
@0ce3 3cfc1e12
@0ce4 3e0879fa
@0ce5 bd969553
@0ce6 bdc9ec00
@0ce7 bd443aaf
@0ce8 ba5140b7
@0ce9 00000000
@0cea b42e3ba2
@0ceb bb4a2ee0
@0cec bc6e4c20
@0ced 3d44972d
@0cee 3e151a7d
@0cef 3d318c37
@0cf0 3c3724cd
@0cf1 3b266476
@0cf2 bd315e7a
@0cf3 bdd9dce2
@0cf4 be40d067
@0cf5 bd47506d
@0cf6 be8e0b93
@0cf7 be7ceeb1
@0cf8 be79d10a
@0cf9 be8fb47e
@0cfa bdd91455
@0cfb be648fb5
@0cfc bd468107
@0cfd 3caa3680
@0cfe bd2e7358
@0cff 3dcb730d
@0d00 3e8745ca
@0d01 be4725b7
@0d02 be221de8
@0d03 bcec55a2
@0d04 bb9f6389
@0d05 b6de5066
@0d06 b9a8f15c
@0d07 bb8698c3
@0d08 bc80872d
@0d09 3bd4919d
@0d0a 3e25e9d6
@0d0b 3c92c7a8
@0d0c 3ca4e824
@0d0d bd04af54
@0d0e 3de5ae67
@0d0f bdaafc98
@0d10 bc84c8b7
@0d11 be7ba8dd
@0d12 bd88857d
@0d13 be7ba7c8
@0d14 bea69ddb
@0d15 be7494de
@0d16 bdff4c51
@0d17 bdb6ca7a
@0d18 bd3cfeeb
@0d19 bb35ad12
@0d1a 3c3d73b6
@0d1b 3db214b6
@0d1c 3e19391c
@0d1d be38365e
@0d1e bdf99eb7
@0d1f bcc6bbb1
@0d20 bba4c416
@0d21 b7e1dc93
@0d22 bb770089
@0d23 3b13c963
@0d24 bd1a75db
@0d25 ba1a8c2f
@0d26 3e0efa8b
@0d27 bb65ee1f
@0d28 3d1edf0e
@0d29 be599c68
@0d2a bcb2a45d
@0d2b bdc5005f
@0d2c bd30ee82
@0d2d be552a40
@0d2e bd6b34bd
@0d2f be6b9c0c
@0d30 be1439d4
@0d31 be80b77a
@0d32 bd88178a
@0d33 bd783d9e
@0d34 bd29aeb8
@0d35 bdfbaa14
@0d36 bcfa4a49
@0d37 3da7111d
@0d38 bcb830ae
@0d39 bdc0702c
@0d3a bd22589a
@0d3b bd2a34bf
@0d3c bcc934dd
@0d3d b692a1f7
@0d3e bbf7e490
@0d3f bbcfe3f4
@0d40 bdfd0bed
@0d41 bd7e9359
@0d42 3d34b835
@0d43 bda65d55
@0d44 3cdbfe2a
@0d45 bdef67a2
@0d46 bd819c5c
@0d47 be2c7014
@0d48 bddd7a1f
@0d49 be1be607
@0d4a be038d08
@0d4b bebb42a7
@0d4c bd961ae8
@0d4d bd298734
@0d4e bd0309a9
@0d4f bdbc5b44
@0d50 bd174348
@0d51 bd0805c1
@0d52 bd57921a
@0d53 3d4c51d5
@0d54 bd41f771
@0d55 be96e8b2
@0d56 be2d4188
@0d57 bd83efce
@0d58 bc8c4e61
@0d59 b4fca8cd
@0d5a bbd79223
@0d5b bd4d6ad0
@0d5c be3b3cd9
@0d5d bdc0eabe
@0d5e be5427a0
@0d5f be026eef
@0d60 3ddc8060
@0d61 3c81e595
@0d62 3cb899e9
@0d63 bc9feece
@0d64 bd8a7b79
@0d65 3d1c82b0
@0d66 be350abd
@0d67 beba6032
@0d68 bd5547b9
@0d69 be94a509
@0d6a 3d9ec636
@0d6b bc6bf9c7
@0d6c bcc90ccf
@0d6d bca3905d
@0d6e bdda7817
@0d6f 3cb9d335
@0d70 be391627
@0d71 be547bc6
@0d72 be2ee1db
@0d73 bd4f3ce6
@0d74 bb92c377
@0d75 b87ca8cd
@0d76 bb3eadce
@0d77 bd859905
@0d78 bdf790b8
@0d79 be5fa56e
@0d7a be362957
@0d7b bcafd331
@0d7c bd50c1ba
@0d7d bd338d78
@0d7e 3dd8d003
@0d7f 3e41ff7d
@0d80 bc2270fb
@0d81 3e39abed
@0d82 beccb96c
@0d83 bedb7905
@0d84 3dd2bda9
@0d85 3e1d17ad
@0d86 3d108dd4
@0d87 bdac5af7
@0d88 3e0c2f77
@0d89 be07c4d8
@0d8a bc6458f0
@0d8b bde229bb
@0d8c be776784
@0d8d be8e6579
@0d8e be32def7
@0d8f bc8a957b
@0d90 bb0a035d
@0d91 00000000
@0d92 bd2b5874
@0d93 bdb3c0b3
@0d94 be4e4332
@0d95 be9c1639
@0d96 be1939af
@0d97 bd734147
@0d98 bd8e72bf
@0d99 3dee53e4
@0d9a bc93f929
@0d9b 3e0f0a4b
@0d9c 3e798023
@0d9d 3edbf0fe
@0d9e bdab5e2f
@0d9f be7148e1
@0da0 3e4e51cb
@0da1 3e21885f
@0da2 bd33904c
@0da3 bb696c8e
@0da4 bd5876e7
@0da5 bd8de8a1
@0da6 3d49d1ff
@0da7 bdd68a50
@0da8 be9b3016
@0da9 be19f7ff
@0daa bdcd8a50
@0dab bd227ab4
@0dac bc3a20d9
@0dad b7090d5b
@0dae bd257139
@0daf bd91db5b
@0db0 be226f29
@0db1 be17a0ae
@0db2 3d073c04
@0db3 3da9b5f2
@0db4 3dae50c7
@0db5 3e2e9c91
@0db6 3e51785f
@0db7 3e2a1e67
@0db8 3e9bffb0
@0db9 3e39dd25
@0dba be79a50b
@0dbb be135fc7
@0dbc 3de8c1f1
@0dbd bd7de606
@0dbe 3e38128e
@0dbf bd85502e
@0dc0 bd6acae8
@0dc1 3dd3910e
@0dc2 3dfa209f
@0dc3 bc850c8d
@0dc4 be120857
@0dc5 be6183fa
@0dc6 bd2bac32
@0dc7 bcbdf3e3
@0dc8 bd419fca
@0dc9 b88a35f7
@0dca bca6e199
@0dcb bd38800e
@0dcc bd39a344
@0dcd 3e4797fb
@0dce 3e86a66b
@0dcf 3e0251c2
@0dd0 3e91a412
@0dd1 3dc377d4
@0dd2 3df1daee
@0dd3 3c8552d6
@0dd4 3e5cbcd4
@0dd5 3e42b369
@0dd6 be4f5751
@0dd7 bdc2cfe7
@0dd8 3dc3ca36
@0dd9 3decdad4
@0dda 3e8fb25e
@0ddb 3d9fdb43
@0ddc 3e91bd6c
@0ddd 3d1d70c5
@0dde 3d8fff64
@0ddf 3d5a8e4d
@0de0 bdf9108e
@0de1 be5b55eb
@0de2 bdc34df0
@0de3 bd8e7289
@0de4 bbac3993
@0de5 b8202c2b
@0de6 384f3a9b
@0de7 bbe4e0e9
@0de8 bceb7b25
@0de9 3dcb31a2
@0dea 3cc02d3e
@0deb 3cdf8cc9
@0dec 3dbe70de
@0ded bce8c38f
@0dee 3e5a745c
@0def 3ceefd88
@0df0 3e423ae1
@0df1 3e1fbaeb
@0df2 be5faa54
@0df3 3c8e10d2
@0df4 3e13f465
@0df5 3e29e887
@0df6 3dd97763
@0df7 bdceb774
@0df8 3de96979
@0df9 bd3bac40
@0dfa bdd6af78
@0dfb 3e19f61a
@0dfc 3ce4d8d7
@0dfd be863cf3
@0dfe be24c93b
@0dff bc44200f
@0e00 bc2a741a
@0e01 b8c7095c
@0e02 b77eba2f
@0e03 bca18bc4
@0e04 be348a15
@0e05 be94a72b
@0e06 bdc12b0b
@0e07 bc9d70fa
@0e08 3e526c93
@0e09 3e7091aa
@0e0a 3def6322
@0e0b 3ca79121
@0e0c bcb192ae
@0e0d 3ddb4cf6
@0e0e 3c09e5c7
@0e0f bc71c1f2
@0e10 3df6f4f4
@0e11 3da70c6d
@0e12 3dfbbfd4
@0e13 3d962738
@0e14 3d9611b4
@0e15 3e246d36
@0e16 3da43848
@0e17 3c8f5a74
@0e18 bd96f53c
@0e19 be611e7e
@0e1a bead6179
@0e1b bdf0c015
@0e1c bbbecf68
@0e1d 00000000
@0e1e b756da35
@0e1f bd0f9df9
@0e20 be8062c7
@0e21 be7240e5
@0e22 b95de090
@0e23 bd5b634e
@0e24 3da82305
@0e25 3ccb767b
@0e26 3ddca0c4
@0e27 bd496751
@0e28 bdcf9adc
@0e29 3c7c1c82
@0e2a 3e265882
@0e2b 3e409376
@0e2c 3da244f0
@0e2d 3e44cd61
@0e2e 3de94fbf
@0e2f 3e3f3f0c
@0e30 bdec3772
@0e31 bdb735b5
@0e32 bc01d313
@0e33 be08c60b
@0e34 be07a316
@0e35 be6b7226
@0e36 be8efb77
@0e37 bda5dbf8
@0e38 bbe71c4b
@0e39 b97701e8
@0e3a b7082a92
@0e3b bd1006dd
@0e3c be3c890d
@0e3d be1a1b31
@0e3e 3d33f38a
@0e3f bda332cf
@0e40 bbbcaa7a
@0e41 3d480970
@0e42 3e4b8625
@0e43 be5d1234
@0e44 be625d87
@0e45 3e3ef102
@0e46 3e359095
@0e47 3e3febbb
@0e48 bcdff1c8
@0e49 bb5082e9
@0e4a be283d94
@0e4b bd44459b
@0e4c 3dbc59d5
@0e4d 3e177512
@0e4e 3e2198a3
@0e4f bded9871
@0e50 bdccf37c
@0e51 be164e89
@0e52 be3898d6
@0e53 bc07f2f5
@0e54 bacf1cd6
@0e55 00000000
@0e56 b83b5e37
@0e57 bc638486
@0e58 bd0881e9
@0e59 bcb5e111
@0e5a 3e0c714a
@0e5b 3cbabf42
@0e5c be10c25a
@0e5d be49c5d0
@0e5e bdf19dc2
@0e5f be2fdccc
@0e60 bda2323e
@0e61 be87de07
@0e62 bd92a198
@0e63 3dc8cc12
@0e64 bbcc462a
@0e65 bc9bf68f
@0e66 be19cf38
@0e67 be3b0620
@0e68 be4e9727
@0e69 be1dad0d
@0e6a bcd0a1c3
@0e6b beb6c9de
@0e6c be650783
@0e6d be203c19
@0e6e bda5961b
@0e6f bb640c9c
@0e70 b7cc8878
@0e71 00000000
@0e72 b840247b
@0e73 3c031113
@0e74 bbec1ef1
@0e75 bd148be6
@0e76 bc8aac71
@0e77 bd22a53a
@0e78 be200197
@0e79 be923e2c
@0e7a be567886
@0e7b be71c8dd
@0e7c 3bbec5ec
@0e7d bcad9297
@0e7e be917b31
@0e7f bd65c0cf
@0e80 bd17f051
@0e81 3c8bda90
@0e82 3ce44089
@0e83 bd06f1ab
@0e84 be5be7b5
@0e85 be56abe5
@0e86 bdb2dbf2
@0e87 be722244
@0e88 be52acea
@0e89 bdc1412f
@0e8a bd020745
@0e8b ba714718
@0e8c b9cc04e3
@0e8d b65a145c
@0e8e b81f9ffe
@0e8f bb1a7e49
@0e90 bceb8622
@0e91 bd3d1a47
@0e92 bba64eb8
@0e93 be8436e5
@0e94 be8faca4
@0e95 bcff98ca
@0e96 bda2fc5b
@0e97 bddb5bb1
@0e98 bda1fb92
@0e99 bded3f28
@0e9a bdabec0a
@0e9b bd177b80
@0e9c 3d120384
@0e9d bda696d5
@0e9e 3d9ef7b0
@0e9f bc4d242b
@0ea0 3d6d7738
@0ea1 3db46ac9
@0ea2 3d32248f
@0ea3 bd334bf2
@0ea4 bda855f6
@0ea5 bd9bc013
@0ea6 bc52c026
@0ea7 ba59fe4f
@0ea8 b5d65181
@0ea9 b65343ba
@0eaa b6836407
@0eab ba1f32df
@0eac bd06492c
@0ead bd8aab2f
@0eae bde717db
@0eaf be4e12e8
@0eb0 be06a6a6
@0eb1 bd5ce0c2
@0eb2 bdf85680
@0eb3 bd85b26b
@0eb4 bdafd361
@0eb5 bdbf12d0
@0eb6 3c22bbfb
@0eb7 be448fc2
@0eb8 38d57cbf
@0eb9 bd1e0824
@0eba 3aa8599b
@0ebb 3d1a3586
@0ebc 3e338ddf
@0ebd 3d9dd9ab
@0ebe 3e2d1c32
@0ebf 3d9d8115
@0ec0 bc1290fa
@0ec1 bd73b9bf
@0ec2 bcfcc1fe
@0ec3 b8fa3e4d
@0ec4 b645d515
@0ec5 00000000
@0ec6 00000000
@0ec7 b9a4f089
@0ec8 bc94b26e
@0ec9 bd3c6dc4
@0eca bd88d5aa
@0ecb bc729746
@0ecc bc272ace
@0ecd bbcabf4a
@0ece bcc78daf
@0ecf bdf26c99
@0ed0 bd88d2bd
@0ed1 be060608
@0ed2 bda9c9bc
@0ed3 bc8a0504
@0ed4 bdac24fb
@0ed5 3d8d8b16
@0ed6 3d2cafa1
@0ed7 3ded6871
@0ed8 3c1dbf7a
@0ed9 3d9e617a
@0eda bb389483
@0edb bdbdee0f
@0edc bda506fe
@0edd bd72166e
@0ede bbe70e54
@0edf b8f39320
@0ee0 00000000
@0ee1 00000000
@0ee2 00000000
@0ee3 b8c34032
@0ee4 bb3c92cb
@0ee5 bc5e1c0a
@0ee6 3c84c14a
@0ee7 3dd7642c
@0ee8 bc6836f7
@0ee9 3c132619
@0eea 3b9564b9
@0eeb bd11b428
@0eec 3df66bb2
@0eed bd23dab8
@0eee bc471dfc
@0eef bd8132cf
@0ef0 be091e4b
@0ef1 3c3a6691
@0ef2 be25d4f3
@0ef3 bdb9bee8
@0ef4 bdeb775c
@0ef5 be597079
@0ef6 be42b7b0
@0ef7 be109b45
@0ef8 bdba182d
@0ef9 bd08659f
@0efa 3c35ca1e
@0efb b8bab7ee
@0efc 00000000
@0efd 00000000
@0efe 00000000
@0eff b5306f82
@0f00 b8d74037
@0f01 bb94397c
@0f02 bc9fdab2
@0f03 bd45aa66
@0f04 be394dd8
@0f05 be93cdb5
@0f06 be896285
@0f07 be2306a6
@0f08 bea193da
@0f09 bec46e9c
@0f0a be98bba5
@0f0b bea70820
@0f0c be78799f
@0f0d bed33ee3
@0f0e bee412bb
@0f0f bec8eec6
@0f10 bf039c78
@0f11 beadd832
@0f12 be8acf8e
@0f13 bde3e721
@0f14 bc9f90e5
@0f15 bc3ce56b
@0f16 b8a3f57a
@0f17 b8c3ff31
@0f18 00000000
@0f19 00000000
@0f1a 00000000
@0f1b 00000000
@0f1c b8b314fc
@0f1d bac920b3
@0f1e bc553b18
@0f1f bdb1ed3e
@0f20 be30785b
@0f21 be72d209
@0f22 beb7add7
@0f23 bed1f2a3
@0f24 beed3b23
@0f25 bee61d25
@0f26 bf04c4e1
@0f27 bf0efc47
@0f28 bf00bc95
@0f29 befedb13
@0f2a bef05832
@0f2b bec0e6e4
@0f2c be980394
@0f2d be5b31d9
@0f2e be361187
@0f2f bdb633d2
@0f30 bcab1bca
@0f31 3840d4d4
@0f32 00000000
@0f33 00000000
@0f34 00000000
@0f35 00000000
@0f36 00000000
@0f37 00000000
@0f38 00000000
@0f39 b7092560
@0f3a ba0d1819
@0f3b bae8e9f4
@0f3c bc8f5426
@0f3d bd119d30
@0f3e bd24e966
@0f3f bd40e7de
@0f40 bce0882d
@0f41 bd6226fd
@0f42 bd0e403a
@0f43 bdb64cfa
@0f44 bd4a3081
@0f45 bd079e4c
@0f46 bcfc6144
@0f47 bd0eb77d
@0f48 bcf34200
@0f49 bc51f6c3
@0f4a bd13ef43
@0f4b bcd3ec75
@0f4c ba98a899
@0f4d 00000000
@0f4e 00000000
@0f4f 00000000
@0f50 bb05cf3e
@0f51 00000000
@0f52 00000000
@0f53 00000000
@0f54 00000000
@0f55 00000000
@0f56 00000000
@0f57 00000000
@0f58 00000000
@0f59 00000000
@0f5a 00000000
@0f5b 00000000
@0f5c 00000000
@0f5d b8e93924
@0f5e b984efd6
@0f5f b73b90f1
@0f60 b4fa1696
@0f61 00000000
@0f62 00000000
@0f63 00000000
@0f64 00000000
@0f65 00000000
@0f66 00000000
@0f67 00000000
@0f68 00000000
@0f69 00000000
@0f6a 00000000
@0f6b 00000000
@0f6c 00000000
@0f6d 00000000
@0f6e 00000000
@0f6f 00000000
@0f70 00000000
@0f71 00000000
@0f72 b4cdc3aa
@0f73 b8f53fbe
@0f74 b96b68aa
@0f75 b9e06d08
@0f76 b972e756
@0f77 b98e20a8
@0f78 b9f6ede2
@0f79 baa4edd6
@0f7a bb1032cb
@0f7b bb404b95
@0f7c bb5a7dc2
@0f7d bb570bd0
@0f7e ba9a27a7
@0f7f ba64c9a1
@0f80 baddd97b
@0f81 bac826d3
@0f82 b9ce9699
@0f83 b893762d
@0f84 b862c250
@0f85 00000000
@0f86 00000000
@0f87 00000000
@0f88 00000000
@0f89 00000000
@0f8a 00000000
@0f8b b6cffa27
@0f8c b5e30934
@0f8d b84ea585
@0f8e b7f48251
@0f8f b9c5d5a8
@0f90 bac4f07e
@0f91 bb89f32d
@0f92 bc733a3a
@0f93 bd0126ff
@0f94 bd79d09c
@0f95 bd9492ee
@0f96 bde39df7
@0f97 be1a5cff
@0f98 bdfff3fd
@0f99 bdbca854
@0f9a bd9c0d09
@0f9b bda878b8
@0f9c bd82f2d1
@0f9d bd82631c
@0f9e bd4a6ec0
@0f9f bcc8f6cf
@0fa0 bb19a40f
@0fa1 bb7ed727
@0fa2 bab2bd86
@0fa3 00000000
@0fa4 00000000
@0fa5 00000000
@0fa6 00000000
@0fa7 b76e2ea6
@0fa8 b920238e
@0fa9 b9cf10ef
@0faa bcb669f0
@0fab bc80bb1f
@0fac bcddfdbc
@0fad bd253502
@0fae bdb56ecc
@0faf bdee3492
@0fb0 be27b6a8
@0fb1 bdffc37a
@0fb2 be2448c6
@0fb3 be238ad3
@0fb4 be41507f
@0fb5 be5ae181
@0fb6 be533d28
@0fb7 be092f3b
@0fb8 bd0981ae
@0fb9 bd8601bb
@0fba bd548b72
@0fbb bd361e63
@0fbc bd7d45d4
@0fbd bd254e35
@0fbe bc585d15
@0fbf ba706979
@0fc0 00000000
@0fc1 00000000
@0fc2 b863478a
@0fc3 b8db1d75
@0fc4 bbac2754
@0fc5 bcdc2fd3
@0fc6 bdd518f8
@0fc7 bdd31204
@0fc8 bdc75fb9
@0fc9 be48bd2f
@0fca be6b692b
@0fcb be1d6cf8
@0fcc bd5a31eb
@0fcd bd976979
@0fce be32b4e0
@0fcf bb9ad924
@0fd0 3d5f91ff
@0fd1 3c390a38
@0fd2 bde3e679
@0fd3 3cf4d74e
@0fd4 bd4b1258
@0fd5 bdc033dd
@0fd6 3d5e05a8
@0fd7 3c955241
@0fd8 3d9b904b
@0fd9 3d887243
@0fda 3c00d1e0
@0fdb 3be80bff
@0fdc bb30123e
@0fdd 00000000
@0fde 00000000
@0fdf bb80dc77
@0fe0 bca83ade
@0fe1 bdac8e34
@0fe2 be11f46f
@0fe3 be4a7d0d
@0fe4 bde7a0d9
@0fe5 bd64f766
@0fe6 bd109e03
@0fe7 bafe303e
@0fe8 3c323b66
@0fe9 bd5b0f4d
@0fea bde788ca
@0feb bca3fca3
@0fec bdda69c8
@0fed bd668c39
@0fee 3da62522
@0fef 3d6077d9
@0ff0 bd75e448
@0ff1 3e117f9e
@0ff2 3d5f147b
@0ff3 3e31bee9
@0ff4 3d9846ab
@0ff5 3d8af860
@0ff6 3c9e1177
@0ff7 3c88c6ca
@0ff8 bb2efb46
@0ff9 00000000
@0ffa b518e9e9
@0ffb 3acc3ab3
@0ffc bd5cace4
@0ffd bdd182b5
@0ffe bde71e33
@0fff be0ff53b
@1000 bd15e417
@1001 be195c9a
@1002 bc02896d
@1003 bda5d16f
@1004 bd175115
@1005 3d0feaaf
@1006 bd9c1e22
@1007 3dc78100
@1008 bd9f100f
@1009 bda3f215
@100a 3aa9ad15
@100b 3c035536
@100c 3dc00e22
@100d 3dc45223
@100e bd89549c
@100f 3e05a8a8
@1010 3e29cace
@1011 3ea35836
@1012 3e36361e
@1013 3da0b77c
@1014 3bf69e98
@1015 b6343b50
@1016 ba16ce40
@1017 bc195c42
@1018 bdb13ed7
@1019 be7638a5
@101a be86d416
@101b bdc478b3
@101c bbc01631
@101d 3d0538bf
@101e bdaa7187
@101f 3e175510
@1020 3dc221a9
@1021 3d4bff8a
@1022 bdc91379
@1023 3db055b1
@1024 be045051
@1025 3c565479
@1026 3d0d0cb7
@1027 bce99155
@1028 bd3a1f0f
@1029 bc7f46ea
@102a 3dc54801
@102b 3d98410c
@102c 3e5fb3ba
@102d 3ed597ae
@102e 3ebb6746
@102f bba3958e
@1030 3c2b1762
@1031 b7371b94
@1032 ba94db97
@1033 bca968b0
@1034 bdfb91e5
@1035 bea6b5a5
@1036 be353c2c
@1037 bd9d6c8c
@1038 bd891bcc
@1039 3dac72ed
@103a 3b0e48e2
@103b bbc1cb6b
@103c 3d18b995
@103d bd57fea7
@103e bdb4b1d5
@103f bcd5104e
@1040 bdfba1d0
@1041 bda85610
@1042 bd4831e4
@1043 3d3da007
@1044 3d961bb2
@1045 3ddd50e6
@1046 3e10d0a9
@1047 bce75018
@1048 3dd69676
@1049 3ec4ca5d
@104a 3eba65dd
@104b 3d7cb424
@104c bb452084
@104d b5edc0a1
@104e bb434827
@104f bc97ff5f
@1050 bdfe1101
@1051 be878b9f
@1052 bd1c08d5
@1053 3d381bb6
@1054 3cf6e786
@1055 3d4231d1
@1056 3d925098
@1057 3c15e5d8
@1058 3e425e45
@1059 3cede0e8
@105a bd8749dd
@105b be03afb3
@105c be438fd8
@105d be3ac078
@105e bda1a52b
@105f bdb035d8
@1060 bdaf7d63
@1061 bcb09304
@1062 3e487b03
@1063 3dbfdf9e
@1064 3da6e5f6
@1065 3f196b45
@1066 3f24c36b
@1067 3e1baf39
@1068 3bc1e7cd
@1069 b6df6f9a
@106a bbb491de
@106b bc9bcc67
@106c bdd8906b
@106d be065156
@106e bdbc0266
@106f 3cfcada5
@1070 3da697bd
@1071 3e151a5b
@1072 3e1a70d8
@1073 3e1c4b91
@1074 3e6a1654
@1075 3e3188ea
@1076 3e071cfb
@1077 bbe8e06f
@1078 bd8a8e0b
@1079 be364f58
@107a be90309a
@107b be39c389
@107c be8b919f
@107d be87e734
@107e bcb8d5dd
@107f 3de93f5b
@1080 3ec19b33
@1081 3f5d44ff
@1082 3f8bf81e
@1083 3e8cb477
@1084 3bdd1df7
@1085 ba5f6f9a
@1086 bb928034
@1087 bc819ba1
@1088 bdbc7220
@1089 bdb983e9
@108a bddeb3b0
@108b 3e38e82d
@108c 3c9ef51d
@108d 3d81d8c6
@108e 3db7f635
@108f 3d62f33a
@1090 3e11ef0a
@1091 3debae5b
@1092 3e15b418
@1093 bdc125c4
@1094 bd85701e
@1095 bc656bfe
@1096 bdf0697f
@1097 bd5d55cc
@1098 be4b215e
@1099 bf0fdfbe
@109a bf2212c1
@109b bf16dcb9
@109c bebda909
@109d 3c9e2e9b
@109e 3f1510c7
@109f 3e2814c7
@10a0 3b84d2d1
@10a1 00000000
@10a2 bb96b6cd
@10a3 bc464459
@10a4 bd147d3f
@10a5 bcef9472
@10a6 bd0f4b64
@10a7 3e3f4f6c
@10a8 3d5440d5
@10a9 3c918e67
@10aa bd8cfb88
@10ab 3e1ed07f
@10ac 3de9cea7
@10ad 3d9d2de9
@10ae 3e3d6975
@10af bd9f5019
@10b0 3d952adc
@10b1 bdd62965
@10b2 be8af5a4
@10b3 be44d991
@10b4 be04391e
@10b5 be3d00d8
@10b6 befc0afb
@10b7 bf6b48b0
@10b8 bf97143d
@10b9 bf6a7685
@10ba bc8cef2d
@10bb 3d6a0bd5
@10bc ba8da1ce
@10bd b7cd8ddf
@10be bb93ad60
@10bf bc2dc5e1
@10c0 bbc05309
@10c1 3d908f98
@10c2 3dd62551
@10c3 3d78c624
@10c4 3d4f13d0
@10c5 3e2a1b49
@10c6 3c30af09
@10c7 bd44df38
@10c8 3dd238bb
@10c9 3e242862
@10ca 3d1ce8d5
@10cb be25cb58
@10cc bdb1b2bf
@10cd be1fe090
@10ce be4ecd57
@10cf bcb788e1
@10d0 3c7c20c0
@10d1 3dc81944
@10d2 b8a8a904
@10d3 beafd6e3
@10d4 bf67ce01
@10d5 bf411075
@10d6 bdd7d9f7
@10d7 3b494f38
@10d8 ba220abf
@10d9 3bfcaa56
@10da bb356fe7
@10db bbd80696
@10dc 3cb7b1e1
@10dd 3dc7676a
@10de b9d970be
@10df bdd38de4
@10e0 bda31f81
@10e1 bd03d569
@10e2 3d8e0c90
@10e3 3e72c594
@10e4 bd800bbc
@10e5 3e1b9956
@10e6 3d0e209d
@10e7 be0ed378
@10e8 bca96e92
@10e9 bdb7a02c
@10ea bdb77194
@10eb bd7f8696
@10ec be2199f4
@10ed bd8d935a
@10ee 3ca92e7d
@10ef 3dd2d878
@10f0 bea4901c
@10f1 be9b9682
@10f2 bdc9f3ad
@10f3 bb2f4cab
@10f4 b84c1c54
@10f5 3b169bab
@10f6 b9a1eb21
@10f7 bb77bfd5
@10f8 3c6729f9
@10f9 3c9c81cc
@10fa be1410db
@10fb be1beaf5
@10fc be2c87a4
@10fd 3c85edfe
@10fe 3df28b33
@10ff 3d0ac720
@1100 3d3b0136
@1101 3e0b02b1
@1102 be489aed
@1103 be3066fb
@1104 bdaac7f1
@1105 bdb96a23
@1106 be5912b8
@1107 3c82a47a
@1108 bcef9020
@1109 bd946255
@110a bdcfb92c
@110b bd414a03
@110c 3dbe41ae
@110d bc1c70a5
@110e bdbcf16c
@110f bc93e96b
@1110 b9eea774
@1111 baa9c323
@1112 b9682d52
@1113 bbca768e
@1114 3ba23b5c
@1115 3d7fe2e9
@1116 bd974e7b
@1117 be1d047f
@1118 be7c525f
@1119 be12e605
@111a bdf88ece
@111b bd75de8a
@111c bd0b1abc
@111d 3d0d2d1d
@111e bc2cd5b9
@111f be1ce0e4
@1120 bdd163e5
@1121 be5fdd5b
@1122 bdb1ed19
@1123 bddb4c17
@1124 bbb9d44d
@1125 3e01c6bb
@1126 bdb12fa1
@1127 bdc9be4d
@1128 3e0a609a
@1129 3db9b069
@112a bde3d966
@112b bd4ece45
@112c b9087cd7
@112d 00000000
@112e b936cbaa
@112f bc8d93ad
@1130 bbf74f66
@1131 3d0cb57f
@1132 3bca2013
@1133 3ea29277
@1134 be0b820c
@1135 be80d2ea
@1136 be564b47
@1137 be86d23e
@1138 be683ef6
@1139 be91b6ca
@113a be99697a
@113b be95be62
@113c be0445c7
@113d 3cc1b97e
@113e 3d609471
@113f 3dabad3b
@1140 bd850aed
@1141 bc7310aa
@1142 3d883c2d
@1143 bdc7354b
@1144 3e0e49dd
@1145 3e113e45
@1146 be06448f
@1147 bd50bda9
@1148 bb307bab
@1149 b86a492e
@114a ba73dde9
@114b bcafb9c6
@114c bc149c7f
@114d 3dca4965
@114e 3a872f00
@114f 3e9c1921
@1150 3dbcf43a
@1151 bde3ecbe
@1152 be197087
@1153 bea9c203
@1154 bea05288
@1155 bd071915
@1156 3c8f20e3
@1157 3d78bda3
@1158 3d308769
@1159 3c5f66f7
@115a 3d5cf5e2
@115b bc950255
@115c bc3d3d7c
@115d 3d82a282
@115e 3cc7362c
@115f 3c53602c
@1160 3d8a0f06
@1161 3da6b80f
@1162 bdd90bfc
@1163 bd5d4b67
@1164 bc65ff40
@1165 00000000
@1166 bb1ff55a
@1167 3ca3bbd7
@1168 bd0770d7
@1169 3d9742dd
@116a bddfbf03
@116b 3cd77dd9
@116c 3d53d8c6
@116d 3dffe8ec
@116e 3d16a158
@116f 3d6af69b
@1170 3e0213ba
@1171 3dc842ac
@1172 3a693cd4
@1173 bd0d3332
@1174 3d252653
@1175 bd9bd650
@1176 bdd63a52
@1177 3d0bfb93
@1178 3b7b050c
@1179 3b145780
@117a bc3e495f
@117b 3d6bd864
@117c 3d310ba6
@117d bb6e59db
@117e bdcfa617
@117f bd7289d7
@1180 bc0d3d4f
@1181 00000000
@1182 ba1a6562
@1183 bb8c5e7b
@1184 bd6fb65f
@1185 3d0360fd
@1186 3d6874ab
@1187 bcd4a093
@1188 bd415ef1
@1189 3d4d33b8
@118a 3d4120bd
@118b bc62684b
@118c 3e37e57c
@118d bd7dff0c
@118e 3d49b3df
@118f bdf28ef7
@1190 bda50bd8
@1191 3d88c336
@1192 3c78a597
@1193 3d57043b
@1194 3d0fef00
@1195 bd0c25f5
@1196 bdaa6ec9
@1197 3e4018df
@1198 3dc1d540
@1199 bcd08d4d
@119a bd4e8af0
@119b bc865e7f
@119c 38a02c2b
@119d b6892fe7
@119e ba2773e1
@119f bd03c145
@11a0 bdac4d77
@11a1 3bd8e502
@11a2 bc0e925d
@11a3 3d9a7aa3
@11a4 3d78aea0
@11a5 3dfb79f0
@11a6 3e00ed88
@11a7 3d628b68
@11a8 3e033cde
@11a9 bdb75e5a
@11aa bbf4e79f
@11ab 3cf25375
@11ac bcb5ab5b
@11ad bd5962cc
@11ae 3ca2abf2
@11af bd9e65e8
@11b0 3c8b5d91
@11b1 3e66a0a9
@11b2 3e3accae
@11b3 3e1bb800
@11b4 3e0d1f5a
@11b5 bc27a8d3
@11b6 bce9d2a7
@11b7 bb4b0983
@11b8 b6940075
@11b9 b684e668
@11ba b8f8daaa
@11bb bcc9dfba
@11bc bda2fa34
@11bd 3ca012ab
@11be 3b8079f3
@11bf bd173730
@11c0 bd2713ac
@11c1 bd8c17a0
@11c2 bd20e09e
@11c3 bda5c6d5
@11c4 3db0dd1a
@11c5 3e0f2d7f
@11c6 3bf95c45
@11c7 3d883979
@11c8 bd69709e
@11c9 3e01dce6
@11ca bdc05320
@11cb 3e198cdc
@11cc 3db3562b
@11cd 3d861c2c
@11ce 3a801454
@11cf 3e0d9b3b
@11d0 3e018139
@11d1 b99c707c
@11d2 bc462e73
@11d3 b7c28a15
@11d4 b7089df6
@11d5 00000000
@11d6 00000000
@11d7 bb9de750
@11d8 bc61baae
@11d9 3d3004fa
@11da 3dfc8f04
@11db 3db09559
@11dc bdf7d910
@11dd 3cfe1bbd
@11de 3d19531d
@11df 3d62a75d
@11e0 3c37600f
@11e1 3db3fd34
@11e2 bd17eb8f
@11e3 3dbf9b5f
@11e4 bc49e766
@11e5 3cb9164f
@11e6 bd9a2f49
@11e7 be421edd
@11e8 bd2d6ef8
@11e9 3c85ceb5
@11ea bc233319
@11eb 3d948412
@11ec 3db477e8
@11ed 3d06acfa
@11ee bb5e7df0
@11ef b921eb39
@11f0 00000000
@11f1 00000000
@11f2 00000000
@11f3 bad92803
@11f4 3b1b6a66
@11f5 bcc8228e
@11f6 bd23184c
@11f7 bd4d78d7
@11f8 bc068853
@11f9 bc5757f4
@11fa 3e0bd02a
@11fb bba40b78
@11fc bcba3122
@11fd 3cc7fe1e
@11fe 3d27b7c9
@11ff 3d6684c4
@1200 bc5b091c
@1201 bd81be0e
@1202 3d85c660
@1203 3d82b8b0
@1204 3cf6b840
@1205 bc8c5ed9
@1206 bd9cd685
@1207 3cc2e36d
@1208 3cdced91
@1209 3d119063
@120a bc2ab85f
@120b ba512234
@120c 00000000
@120d 00000000
@120e 00000000
@120f b72294ca
@1210 3c2cc32d
@1211 3c491528
@1212 bcfd20fc
@1213 bd6ac017
@1214 bda2a729
@1215 bd4db8fc
@1216 bc669865
@1217 bcdd772c
@1218 3cb26d51
@1219 3cbf3b76
@121a ba39e6b9
@121b bdb03dd0
@121c 3c0c734b
@121d bcd1770d
@121e 3c84c9b4
@121f bd146112
@1220 bd9bcf07
@1221 bdd8efef
@1222 bddb951a
@1223 bc4ee5f4
@1224 3d216036
@1225 3d291e65
@1226 b75da87c
@1227 b7847c3e
@1228 00000000
@1229 00000000
@122a 00000000
@122b 00000000
@122c b7683ed3
@122d b94d4c9e
@122e bb841452
@122f bcda9230
@1230 bd718c96
@1231 bdd573c7
@1232 bde64786
@1233 bded67a6
@1234 bda71c1d
@1235 bdcd34c0
@1236 be0e8957
@1237 be1d2b83
@1238 bdee6661
@1239 bdc7a0f2
@123a be0dd9dd
@123b be039aa5
@123c bd7755c1
@123d bd1b70c7
@123e bd651f0b
@123f bcafc680
@1240 b9ffaed0
@1241 b4b2604c
@1242 00000000
@1243 00000000
@1244 00000000
@1245 00000000
@1246 00000000
@1247 00000000
@1248 00000000
@1249 b7554c74
@124a b98408ea
@124b ba17bf54
@124c bb78bf11
@124d bbc44fc0
@124e bb58bac7
@124f bc002244
@1250 bc3d5e2f
@1251 bcce0974
@1252 bd121c2e
@1253 bd59ac26
@1254 bd413924
@1255 bd140693
@1256 bce4596c
@1257 bd0137cb
@1258 bcafcdaf
@1259 bc7f2f34
@125a bcc183a2
@125b bc5c9084
@125c b99d0395
@125d 00000000
@125e 00000000
@125f 00000000
@1260 bd0b1f62
@1261 00000000
@1262 00000000
@1263 00000000
@1264 00000000
@1265 00000000
@1266 00000000
@1267 00000000
@1268 00000000
@1269 00000000
@126a 00000000
@126b 00000000
@126c 00000000
@126d 3b355e36
@126e 3bb561ef
@126f ba18fb3a
@1270 b7cbf9a2
@1271 00000000
@1272 00000000
@1273 00000000
@1274 00000000
@1275 00000000
@1276 00000000
@1277 00000000
@1278 00000000
@1279 00000000
@127a 00000000
@127b 00000000
@127c 00000000
@127d 00000000
@127e 00000000
@127f 00000000
@1280 00000000
@1281 00000000
@1282 37969c95
@1283 3b250515
@1284 3be80087
@1285 3cddedc7
@1286 3ce1e457
@1287 3ca641cb
@1288 3bb212ae
@1289 bc578027
@128a 3ca8edf9
@128b bd0c7f5e
@128c bda7f801
@128d bdd2fb51
@128e bc679f91
@128f 3c3832e4
@1290 3cfafbc8
@1291 3cc5fa02
@1292 3c5dcbff
@1293 3ade6dea
@1294 3a38036b
@1295 00000000
@1296 00000000
@1297 00000000
@1298 00000000
@1299 00000000
@129a 00000000
@129b 38a65157
@129c b7e4f9b6
@129d 39df64cf
@129e 397b93c9
@129f bb499722
@12a0 3c90148b
@12a1 3dcd712e
@12a2 3e684f57
@12a3 3e7505cd
@12a4 3c6ec463
@12a5 3d03ca6e
@12a6 3e3e0c90
@12a7 3d902087
@12a8 bd4d50de
@12a9 3c01e35a
@12aa 3e0033ad
@12ab 3e54147b
@12ac 3e52ee78
@12ad 3e1f8d20
@12ae 3e3cf5b8
@12af 3dc4510d
@12b0 3d8d36f5
@12b1 bcb7465c
@12b2 bd39b435
@12b3 00000000
@12b4 00000000
@12b5 00000000
@12b6 00000000
@12b7 39357d6c
@12b8 3c2a85f4
@12b9 3cdf0b87
@12ba 3cdc8e0b
@12bb 3c06a2b3
@12bc 3c56b064
@12bd 3d959c10
@12be bd83a3da
@12bf bd01d780
@12c0 bb08d3ed
@12c1 be09ad09
@12c2 3c9113ed
@12c3 bd344977
@12c4 3cfc733b
@12c5 3d851ef3
@12c6 bd4b4d4b
@12c7 3d3fd09a
@12c8 bcb4fe1d
@12c9 3d0814d8
@12ca 3d74c769
@12cb 3ca710c1
@12cc 3cc090f4
@12cd 3dc759ed
@12ce bd1e0bea
@12cf 3d0cb8ef
@12d0 00000000
@12d1 00000000
@12d2 b64b937a
@12d3 b73851a9
@12d4 3c2806a2
@12d5 3d1f1d28
@12d6 3bca9306
@12d7 bdbc1935
@12d8 bcb48fe6
@12d9 bb38637b
@12da be858d20
@12db bd6ecc2f
@12dc be60e074
@12dd be8cf695
@12de be565ac1
@12df be41f9a3
@12e0 be872ca1
@12e1 bdca6939
@12e2 bdbcbeec
@12e3 be15aefb
@12e4 bd61570c
@12e5 bd3127ee
@12e6 bde5810d
@12e7 bcec0672
@12e8 bb0abe7e
@12e9 be51bce4
@12ea bd38379b
@12eb 3bf8901a
@12ec 3c9e0331
@12ed 00000000
@12ee 00000000
@12ef 38d6026f
@12f0 bc07fc87
@12f1 3dd14492
@12f2 bd1ec74e
@12f3 bdf4e8f6
@12f4 be34f3c0
@12f5 3d900ac1
@12f6 be2c6098
@12f7 3e098649
@12f8 be952961
@12f9 3d4e1796
@12fa be8beb92
@12fb bd20af61
@12fc bd108845
@12fd bdae0cb4
@12fe be0052a8
@12ff 3df3751f
@1300 3d733af5
@1301 3e03cc0d
@1302 3d8a6f30
@1303 bd0713bc
@1304 3dbb8f2f
@1305 bdaea9d1
@1306 be1bea05
@1307 3d14930e
@1308 3ce80764
@1309 00000000
@130a b4a938ce
@130b 39915781
@130c bd6557cd
@130d 3c519a45
@130e bd888468
@130f bddb601c
@1310 bdf22a24
@1311 bd341399
@1312 3cacbcaf
@1313 be286152
@1314 bdb2a3a7
@1315 be3a710f
@1316 bd695e6e
@1317 be1e9b73
@1318 be8b6def
@1319 be402941
@131a bd84c06b
@131b be6f9f01
@131c be08f0a3
@131d bde0fef6
@131e 3cda1446
@131f bd8bb5c9
@1320 bd8c86a2
@1321 be56d186
@1322 bdfd0a21
@1323 3b3d4e6b
@1324 3cf8c5b3
@1325 b67e6bbb
@1326 b87c5e86
@1327 ba0cadb9
@1328 be2a7f98
@1329 bdb16639
@132a bd9fdc4a
@132b be4e267c
@132c bd216ca6
@132d bd964484
@132e bdfe2cfb
@132f bd7178d6
@1330 3d2c0d25
@1331 be1a544e
@1332 be3bf449
@1333 bdf30381
@1334 3d0e9046
@1335 be5e819f
@1336 be615228
@1337 be529383
@1338 be19a300
@1339 bdd4a739
@133a bdd3c09f
@133b bdb009c0
@133c be469a29
@133d be021fd4
@133e bdee20c7
@133f bb5cb4eb
@1340 3ba62b39
@1341 b7813d89
@1342 b96953c2
@1343 bbde95fd
@1344 be03cada
@1345 bdbd31bd
@1346 bdb7823c
@1347 bdf9d2e8
@1348 bd9c38a8
@1349 be4168ce
@134a be09bf69
@134b be19e5b9
@134c bdaee88f
@134d bcb89054
@134e bdd24013
@134f be7b0887
@1350 be44d9df
@1351 bdc44b18
@1352 be21fdec
@1353 bebf24b4
@1354 bef9deea
@1355 bf0c76cb
@1356 be932d5d
@1357 bec6a17b
@1358 bf12affd
@1359 bf03c2e5
@135a be969573
@135b bdc25952
@135c bd078ed0
@135d b627cf3a
@135e ba20ba80
@135f bc3d50df
@1360 be1f01ee
@1361 bd8ece06
@1362 bda85625
@1363 bd180980
@1364 3d0cba11
@1365 3bc2c6fc
@1366 bd4efec4
@1367 be21d59a
@1368 bddd0132
@1369 bda1e22a
@136a be1444c4
@136b be00e146
@136c be4a38fd
@136d be67697c
@136e beaaec00
@136f be97cdc4
@1370 be508bf9
@1371 be1a7765
@1372 be29c9c2
@1373 bdf81061
@1374 be82f2bd
@1375 bf021c2d
@1376 bec942e9
@1377 be528ef8
@1378 bc98ca17
@1379 b40ee11d
@137a ba042834
@137b bd198013
@137c be2f45b6
@137d bd9d87ba
@137e 3cf6b9fc
@137f bdaa40a0
@1380 bcd31a16
@1381 3de5ced0
@1382 bdbc32fd
@1383 bd4420ef
@1384 bdd2d3ff
@1385 be4fa3b6
@1386 3d4d309c
@1387 be6d146f
@1388 bdb3a0c6
@1389 be939593
@138a be558515
@138b be5a2be4
@138c be87dead
@138d 3ae111dd
@138e be4f8655
@138f be56b169
@1390 bd91e753
@1391 be8082eb
@1392 bedb426b
@1393 be504a99
@1394 bd1eb393
@1395 b78ee11d
@1396 b987389c
@1397 bb06c3e7
@1398 be139c8b
@1399 bd965c82
@139a 3d8bc642
@139b bc64918c
@139c bdc65501
@139d 3c1d7551
@139e 3d234d72
@139f bc64f3a3
@13a0 bde42590
@13a1 bc1b0984
@13a2 3da5d647
@13a3 bdee075d
@13a4 be86c6b3
@13a5 bdb5bc7d
@13a6 be4e2391
@13a7 bdaa52d1
@13a8 bdafa8ce
@13a9 bde32a9d
@13aa bdddcd7c
@13ab be262616
@13ac 3e7c9b5b
@13ad bc59c093
@13ae bed2e8a9
@13af be721dda
@13b0 bcd23b0e
@13b1 00000000
@13b2 ba71fdb1
@13b3 bb913ee3
@13b4 be425b33
@13b5 be7e67b8
@13b6 be2f31ce
@13b7 3da7e517
@13b8 bdf2d5b4
@13b9 3d49cd09
@13ba 3de62d20
@13bb bdceabd1
@13bc 3df7633f
@13bd 3e05587a
@13be 3d5f9e7e
@13bf be06ed41
@13c0 bda995b2
@13c1 bd3a63ee
@13c2 3d78a97d
@13c3 3c879732
@13c4 be2af2a1
@13c5 bdf97ac4
@13c6 3e321037
@13c7 3d7d55d2
@13c8 3eab61ff
@13c9 3d710f7b
@13ca becfb992
@13cb be773c04
@13cc bc86c079
@13cd b8a27acb
@13ce bb0fe755
@13cf bb01b2fb
@13d0 be0858ac
@13d1 be91edd6
@13d2 bd667643
@13d3 3eaf5897
@13d4 3d437f1a
@13d5 bd83c99f
@13d6 3dc943a6
@13d7 3e36a8ae
@13d8 3d225c3b
@13d9 3db6bf90
@13da bd3c2283
@13db be192ffa
@13dc 3e147ef8
@13dd bd8b5094
@13de be32a86e
@13df 3d039c89
@13e0 bca3b4a2
@13e1 b9cdc4b2
@13e2 3e27938e
@13e3 bbf41bb4
@13e4 3eb31932
@13e5 bd43aba2
@13e6 beed3589
@13e7 be765132
@13e8 bd8f90c4
@13e9 ba22dfaf
@13ea b9034889
@13eb b9d3b3b6
@13ec bce12786
@13ed be7959c0
@13ee bc81c468
@13ef 3e99ee9d
@13f0 3e148af9
@13f1 3e1337b8
@13f2 3ccfc243
@13f3 3df2c072
@13f4 3e4e698f
@13f5 3d377671
@13f6 bdb8d0be
@13f7 bb9fc34e
@13f8 3d588a79
@13f9 3def263e
@13fa be23e529
@13fb bcf41649
@13fc bd14cdcb
@13fd bd2be76e
@13fe bc1575ce
@13ff 3dc95507
@1400 3e257cda
@1401 bdee1bae
@1402 be139e7a
@1403 be71b151
@1404 bc020fe0
@1405 b95620ba
@1406 b7afbaac
@1407 b9d2abf8
@1408 bd51f279
@1409 be8b113a
@140a be8cb400
@140b bd4a9c6f
@140c 3e7da2c8
@140d 3d5c06b0
@140e 3dbb986c
@140f 3d3b3d2e
@1410 3d4b43ba
@1411 3e3889f2
@1412 bdae121f
@1413 3d7d6802
@1414 3cd48e8e
@1415 bd410697
@1416 bd566719
@1417 bd97c0a3
@1418 be20745b
@1419 3e6ce8bb
@141a 3e032ff2
@141b 3d9df983
@141c bdcaaa6b
@141d be57edf9
@141e bdbbef9d
@141f be9407a6
@1420 bc4ebe51
@1421 b693768b
@1422 b81e7898
@1423 bab03e3a
@1424 bd6345a5
@1425 be9391dd
@1426 be57c6cc
@1427 3cfc69e2
@1428 3d9de94e
@1429 bd84a1eb
@142a 3de7bcdf
@142b 3d28dc9b
@142c 3e469fa0
@142d be029d59
@142e bdff0db3
@142f bd6d1f9a
@1430 3d3c1c8e
@1431 3c45eb12
@1432 be2500bd
@1433 3d34d339
@1434 3de01086
@1435 be16d5f1
@1436 bc835f89
@1437 3dedbb9a
@1438 bd6620a6
@1439 be0103a4
@143a be739286
@143b be927d3e
@143c bcf331ea
@143d 00000000
@143e b892c06f
@143f bb376537
@1440 bd92b4e7
@1441 bec78baf
@1442 bd229196
@1443 bc9b6608
@1444 3cd609e9
@1445 3df114ff
@1446 3d86281c
@1447 3eb3aa6b
@1448 3e7a1f0e
@1449 3d435bf9
@144a 3ddb4f5a
@144b 3d3bac82
@144c be63be34
@144d be11ad85
@144e 3c633434
@144f 3d0e051f
@1450 3c5c45a2
@1451 3d1a1de5
@1452 bc910cbf
@1453 bcad40b3
@1454 3e0c873c
@1455 bdf4497d
@1456 be8f2320
@1457 be39f39c
@1458 bc88bfcf
@1459 b6894de2
@145a b734a940
@145b bb3317c1
@145c bdd2bb8f
@145d be9bf20b
@145e be0d0bd4
@145f bd4e2d99
@1460 3e3dd613
@1461 3e0a8017
@1462 3e0896c0
@1463 3d211511
@1464 bc714b61
@1465 3e63c86c
@1466 bd086026
@1467 bcad11ec
@1468 3d644342
@1469 3e3c38c6
@146a bc3e7d70
@146b 3cc492e8
@146c 3e4f46b7
@146d bdcc025f
@146e 3bfc92b3
@146f be054753
@1470 3deef710
@1471 beacf72b
@1472 be5f550f
@1473 be1531a7
@1474 bd058027
@1475 00000000
@1476 b7e4fcf7
@1477 bb14138a
@1478 bd8f8771
@1479 be1b642c
@147a bbfab79b
@147b be0938db
@147c bdad1de1
@147d bd1628f8
@147e 3e3306d4
@147f 3e3acbe9
@1480 3ed57d39
@1481 3e8e0d90
@1482 bbae49dd
@1483 3d1a8e97
@1484 3dce7ef7
@1485 3e1e02ee
@1486 3dbf1757
@1487 3d520bfc
@1488 3dd91f6d
@1489 3cc134d6
@148a 3dc84645
@148b bbba16f5
@148c bdecc1c6
@148d be9c07f8
@148e be9f93fd
@148f be2cc834
@1490 bca34beb
@1491 00000000
@1492 b82d4c20
@1493 bb036400
@1494 bd7d50d3
@1495 bdfe02ad
@1496 bd6f2cf7
@1497 3c267c21
@1498 3d912140
@1499 bc98f945
@149a 3d9565fd
@149b 3e4e0865
@149c 3dac6379
@149d 3dc4c8e3
@149e 3d1ec09b
@149f 3ea7b0ba
@14a0 3de1b7cd
@14a1 3cb4bcf5
@14a2 3c9cc665
@14a3 3c05e4b2
@14a4 bdb778b6
@14a5 3d15d6c3
@14a6 3e4ef0a6
@14a7 bd8c9995
@14a8 be4711c0
@14a9 be957184
@14aa bde837d4
@14ab bcc71e50
@14ac b689b8e7
@14ad b6a7adaa
@14ae b915b353
@14af bb80f673
@14b0 bd359d7a
@14b1 be26f5ec
@14b2 be466e2e
@14b3 be8eea54
@14b4 3ba327b7
@14b5 3e2ac4bb
@14b6 bce22f4a
@14b7 bcc74fdd
@14b8 3d250b52
@14b9 3ed1dece
@14ba 3e07673a
@14bb 3da457bf
@14bc 3de421a3
@14bd 3da42a69
@14be 3e05e6ea
@14bf 3e8a1654
@14c0 bdc72472
@14c1 bdedf95e
@14c2 bdc4864b
@14c3 bde04d8b
@14c4 be8cdae0
@14c5 be27d894
@14c6 bd75fea1
@14c7 bae185d7
@14c8 b6626454
@14c9 b6a2703d
@14ca b6a8c2f0
@14cb ba48f293
@14cc bc71d2da
@14cd bd846a26
@14ce be0e3857
@14cf be9270ef
@14d0 bd208a64
@14d1 3cb14a64
@14d2 bb8bd71b
@14d3 3e57e42b
@14d4 bdb7e7b4
@14d5 3b2e5a38
@14d6 3e0818c7
@14d7 bd8c7226
@14d8 3e231bf9
@14d9 bcb73db1
@14da 3d81dab9
@14db be054344
@14dc bd229a8d
@14dd 3e2a3b43
@14de 3d8ebcda
@14df be2f3a79
@14e0 be82ddb4
@14e1 be173172
@14e2 bd32795c
@14e3 39ef6133
@14e4 b6d0fa26
@14e5 00000000
@14e6 00000000
@14e7 b93e6634
@14e8 badca8c5
@14e9 bc130750
@14ea bd160aa2
@14eb be099836
@14ec be8daf86
@14ed be85b4e5
@14ee be456ade
@14ef be2f56d3
@14f0 be65da45
@14f1 be04e074
@14f2 bd09d95d
@14f3 be048174
@14f4 bd952c93
@14f5 bdc803ff
@14f6 be65c7e1
@14f7 bcc89a0e
@14f8 bda3016d
@14f9 bd93caad
@14fa be204fcd
@14fb be04ef78
@14fc bdbbb182
@14fd bd8fed93
@14fe bc538397
@14ff b9714000
@1500 00000000
@1501 00000000
@1502 00000000
@1503 b8431858
@1504 b9dd2e38
@1505 bb152c08
@1506 bbee993e
@1507 bcfbd076
@1508 bdb06b05
@1509 be265668
@150a be795909
@150b bea6a8d0
@150c bec42074
@150d bedf948e
@150e bef4f550
@150f bf074867
@1510 beea8dc8
@1511 bea300ed
@1512 be994ad7
@1513 be72e8f4
@1514 be6c6977
@1515 be1d1e17
@1516 bdeb45cf
@1517 bd2ed406
@1518 bca245fc
@1519 bba776c2
@151a babe95a3
@151b b876b2ae
@151c 00000000
@151d 00000000
@151e 00000000
@151f b5a988c4
@1520 b91b656d
@1521 baa3ad6c
@1522 bb0671dd
@1523 bbbc9a16
@1524 bc3ec0b3
@1525 bd02373c
@1526 bd430594
@1527 bd77a56c
@1528 bda52e50
@1529 bdd1a7be
@152a be094a2f
@152b be11101a
@152c be20799c
@152d be1b1f6c
@152e bdd1b47a
@152f bdb7ab5f
@1530 bd874083
@1531 bd2532bd
@1532 bd0ced09
@1533 bc3b0c3d
@1534 bb7e9738
@1535 ba5285cf
@1536 b7eba32b
@1537 b80cd73a
@1538 00000000
@1539 00000000
@153a 00000000
@153b 00000000
@153c b6f65f8d
@153d b8ecb8e8
@153e b9fe429b
@153f badcb398
@1540 bb723d8d
@1541 bc0a5c1d
@1542 bc5f425d
@1543 bcab6aa2
@1544 bcd6f741
@1545 bcd8e5d7
@1546 bcf4949a
@1547 bd0866ce
@1548 bd0817c0
@1549 bceb93a2
@154a bcd0c7eb
@154b bcab4a41
@154c bca3ef7d
@154d bc99c59b
@154e bcdf684d
@154f bc0c2b20
@1550 b9c97938
@1551 b6058ba6
@1552 00000000
@1553 00000000
@1554 00000000
@1555 00000000
@1556 00000000
@1557 00000000
@1558 00000000
@1559 b70850ee
@155a b83b256f
@155b b8ac3448
@155c b9555cb7
@155d b9b82247
@155e ba158a83
@155f ba854763
@1560 baab6f4f
@1561 bb00d97a
@1562 bb0c2fe2
@1563 bba472ed
@1564 bba7d546
@1565 bb055b75
@1566 baf99024
@1567 bace180e
@1568 ba14ee9e
@1569 ba7b64d7
@156a bc3f7377
@156b bbf822c9
@156c b842df55
@156d 00000000
@156e 00000000
@156f 00000000
@1570 bc09c927
@1571 00000000
@1572 00000000
@1573 00000000
@1574 00000000
@1575 00000000
@1576 00000000
@1577 00000000
@1578 00000000
@1579 00000000
@157a 00000000
@157b 00000000
@157c 00000000
@157d b7112b5e
@157e b80d399d
@157f b78972bb
@1580 b53743a4
@1581 00000000
@1582 00000000
@1583 00000000
@1584 00000000
@1585 00000000
@1586 00000000
@1587 00000000
@1588 00000000
@1589 00000000
@158a 00000000
@158b 00000000
@158c 00000000
@158d 00000000
@158e 00000000
@158f 00000000
@1590 00000000
@1591 00000000
@1592 b7362b22
@1593 b9fd3cf3
@1594 ba8f0915
@1595 bb11626e
@1596 bb0b976e
@1597 bad2c4f9
@1598 bc42f711
@1599 bcaee25d
@159a bc2cfcc1
@159b bb2e2add
@159c bb1ef9c9
@159d bb4f2662
@159e ba97ca4a
@159f b948a113
@15a0 b9dd8bb5
@15a1 b98a5852
@15a2 b7f8530e
@15a3 b9741307
@15a4 b9a4f9f7
@15a5 00000000
@15a6 00000000
@15a7 00000000
@15a8 00000000
@15a9 00000000
@15aa 00000000
@15ab b63347a7
@15ac b9e91376
@15ad b9306496
@15ae b837c90e
@15af ba2ee55c
@15b0 bb13a5f9
@15b1 bb9cb4c8
@15b2 bc01022f
@15b3 bc7bfb83
@15b4 bca5d983
@15b5 bd0a17f3
@15b6 bce78c9a
@15b7 bc9a285c
@15b8 bc9b9c46
@15b9 bc9b5bc1
@15ba bc311a0e
@15bb bbe01e21
@15bc bb99a206
@15bd bb212072
@15be baaf8aa9
@15bf ba5c8cc3
@15c0 b9eb414c
@15c1 b902744f
@15c2 b75258b2
@15c3 00000000
@15c4 00000000
@15c5 00000000
@15c6 00000000
@15c7 b6d4f98f
@15c8 baa988ca
@15c9 ba65ce0b
@15ca baa8a149
@15cb bb3f041e
@15cc bc26df98
@15cd bc90c67b
@15ce bd64ff21
@15cf bda22eb4
@15d0 bdc134fd
@15d1 bdd9a291
@15d2 bdd21a34
@15d3 bd7bee27
@15d4 bda0a492
@15d5 bd8f60de
@15d6 bd454600
@15d7 bd50be2e
@15d8 bcca54de
@15d9 bc3b4f5b
@15da bbbe7b9f
@15db bb4fcf17
@15dc bb10f581
@15dd ba6a1d86
@15de b8a95a70
@15df b6ae7d43
@15e0 00000000
@15e1 00000000
@15e2 b5d88e00
@15e3 b6500c15
@15e4 b80b4363
@15e5 bb87625f
@15e6 bc4785f8
@15e7 bcb143b8
@15e8 bd49e3e1
@15e9 bdb4cb45
@15ea be188aca
@15eb be4549ee
@15ec be4acd2f
@15ed be5e0872
@15ee be7d11f4
@15ef be7800b4
@15f0 be91401f
@15f1 be9a34e0
@15f2 be979870
@15f3 be89c59e
@15f4 be44f1be
@15f5 be026408
@15f6 bc8c7d73
@15f7 bd654d9a
@15f8 bd1e2d8d
@15f9 bc341311
@15fa bb17af27
@15fb b9a5b196
@15fc b7f07fa8
@15fd 00000000
@15fe 00000000
@15ff ba14f5c5
@1600 ba342648
@1601 bc8a73dd
@1602 bc51b1af
@1603 bdb72438
@1604 bcd3c43f
@1605 bd1f26be
@1606 bd631bca
@1607 be28c18c
@1608 be62d90a
@1609 be6c3214
@160a bde0755e
@160b bcb7ddde
@160c bdff11cf
@160d be5573ea
@160e bf0eef3e
@160f bf089d66
@1610 bf152746
@1611 bef11975
@1612 be963f4a
@1613 be850e60
@1614 be2a0859
@1615 bd6a87b8
@1616 bca67e85
@1617 bc375e4f
@1618 ba36098a
@1619 00000000
@161a b4677c81
@161b 3cbb2aed
@161c 3cd58a81
@161d 3bcd41ed
@161e bcc3c7da
@161f 3d86de5a
@1620 3e0257f7
@1621 3e485d7d
@1622 baabcafc
@1623 3e1cbfd5
@1624 3e67ae80
@1625 3e5a99af
@1626 bdd7c49a
@1627 bd3048b6
@1628 bdb1a36a
@1629 3c867466
@162a 3d9eb284
@162b bd2228f4
@162c 3ceaa804
@162d bdc94245
@162e 3d2bcaf8
@162f bd9959bb
@1630 be7c69b0
@1631 be129598
@1632 bdbf6a56
@1633 bd1cbfd5
@1634 bc001c3e
@1635 37d3fdee
@1636 3bb74067
@1637 3d37b184
@1638 3de1ba32
@1639 3d03d2ba
@163a bd8987d5
@163b 3d6df20c
@163c 3e33deca
@163d bd15a163
@163e 3d933165
@163f 3da43e0a
@1640 3e1bd88f
@1641 3e303714
@1642 bbf69980
@1643 be26fbdf
@1644 bd2a8c40
@1645 3c618ee7
@1646 3e00ce69
@1647 3dd0943a
@1648 bcccffe0
@1649 3e207fc1
@164a 3e34c475
@164b 3db9cc22
@164c bc649e85
@164d be26d986
@164e be51b277
@164f bd90a4ab
@1650 bb9aed8a
@1651 38d75ff0
@1652 3d6655b9
@1653 3dd46dfb
@1654 3e0b61ca
@1655 3ceb9c46
@1656 3d296871
@1657 3e153e27
@1658 3e83e694
@1659 3e11dfe3
@165a 3dc83749
@165b bc906a07
@165c 3e0325ca
@165d 3e803d15
@165e bb708c34
@165f 3d92b366
@1660 3e4087c1
@1661 bd5ba38e
@1662 3db0847b
@1663 3d64ec56
@1664 3df1ecc0
@1665 3de5a0f3
@1666 bdebf111
@1667 3dd59eee
@1668 3da3a4ad
@1669 be1d03bf
@166a be5fbaa9
@166b bdb9d418
@166c bbf983a4
@166d 378bd30f
@166e 3d9fb7b9
@166f 3dd2c71c
@1670 3e4eebf4
@1671 3dc9fadb
@1672 3dd6dcdf
@1673 3dff1aee
@1674 3d16f707
@1675 3e635f5b
@1676 3e7cf808
@1677 bde0180f
@1678 bd1fc010
@1679 3ea17d7e
@167a 3bbac91f
@167b 3e0f26c6
@167c 3b982f80
@167d 3e19968a
@167e 3e9adc53
@167f 3dc142b1
@1680 3d9c6caf
@1681 bda6783c
@1682 3dc51031
@1683 3e0d6bf2
@1684 3da03757
@1685 be16166b
@1686 be363111
@1687 bcef4ce2
@1688 3d3afe75
@1689 364aaa5b
@168a 3d946c98
@168b 3e0881de
@168c 3df28aa8
@168d 3e0a5895
@168e 3e31446e
@168f 3d88827a
@1690 bddf8fc9
@1691 be07da9d
@1692 bc28a086
@1693 3db19c19
@1694 bd6deb33
@1695 bd9ecf3d
@1696 3ed60b75
@1697 3e1973e9
@1698 3e584c14
@1699 3ea3da7d
@169a 3d7fb05c
@169b 3d011a23
@169c 3dd65b32
@169d 3de20bce
@169e 3e2a3dc6
@169f 3dde264f
@16a0 3d9e1212
@16a1 be049bee
@16a2 bdaee95c
@16a3 bcf4a688
@16a4 3c344a6b
@16a5 39caaa5b
@16a6 3d2e7195
@16a7 3e2ac8a9
@16a8 3e772b9c
@16a9 3e18f026
@16aa 3b709c34
@16ab bd07af8c
@16ac 3d9f1633
@16ad be637ce7
@16ae 3cb6f5e7
@16af 3e04fa96
@16b0 3d008d7d
@16b1 be0d90e4
@16b2 3e34b144
@16b3 3d970100
@16b4 3e1e2607
@16b5 3db21726
@16b6 3db403ca
@16b7 3e675154
@16b8 3e00f6e4
@16b9 3dd070ef
@16ba 3d97f421
@16bb 3d107c5c
@16bc be389c9e
@16bd be4143e9
@16be bdb688c2
@16bf bd07ab36
@16c0 bb4b5361
@16c1 00000000
@16c2 3d7eacb0
@16c3 3e48ed51
@16c4 3eac1ad0
@16c5 3e948ce3
@16c6 bd2fad73
@16c7 be0dc962
@16c8 3e627426
@16c9 3e37eec1
@16ca bccdeadd
@16cb be8dd96f
@16cc 3c78649a
@16cd be263a00
@16ce bea56705
@16cf bea22e60
@16d0 3e0a85af
@16d1 3e2e5211
@16d2 3e718fe9
@16d3 3e61bd69
@16d4 bd237b11
@16d5 bd6c19d6
@16d6 bd8f9cb8
@16d7 3de6d9af
@16d8 beca58ec
@16d9 be69c898
@16da bd756a98
@16db bc8e0cd8
@16dc b896a1c4
@16dd b8f873c7
@16de 3d8ad876
@16df 3de7a325
@16e0 3e3827ac
@16e1 3e3a23cd
@16e2 3d1463a6
@16e3 3c705410
@16e4 bd820e41
@16e5 be5dd033
@16e6 be06dc2c
@16e7 bd4e4069
@16e8 bd86d0d8
@16e9 bebd739e
@16ea beefa45f
@16eb be3f6942
@16ec bd608953
@16ed bdb91b20
@16ee bda123fb
@16ef be682ae7
@16f0 be49c14d
@16f1 3cf2ef11
@16f2 3c41143d
@16f3 bb3ad91d
@16f4 be3b5df4
@16f5 bd59816a
@16f6 bc31121d
@16f7 bd06e7b8
@16f8 b966ed7f
@16f9 b7d20e94
@16fa 3d2cb306
@16fb 3db1cc0c
@16fc 3d512f9c
@16fd bda6efb2
@16fe 3cd0d765
@16ff bde2e365
@1700 bdcd1bee
@1701 bc8fa8ba
@1702 be191fbc
@1703 bc7bea2b
@1704 be3b193a
@1705 beb01619
@1706 beaf7585
@1707 bdb57663
@1708 bdee3049
@1709 3d85252e
@170a be577494
@170b 3dc6b973
@170c 3e93a91f
@170d 3e4ff068
@170e 3caabfa7
@170f 3e2f7cc2
@1710 3e58a85e
@1711 bd9de4cc
@1712 bc2076fa
@1713 bc826575
@1714 b7dacf90
@1715 385cfb80
@1716 b76e7bc4
@1717 3cdc356d
@1718 3d1cf572
@1719 be2d46e3
@171a be708a7d
@171b bd455943
@171c be2db821
@171d be391884
@171e be2aabd3
@171f bd176930
@1720 be8cebde
@1721 bd84f8cd
@1722 be900189
@1723 be34c0c5
@1724 3dc0a79b
@1725 bdd37db2
@1726 3e88f552
@1727 3e5e6710
@1728 3d98460d
@1729 3d7e2b0e
@172a 3e241175
@172b 3e4fbc96
@172c 3d93d649
@172d be7afa6c
@172e be251d60
@172f bcaaa6a5
@1730 ba2b95e8
@1731 39b668a5
@1732 b9f0206c
@1733 bbbf54c0
@1734 3a8619f5
@1735 3d062916
@1736 bdccbe09
@1737 bb109fec
@1738 3e15e299
@1739 bb3e294c
@173a bbb8162b
@173b be1c1172
@173c bee47805
@173d 3d0e9930
@173e be365ebb
@173f be660859
@1740 3d9e6ed7
@1741 bd5f1244
@1742 3d8b51e7
@1743 3c89fc8a
@1744 3da02e67
@1745 3dfd1781
@1746 3dacccb0
@1747 bda48475
@1748 bd8df886
@1749 be83cb88
@174a be37da52
@174b bd081821
@174c bb3fff02
@174d 00000000
@174e b82a4067
@174f bb1c4fd8
@1750 bd983043
@1751 3d4effce
@1752 3d096182
@1753 bda07085
@1754 be11f3f8
@1755 bdd50aa8
@1756 be16ffba
@1757 be92d802
@1758 3b88d947
@1759 3c8be71f
@175a bcf7d37c
@175b be049fc3
@175c 3d4b417f
@175d 3beb158c
@175e 399723b3
@175f 3dcc59e8
@1760 bdeed323
@1761 bd529795
@1762 bde5af97
@1763 bde61355
@1764 3ce13e40
@1765 bafb7f3d
@1766 bd669187
@1767 3a66c61c
@1768 bc1691be
@1769 b99d6ca9
@176a b666fa06
@176b 3bfb8c97
@176c be04a670
@176d bd5bb159
@176e bc80b567
@176f be8c623f
@1770 be568a52
@1771 bd9a04de
@1772 be60bc48
@1773 be9126ad
@1774 bbf3ba64
@1775 3baa656b
@1776 3dd1081e
@1777 bdb6c42e
@1778 3cb7f581
@1779 be3a3379
@177a 3c8b2444
@177b 3daa4dac
@177c bd6ac033
@177d 3d096bad
@177e 3c8f5d34
@177f be31077e
@1780 be722bc5
@1781 be2335a3
@1782 bcb33da8
@1783 3cdde2ef
@1784 ba9c3d3c
@1785 00000000
@1786 3a43a420
@1787 3c5583b2
@1788 be0caea9
@1789 bdb8d4ee
@178a be21acc8
@178b be6bd62e
@178c beadc59b
@178d bdb087ff
@178e bd24e9ba
@178f bd594342
@1790 bd9592cb
@1791 3da7fcc9
@1792 bd47e759
@1793 bdd4b505
@1794 be3d84e3
@1795 be192166
@1796 be1620af
@1797 be944300
@1798 bd4d11ee
@1799 bdf6ad82
@179a be5690ea
@179b bec72c81
@179c be8cdd9c
@179d bda22749
@179e bd49eb1e
@179f baa6e297
@17a0 b9961e6d
@17a1 00000000
@17a2 b884750b
@17a3 bc0fb7c1
@17a4 be18b19b
@17a5 be4e60b0
@17a6 be68931c
@17a7 bea9b1cf
@17a8 bebd3ba0
@17a9 be2712b2
@17aa bdf346e5
@17ab be41113d
@17ac bdda515e
@17ad bb99e449
@17ae 3d875dfa
@17af 3e0047fa
@17b0 bd0ad17a
@17b1 be90ec95
@17b2 be8fd31e
@17b3 bec57067
@17b4 be6e6b19
@17b5 be9c2ab4
@17b6 beaccfad
@17b7 bec9cd39
@17b8 be7acd7c
@17b9 bd84dbbd
@17ba bd109ff0
@17bb b9cb6ad8
@17bc b6855771
@17bd b7891f9c
@17be b9880d26
@17bf bd2832a2
@17c0 be28d6ce
@17c1 be4d79e6
@17c2 be7c3f2b
@17c3 beb1b5f5
@17c4 bece3552
@17c5 bd82b0e8
@17c6 bdccb513
@17c7 bd9dba77
@17c8 3c14604d
@17c9 bce83681
@17ca bdb2f2b9
@17cb be5a4a38
@17cc bdaa870a
@17cd bd636a72
@17ce be195d0e
@17cf be259691
@17d0 be6d4138
@17d1 be3a9c6f
@17d2 be56c038
@17d3 be9bae18
@17d4 be35a2e0
@17d5 bd67bcbe
@17d6 3a477d6e
@17d7 bb020ed6
@17d8 b5db6363
@17d9 b784d69f
@17da b7852d6f
@17db bd8ac73e
@17dc be429bec
@17dd be72fa86
@17de bd8f59be
@17df be3215df
@17e0 3cda12d0
@17e1 bbaf74e3
@17e2 bd86a33e
@17e3 3af4da44
@17e4 be639f17
@17e5 3d8a5fed
@17e6 be16fc45
@17e7 bd9859e6
@17e8 3d2c50f8
@17e9 3d90fa0e
@17ea bdc0b2e8
@17eb be305a12
@17ec be4be7ba
@17ed be6d2738
@17ee be848cb7
@17ef beaec538
@17f0 be229f5e
@17f1 bcff5cd2
@17f2 ba98b064
@17f3 b967b9c9
@17f4 b64a8320
@17f5 00000000
@17f6 00000000
@17f7 bd821468
@17f8 be122c92
@17f9 bdd629b2
@17fa 3d29e46a
@17fb 3de42105
@17fc 3e25cb27
@17fd be4c43c1
@17fe bda0bbd3
@17ff bd0dbeb2
@1800 be49bb27
@1801 be3d5e8f
@1802 bd994dcb
@1803 bdf0ae5b
@1804 be3219db
@1805 bb9e06ed
@1806 bd155c35
@1807 be40651a
@1808 be89a762
@1809 be8fd75b
@180a beb1ad7a
@180b beb86e31
@180c be566e94
@180d bcd5b445
@180e bb857d68
@180f b998cef0
@1810 00000000
@1811 00000000
@1812 00000000
@1813 bd33c710
@1814 bd16566f
@1815 3b56d3fb
@1816 3e4d791e
@1817 3e4f0725
@1818 bcc752a7
@1819 bd93c42e
@181a bc14d9e1
@181b bdb0bd0c
@181c 3cb4a574
@181d be4530b4
@181e 3d84c517
@181f 3db6480b
@1820 bda34612
@1821 be0e438f
@1822 3d47072b
@1823 be87257b
@1824 be30080a
@1825 be36fd6d
@1826 be665f4a
@1827 be74c791
@1828 be13778a
@1829 bd178890
@182a ba63622c
@182b b71c7679
@182c 00000000
@182d 00000000
@182e 00000000
@182f bb632cea
@1830 3cb06366
@1831 3dc98240
@1832 3d92d134
@1833 bcb3140f
@1834 bd701517
@1835 bba6de84
@1836 3c6b6bcc
@1837 bdf74c32
@1838 3d476074
@1839 3e129f7e
@183a bdab6630
@183b 3b82b407
@183c 3d4bc580
@183d be23b1c1
@183e baa45da2
@183f 3ca900b3
@1840 3ccb6bb0
@1841 bdde0190
@1842 bccded91
@1843 bcf59403
@1844 bcb319d2
@1845 bbcf287e
@1846 b68e4dcc
@1847 b6aa1c43
@1848 00000000
@1849 00000000
@184a 00000000
@184b 00000000
@184c ba3502d3
@184d bb59b8a2
@184e bcda8481
@184f bdb863ac
@1850 bd505fc8
@1851 3d8fd7fe
@1852 3d8ab524
@1853 3cc68d33
@1854 3b76629e
@1855 bd8ddb1d
@1856 3beda4de
@1857 bd67e934
@1858 3da89cbf
@1859 3d9a439c
@185a 3d2be60b
@185b 3d46dc23
@185c 3ddf5d0e
@185d bbab6f32
@185e 3d3df144
@185f 3d6a28da
@1860 bc28403f
@1861 b9e8238d
@1862 00000000
@1863 00000000
@1864 00000000
@1865 00000000
@1866 00000000
@1867 00000000
@1868 00000000
@1869 39096e0d
@186a 3a205484
@186b 3af01d0b
@186c 3c082e06
@186d 3c1dee5c
@186e ba11a3d0
@186f 3d122af0
@1870 bc80777d
@1871 bcbb8e15
@1872 3dc334d1
@1873 3dc7479f
@1874 3da1b7b8
@1875 3dcb106b
@1876 3da6849b
@1877 3d0fc0db
@1878 3d2bd0ef
@1879 3cd84ec5
@187a 3da301c6
@187b 3db617a0
@187c 3c954d15
@187d 00000000
@187e 00000000
@187f 00000000
@1880 00000000
@1881 00000000
@1882 00000000
@1883 00000000
@1884 00000000
@1885 00000000
@1886 00000000
@1887 00000000
@1888 00000000
@1889 00000000
@188a 00000000
@188b 00000000
@188c 00000000
@188d 00000000
@188e 00000000
@188f 00000000
@1890 00000000
@1891 00000000
@1892 00000000
@1893 00000000
@1894 00000000
@1895 00000000
@1896 00000000
@1897 00000000
@1898 00000000
@1899 00000000
@189a 00000000
@189b 00000000
@189c 00000000
@189d 00000000
@189e 00000000
@189f 00000000
@18a0 00000000
@18a1 00000000
@18a2 00000000
@18a3 00000000
@18a4 00000000
@18a5 00000000
@18a6 00000000
@18a7 00000000
@18a8 00000000
@18a9 00000000
@18aa 00000000
@18ab 00000000
@18ac 00000000
@18ad 00000000
@18ae 00000000
@18af 00000000
@18b0 00000000
@18b1 00000000
@18b2 00000000
@18b3 00000000
@18b4 00000000
@18b5 00000000
@18b6 00000000
@18b7 00000000
@18b8 00000000
@18b9 00000000
@18ba 00000000
@18bb 00000000
@18bc 00000000
@18bd 00000000
@18be 00000000
@18bf 00000000
@18c0 00000000
@18c1 00000000
@18c2 00000000
@18c3 00000000
@18c4 00000000
@18c5 00000000
@18c6 00000000
@18c7 00000000
@18c8 00000000
@18c9 00000000
@18ca 00000000
@18cb 00000000
@18cc 00000000
@18cd 00000000
@18ce 00000000
@18cf 00000000
@18d0 00000000
@18d1 00000000
@18d2 00000000
@18d3 00000000
@18d4 00000000
@18d5 00000000
@18d6 00000000
@18d7 00000000
@18d8 00000000
@18d9 00000000
@18da 00000000
@18db 00000000
@18dc 00000000
@18dd 00000000
@18de 00000000
@18df 00000000
@18e0 00000000
@18e1 00000000
@18e2 00000000
@18e3 00000000
@18e4 00000000
@18e5 00000000
@18e6 00000000
@18e7 00000000
@18e8 00000000
@18e9 00000000
@18ea 00000000
@18eb 00000000
@18ec 00000000
@18ed 00000000
@18ee 00000000
@18ef 00000000
@18f0 00000000
@18f1 00000000
@18f2 00000000
@18f3 00000000
@18f4 00000000
@18f5 00000000
@18f6 00000000
@18f7 00000000
@18f8 00000000
@18f9 00000000
@18fa 00000000
@18fb 00000000
@18fc 00000000
@18fd 00000000
@18fe 00000000
@18ff 00000000
@1900 00000000
@1901 00000000
@1902 00000000
@1903 00000000
@1904 00000000
@1905 00000000
@1906 00000000
@1907 00000000
@1908 00000000
@1909 00000000
@190a 00000000
@190b 00000000
@190c 00000000
@190d 00000000
@190e 00000000
@190f 00000000
@1910 00000000
@1911 00000000
@1912 00000000
@1913 00000000
@1914 00000000
@1915 00000000
@1916 00000000
@1917 00000000
@1918 00000000
@1919 00000000
@191a 00000000
@191b 00000000
@191c 00000000
@191d 00000000
@191e 00000000
@191f 00000000
@1920 00000000
@1921 00000000
@1922 00000000
@1923 00000000
@1924 00000000
@1925 00000000
@1926 00000000
@1927 00000000
@1928 00000000
@1929 00000000
@192a 00000000
@192b 00000000
@192c 00000000
@192d 00000000
@192e 00000000
@192f 00000000
@1930 00000000
@1931 00000000
@1932 00000000
@1933 00000000
@1934 00000000
@1935 00000000
@1936 00000000
@1937 00000000
@1938 00000000
@1939 00000000
@193a 00000000
@193b 00000000
@193c 00000000
@193d 00000000
@193e 00000000
@193f 00000000
@1940 00000000
@1941 00000000
@1942 00000000
@1943 00000000
@1944 00000000
@1945 00000000
@1946 00000000
@1947 00000000
@1948 00000000
@1949 00000000
@194a 00000000
@194b 00000000
@194c 00000000
@194d 00000000
@194e 00000000
@194f 00000000
@1950 00000000
@1951 00000000
@1952 00000000
@1953 00000000
@1954 00000000
@1955 00000000
@1956 00000000
@1957 00000000
@1958 00000000
@1959 00000000
@195a 00000000
@195b 00000000
@195c 00000000
@195d 00000000
@195e 00000000
@195f 00000000
@1960 00000000
@1961 00000000
@1962 00000000
@1963 00000000
@1964 00000000
@1965 00000000
@1966 00000000
@1967 00000000
@1968 00000000
@1969 00000000
@196a 00000000
@196b 00000000
@196c 00000000
@196d 00000000
@196e 00000000
@196f 00000000
@1970 00000000
@1971 00000000
@1972 00000000
@1973 00000000
@1974 00000000
@1975 00000000
@1976 00000000
@1977 00000000
@1978 00000000
@1979 00000000
@197a 00000000
@197b 00000000
@197c 00000000
@197d 00000000
@197e 00000000
@197f 00000000
@1980 00000000
@1981 00000000
@1982 00000000
@1983 00000000
@1984 00000000
@1985 00000000
@1986 00000000
@1987 00000000
@1988 00000000
@1989 00000000
@198a 00000000
@198b 00000000
@198c 00000000
@198d 00000000
@198e 00000000
@198f 00000000
@1990 00000000
@1991 00000000
@1992 00000000
@1993 00000000
@1994 00000000
@1995 00000000
@1996 00000000
@1997 00000000
@1998 00000000
@1999 00000000
@199a 00000000
@199b 00000000
@199c 00000000
@199d 00000000
@199e 00000000
@199f 00000000
@19a0 00000000
@19a1 00000000
@19a2 00000000
@19a3 00000000
@19a4 00000000
@19a5 00000000
@19a6 00000000
@19a7 00000000
@19a8 00000000
@19a9 00000000
@19aa 00000000
@19ab 00000000
@19ac 00000000
@19ad 00000000
@19ae 00000000
@19af 00000000
@19b0 00000000
@19b1 00000000
@19b2 00000000
@19b3 00000000
@19b4 00000000
@19b5 00000000
@19b6 00000000
@19b7 00000000
@19b8 00000000
@19b9 00000000
@19ba 00000000
@19bb 00000000
@19bc 00000000
@19bd 00000000
@19be 00000000
@19bf 00000000
@19c0 00000000
@19c1 00000000
@19c2 00000000
@19c3 00000000
@19c4 00000000
@19c5 00000000
@19c6 00000000
@19c7 00000000
@19c8 00000000
@19c9 00000000
@19ca 00000000
@19cb 00000000
@19cc 00000000
@19cd 00000000
@19ce 00000000
@19cf 00000000
@19d0 00000000
@19d1 00000000
@19d2 00000000
@19d3 00000000
@19d4 00000000
@19d5 00000000
@19d6 00000000
@19d7 00000000
@19d8 00000000
@19d9 00000000
@19da 00000000
@19db 00000000
@19dc 00000000
@19dd 00000000
@19de 00000000
@19df 00000000
@19e0 00000000
@19e1 00000000
@19e2 00000000
@19e3 00000000
@19e4 00000000
@19e5 00000000
@19e6 00000000
@19e7 00000000
@19e8 00000000
@19e9 00000000
@19ea 00000000
@19eb 00000000
@19ec 00000000
@19ed 00000000
@19ee 00000000
@19ef 00000000
@19f0 00000000
@19f1 00000000
@19f2 00000000
@19f3 00000000
@19f4 00000000
@19f5 00000000
@19f6 00000000
@19f7 00000000
@19f8 00000000
@19f9 00000000
@19fa 00000000
@19fb 00000000
@19fc 00000000
@19fd 00000000
@19fe 00000000
@19ff 00000000
@1a00 00000000
@1a01 00000000
@1a02 00000000
@1a03 00000000
@1a04 00000000
@1a05 00000000
@1a06 00000000
@1a07 00000000
@1a08 00000000
@1a09 00000000
