@0000 be1ab778
@0001 bd091343
@0002 3d55b498
@0003 be45215f
@0004 be38c13a
@0005 3db117d5
@0006 bdd59732
@0007 3cbae23e
@0008 bd60282a
@0009 3e400ccb
@000a 3e4c0f71
@000b be17047a
@000c be027690
@000d 3cf79a8a
@000e 3ae88e1a
@000f 3d342c70
@0010 be09981e
@0011 3cd503eb
@0012 bdb27648
@0013 bddae4ec
@0014 be225e30
@0015 3d03acb2
@0016 3d8f84aa
@0017 3dc8056c
@0018 bce3fae7
@0019 3e72ea71
@001a 3ea7e40b
@001b 3e8ee8f9
@001c 3ec7a843
@001d 3ef352ed
@001e 3e6ba255
@001f 3ed424b0
@0020 3ed52fe9
@0021 3ed0bc07
@0022 3ef9b7f2
@0023 3f02d873
@0024 3ed3ce5e
@0025 3eab045d
@0026 3f0af09d
@0027 3efcb34b
@0028 3e1d5bf1
@0029 3e3c572c
@002a 3ea0ed90
@002b 3ed7fa37
@002c 3ed62f40
@002d 3ea904b4
@002e 3e6835cb
@002f 3ec53d17
@0030 3e68abe4
@0031 3e027a3b
@0032 3e3b3e7c
@0033 be37c468
@0034 3d7622e9
@0035 bba6bcb9
@0036 3dc24d82
@0037 bcb2dad3
@0038 bd95fc75
@0039 3d75b4b3
@003a 3b02a2fe
@003b bdece494
@003c bd969624
@003d bd7d0d8e
@003e bd6a8c20
@003f be45b6c4
@0040 3d0e6a86
@0041 3e24a7cb
@0042 3d6aac68
@0043 be4c2ec2
@0044 3e40a9eb
@0045 3df1fc60
@0046 be27e54d
@0047 bd9b2a83
@0048 bdb54d90
@0049 bca6b208
@004a be128b71
@004b 3d1e79c2
@004c bda82eb5
@004d 3d78b2d2
@004e 3e1b39a4
@004f 3d6fd5a2
@0050 be23721c
@0051 3e358d4c
@0052 3d87ff16
@0053 be2cbbf2
@0054 3b6b2ca5
@0055 be1cfc93
@0056 3e24bde2
@0057 3e3bb139
@0058 be114414
@0059 bd8736db
@005a 3e61c24c
@005b bdd8a174
@005c bc7e7731
@005d be475797
@005e be225a15
@005f 3e4c08ca
@0060 3da52d08
@0061 3cdca4d3
@0062 3c973d4d
@0063 bd401fcd
@0064 3e56cd18
@0065 3e95e179
@0066 3e140cc5
@0067 3e15b19d
@0068 3e6aa4fe
@0069 3ebb77fe
@006a 3ed31609
@006b 3e8f773d
@006c 3ee804ca
@006d 3de7e5b4
@006e 3dbfccf6
@006f 3e8a84cc
@0070 3edc05ed
@0071 3eb03bea
@0072 3dbe7846
@0073 3ea5ff60
@0074 3e8a72d4
@0075 3e9eec04
@0076 3df785ae
@0077 3e095ec3
@0078 3e712ee9
@0079 3e4233e6
@007a bcd0ae94
@007b 3e8ccbd8
@007c 3e38b582
@007d 3dca66a6
@007e bdcbe9ca
@007f be2a09b8
@0080 bdb10788
@0081 3e3f9252
@0082 3e4065e4
@0083 3c498b36
@0084 3e253e65
@0085 bd948913
@0086 3d823358
@0087 3e544a61
@0088 bdbe82ff
@0089 3dc09764
@008a 3e826c07
@008b 3ab97452
@008c bd8a9460
@008d 3e48726c
@008e 3e16e396
@008f bd8ce6eb
@0090 bd6ec60b
@0091 bd218751
@0092 3e5adda1
@0093 bd086af6
@0094 3e710d53
@0095 3e776a9d
@0096 3d2744d8
@0097 bd922b5e
@0098 bd00e2b3
@0099 bd0ccd37
@009a 3da390ac
@009b 3d3e8c5d
@009c bd090de4
@009d 3d211fd7
@009e bc7d6142
@009f bcff7e7c
@00a0 bbc39cb0
@00a1 3d953a86
@00a2 bd74c620
@00a3 bd0913ee
@00a4 3d384254
@00a5 bd89dd39
@00a6 3d5a378a
@00a7 3c234fa6
@00a8 bd9be903
@00a9 3c67e5b7
@00aa bd80b1f4
@00ab bd6011fd
@00ac bd18ed6c
@00ad 3d9c2fb1
@00ae 3d7b969d
@00af 3b911b07
@00b0 bd04d16e
@00b1 3d423069
@00b2 3e209cbe
@00b3 3dd3c7d6
@00b4 bd34d7bd
@00b5 3c447d96
@00b6 3e0dded2
@00b7 3e31a34a
@00b8 3e1055b2
@00b9 3d9c8d26
@00ba 3dbb940b
@00bb 3e1f63cd
@00bc 3dad98ff
@00bd 3d736cf9
@00be 3c52c9dc
@00bf 3ce714c3
@00c0 3d6ad3b2
@00c1 3c9befce
@00c2 bc7a96ca
@00c3 3c56c600
@00c4 bd0b7d9c
@00c5 bd8d0c44
@00c6 bd9c142b
@00c7 bdb60557
@00c8 bda32e39
@00c9 3cd12704
@00ca bd3b23a4
@00cb 3c64f4e5
@00cc 3d5b1df1
@00cd bc9a30ea
@00ce 3c69a37f
@00cf 3d11090a
@00d0 bd88b0b9
@00d1 bd9b7ec0
@00d2 bc801491
@00d3 3ad77a15
@00d4 3cd91412
@00d5 bd9f7980
@00d6 bd85506c
@00d7 3d198f8d
@00d8 3d937140
@00d9 bd55dc9a
@00da bd0b368c
@00db bd908a6f
@00dc bd03da8b
@00dd bc42fe51
@00de bda3dcbe
@00df 3d55c282
@00e0 3d0c60a4
@00e1 bd3e284d
@00e2 bccf6488
@00e3 bcb2e61f
@00e4 bd528938
@00e5 3d0a1fd4
@00e6 bc234e84
@00e7 bd40ae4c
@00e8 3d2d5cdb
@00e9 bc352d76
@00ea 3d966fd1
@00eb bd1128c5
@00ec bd99cbf6
@00ed 3b9645c4
@00ee bd53479a
@00ef 3cbee0e6
@00f0 bc93f0d6
@00f1 3c5bda11
@00f2 3cd4e544
@00f3 3da25591
@00f4 3cdc4437
@00f5 3d0f0b7f
@00f6 3d6753de
@00f7 3da6af82
@00f8 3b9a1892
@00f9 3ce000e7
@00fa bd41a1d1
@00fb 3c177aae
@00fc 3da7a64a
@00fd bc9daceb
@00fe 3d199032
@00ff bd6d3387
@0100 bd2217ee
@0101 3d983894
@0102 3d8055d8
@0103 3b055251
@0104 3db5349c
@0105 3df7fe80
@0106 3dbb40d1
@0107 3e04bd4d
@0108 3de3d85e
@0109 bca51df9
@010a bcabaf4f
@010b bcb62ca1
@010c 3a847391
@010d bcfbb690
@010e bcd551fe
@010f 3d97c01d
@0110 3c39d06b
@0111 3c389ea0
@0112 bd6dc936
@0113 3da29c24
@0114 3cbe59fd
@0115 bc3aeb0b
@0116 bcefbb10
@0117 3d8003b9
@0118 3d333b19
@0119 3db628ee
@011a 3a8eec50
@011b bcb7d017
@011c bbcd321d
@011d bc9385d0
@011e 3d863d69
@011f 3dc1e61c
@0120 3d3d8d38
@0121 bd108061
@0122 bd9a1cba
@0123 bd041ef9
@0124 3bf763ed
@0125 3c2bdce3
@0126 3b386170
@0127 3a4485fd
@0128 3ce7d94b
@0129 3c09c035
@012a bd628601
@012b 3d8e8092
@012c 3c962226
@012d 3d45a910
@012e bc818b41
@012f bd2ca30f
@0130 3d58dfe6
@0131 3d99a69d
@0132 bc06422e
@0133 bc8f22b9
@0134 bc687f61
@0135 bd1c1f52
@0136 bd823e57
@0137 3cd88c60
@0138 3d372daf
@0139 3d54a82d
@013a 3d871b76
@013b bd98238d
@013c 3d712de1
@013d 3d9753b4
@013e bbea5b32
@013f bc5e3b0a
@0140 bcf09f18
@0141 bd7225c3
@0142 3d0c4227
@0143 3d5db191
@0144 bc0162e2
@0145 bcf763c0
@0146 bd541f28
@0147 be15d014
@0148 bd87e202
@0149 bdb1ed38
@014a 3d449428
@014b be013b12
@014c bdf9cac2
@014d bdfebe57
@014e 3c870863
@014f 3dd7b9c9
@0150 3c235a6b
@0151 bda23616
@0152 bcade32f
@0153 3d4aa10e
@0154 3e0c79af
@0155 3e02f797
@0156 3dcf488b
@0157 3de002d1
@0158 3e20f426
@0159 3d8f7201
@015a 3e26fd6b
@015b 3d306245
@015c 3df9b093
@015d 3dc19b37
@015e bd943719
@015f 3d20a419
@0160 3d2fbb00
@0161 3d5daa88
@0162 3d8a38f5
@0163 bd35d1ad
@0164 bd9513c4
@0165 3d99192d
@0166 395ccc59
@0167 3ced4b75
@0168 3da506bc
@0169 bcf228f5
@016a 3c9c5c98
@016b 3d39384e
@016c 3bb0f78b
@016d bd9c1924
@016e 3d549ac7
@016f 3d44900e
@0170 bbb4118c
@0171 bd0e0915
@0172 3d90c218
@0173 bcc1b837
@0174 bd823559
@0175 bd8242de
@0176 bcb2259e
@0177 bcb9ab94
@0178 3c874dd4
@0179 3d26b4fd
@017a 3c4a13b0
@017b bc30da60
@017c 3da93a7e
@017d 3ce9e2db
@017e 3d93989a
@017f bbc7ae81
@0180 bcc22d15
@0181 3c50d600
@0182 3dadd491
@0183 3d49a40a
@0184 3b1a4cb8
@0185 3c1dc897
@0186 bd30e583
@0187 bb0203a2
@0188 3d95384c
@0189 bc85458c
@018a 3bab094e
@018b 3d672653
@018c 3c025711
@018d 3d6cfce7
@018e bcb56f9d
@018f bb8b83c4
@0190 3aff684e
@0191 bdf27f76
@0192 bdf4dec0
@0193 bd8658c2
@0194 bde4103a
@0195 bcc3d0f0
@0196 bd6c10b0
@0197 be0f74cd
@0198 bdcdcc88
@0199 bc485446
@019a 3dae7298
@019b 3d75df9b
@019c 3cc35639
@019d bcc9f58e
@019e bc78167e
@019f 3e1bf430
@01a0 3e121231
@01a1 3d39f4f6
@01a2 3d6b539b
@01a3 baf61255
@01a4 3df8adbe
@01a5 3da6bd04
@01a6 3e032b9a
@01a7 3e05aae6
@01a8 bbbfc713
@01a9 3d997235
@01aa bd1a4ece
@01ab bdc05f7e
@01ac 3c8b91e0
@01ad bd6ef06f
@01ae 3d9a0122
@01af 3c191706
@01b0 bc0ef9e4
@01b1 bced9118
@01b2 bd713be4
@01b3 3d170ef3
@01b4 3d2087de
@01b5 bd81a6ad
@01b6 3db19666
@01b7 3d38ad6d
@01b8 3d1dd2f5
@01b9 3da2d618
@01ba 3dc1d4f4
@01bb 3d5175ed
@01bc 3da67bbc
@01bd bd6a318c
@01be 3cd032b8
@01bf 3d6fdd8f
@01c0 3d2cc121
@01c1 3a5b05f6
@01c2 bd02f0a2
@01c3 bcc03ba8
@01c4 bd0dfd17
@01c5 3b69ac06
@01c6 bc4a0b10
@01c7 3d926975
@01c8 3b1dbd32
@01c9 3b298026
@01ca 3c12f49a
@01cb 3c56d6e6
@01cc 3d92381e
@01cd 3d703f1e
@01ce bda19b7a
@01cf 3d5c7cd0
@01d0 3d095ff7
@01d1 3d53fc0c
@01d2 3d6e299f
@01d3 bd15b0d6
@01d4 3cf69625
@01d5 bcec8fe5
@01d6 bd989b7a
@01d7 3d82935a
@01d8 3c169043
@01d9 3d9bd124
@01da bb432aa1
@01db 3dfd2e76
@01dc 3dc007c3
@01dd 3dacb0db
@01de bdb451b5
@01df bd85cd70
@01e0 3df1dd13
@01e1 3e042064
@01e2 3e0ced78
@01e3 3bfe6417
@01e4 3d84421d
@01e5 bd1e12e3
@01e6 3d21b3a7
@01e7 3dc0faf1
@01e8 3e03ac6c
@01e9 3cc37faf
@01ea 3da7ea0b
@01eb 3e3eacbc
@01ec 3e542dec
@01ed 3e0b9f87
@01ee bcf82425
@01ef 3e0451c9
@01f0 3d73063d
@01f1 3e1c5588
@01f2 3d418cf3
@01f3 bd70cbe0
@01f4 3caf1c91
@01f5 3cdbdc4a
@01f6 3d8536b2
@01f7 3d63c0c3
@01f8 bd6297d9
@01f9 bd294f12
@01fa 3d264e6e
@01fb 3d95300f
@01fc bd80c825
@01fd 3ceffeaa
@01fe bd8ca338
@01ff bd485879
@0200 3cf23eb9
@0201 bb94e77a
@0202 bcb807e9
@0203 bda6f907
@0204 3d03bc94
@0205 3d909a0a
@0206 bd234c74
@0207 3d2d3e98
@0208 bb7b078a
@0209 3cf64b3d
@020a 3d17a680
@020b bd902c1f
@020c bc90e409
@020d 3c5ea3c5
@020e bd760bd6
@020f bc2c1e09
@0210 bcdda48e
@0211 3d322e93
@0212 bcf7819e
@0213 bd45158c
@0214 bc13273e
@0215 3d43b1ef
@0216 3d99ddfb
@0217 3c8a0265
@0218 bc85ac52
@0219 bd481b54
@021a 3db8b1f1
@021b 3d44be4e
@021c 3cfa49ad
@021d 3d5c096d
@021e bd11270f
@021f 3cd12d5a
@0220 3ca23399
@0221 bd385b04
@0222 bd83b828
@0223 3d1f40c2
@0224 bd802771
@0225 3d701bd2
@0226 3c8a0414
@0227 3db42274
@0228 bd0b840b
@0229 3c73544a
@022a bdae6ae5
@022b 3c4259a7
@022c 3d5240ef
@022d 3db8b40c
@022e bcd1f6d3
@022f 3b37443c
@0230 bd86bab4
@0231 3d87529f
@0232 3d1f8e89
@0233 3d7d5c4b
@0234 bc6c28bb
@0235 3d090cb2
@0236 3e170f42
@0237 3de5eb4f
@0238 3df99613
@0239 3c3b5db8
@023a 3dbbcca2
@023b 3da0af1d
@023c 3e0ebed7
@023d 3cc9b615
@023e bd9241f1
@023f 3d066a95
@0240 3cd52cb7
@0241 bd80a6dc
@0242 3d3b0cc1
@0243 3d295f75
@0244 3d7ee5dc
@0245 3d31aa31
@0246 bd8bddb3
@0247 3db70b0f
@0248 3da866f8
@0249 bd2890ba
@024a 3d6722d9
@024b bd24210a
@024c 3d86823a
@024d 3ce22b7b
@024e 3dafb6b2
@024f bd269589
@0250 bd41aefc
@0251 3dad26aa
@0252 3b9463ad
@0253 3d91a8c3
@0254 3d7fa1c6
@0255 3d49489f
@0256 3d75a3fd
@0257 bc383206
@0258 3d49ae30
@0259 3d89f6c4
@025a bd0d414d
@025b bd4cb1bd
@025c 3d805812
@025d bd581b21
@025e 3ceedd0d
@025f 3ce113f7
@0260 bcaec467
@0261 3c9cd68d
@0262 3d3c8082
@0263 3d72821f
@0264 3d3cc13a
@0265 bd5fa03a
@0266 bd405a23
@0267 3d18bd8d
@0268 3ce2b384
@0269 3d7fb146
@026a bc72753c
@026b bcec4178
@026c 3cbb83fb
@026d 3d9e4ad5
@026e 3d932cee
@026f bccd1527
@0270 bc427a91
@0271 3e02198e
@0272 3e17e5b3
@0273 3e6a46d6
@0274 3e6819fe
@0275 3e25405b
@0276 3e417757
@0277 3e42c556
@0278 3ebb54d1
@0279 3ea4ed7e
@027a 3e4ff74f
@027b 3e16e3d1
@027c 3e89daa5
@027d 3e68135b
@027e 3e7b833e
@027f 3dcf97e5
@0280 bd4e240b
@0281 3d587507
@0282 bc07c2e8
@0283 bcce7567
@0284 bd1c6735
@0285 bd17e587
@0286 bdb7d2fb
@0287 be14c833
@0288 bd6c48fc
@0289 3d38a905
@028a 3d77d9d7
@028b bd5ad98b
@028c bc6c6d5c
@028d bd2dacb0
@028e 3d9637c9
@028f bbc1f72a
@0290 bd304e66
@0291 3d528ba2
@0292 3b9acb10
@0293 bd64ddbc
@0294 bc5c6fd2
@0295 3c6a67fa
@0296 3d6e1f32
@0297 3d0c751c
@0298 bd006fb2
@0299 bd393a21
@029a bd81f2d9
@029b bbdb326f
@029c 3caf5e65
@029d bcdccf50
@029e 3d60cc3a
@029f 3b852131
@02a0 3d4f66d4
@02a1 bcd6ad9a
@02a2 bbefe92c
@02a3 3d7f7543
@02a4 bcc4fefe
@02a5 3dab159b
@02a6 3d844018
@02a7 bcd3c0dc
@02a8 3d8085bb
@02a9 bd725190
@02aa bd236cda
@02ab 3bd26544
@02ac 3dab019d
@02ad 3d421c32
@02ae bd6e2d34
@02af 3c8a5530
@02b0 3d48c44f
@02b1 bcc0df4c
@02b2 bd6ea5b0
@02b3 3cfb01f0
@02b4 3d9d0100
@02b5 3d9fc09a
@02b6 3d05ff26
@02b7 bd274d99
@02b8 bd3d803c
@02b9 3c76290f
@02ba 3ca97bc4
@02bb 3b774e40
@02bc 3d3ceb4d
@02bd 3e288331
@02be 3e20e73e
@02bf 3e6af7e3
@02c0 3e3382b9
@02c1 3cf132b4
@02c2 3def3def
@02c3 3e753671
@02c4 3e86e333
@02c5 3e64a36b
@02c6 3e00aa87
@02c7 3e3af590
@02c8 3dfb1992
@02c9 3e3c1bc0
@02ca 3d282c18
@02cb bd4e9d24
@02cc 3d6385fd
@02cd 3ce2c0be
@02ce bd8b3356
@02cf bd613505
@02d0 3bfe68bb
@02d1 bd8d0b71
@02d2 3c16eb80
@02d3 bc962372
@02d4 bddb6f32
@02d5 3d8255cf
@02d6 3d22a3eb
@02d7 3deb513f
@02d8 3dce3b54
@02d9 3d3ef6a1
@02da 3cfb659e
@02db bcdff360
@02dc 3de42df3
@02dd 3dd20fea
@02de 3c528184
@02df 3d03ba8c
@02e0 3d268ced
@02e1 bbf3c052
@02e2 3db16136
@02e3 ba59d371
@02e4 3d8f418d
@02e5 3d20accc
@02e6 bdc2adac
@02e7 3af6301d
@02e8 bda9a0c4
@02e9 bd233da8
@02ea bcf95fa9
@02eb 3d52ec92
@02ec 3d5ef2ad
@02ed 3d69b1f0
@02ee bd6f4c07
@02ef bc33ac09
@02f0 bd2ae1a1
@02f1 3d84a476
@02f2 3d3e7754
@02f3 3c581a41
@02f4 3cf47c04
@02f5 3cf0b328
@02f6 3cd2fc05
@02f7 3a7fd51f
@02f8 bc847720
@02f9 bbca9bd3
@02fa bce79ab4
@02fb 3c02dd7b
@02fc 3d914584
@02fd 3c20fce2
@02fe bd95e640
@02ff bbb6ee88
@0300 3d533719
@0301 bd8907e7
@0302 3ca92394
@0303 3da221b6
@0304 3ca3db9f
@0305 bbd79bdf
@0306 bd1e8d7b
@0307 3db877ed
@0308 3dbdb5a6
@0309 3dba6350
@030a 3d57b4e2
@030b 3d235c5f
@030c bdafbc4f
@030d 3b74d0f2
@030e 3d375776
@030f 3cb1bb56
@0310 bc86f0bd
@0311 bd7356e4
@0312 3d927dfe
@0313 bb2191dd
@0314 3ddc0531
@0315 3d863121
@0316 3b4c6b21
@0317 3d66698a
@0318 bbd3398c
@0319 3dd5f056
@031a 3d1b24bb
@031b bb340cee
@031c 3d2b8f40
@031d 3d776bc6
@031e bdb741f2
@031f bd4286a0
@0320 3cc3c8f4
@0321 bc6b5b05
@0322 3d1fca7d
@0323 3d451d01
@0324 3d797cda
@0325 bd98f257
@0326 3cc119c7
@0327 3ccc4461
@0328 3bb5bc1c
@0329 3d8b4e82
@032a 3d67db98
@032b b9ae4a5e
@032c bd2227c9
@032d 3d93eb50
@032e 3d75fa82
@032f bb9e1ab9
@0330 bd6348e8
@0331 3be138fb
@0332 bd665ca8
@0333 3d84e5aa
@0334 bb83c086
@0335 bda686a4
@0336 bb2b5766
@0337 3d483f7c
@0338 bd730509
@0339 3d29249e
@033a bd7841da
@033b 3c4d1f4c
@033c 3c8736e8
@033d bd88fc39
@033e bcaba305
@033f bd83a2f7
@0340 3c06dd09
@0341 3c89eff0
@0342 3ac9f772
@0343 3d5ca4f1
@0344 bc528c0c
@0345 bd03b9f0
@0346 bd5010bc
@0347 bc6a2181
@0348 3ca87650
@0349 bd6c623b
@034a 3c10927f
@034b 3d63f87c
@034c bd16db3c
@034d 3d8c8f9e
@034e 3bb4f35a
@034f 3d87ca6b
@0350 3c3d1e39
@0351 3b6bebd5
@0352 3ca51d12
@0353 3cd804bf
@0354 3d720e0c
@0355 3da6dd75
@0356 bd9618bb
@0357 bc4f3b01
@0358 ba06706e
@0359 bbe39fde
@035a 3d57d71d
@035b bc867a50
@035c 3d48f2e1
@035d bd83fc7c
@035e 3d8ffa48
@035f 3d3e0a1e
@0360 bc88ae15
@0361 3c97792f
@0362 bd2617fd
@0363 3d0b0cb5
@0364 3cccc296
@0365 bd817507
@0366 3d6f3f8a
@0367 3c831170
@0368 3ca8a1c1
@0369 3d8bfe5a
@036a bb778fb1
@036b bd7bbafb
@036c 3d8f8347
@036d 3c49bad7
@036e 3d86e71e
@036f 3d0ad953
@0370 3b0afe22
@0371 3b9c7a65
@0372 3b829f02
@0373 bd2e6d0d
@0374 3d4dd5ab
@0375 3c18cfe6
@0376 3d16e3e3
@0377 3d9e8ff1
@0378 3d960733
@0379 bcab1c19
@037a bd130454
@037b bd619012
@037c bcd1263e
@037d bd0f101d
@037e bd92113c
@037f 3ae0edea
@0380 bd2baa91
@0381 bc43e9f2
@0382 3d04d4af
@0383 bd387a0e
@0384 bd5ccfa1
@0385 bd606da4
@0386 3b925b5d
@0387 3d23d89c
@0388 3d10ec2c
@0389 3da70411
@038a 3d276a12
@038b bd953ebf
@038c 3d9d470f
@038d bbe8ca32
@038e 3d176228
@038f 3ab21587
@0390 3c235a2b
@0391 bd9d3c14
@0392 bb371dba
@0393 3c8b03b0
@0394 3d48ea38
@0395 bca5fbe6
@0396 3c994e4a
@0397 3cc37a99
@0398 3b93b2d0
@0399 3c92f6f0
@039a 3d5cf991
@039b 3d555e71
@039c bc8274d2
@039d 3d5c3c04
@039e 3c6edf0c
@039f bd87a6fb
@03a0 3d4e1292
@03a1 3d8f716d
@03a2 bd8e0df2
@03a3 3bb68e3d
@03a4 3d938d85
@03a5 bd8963c5
@03a6 bd7d935c
@03a7 bd32e736
@03a8 bd19b248
@03a9 bc58e615
@03aa bd28e77c
@03ab bd510903
@03ac 3cd2ecb4
@03ad bd18d98f
@03ae bd01c350
@03af 3c263e85
@03b0 bb7fb1c9
@03b1 ba9e66bc
@03b2 3d96480e
@03b3 3d84b6fa
@03b4 bd5b426b
@03b5 bc882ef0
@03b6 3d692597
@03b7 bd013337
@03b8 3c33e15e
@03b9 3d432657
@03ba 3d8ccfc9
@03bb bd0bc8c1
@03bc 3d906980
@03bd bbedca1c
@03be 3d29f2ad
@03bf bc2bf246
@03c0 3d068b64
@03c1 3c55cb9f
@03c2 3d26161c
@03c3 bd29ffde
@03c4 bccfd33d
@03c5 3d364724
@03c6 bb639353
@03c7 3c1b8f70
@03c8 3d81f9df
@03c9 bc8c0757
@03ca 3c891b7d
@03cb 3d86b78d
@03cc 3d6ab9ab
@03cd 3c6bef28
@03ce 3c364d35
@03cf bd0f2a3f
@03d0 3ba3d1ff
@03d1 bd78235a
@03d2 bda509f9
@03d3 bc7b5c7f
@03d4 3b2bb594
@03d5 3d9b8dfd
@03d6 bd208030
@03d7 3d230767
@03d8 3d0306d7
@03d9 bd9e463c
@03da b8ea358e
@03db 3d856c50
@03dc bbaa0394
@03dd bc431c02
@03de 3d037204
@03df bd946f8c
@03e0 3d9e3452
@03e1 3b84cc7f
@03e2 bca432cc
@03e3 3d9a31f0
@03e4 bd177a52
@03e5 3d9c143c
@03e6 3c8cbb39
@03e7 3d019393
@03e8 bd95db62
@03e9 bd7c8f9b
@03ea bce31cb9
@03eb 3cc05f3f
@03ec bd6af497
@03ed bcd8a07f
@03ee 3c5cc51f
@03ef 3d1476fb
@03f0 bd33570f
@03f1 3d85c94e
@03f2 3d62798f
@03f3 bc538ba4
@03f4 3d7eefe6
@03f5 bd8d4e74
@03f6 bd6a1139
@03f7 bc74c030
@03f8 3d7d8091
@03f9 3d846a87
@03fa bd9e0a82
@03fb bcded656
@03fc bcee4238
@03fd bcd98883
@03fe bbe761a1
@03ff bd09a145
@0400 bd31b4c7
@0401 bcc3882b
@0402 bcba1a2a
@0403 3ca4f324
@0404 bd54b2a7
@0405 3d234759
@0406 3a767512
@0407 bcf7ca7c
@0408 3cd9999d
@0409 3d5e09af
@040a bd92bc2f
@040b 3c4e7b29
@040c bd87b18d
@040d 3d3b3fcc
@040e 3bee41c4
@040f 3b0a7686
@0410 3d825b38
@0411 bd0ab485
@0412 3945ebc9
@0413 3d659672
@0414 bc5c9394
@0415 3d172e43
@0416 3d1d1154
@0417 bd32772c
@0418 bd4ee3ff
@0419 bba470f0
@041a 3ce4b131
@041b 3c12cfa0
@041c bd63300b
@041d bceca8c2
@041e 3d184739
@041f 3bd6e494
@0420 3c35e8c7
@0421 3be8c8ef
@0422 bcc24521
@0423 3d2e89f0
@0424 bd565e12
@0425 bc915c5a
@0426 bd1b6e72
@0427 3c9027d8
@0428 3d3e1d09
@0429 3d7023c4
@042a 3d10be94
@042b bccd3779
@042c 3d821353
@042d 3b81d30a
@042e bcda9e97
@042f bd98961e
@0430 bcfb2895
@0431 3d60bb48
@0432 3c5b8736
@0433 bcd83c6e
@0434 bdb41ee7
@0435 bcb2ced4
@0436 3df4e593
@0437 3df72693
@0438 bbdb8da2
@0439 3cc04f74
@043a 3e19d078
@043b 3de94bf3
@043c 3e096f87
@043d 3dc15f4d
@043e 3e0ef85d
@043f 3dcf3d96
@0440 3e40526f
@0441 3d9fee78
@0442 3d40a09f
@0443 bd01afd9
@0444 389c7e70
@0445 bab17f03
@0446 ba926deb
@0447 bde425d6
@0448 be46715c
@0449 be3bfb86
@044a bdb55ed0
@044b bc81fc2e
@044c bda30cb5
@044d bd14e304
@044e 3d72f9f8
@044f bca72eed
@0450 bce0dc66
@0451 3cd2f23e
@0452 bb995b2e
@0453 bd59b603
@0454 3d143893
@0455 3d24c5da
@0456 3c0b2996
@0457 bcea5399
@0458 3c75a78d
@0459 bcc414fa
@045a 3da3395f
@045b bd6291b2
@045c bda0d46e
@045d 3d8248ca
@045e bcdd2a28
@045f bda56a7d
@0460 bc1a75e9
@0461 3d234f3c
@0462 bd927d15
@0463 3c388287
@0464 3d9614e2
@0465 bd8d6001
@0466 3ca62507
@0467 3d859954
@0468 3d9ee5fe
@0469 bcc10730
@046a 3cc9a081
@046b bd4f1433
@046c 3d6848c5
@046d bcad9b5f
@046e 3ca9c920
@046f bcb5d7a4
@0470 3d88edd4
@0471 3c551ac9
@0472 3da82426
@0473 3d9f04d5
@0474 bc51b9a3
@0475 3d4518b9
@0476 bc89b00f
@0477 bbf05f31
@0478 bd9d5bd0
@0479 bd3ab80a
@047a 3a74ec8e
@047b bda6ef26
@047c bda20302
@047d 3d11e538
@047e bdc2e59b
@047f bc741361
@0480 3d5ae468
@0481 3c982b48
@0482 3dd417e0
@0483 bd5c7c3b
@0484 3d1ab7a7
@0485 3d9f8db2
@0486 3c99b60a
@0487 3dfca1a1
@0488 3c9e7da7
@0489 3db86f27
@048a 3dfc68c3
@048b 3db38728
@048c 3db7228d
@048d 3d9b01e3
@048e bce36699
@048f 3c6dbc6b
@0490 3d5c6321
@0491 bd4bbd6c
@0492 3d1aed62
@0493 bdd4e4af
@0494 be1b70e2
@0495 bd5cf0f5
@0496 bda8c9bf
@0497 3cca1855
@0498 3da50184
@0499 3d8c1d24
@049a 3d3ce53f
@049b 3cea9690
@049c 3d7a5d98
@049d 3d68c75a
@049e 3dc0e8e4
@049f 3d1467f5
@04a0 3c84348f
@04a1 3d814059
@04a2 bd682174
@04a3 bbb930f8
@04a4 3d3d2640
@04a5 3d96179c
@04a6 bd5b06c4
@04a7 bdabf184
@04a8 3d818116
@04a9 bd55d767
@04aa 3d98433c
@04ab 3ce3043b
@04ac bd1e2ac6
@04ad 3c8b8976
@04ae 3b2556dd
@04af 3cce1ee8
@04b0 bd8ea16e
@04b1 bbb12923
@04b2 3ce5319c
@04b3 bc31602d
@04b4 bcc76e6f
@04b5 3c8cae6e
@04b6 3d0d9970
@04b7 3d517344
@04b8 bd1bc400
@04b9 3d65da30
@04ba bd0f0156
@04bb 3d80c4c7
@04bc bce314fc
@04bd 3be2786a
@04be bd4a02f3
@04bf 3ca751e6
@04c0 3d84863b
@04c1 bd34df35
@04c2 bad41111
@04c3 bcd7406a
@04c4 3d3139bd
@04c5 bd800bda
@04c6 bd8b68e7
@04c7 3d93a00a
@04c8 3d99c673
@04c9 bd4f4b7c
@04ca 3c959bf0
@04cb bdf4bf80
@04cc bdb7335f
@04cd bb47ca16
@04ce 3d984604
@04cf 3df5bad7
@04d0 3d9f9db6
@04d1 3d56fa07
@04d2 3dede7f4
@04d3 3e1b6292
@04d4 3e13759e
@04d5 3d8b46e2
@04d6 3e0770c6
@04d7 3ccd5ddc
@04d8 bc6bc5b9
@04d9 3db6c9b1
@04da 3db1943c
@04db 3c3eb88b
@04dc 3d6a2cf0
@04dd 3c58b330
@04de bdbf1dcd
@04df 3ccf0dba
@04e0 bdb526c3
@04e1 bc8dd272
@04e2 3bdcbc3a
@04e3 3cddae3b
@04e4 3bfed7e3
@04e5 bcad175c
@04e6 3d4f372d
@04e7 bca5845f
@04e8 bd6c6556
@04e9 bd933cbc
@04ea 3cf8b5a7
@04eb bd3e5bcc
@04ec 3bd90d87
@04ed 3d5b1f66
@04ee 3d7e8816
@04ef bd9ac41c
@04f0 3d2e66f7
@04f1 bd98da66
@04f2 bb546d7a
@04f3 3c662025
@04f4 3d162dad
@04f5 3d3bc702
@04f6 bda2df6a
@04f7 bce73ad1
@04f8 3c93c914
@04f9 3c08cc53
@04fa bca5a35f
@04fb 3d3ecb73
@04fc bbb46c25
@04fd bcf298fb
@04fe bd5947f7
@04ff bd339150
@0500 3d475bfa
@0501 3d47fdc5
@0502 bc2a0768
@0503 bd989784
@0504 bd15da38
@0505 3d792e99
@0506 bd9c28ac
@0507 bd518bf8
@0508 3d4b5eec
@0509 bd4944d8
@050a 3d1daeab
@050b bd7be303
@050c 3da2df5f
@050d 3cfb1727
@050e 3da1ee4b
@050f 3daa625c
@0510 bc6ab787
@0511 bd85784a
@0512 bc905a47
@0513 bd66b4ec
@0514 3d76a5d2
@0515 3d3ff17a
@0516 bdd0b538
@0517 bde0f7cc
@0518 3ce8594f
@0519 3d2a470a
@051a 3dbdf27c
@051b 3dc3b9b7
@051c 3d8e20f6
@051d 3c9429df
@051e 3c22a93d
@051f 3db3fc3b
@0520 3d834ae1
@0521 3dcd3200
@0522 bd04d281
@0523 3dc7e118
@0524 3d4daf4c
@0525 3d83bedd
@0526 3db27e10
@0527 bcfe011a
@0528 bd4860f9
@0529 bdc3cac7
@052a bd7e39c2
@052b bdb209f5
@052c bd897b9f
@052d 3cfcfab1
@052e bd8c1336
@052f 3cc80b5a
@0530 bd26770b
@0531 3d2cc82e
@0532 3da5ab30
@0533 3d9405c9
@0534 bd80906e
@0535 bc919ce3
@0536 3db0f7a2
@0537 3d6eae72
@0538 3db3e0ed
@0539 3cf0d3a1
@053a 3d28a958
@053b 3cd48859
@053c bcc8bdcb
@053d 3d3ead43
@053e bb687cfe
@053f 3c9728e1
@0540 3c68aa96
@0541 bd2dfc98
@0542 bda66426
@0543 bc0a3b41
@0544 3d8125fa
@0545 bcc86b56
@0546 bcb412e6
@0547 3d9df2fd
@0548 3ca83773
@0549 3bbd78c4
@054a bd658cb6
@054b 3d83fe5f
@054c bd95b020
@054d 3d633703
@054e 3c5abd04
@054f bd799a75
@0550 3ca50824
@0551 3d07a35a
@0552 bd073125
@0553 3d7afeba
@0554 bcd707e3
@0555 bc196dcb
@0556 bd35dd14
@0557 3d4995be
@0558 3cbe2321
@0559 b9fee4a7
@055a bd86222d
@055b 3da2a112
@055c bd8142c1
@055d bc29b6b3
@055e 3d3fbf74
@055f 3c5674fc
@0560 3da519b9
@0561 3de93a51
@0562 3d83ad0d
@0563 3e2b94b7
@0564 3d69fb7a
@0565 3e10ecd1
@0566 3d4e236d
@0567 3e17a156
@0568 3e2adf60
@0569 3d157c8f
@056a 3d8eeb19
@056b 3d32aa4b
@056c 3e616c84
@056d 3e703244
@056e bd0df83d
@056f bcad0fd8
@0570 3d23ebed
@0571 3e804a02
@0572 3e6b5a66
@0573 bd2daf64
@0574 3d17f1e9
@0575 3e3ba811
@0576 3e343f90
@0577 3e021cd5
@0578 3da6328d
@0579 3c7a8600
@057a 3ce7c282
@057b baecd9d5
@057c 3d6d88aa
@057d 3cefa9f4
@057e bd16c86f
@057f bd95938d
@0580 3cfc906d
@0581 3d4df0d2
@0582 3d219009
@0583 3c9ab80a
@0584 bd09c884
@0585 3d904c0c
@0586 3c153dea
@0587 bd920ea5
@0588 3b08e714
@0589 bd99b251
@058a 3a8ba8d2
@058b 3d14a01c
@058c bc9137d5
@058d 3d9080cf
@058e 3d84aefc
@058f 3d97c3f1
@0590 3d0c8254
@0591 3d130743
@0592 3d8c3a2b
@0593 3d141bb8
@0594 bcdd1320
@0595 bc119ccb
@0596 3c35bee8
@0597 3d005ce3
@0598 bca4b27c
@0599 baa2aff0
@059a bcf322ac
@059b 3d690029
@059c bca9b3ff
@059d 3ce4680c
@059e 3da0aa1e
@059f 3c9d8e4f
@05a0 3c91421f
@05a1 bcd63f61
@05a2 3d757246
@05a3 bd5b6fe5
@05a4 3d8ba31d
@05a5 3d1a69d5
@05a6 bd606941
@05a7 bbb5c8f4
@05a8 bd69b184
@05a9 3c9accba
@05aa 3de31912
@05ab 3d87ce63
@05ac bc0affcf
@05ad 3daa6c1b
@05ae 3e19ccad
@05af bcf267e0
@05b0 3d295215
@05b1 bc40f1c1
@05b2 3dbcc7e7
@05b3 3e2e6fef
@05b4 bc37bc00
@05b5 bd2af3ea
@05b6 3d5be5e4
@05b7 3e1b7b5d
@05b8 3e0df326
@05b9 bdf2d814
@05ba bdaa9df3
@05bb bc15fed2
@05bc 3e08385b
@05bd 3df40743
@05be bd7d985c
@05bf bcf4cb94
@05c0 3dd56df5
@05c1 3ce0103f
@05c2 3e070ae7
@05c3 3ca4f300
@05c4 bc4f60ad
@05c5 3cf2e0d0
@05c6 bca9f34d
@05c7 bad2f762
@05c8 bce5bfff
@05c9 3d8b96bc
@05ca 3dab17f7
@05cb 3d5cb1a1
@05cc bd099483
@05cd 3cf23542
@05ce 3ca79c34
@05cf bca45b2c
@05d0 3d151611
@05d1 bd1a3a9d
@05d2 bc8e1201
@05d3 3d178bab
@05d4 3dc3620f
@05d5 3dd04872
@05d6 3da1411a
@05d7 3cfc9c30
@05d8 bd15d229
@05d9 3da9f178
@05da bc6249a5
@05db bd79629b
@05dc bd24ac2e
@05dd bd952da2
@05de bd3e3d32
@05df 3d93016d
@05e0 3d9a0d8e
@05e1 bd832be0
@05e2 bb0b8113
@05e3 bd719974
@05e4 bd3d8d6c
@05e5 bcd4d90e
@05e6 3c5196d6
@05e7 bd905982
@05e8 bd2d8e21
@05e9 3d501e69
@05ea bd805429
@05eb 3cde0d7e
@05ec bceda80c
@05ed 3da233e5
@05ee 3d9b368d
@05ef bd8abb5b
@05f0 3cae7303
@05f1 bc34e32d
@05f2 3d562f5f
@05f3 bd8b6a38
@05f4 3c7dc71a
@05f5 3d17e990
@05f6 3e444fc4
@05f7 3d676ceb
@05f8 3e18a951
@05f9 3ddab872
@05fa 3c5d126e
@05fb 3c1f9a9c
@05fc 3dd3784a
@05fd 3d774487
@05fe 3dc39fcd
@05ff 3b16722c
@0600 be018681
@0601 bdd6dc71
@0602 3d6f2f29
@0603 3cc73ab9
@0604 bd81ceb9
@0605 bdb42356
@0606 bdf6b03a
@0607 3bdeaaf2
@0608 3d0e5ab0
@0609 bd3d7778
@060a 3d401361
@060b 3c8ca170
@060c 3cb069c1
@060d 3e075d56
@060e 3c8fcb1e
@060f 3d989492
@0610 bd38d868
@0611 3d91b602
@0612 3cdb27b6
@0613 bd1bec2f
@0614 3d4d2b95
@0615 3ce5a999
@0616 3d251782
@0617 bd312374
@0618 3a8a2694
@0619 bd04a60a
@061a bceaff27
@061b bd35aaee
@061c 3cc23de4
@061d bd66a7ac
@061e bcfc12e0
@061f 3d940055
@0620 3d07292d
@0621 3d8828ca
@0622 3d8c3d5a
@0623 3da244d6
@0624 3b60b36b
@0625 3d1b4498
@0626 3becbed5
@0627 bcd70706
@0628 bd11b634
@0629 3d36e600
@062a 3c9ee20c
@062b bca3a0c2
@062c 3d95213e
@062d 3cf73a03
@062e bcdf2838
@062f bc8a05f3
@0630 bd160404
@0631 bbeca47e
@0632 3c9ed496
@0633 bda2687b
@0634 bdb5d1bc
@0635 3caeb393
@0636 3d34c5b5
@0637 3ce3b96e
@0638 3d8dca44
@0639 3d2612cb
@063a 3dace8ad
@063b 3cbba847
@063c bd4248bf
@063d 3d04acc4
@063e 3d6c632d
@063f 3d15df75
@0640 bca26d06
@0641 3dd45a03
@0642 3e270f51
@0643 3dd5ad9b
@0644 3dd5c573
@0645 3d498ad2
@0646 bc783964
@0647 3d008618
@0648 bcb4a58c
@0649 bc49dbad
@064a bd178152
@064b bc03ba4e
@064c bdd7b5c2
@064d 3b1f48dc
@064e 3d308b7d
@064f bd2e7249
@0650 be057d82
@0651 bdc8a234
@0652 3d33c25e
@0653 3ddf68b0
@0654 bd47f45c
@0655 bd354749
@0656 3c8337cb
@0657 3d06dad5
@0658 bb14480f
@0659 bd91e2fe
@065a bd8d26ad
@065b bd3f47b3
@065c 3d9165fd
@065d bc1d99fc
@065e 3c8b0ce0
@065f bd6f0406
@0660 b9f2ab52
@0661 bd3221b5
@0662 bcedc598
@0663 bd7ca45c
@0664 bd8b15cb
@0665 3d8a1f04
@0666 3d9466da
@0667 3d5ac1d2
@0668 3d536ae3
@0669 3d8d7f22
@066a bd304a24
@066b bca98fa5
@066c 3d2cbcda
@066d 3d48b888
@066e bb612354
@066f 3c94f29a
@0670 bd2ae2dd
@0671 3d69bd0e
@0672 bd1e477f
@0673 3c48457a
@0674 3d3462cc
@0675 bd91d3c9
@0676 3d4ca2be
@0677 3d752894
@0678 bd2a149d
@0679 3ce20739
@067a 3da5f183
@067b bd1d1bd0
@067c bc745517
@067d bd80197b
@067e 3cb57507
@067f 3bfcc13d
@0680 3d734327
@0681 3d75687a
@0682 bd4be8df
@0683 3d90858f
@0684 bd66fb92
@0685 3c8ad0bd
@0686 3d724a3a
@0687 bd3f08ac
@0688 3c652896
@0689 b8f7598c
@068a 3cbcbd89
@068b bc496154
@068c baa67453
@068d bd4ce526
@068e bd979cbf
@068f bd9161fd
@0690 3dd93ed0
@0691 3dd9dde8
@0692 3df015ff
@0693 bc8c5119
@0694 3d68281e
@0695 3e322aa2
@0696 3db8b990
@0697 3dc87bb5
@0698 3d98efc5
@0699 3e0a4dbe
@069a 3d065a2c
@069b bd8da9c5
@069c bd649072
@069d 3d8a1a7d
@069e bcc7738d
@069f bde13db9
@06a0 3b84ecb6
@06a1 bdcfcc40
@06a2 bd85d43a
@06a3 bcfab8d5
@06a4 3d990e37
@06a5 3d6fb9fe
@06a6 3d35e65e
@06a7 bd25ab0b
@06a8 bd81fa32
@06a9 ba6267f1
@06aa bc2b7a54
@06ab 3cbbaad6
@06ac 3d8fa1b5
@06ad bcca52fb
@06ae bd895dd8
@06af 3c9202f7
@06b0 3d33bc66
@06b1 bc80372c
@06b2 3d3df580
@06b3 3caf5780
@06b4 bc49b57c
@06b5 3d55d7ba
@06b6 3d26c526
@06b7 bd93263b
@06b8 bced4976
@06b9 bbd61b46
@06ba bc9e59b1
@06bb 39a6b4f9
@06bc 3ca4ef3f
@06bd 3d2cabf7
@06be bd69bbf5
@06bf 3d8a4e2d
@06c0 bd915edf
@06c1 bc9e610a
@06c2 bd78581e
@06c3 bd0b7feb
@06c4 3c54b675
@06c5 3bda6239
@06c6 3da334d2
@06c7 3d605687
@06c8 3d5e76e0
@06c9 3c5c98d2
@06ca 3cfbb784
@06cb bd81e8e2
@06cc bcf88a69
@06cd 3c06f7f8
@06ce bd9bfefd
@06cf 3d37943a
@06d0 3c50c288
@06d1 3d572849
@06d2 3d25d5e3
@06d3 3d0b8b95
@06d4 bcfe7911
@06d5 bb6f13b0
@06d6 bd5117bb
@06d7 bd48999e
@06d8 3cd925ba
@06d9 bd9c8d8c
@06da bbdfdfec
@06db 3d1338e9
@06dc 3ddfde38
@06dd 3d0982d2
@06de 3c94b756
@06df bd018971
@06e0 3d20383d
@06e1 bca69a0d
@06e2 3d92d10c
@06e3 3d7aec5a
@06e4 3d028c5f
@06e5 3dd4c428
@06e6 3da4e83c
@06e7 3c1bd7eb
@06e8 bd0460f4
@06e9 bd59cd1f
@06ea bd300e33
@06eb bdcb54d8
@06ec be006e93
@06ed bbf02743
@06ee bd931db9
@06ef bcb0ee5b
@06f0 3bb267ac
@06f1 3d26d24a
@06f2 bd0e54c4
@06f3 bd51b449
@06f4 bc5c4bd8
@06f5 3d300884
@06f6 3d07733d
@06f7 3dadf647
@06f8 3d110554
@06f9 bd872b4d
@06fa 3c801c76
@06fb b6bd05ed
@06fc bd375b3e
@06fd 3c2c8587
@06fe 3d869828
@06ff bd6abc0d
@0700 bd9ce8c7
@0701 3d614099
@0702 3d612410
@0703 bd69a3e4
@0704 bd97a35d
@0705 3d11e059
@0706 3bd4879e
@0707 3d16eda7
@0708 bd677fa3
@0709 bc1daa38
@070a 3d8e0a3d
@070b 3c2f343f
@070c bd1b506e
@070d bd7324f0
@070e 3d591baa
@070f bd8e4a36
@0710 bb2639fc
@0711 3d54b125
@0712 3da20118
@0713 3d00c43b
@0714 bb491200
@0715 bd221a05
@0716 3c8e121a
@0717 3d75a4fa
@0718 bcdf90b2
@0719 bbc58b9b
@071a bd2431a1
@071b 3c8ffd56
@071c 3b003853
@071d 3d4fdbb7
@071e 3d27ce33
@071f 3d41f668
@0720 3ca3676b
@0721 3e1017e7
@0722 3d3dc270
@0723 3e261a8d
@0724 3e2c56d2
@0725 3d119953
@0726 3db310b0
@0727 bd40b4c8
@0728 3c629fbc
@0729 bac2a1cd
@072a 3dac081a
@072b 3c0f4765
@072c bd383aa9
@072d be025149
@072e bcb8e646
@072f bd87b083
@0730 be02e355
@0731 bdb5aa02
@0732 bcb546fe
@0733 bcf7d900
@0734 3d7657c3
@0735 bd1ddbb1
@0736 bd889565
@0737 bcf67e0c
@0738 bc9e1ef2
@0739 bd889fba
@073a bd832351
@073b 3d671469
@073c bcffc01c
@073d bd1b3996
@073e 3d064ab7
@073f 3d19c8e1
@0740 3d05217a
@0741 bd159973
@0742 bc451761
@0743 3d0722b5
@0744 3d1046d0
@0745 bb915a1d
@0746 3d4c2819
@0747 bd2c7d8c
@0748 3d7a5f65
@0749 3c4abcec
@074a bd6ca8d2
@074b bc8f66de
@074c bc54a79e
@074d 3d916dfe
@074e 3c3e4b40
@074f 3c839b07
@0750 3d952ef4
@0751 3c1ebf9e
@0752 bd993629
@0753 b94e0449
@0754 bd4c380a
@0755 bd263b8e
@0756 3d5393e4
@0757 bd32f88f
@0758 3c9481f9
@0759 3d85826d
@075a bd4d14bf
@075b 3d2fb45b
@075c 3c09540d
@075d 3c2a788c
@075e bd2d317a
@075f bc861f11
@0760 3d379e68
@0761 3bc2b665
@0762 3d1df134
@0763 bd4a9b4d
@0764 3d99fcb6
@0765 bd20ba72
@0766 bd1e5904
@0767 bccfe364
@0768 3c51b3e4
@0769 3c6cc640
@076a 3d9e858b
@076b 3d63112f
@076c 3cd5d5c2
@076d 3dfb2336
@076e 3c7b76c6
@076f 3da77904
@0770 3dffd697
@0771 bd724434
@0772 3db248a2
@0773 3da54f42
@0774 bbc6d996
@0775 3de15d9e
@0776 3c9b1f5c
@0777 bce7af5a
@0778 bc00a973
@0779 bd2c518e
@077a bd155523
@077b bdefa1e6
@077c 3c77eb62
@077d bd108999
@077e bd84c3a7
@077f 3d97c63b
@0780 bd5b1cfa
@0781 bdadafd0
@0782 bc521b2a
@0783 3d40c160
@0784 3cdf3a52
@0785 bd800b5e
@0786 3c5b3487
@0787 bcd872c4
@0788 3dabbcdb
@0789 3d868511
@078a 3d5687c8
@078b bc9b6f1d
@078c 3d8b63d6
@078d bd03d9dc
@078e bd26fcbb
@078f bda6b904
@0790 bd0973c3
@0791 bdb1e8cf
@0792 3c4617f2
@0793 3a39a784
@0794 bd81c4f4
@0795 3cdc6d0b
@0796 bd84805a
@0797 bd8855ee
@0798 3d542f17
@0799 3cebece5
@079a 3d170419
@079b 3d83ea98
@079c bd838454
@079d 3d7049b3
@079e bd8e6695
@079f 3d232080
@07a0 3d8213cd
@07a1 3ce43efe
@07a2 bcb95889
@07a3 bc292d43
@07a4 3d648012
@07a5 3ce003d9
@07a6 3d07d934
@07a7 bcbdbfc4
@07a8 3ce6afaf
@07a9 bd987957
@07aa 3d90c1c5
@07ab bd9bc966
@07ac bd9cbcc8
@07ad bd6c0203
@07ae bc681dff
@07af bd974600
@07b0 bd5b9e56
@07b1 bd021d95
@07b2 bd85e791
@07b3 bd7d9f79
@07b4 bb7c4784
@07b5 bd6858ea
@07b6 3d125862
@07b7 bd907c15
@07b8 bbc239f7
@07b9 3db5f20d
@07ba 3ca19563
@07bb ba8c996d
@07bc bda884ec
@07bd bc28959a
@07be 3d353ead
@07bf 3d944d80
@07c0 bd450f26
@07c1 bb476517
@07c2 3d9d6ace
@07c3 3d00ac5d
@07c4 3aeb26ee
@07c5 bdab4bb7
@07c6 3cd5b95a
@07c7 3d4f804b
@07c8 3b890b3b
@07c9 3d0b95c9
@07ca bdbb08df
@07cb 3c6ba34c
@07cc 3dbdbd44
@07cd bd0858a4
@07ce bdac5ac4
@07cf bb4a2672
@07d0 3d990c3d
@07d1 bc3b1479
@07d2 bbcf62ef
@07d3 3c10346d
@07d4 bc9590e0
@07d5 3d8c2a3a
@07d6 bd1fd91a
@07d7 3d9d5878
@07d8 bda02d37
@07d9 3cfb4fc5
@07da bc24a35e
@07db 3ca948fa
@07dc 3b31bd59
@07dd bbef5668
@07de bc3d4370
@07df 3c8d4d3d
@07e0 bd62359b
@07e1 bc3a6dfa
@07e2 bd3d7828
@07e3 3cd61550
@07e4 bc70b17a
@07e5 3cc97418
@07e6 3c035762
@07e7 bda1b91f
@07e8 3da5eb18
@07e9 3d0712b7
@07ea bd9a91ba
@07eb 3c96433e
@07ec 3a8fa817
@07ed bd6fdd2f
@07ee 3bcf2014
@07ef bc05ff36
@07f0 3c2c235a
@07f1 bd3b5e55
@07f2 bcd53bcd
@07f3 3d70cb86
@07f4 bd61af62
@07f5 3d3fefdd
@07f6 bc40e5ee
@07f7 3bda112b
@07f8 bd1e7342
@07f9 bd703991
@07fa bd307fc2
@07fb bd20a287
@07fc 3c5fb177
@07fd 3ac8932f
@07fe bd1629e9
@07ff bd549230
@0800 3d390b2a
@0801 3c3eaf05
@0802 bc764ca9
@0803 bbb6c45f
@0804 ba90fb63
@0805 bbf35cf8
@0806 3d8b6635
@0807 bbd7f625
@0808 bc383dc6
@0809 b9ef8a45
@080a 3d4b68e4
@080b bc9beeeb
@080c bd98d24e
@080d 3d7f701f
@080e 3dc59918
@080f bd191570
@0810 bd134bef
@0811 3d21e21e
@0812 bce3cba1
@0813 bb640f40
@0814 3d8a72b7
@0815 3d1a18c5
@0816 bd4ff3bd
@0817 bb348c69
@0818 bd6d6191
@0819 3d0650aa
@081a bdaceea7
@081b bd21845b
@081c 3d1d37d3
@081d 3d66c012
@081e 3da3ea22
@081f bda4a404
@0820 bd48dcd1
@0821 3cae934f
@0822 bc22c531
@0823 3d012c64
@0824 3d43949c
@0825 3d643b38
@0826 bd239d0a
@0827 3d069dd9
@0828 bd6fbf61
@0829 bd3918c9
@082a 3d144acd
@082b bd05eb35
@082c 3da949a1
@082d bcd76799
@082e 3c2939a2
@082f 3ced6735
@0830 bd32c12a
@0831 bd797ce5
@0832 3d8b43c2
@0833 bd986673
@0834 bd5f9828
@0835 bd904291
@0836 bcf4de06
@0837 3d2eed80
@0838 bd04f10e
@0839 bd737bcb
@083a bb1397f0
@083b bd210520
@083c bd3720b0
@083d bd5074dc
@083e 3d97f781
@083f bda63788
@0840 3d18d6d5
@0841 bd74fa2f
@0842 bd6692a7
@0843 3bd57938
@0844 bd61794d
@0845 3d19ac1a
@0846 3d0525a2
@0847 bd96c4c5
@0848 3c17d31f
@0849 bd42dcac
@084a 3c737b70
@084b bd9c54e6
@084c 3c29b591
@084d 3c58f5bf
@084e 3d08ff8f
@084f bd04adaa
@0850 3b96546d
@0851 3d25b896
@0852 3ddb76ae
@0853 3dea3e67
@0854 3c89e3bd
@0855 bc09f6ea
@0856 bd09efa2
@0857 3e30952c
@0858 3e889e56
@0859 3d39afee
@085a 3d09df3f
@085b bd7ee694
@085c 3e614beb
@085d 3e87f6e1
@085e 3e2b1ffb
@085f bd42ac8c
@0860 bd65726e
@0861 3e52de1b
@0862 3e292be8
@0863 3e1733ed
@0864 3da7d592
@0865 3ddd6acc
@0866 bd2a207e
@0867 3d6dbfed
@0868 3d4b256b
@0869 bca45193
@086a 3cbde0f0
@086b bd8e9897
@086c bd5845de
@086d 3d051519
@086e 3d22cf77
@086f 3d6a0288
@0870 bd9d2448
@0871 bd51658d
@0872 bd9471cf
@0873 bce08599
@0874 3d3561cf
@0875 bda514c9
@0876 3c12cb9e
@0877 bbfd0fae
@0878 bd1b4c63
@0879 bd6cfe23
@087a 3d9de17f
@087b 3cf9ad0b
@087c 3b06e73b
@087d 3d5805d9
@087e 3d4f730a
@087f bc962f41
@0880 ba85c773
@0881 bcb0905b
@0882 bc87db1e
@0883 3d170a03
@0884 3c0c1680
@0885 3d3101ec
@0886 3c0c6826
@0887 bd0e48cf
@0888 bd196adb
@0889 bd52019f
@088a 3ca6d23a
@088b bc589f67
@088c bd374c2b
@088d 3d3106bd
@088e 3d1fb15b
@088f 3ca37e6f
@0890 3d2a5e58
@0891 bcb9826b
@0892 3ab72a74
@0893 bbadc327
@0894 3d455b46
@0895 3c75c477
@0896 3ba91dde
@0897 bd8fac1f
@0898 bc27502e
@0899 3ce3d0f6
@089a 3db69073
@089b 3d5a979e
@089c bcdb26c8
@089d bd1cbdcf
@089e 3dfbcc9e
@089f 3d96224c
@08a0 bd281026
@08a1 bdd7d6aa
@08a2 3e39a015
@08a3 3de9e498
@08a4 3d1b2a5f
@08a5 3c8ab36a
@08a6 bd8a769d
@08a7 3e4e1dde
@08a8 3e6d249d
@08a9 3df9ed4c
@08aa 3d287d28
@08ab bd8b440d
@08ac 3e006cde
@08ad 3e03f045
@08ae 3df7a628
@08af bd3b580f
@08b0 bc280a08
@08b1 3cc7cbc5
@08b2 bc854bc6
@08b3 bd842f54
@08b4 3d153211
@08b5 3d215c3a
@08b6 bd27dd9c
@08b7 bd7d2ad0
@08b8 bce69f3b
@08b9 3d5b7633
@08ba bc74e112
@08bb 3d9f6518
@08bc 3bdfe1f6
@08bd 3bc54d0a
@08be 3d203355
@08bf 3d0245fb
@08c0 bbcba284
@08c1 bc8a4148
@08c2 3bbf9653
@08c3 bd79d736
@08c4 3c9b8405
@08c5 3d0df0cb
@08c6 3d03ecd8
@08c7 3d009723
@08c8 3c714bdc
@08c9 3cd96639
@08ca bd701c7f
@08cb bcc45cc3
@08cc bcb07635
@08cd bd94dc23
@08ce 3da179e8
@08cf 3d8342a1
@08d0 3d9ba636
@08d1 3ce7ebe1
@08d2 3c28eeb2
@08d3 bd6a2d16
@08d4 3cbd0d66
@08d5 b93d3715
@08d6 3da06550
@08d7 3d68a972
@08d8 bd3269f1
@08d9 3d3f55d9
@08da 3cd455ff
@08db bc83dd4e
@08dc 3c15db4f
@08dd 3ba4ceaf
@08de bd01601b
@08df bd55395f
@08e0 3d8d4834
@08e1 bb8ae2fc
@08e2 bcfdba23
@08e3 bcad3355
@08e4 3cc834c9
@08e5 3e04c6f3
@08e6 3e354f67
@08e7 3da88ba3
@08e8 3dbcf1da
@08e9 3dc20398
@08ea 3df45dce
@08eb 3e1f6b28
@08ec 3dd785c3
@08ed bcedd1ac
@08ee bd56e530
@08ef 3d76379b
@08f0 3bdb7f6a
@08f1 3c8fcdea
@08f2 bddc041c
@08f3 bdb624c7
@08f4 bc1a0580
@08f5 bd9af4fd
@08f6 3da57b08
@08f7 bd45d6bd
@08f8 be144df4
@08f9 be065a9f
@08fa 3be8d97f
@08fb 3d2aa1f1
@08fc bd9b6dca
@08fd bd543267
@08fe 3d4ae4b3
@08ff bc220e90
@0900 bcb5b711
@0901 bcceb7c3
@0902 3d983017
@0903 bd261208
@0904 bd9bbd79
@0905 3baed79a
@0906 3d78b091
@0907 bc11f1cd
@0908 bc97bb4e
@0909 3ba115f3
@090a 3b6a2d39
@090b bd63be57
@090c bd4d2e82
@090d 3d7838fe
@090e 3d306c21
@090f 3a217022
@0910 bd455782
@0911 3c5913ea
@0912 bd8d78c1
@0913 3bb62f2b
@0914 3d20b98d
@0915 bb0588e3
@0916 bd3ae7fe
@0917 3d67b276
@0918 bd69b9a6
@0919 3d8422a7
@091a 3d7958ae
@091b 3d81f1b6
@091c 3d98f278
@091d 3d86e163
@091e bd087a23
@091f 3d66e045
@0920 bd070b75
@0921 bc247524
@0922 bd249870
@0923 bd04b872
@0924 3d67e50e
@0925 bc23d144
@0926 3d09abd7
@0927 bda1e140
@0928 bc3271ce
@0929 3d88c364
@092a bd2fa59f
@092b 3cb13ca2
@092c bc5b2a51
@092d bd30ac6b
@092e bbec9aee
@092f bd35322e
@0930 3dbf9688
@0931 3d84a0b6
@0932 3dbcb2b0
@0933 3caa7052
@0934 bcdcd2ec
@0935 3e0a8375
@0936 3dc4aaa7
@0937 3d7d2b14
@0938 3d99601e
@0939 bd9342dd
@093a bd7c04e6
@093b bcf32a93
@093c 3d4c5447
@093d 3c92a034
@093e bdd0fada
@093f bd910543
@0940 bde52236
@0941 3d6dfe00
@0942 bcc29c3f
@0943 3c6b3891
@0944 3c54f1b4
@0945 3d3ffdeb
@0946 3c90ea16
@0947 bd8f1835
@0948 3d9e5756
@0949 3d03deef
@094a 3dbc3c7b
@094b 3cffccbb
@094c 3d38ca20
@094d bb6bc41a
@094e bd40fb75
@094f b940900c
@0950 bbb769da
@0951 bd2122b9
@0952 bd8b3c67
@0953 3d8445d7
@0954 bd3dd6a1
@0955 3c7bdec4
@0956 bdab4b1c
@0957 bcc4a418
@0958 3bd179e8
@0959 bca2c18a
@095a bd42eb59
@095b bd762ef0
@095c 3c7119b4
@095d 3b835511
@095e bd37bfe2
@095f 3d9f0c73
@0960 bd730965
@0961 3d0ff0fe
@0962 bd7c991e
@0963 3cd11f9a
@0964 bc59da37
@0965 bd842557
@0966 3d62172b
@0967 3bcf0769
@0968 3d4dde9e
@0969 bb4b80fe
@096a 3d4215b9
@096b bce343cd
@096c 3cbaad5f
@096d 3d03ea8a
@096e 3d761884
@096f 3d22db10
@0970 bd348f44
@0971 3c011482
@0972 bd4196d8
@0973 bda34c9c
@0974 bda24ff0
@0975 3c63035b
@0976 3d470381
@0977 bc6a3deb
@0978 3bae15ae
@0979 3cda6eed
@097a 3dcd27cc
@097b 3e260cbd
@097c 3e2e5459
@097d 3e2ea031
@097e bd92e986
@097f bce560de
@0980 3e22a830
@0981 3e6ab906
@0982 3e046258
@0983 bd0e4024
@0984 bcc72ffb
@0985 3dfe2063
@0986 3de14bb9
@0987 3de56fe9
@0988 bcc9bb65
@0989 3ddee3c0
@098a 3dc1fcf1
@098b 3e1c325b
@098c 3dc3cc4b
@098d bd32c920
@098e 3d90ccea
@098f 3dad63aa
@0990 3c3e2097
@0991 3d87900d
@0992 3712128b
@0993 3da2bca0
@0994 bd67b262
@0995 3bcfd996
@0996 3ceac817
@0997 bd9cf44a
@0998 bd860218
@0999 3d0843f1
@099a 3cf33e95
@099b 3da2ef77
@099c 3b30dcbf
@099d 3d30839c
@099e 3d0d28ce
@099f 3da4b858
@09a0 3da51ae3
@09a1 3c4183bd
@09a2 bd54c7a2
@09a3 3d9f629a
@09a4 bcbc569e
@09a5 3ba14774
@09a6 3d67382e
@09a7 bb26b3db
@09a8 bb1a749d
@09a9 3c9e0c9a
@09aa 3c63fc00
@09ab bd9bca4e
@09ac bb71b6ed
@09ad 3cb57046
@09ae 3cbd452d
@09af 3c80eb6b
@09b0 3c80ae66
@09b1 3d89d23f
@09b2 3d2ce00b
@09b3 bccc4ba4
@09b4 3da799b4
@09b5 bd87332e
@09b6 bcf2db46
@09b7 bc55d673
@09b8 bcc7fe0d
@09b9 bd7a7184
@09ba bd092034
@09bb 3d946bc3
@09bc bd23a9fc
@09bd bd87505a
@09be 3d458ce1
@09bf bd4f01b1
@09c0 bbe37701
@09c1 3c0caf4e
@09c2 bd1d1cb2
@09c3 3d941095
@09c4 bbc0fd0c
@09c5 bd1957c5
@09c6 bb0a4eb4
@09c7 3de90f80
@09c8 3e1ff1a7
@09c9 3c4da911
@09ca bd63d856
@09cb 3d1a33ae
@09cc 3ced1768
@09cd 3e2876d1
@09ce bdaa2d18
@09cf bd1f652d
@09d0 3dfbc514
@09d1 3d663991
@09d2 3ddd8111
@09d3 3c040072
@09d4 3d4bcec2
@09d5 3d37c74a
@09d6 3cdc0068
@09d7 3d4a5028
@09d8 bcb2a629
@09d9 3da1b7c9
@09da 3d9905fd
@09db bd633d2d
@09dc bd29f0da
@09dd 3c1c3bc4
@09de 3d78bbb9
@09df bd14ec4c
@09e0 3d5e4133
@09e1 bd0d119e
@09e2 bd3a396a
@09e3 3d8acf5a
@09e4 3d6843d1
@09e5 3d4f8d49
@09e6 bd0c3891
@09e7 bc0c98d9
@09e8 3d5ab8c9
@09e9 bd66d32d
@09ea 3cc5c5cc
@09eb bd102f25
@09ec bd26dd53
@09ed bd81075d
@09ee bd26269f
@09ef bcdd018d
@09f0 bd390ecd
@09f1 bd1edb4d
@09f2 bd1ce37a
@09f3 3d6fe5f2
@09f4 bd6c6317
@09f5 3c77f0d2
@09f6 bcb7ccca
@09f7 bc1a5bc8
@09f8 3c05addb
@09f9 3d1abfe4
@09fa 3c76e547
@09fb 39b19ce4
@09fc bbe5c483
@09fd 3cff78f0
@09fe 3cfe97a2
@09ff bcb09cce
@0a00 3d33716a
@0a01 bce71575
@0a02 bd1764ce
@0a03 3cc173b3
@0a04 bca70983
@0a05 3c268f7f
@0a06 3d0f2031
@0a07 bc1dc814
@0a08 bd32edc4
@0a09 bccdf9f0
@0a0a bbc0a478
@0a0b bd00b971
@0a0c 3d4ea8d7
@0a0d bc3d1f06
@0a0e 3996d5df
@0a0f 394c394e
@0a10 bcf6fdb7
@0a11 3d229af2
@0a12 bb9202a5
@0a13 bc3927f5
@0a14 3d345628
@0a15 bc0bfb6b
@0a16 bd22f1e2
@0a17 3d202568
@0a18 3d3b1a6e
@0a19 3cea87e0
@0a1a 3d17934e
@0a1b bc91d54c
@0a1c bcfe797c
@0a1d 3c9f0a22
@0a1e 3d31cbfe
@0a1f 3d114717
@0a20 3b1655f9
@0a21 bb68a07b
@0a22 bd5a57bc
@0a23 3d3334f5
@0a24 3ba476cf
@0a25 3ca98a12
@0a26 396be7dc
@0a27 bc5f24df
@0a28 bbfca847
@0a29 3c694dd0
@0a2a 3cde6bf5
@0a2b bc30c113
@0a2c 3c0aef16
@0a2d 3d2acb5b
@0a2e bc2f2501
@0a2f 3bd01684
@0a30 bc118837
@0a31 3d3d2ad1
@0a32 3d29b567
@0a33 3d301860
@0a34 bd53b207
@0a35 bd438566
@0a36 3c4ed620
@0a37 3c17fa47
@0a38 3d16604d
@0a39 3cdfc088
@0a3a bc8d4592
@0a3b 3c364805
@0a3c 391421ab
@0a3d 3ceff3b4
@0a3e bc9194fb
@0a3f bc4c3baa
@0a40 3c61b6c7
@0a41 3d443f14
@0a42 3d5041db
@0a43 3d16582c
@0a44 3ca53a2f
@0a45 bcf6f123
@0a46 bcfc6518
@0a47 3cb0d5c5
@0a48 3bd10c39
@0a49 3d0dce4a
@0a4a 3b5065cc
@0a4b 3ca00f5d
@0a4c bd1329cc
@0a4d bcda89d9
@0a4e 3c570691
@0a4f 3d3871a4
@0a50 bc8febf9
@0a51 bd21b083
@0a52 bcda580f
@0a53 bd031931
@0a54 3d1de421
@0a55 bd73200d
@0a56 bd853711
@0a57 3c33c53e
@0a58 3c06d52d
@0a59 3ce5f284
@0a5a 3ca3c387
@0a5b bd06c160
@0a5c 3cb1b60c
@0a5d 3a914c53
@0a5e bcccd53f
@0a5f bd0d87ae
@0a60 3cf87f58
@0a61 3c11dd73
@0a62 bc3c712c
@0a63 3c66a9a6
@0a64 3c9118d5
@0a65 bc935712
@0a66 bd2607fe
@0a67 bb326398
@0a68 3d02b691
@0a69 3d26a62a
@0a6a bc91b390
@0a6b bcd7e6e4
@0a6c 3cb549be
@0a6d 3d29ba66
@0a6e 3bd29b93
@0a6f bb5e9d10
@0a70 3c9d3eb0
@0a71 3d0a39f7
@0a72 bc9b6116
@0a73 3bc75273
@0a74 bd32ec52
@0a75 3cdc026f
@0a76 bd0ba9cf
@0a77 3ce7511f
@0a78 3cd83e6a
@0a79 3cd071ce
@0a7a 3cbaf218
@0a7b bd36cc00
@0a7c 3d196cda
@0a7d 3c46800e
@0a7e bd461d77
@0a7f 3c401285
@0a80 3be1b469
@0a81 3cc2016b
@0a82 bd0e41e2
@0a83 bc8b1b37
@0a84 bcdb6a2a
@0a85 bc052c3c
@0a86 bd08da1a
@0a87 3b727fcd
@0a88 bc4039e0
@0a89 bd3a1237
@0a8a 3c4a429c
@0a8b 3d1bc5d3
@0a8c b9e3a93c
@0a8d 3d848893
@0a8e 3d6ada19
@0a8f bc1fdf86
@0a90 bd13070a
@0a91 bc19d439
@0a92 bd393390
@0a93 3c28982b
@0a94 3d0fb793
@0a95 baf690e3
@0a96 3cb53885
@0a97 bb3d40f7
@0a98 bc542c5c
@0a99 3d1255c2
@0a9a 3c8c7d4a
@0a9b bd1d8dd4
@0a9c 3c8853d5
@0a9d bd113bcb
@0a9e 3d22076b
@0a9f 3cd2a8cc
@0aa0 bd588a27
@0aa1 3c2967f1
@0aa2 3cfabcbd
@0aa3 bc8b48ca
@0aa4 3d1056f3
@0aa5 3d0b2afe
@0aa6 bd011325
@0aa7 3cc29514
@0aa8 39545f83
@0aa9 3d33f970
@0aaa bd25518e
@0aab bd49dc07
@0aac 3d134ca9
@0aad bd28e0fb
@0aae bd047672
@0aaf 3d640ccc
@0ab0 bc4ffa74
@0ab1 3d2adcaf
@0ab2 3d0bba0b
@0ab3 bb080b2e
@0ab4 bd2ae999
@0ab5 39ce650b
@0ab6 3ce50212
@0ab7 bb99d6c1
@0ab8 3d29737b
@0ab9 3cb2ab1e
@0aba 3d4eacac
@0abb 3d35f446
@0abc 3ba98d1f
@0abd 3ca7f040
@0abe 3cbd03db
@0abf 3c89012e
@0ac0 3c292177
@0ac1 3d34e783
@0ac2 bca88d92
@0ac3 3adbe6e1
@0ac4 3ce8b533
@0ac5 3af4f708
@0ac6 3d350f36
@0ac7 bc7e1ca5
@0ac8 bcc878e2
@0ac9 bc04a67d
@0aca bd0d5eae
@0acb 3cdcd10d
@0acc bc8aa87b
@0acd bc0a83a2
@0ace 3c350f8f
@0acf 3d2f981d
@0ad0 bbb7a089
@0ad1 3d07f069
@0ad2 3d498dbb
@0ad3 3ca1ee46
@0ad4 ba87876b
@0ad5 3cc4c244
@0ad6 bd06bee6
@0ad7 bd00efef
@0ad8 3d2d2b94
@0ad9 3d0728f8
@0ada bcd4f789
@0adb bc3abefd
@0adc bca6cf18
@0add 3c9397ac
@0ade 3bba0ea7
@0adf 3cfdb1b5
@0ae0 3b111a00
@0ae1 bc0c7559
@0ae2 bd81dc42
@0ae3 3d09ebf4
@0ae4 bccd5208
@0ae5 bce7f893
@0ae6 bd0ccb3a
@0ae7 3d3718a0
@0ae8 3cd43c85
@0ae9 3cacff32
@0aea bd0bd382
@0aeb 3ca0d0ed
@0aec bc3f2ffa
@0aed bd7e29c6
@0aee bc837a34
@0aef 3d39042d
@0af0 3d6ed4bd
@0af1 3d0a0459
@0af2 bcc7b052
@0af3 3cfe7271
@0af4 3d01c776
@0af5 bcf5ca38
@0af6 3cf24e02
@0af7 3ce147c6
@0af8 bc22ff66
@0af9 3d1545d8
@0afa bce081a8
@0afb bcb56d94
@0afc 3cbf8d85
@0afd bd0ebe0c
@0afe 3c93e9e3
@0aff bd3788bc
@0b00 bca6b806
@0b01 bd4bd25c
@0b02 bc878317
@0b03 bc953458
@0b04 3cacc53e
@0b05 3caf8c92
@0b06 3d4b34fe
@0b07 bd3d049e
@0b08 bb2e00c2
@0b09 3c057ef0
@0b0a 3d52dee6
@0b0b 3c6dae44
@0b0c bb9e8c14
@0b0d 3c9ce321
@0b0e bc065848
@0b0f bcb2c373
@0b10 bc876a8d
@0b11 3d056198
@0b12 3d242693
@0b13 3c98b4af
@0b14 bc3153a4
@0b15 bd2e388d
@0b16 3d61d5c7
@0b17 3c8eb9e7
@0b18 3a39e9d0
@0b19 3d7d8f54
@0b1a 3bd83928
@0b1b 3d2f2fe9
@0b1c 3d3a5734
@0b1d bbf67f4e
@0b1e 3ceab8b6
@0b1f bbda95de
@0b20 3bb63c23
@0b21 3cb513f7
@0b22 bd21ab3f
@0b23 3cab391a
@0b24 bca036f6
@0b25 3c286680
@0b26 3c321512
@0b27 ba888539
@0b28 3c630a4d
@0b29 bd1c74c2
@0b2a 3b2185b2
@0b2b bd1b9809
@0b2c 3c1a5b33
@0b2d 3c0a3bd1
@0b2e bc228afc
@0b2f bd42e3cc
@0b30 bd242c4f
@0b31 3ae6e6f6
@0b32 bc8025a4
@0b33 bd3bcc8a
@0b34 3cc4d924
@0b35 bd177a7f
@0b36 3c6dfa13
@0b37 bd2ec1f9
@0b38 3c726e61
@0b39 bd1d40f3
@0b3a 3c8859f0
@0b3b bcc6488c
@0b3c 3d1094d4
@0b3d 3d5c72e7
@0b3e 3d4c71ce
@0b3f bd083764
@0b40 bb881fcf
@0b41 3ba4bda2
@0b42 bc533709
@0b43 3d6fd5b9
@0b44 3c9d96d5
@0b45 3be5446e
@0b46 bc868037
@0b47 3cd259f9
@0b48 3c0fb3ca
@0b49 3d3e88df
@0b4a 3cb8e4a2
@0b4b bcc954ea
@0b4c bd504411
@0b4d 3ab025a5
@0b4e 3d009f24
@0b4f bd308a90
@0b50 bcf2f1bc
@0b51 3d3415fe
@0b52 bd410b6f
@0b53 bb939f71
@0b54 3d5d75be
@0b55 3c05f67c
@0b56 3c7bf670
@0b57 3af53f44
@0b58 bd1226ca
@0b59 3c0925b1
@0b5a bb3d3dcf
@0b5b bd11a637
@0b5c bc8903de
@0b5d bd01372d
@0b5e 3c914ff6
@0b5f 3d11595f
@0b60 3d359994
@0b61 3baede18
@0b62 bbb6e8d9
@0b63 bca9688c
@0b64 3c8e15e1
@0b65 3c669ec5
@0b66 bd2f8473
@0b67 3cd2c6fa
@0b68 bd1825d9
@0b69 bcc20b5f
@0b6a 3cc2ce30
@0b6b 3c9d977e
@0b6c bbf1aaff
@0b6d bc6370cc
@0b6e 3c711fe6
@0b6f 3d347b8c
@0b70 3ca642ac
@0b71 3c1a809d
@0b72 3c812201
@0b73 3d29e9df
@0b74 3d4dc577
@0b75 bd287b96
@0b76 bc4dfe04
@0b77 bd540c46
@0b78 bd51a1e0
@0b79 3d4822db
@0b7a bc351c0d
@0b7b 3a306461
@0b7c bd130935
@0b7d 3d32add1
@0b7e 3c10bb17
@0b7f 3cb82a11
@0b80 3d538e0f
@0b81 bc45caee
@0b82 bd582ff9
@0b83 bd6c1c2a
@0b84 bd094784
@0b85 3c5fdd76
@0b86 3c3bd2d0
@0b87 bcd1b92e
@0b88 3bac9d19
@0b89 3d218380
@0b8a bcccc1be
@0b8b 3cd155ab
@0b8c 3d057354
@0b8d bb3b6e0a
@0b8e bd3247f7
@0b8f bcec2c30
@0b90 bc7a3b1e
@0b91 3c584d8b
@0b92 bd292360
@0b93 3cba9e49
@0b94 3d03904e
@0b95 3d55618d
@0b96 3c81fadc
@0b97 3c900b6e
@0b98 3ae48f58
@0b99 bd4d3071
@0b9a 3d44cecb
@0b9b 3d388212
@0b9c bbac5610
@0b9d 3b60a11b
@0b9e 3c140b09
@0b9f 3d256ca1
@0ba0 3cfff7cd
@0ba1 3d3bf823
@0ba2 bce8e9f5
@0ba3 bd3aeb8c
@0ba4 3d449de4
@0ba5 3b6f7c5b
@0ba6 3c11a30f
@0ba7 bbc4cf91
@0ba8 bbb31278
@0ba9 bca3d3b5
@0baa bc6ec6db
@0bab 3d60486a
@0bac 3ca2b83a
@0bad bd0d8cf8
@0bae 3d4b47a2
@0baf 3cf3aff4
@0bb0 bd1b6f70
@0bb1 3ba36512
@0bb2 bccbd738
@0bb3 3cc2bb23
@0bb4 3aec89f4
@0bb5 3d2a7a91
@0bb6 3d204d45
@0bb7 3b468d59
@0bb8 3d4a7316
@0bb9 3c7c3e46
@0bba 3a8b2c27
@0bbb bd550484
@0bbc 3c6279b7
@0bbd 3cfe1d93
@0bbe 3b8fcb55
@0bbf bd0fbcd1
@0bc0 bd873048
@0bc1 bc69662c
@0bc2 3d3367eb
@0bc3 3ba44901
@0bc4 3d17ec7f
@0bc5 3d0fc114
@0bc6 bc670eae
@0bc7 3cac5ef5
@0bc8 3d9b5ae8
@0bc9 3caef5ed
@0bca bc3f6f97
@0bcb bce1ebfd
@0bcc 3d56e165
@0bcd 3ce56ce7
@0bce 3d7498cc
@0bcf 3c890a8a
@0bd0 bae6929f
@0bd1 bd5d7776
@0bd2 bd54e359
@0bd3 3b1aae40
@0bd4 bd388ec4
@0bd5 3d83e5a6
@0bd6 bd0f4dde
@0bd7 bccdd90a
@0bd8 bcbed5dc
@0bd9 bc602a11
@0bda 3ba6d1ac
@0bdb 3d6d5389
@0bdc 3cd9def5
@0bdd bda84bcc
@0bde bdd88194
@0bdf bda9f100
@0be0 3d7a2f5b
@0be1 3d96f8ce
@0be2 3d7211f7
@0be3 bcc2695e
@0be4 bdb81016
@0be5 3c7e8cf1
@0be6 3dabf2ea
@0be7 3b71cfe0
@0be8 bd7479a0
@0be9 3b275c1b
@0bea b9492a1c
@0beb bc230e4f
@0bec bcc38a3c
@0bed 3c0d5700
@0bee 3cbac670
@0bef bc976de4
@0bf0 bd26e2ae
@0bf1 3cae2629
@0bf2 b907af0e
@0bf3 bc919d3e
@0bf4 3c7568bf
@0bf5 3a921370
@0bf6 3a2c349e
@0bf7 3a82e7ad
@0bf8 bd0f2865
@0bf9 3d241f88
@0bfa 3d3c61d6
@0bfb bca1bd50
@0bfc 3c5987f0
@0bfd 3c2ac3d2
@0bfe ba88618d
@0bff bb3f874c
@0c00 bcf3c7c4
@0c01 3c88972c
@0c02 bc01525e
@0c03 3ce95ad4
@0c04 bb575ba4
@0c05 bc3c8ce7
@0c06 bd09668f
@0c07 bd17f7d4
@0c08 bd31fb0f
@0c09 3b9c0439
@0c0a 3d0e538c
@0c0b bd000e01
@0c0c 3c89aabd
@0c0d 3b99aac4
@0c0e bc58f3d3
@0c0f 3ad31510
@0c10 3d493bf7
@0c11 3d308a21
@0c12 bca08c8b
@0c13 bc3014eb
@0c14 bb6ac17b
@0c15 3cefc17b
@0c16 bac8f787
@0c17 bd1da5d7
@0c18 3c294f23
@0c19 bd3173ee
@0c1a bcc301b8
@0c1b 3ccbeee4
@0c1c 3d01b185
@0c1d bd0464d1
@0c1e 3c0e1a25
@0c1f bba66f0a
@0c20 3d9026dd
@0c21 39adbbaa
@0c22 bd39f90f
@0c23 bd12b568
@0c24 3d25ad65
@0c25 3cc80e82
@0c26 3d537849
@0c27 bd70149a
@0c28 bd9d203e
@0c29 bc9495a7
@0c2a bd029c2f
@0c2b 3cdfb4d1
@0c2c 3d3f8293
@0c2d bc6b4f98
@0c2e bc979a8f
@0c2f bcf5ed88
@0c30 bcb7beb0
@0c31 3d91e82d
@0c32 3cd4da3f
@0c33 bc501e12
@0c34 bc74ee03
@0c35 3cae4dcc
@0c36 3c0620f5
@0c37 bc07417b
@0c38 bcfa286c
@0c39 39e96d8f
@0c3a bd133f73
@0c3b bd1a22a4
@0c3c 3c21f761
@0c3d 3b8cb11e
@0c3e bd3a17c3
@0c3f 3c58a933
@0c40 bd0aa057
@0c41 bd43973b
@0c42 bd2e3f20
@0c43 bd3c4310
@0c44 bd1c1b4e
@0c45 bcbf996c
@0c46 3d835598
@0c47 3d45929b
@0c48 3bf11b33
@0c49 3c404e89
@0c4a bcbe5161
@0c4b 3cb8a723
@0c4c 3d1c9c22
@0c4d bd6c8118
@0c4e 3d223af8
@0c4f bd3620ee
@0c50 bc223aa5
@0c51 3d3d8a0a
@0c52 3cee9664
@0c53 bd2230c5
@0c54 bc4fbd6d
@0c55 bd3efd2b
@0c56 3cb1172d
@0c57 3c872ac1
@0c58 bbc0ae94
@0c59 3c3a043e
@0c5a bd4d7c10
@0c5b bdbb46fe
@0c5c bd280e7d
@0c5d 3d394892
@0c5e 3dc9a711
@0c5f bcbb0678
@0c60 bd70e35e
@0c61 bc6d8b26
@0c62 3cf072d3
@0c63 3d885fb6
@0c64 3d0a8efc
@0c65 3c7c82e5
@0c66 bcf3c507
@0c67 bd34adbc
@0c68 bd21f8b2
@0c69 3d1f0925
@0c6a 3cdc495b
@0c6b 3c2abb67
@0c6c bbfdad45
@0c6d 3c8dfae9
@0c6e bce1bc5b
@0c6f bd07976c
@0c70 3cd782e7
@0c71 3d3bc9c1
@0c72 3d280d19
@0c73 3cf3576f
@0c74 bd89a5a2
@0c75 bcc484f1
@0c76 3c6cc8c4
@0c77 3c0a4b3c
@0c78 bc252875
@0c79 bbe77302
@0c7a 3ce470c6
@0c7b 3cd4e488
@0c7c 3a956f33
@0c7d 3cb4ccbf
@0c7e bccc634d
@0c7f 3bb7c6bf
@0c80 3ca3cf6b
@0c81 bd3b2e3c
@0c82 bd098b0b
@0c83 bd071e8f
@0c84 3d02af6f
@0c85 bd496c89
@0c86 bc0255da
@0c87 bc61173b
@0c88 3cb6ee32
@0c89 bcab7d41
@0c8a 3d280355
@0c8b 3c56b2cd
@0c8c bcf4aa2e
@0c8d 3bce9098
@0c8e 3ab6b7f5
@0c8f ba9bef92
@0c90 3d1a2a6a
@0c91 bc5eb0f0
@0c92 bcfded86
@0c93 3d039961
@0c94 3ce910bc
@0c95 bc5de5e2
@0c96 3d3c2d2a
@0c97 bc946bc3
@0c98 3d250d16
@0c99 bca89fec
@0c9a bd415921
@0c9b 3c9a6a59
@0c9c bce34768
@0c9d 3c885f1b
@0c9e bcce56be
@0c9f bc08abfd
@0ca0 bc7081ad
@0ca1 3d1ba56f
@0ca2 3a161098
@0ca3 bd1e57eb
@0ca4 bd014638
@0ca5 3b64a33f
@0ca6 badddae2
@0ca7 3cf4a3ee
@0ca8 bd19f891
@0ca9 bd0fe4e8
@0caa bc0f5979
@0cab bc5c59c3
@0cac 3ce23fc5
@0cad 3c6fba50
@0cae 3c0bca92
@0caf bce6bafd
@0cb0 bbfcfec4
@0cb1 3d0f4400
@0cb2 3cd2c6c5
@0cb3 bbd7f555
@0cb4 3d407950
@0cb5 3c17b7f4
@0cb6 3d42cfcf
@0cb7 3b4705f4
@0cb8 bd27d8e6
@0cb9 bcec64b5
@0cba 3bc9ca19
@0cbb 3d36e6d8
@0cbc bc09e410
@0cbd bd3f9967
@0cbe bd094397
@0cbf 3b825d1b
@0cc0 bc78c60b
@0cc1 bd0c4324
@0cc2 3d39bbeb
@0cc3 3cb6112c
@0cc4 bc889221
@0cc5 bc8aa967
@0cc6 bd0667bc
@0cc7 bc77c695
@0cc8 3d48518d
@0cc9 3d1d7610
@0cca bd274626
@0ccb bd5942d8
@0ccc bd4d4799
@0ccd bd428c5a
@0cce bc86b5d6
@0ccf bd0af077
@0cd0 bc81e7f2
@0cd1 bcb9fea3
@0cd2 3bb65596
@0cd3 3c659087
@0cd4 bd02d316
@0cd5 bc9d17c1
@0cd6 3d4648df
@0cd7 3d09b44f
@0cd8 3d69bf64
@0cd9 bd2f761f
@0cda 3d3ab25a
@0cdb bc348da4
@0cdc 3ad0b4a6
@0cdd 3d44cd85
@0cde bd825d9f
@0cdf bd27a0a1
@0ce0 3d361ff6
@0ce1 3d39f68a
@0ce2 3cd67877
@0ce3 3c8e5eee
@0ce4 bd015991
@0ce5 3c63e56e
@0ce6 3c96b9a1
@0ce7 bbf4daf1
@0ce8 bc9862df
@0ce9 3d2f5184
@0cea bd128aaf
@0ceb bb19c444
@0cec bcf573fb
@0ced 3ba2eaff
@0cee bb69dd6b
@0cef bc0417c1
@0cf0 bd069622
@0cf1 bc2ab92d
@0cf2 bcc30c13
@0cf3 3d576069
@0cf4 3c92b53a
@0cf5 bc0a7e09
@0cf6 3d079332
@0cf7 3b1a32a7
@0cf8 badffda4
@0cf9 bc1637ea
@0cfa 3d11d778
@0cfb 3c17ceca
@0cfc bd2e1ca6
@0cfd 3d13fdc3
@0cfe 3ce28159
@0cff bc81b735
@0d00 bc55dee1
@0d01 3d5e00e8
@0d02 bc588c14
@0d03 3c6cbda2
@0d04 bd5feb5c
@0d05 bccb4c10
@0d06 3d08e311
@0d07 3bd38dbc
@0d08 bc779261
@0d09 bcfe9c25
@0d0a bd8650ae
@0d0b bd6c56b8
@0d0c b90db41c
@0d0d 3be9ba0b
@0d0e 3c9aedab
@0d0f bdad4433
@0d10 3cf0eb69
@0d11 3c28dfcb
@0d12 3d7be166
@0d13 3cdbceaa
@0d14 3c090af6
@0d15 3c15b8f1
@0d16 bc77d346
@0d17 3cb3ab20
@0d18 3c8a9b1e
@0d19 3cbd0c12
@0d1a 3d076887
@0d1b bd1e1f49
@0d1c bcba0f6e
@0d1d bd30a418
@0d1e bb724247
@0d1f 3cb12bc5
@0d20 bc930c6e
@0d21 3babd470
@0d22 3d1181cd
@0d23 3cb70d16
@0d24 bd0453d3
@0d25 bcac263e
@0d26 bcc62a70
@0d27 bce61efd
@0d28 3d1c7693
@0d29 bd432548
@0d2a bd4b6d36
@0d2b 3a9c7de4
@0d2c 3d43595d
@0d2d bd2b0f36
@0d2e 3bc541fc
@0d2f bc396950
@0d30 3c980430
@0d31 3d13612a
@0d32 3ce04cd5
@0d33 bd2e8233
@0d34 3d1a39a7
@0d35 b9ffe1e2
@0d36 bd082c49
@0d37 bc916583
@0d38 bc2ae252
@0d39 3d037668
@0d3a 3ca57512
@0d3b bbfa1818
@0d3c 3d0c6192
@0d3d 3cbf1d91
@0d3e bc80ec9d
@0d3f 3d28f777
@0d40 b9f16cde
@0d41 bcb263ab
@0d42 bcd6f9d7
@0d43 3d02bb8a
@0d44 bd4843ac
@0d45 bafbcc72
@0d46 3cb3b425
@0d47 3bcacc18
@0d48 3d43c984
@0d49 bcd5ad11
@0d4a 3a83b917
@0d4b 3c88687e
@0d4c bd44fe2a
@0d4d bc5e680b
@0d4e bd0be656
@0d4f bd4a492d
@0d50 bd2e0871
@0d51 bd3577f7
@0d52 3c8f7b29
@0d53 3cd34aaa
@0d54 bd3a6c16
@0d55 3b77d613
@0d56 bcfc13f3
@0d57 3d0069ea
@0d58 bb642b72
@0d59 bcf4bbe5
@0d5a bd03da68
@0d5b 3cc1ba15
@0d5c bd30da6e
@0d5d bd304e3c
@0d5e bca9a7f3
@0d5f bc8de05e
@0d60 bd4b36d2
@0d61 bd08a790
@0d62 bcd4131d
@0d63 bbadb640
@0d64 bcf0e56a
@0d65 3b27f8e8
@0d66 3ccd3723
@0d67 3cf19230
@0d68 bb51f23f
@0d69 bcc149d4
@0d6a 389c3581
@0d6b bc9a75ad
@0d6c 3d366b2f
@0d6d bd35dd78
@0d6e 3cb24f27
@0d6f bd4b254c
@0d70 bd1643c3
@0d71 bc1f2506
@0d72 3c251b73
@0d73 3ab6de2f
@0d74 bce6fa00
@0d75 bc05e59c
@0d76 3d0cfa0b
@0d77 3c6e2ac4
@0d78 bd2ef9b7
@0d79 bd07d33a
@0d7a bd49b636
@0d7b bd3d4800
@0d7c 3c75fc2a
@0d7d bd2c5f86
@0d7e 3d33a1ac
@0d7f 3caed67c
@0d80 bd09aa37
@0d81 3d2df783
@0d82 bd3f4b55
@0d83 bd38addd
@0d84 3d2c7132
@0d85 ba4e4b08
@0d86 3cd2f1e2
@0d87 3ce10d28
@0d88 3c909bdb
@0d89 bd09c91e
@0d8a 3c32d25e
@0d8b bcf2233e
@0d8c bccb2a43
@0d8d 3c8690cf
@0d8e 3cb71a44
@0d8f 3b470fda
@0d90 bce6fb27
@0d91 3c196050
@0d92 bb83d50d
@0d93 bd2e9093
@0d94 3d4a4dd9
@0d95 3cbd7bdf
@0d96 3cfd82be
@0d97 bbf6a912
@0d98 bd065a38
@0d99 bc90a6fd
@0d9a bd1c173d
@0d9b 3d4c212b
@0d9c 3c6c5842
@0d9d 3c1db3ba
@0d9e bc8d847a
@0d9f 3d02c1df
@0da0 b8a2d400
@0da1 3cc2a122
@0da2 3d34bc9f
@0da3 3d079c99
@0da4 bbcc1b50
@0da5 3c95cf06
@0da6 3ccdefde
@0da7 b9a89980
@0da8 3d1d2f31
@0da9 bd018332
@0daa 3d12d707
@0dab bc09e958
@0dac 3bf7f7ce
@0dad bc3147c7
@0dae bbdd4fd0
@0daf 3b9f8dff
@0db0 bd146268
@0db1 bbfe628c
@0db2 bc68db08
@0db3 3b459b24
@0db4 3bdd81c0
@0db5 3c3dddd8
@0db6 3ca64baa
@0db7 3c6e3cd3
@0db8 3d35493d
@0db9 3d20355d
@0dba 3add1b73
@0dbb bd285675
@0dbc bc1fd974
@0dbd bc9bc9ab
@0dbe bd157e51
@0dbf 3d169e52
@0dc0 bbdae369
@0dc1 3c170543
@0dc2 bd3f1efe
@0dc3 3c065e98
@0dc4 3c59dab0
@0dc5 bd370c38
@0dc6 bcd1a26a
@0dc7 bc9421b3
@0dc8 3d378c6a
@0dc9 bcaed95d
@0dca bd1293bc
@0dcb bd459c7f
@0dcc bce50fb3
@0dcd bd2ec15b
@0dce bd294228
@0dcf 3b85e320
@0dd0 bcc84a56
@0dd1 bbb17b21
@0dd2 3cadc411
@0dd3 3d204698
@0dd4 bd070cc5
@0dd5 3c75ca1c
@0dd6 bd42e3ae
@0dd7 bd21f636
@0dd8 3d302b91
@0dd9 bd2c1b36
@0dda 3be1c868
@0ddb bcb654d8
@0ddc bc1c8a74
@0ddd bc5521ff
@0dde 3ced3190
@0ddf bcf07c7e
@0de0 bce61741
@0de1 bd43cf01
@0de2 bcbc507d
@0de3 bb91bd70
@0de4 bc23669a
@0de5 bb44ee0d
@0de6 3cd9e338
@0de7 bc8ba169
@0de8 3d255ed6
@0de9 bcbb9339
@0dea 3ce9bac5
@0deb 3d2eaeb5
@0dec 3a43ed00
@0ded bcaf56d8
@0dee 3c409344
@0def 3d234f1e
@0df0 bc1bd343
@0df1 bcf23acc
@0df2 3d494cfc
@0df3 3ca149e0
@0df4 bd4a9805
@0df5 bc81fc5d
@0df6 bcbf1c47
@0df7 3bf979ab
@0df8 3caa1949
@0df9 3d0a9b2c
@0dfa bd2239e0
@0dfb bcd77f74
@0dfc bb8b1b44
@0dfd ba95a556
@0dfe 3a360677
@0dff bbc43dc4
@0e00 3d41c2fb
@0e01 bca9f7da
@0e02 bd352bf2
@0e03 bd2ca964
@0e04 bd43c6aa
@0e05 bb8441cf
@0e06 bcd09f3a
@0e07 bd3616bc
@0e08 3cd97428
@0e09 3ca6a3d2
@0e0a bd2a608e
@0e0b bcf3b146
@0e0c bc972d22
@0e0d 3d0cf6a3
@0e0e 3d364403
@0e0f bd236f2d
@0e10 3c8328b5
@0e11 3c5eb288
@0e12 3d44f668
@0e13 3d4080e1
@0e14 3c88f7a2
@0e15 bd115b42
@0e16 3c444d96
@0e17 3ca46e73
@0e18 bd1c5d25
@0e19 bc9d0599
@0e1a bd2e0ac8
@0e1b 3c140754
@0e1c 3d062aa0
@0e1d 3bada83f
@0e1e bd45ef90
@0e1f bd37c2eb
@0e20 bc8a0fd4
@0e21 3b71a726
@0e22 3cf0c7fb
@0e23 bd0543ab
@0e24 3d08cc09
@0e25 3b4f21d7
@0e26 bd4cb1c0
@0e27 3b9ce107
@0e28 3d1e5318
@0e29 b9a70654
@0e2a 3d0e30be
@0e2b bcca9619
@0e2c bd03d73d
@0e2d bcf08965
@0e2e bd214a64
@0e2f bb25f8ab
@0e30 3caa5cf6
@0e31 bd01b710
@0e32 3d37b7b3
@0e33 bd29f1ad
@0e34 3d119e56
@0e35 3c67dcea
@0e36 bcda2fd7
@0e37 3cfdbc07
@0e38 3c4a9259
@0e39 bd200fb0
@0e3a 3ce4e1f2
@0e3b 3cf7c5cc
@0e3c bd1fbd56
@0e3d 3c3f334f
@0e3e bd3d7bdf
@0e3f bd338108
@0e40 bd29d766
@0e41 3ced5cca
@0e42 3bde19a9
@0e43 bd2fccd2
@0e44 3d2a2ba7
@0e45 bd4977e2
@0e46 3ca63dc6
@0e47 baf7a681
@0e48 3d2ff349
@0e49 bcc5c8ac
@0e4a bd2460c0
@0e4b 3d14dcbf
@0e4c bd40a9c3
@0e4d bd32ab48
@0e4e bb99a2d0
@0e4f bc343904
@0e50 3ba76dad
@0e51 3cb28dcf
@0e52 3d034551
@0e53 3ca603d2
@0e54 bd18feb5
@0e55 bd0e5866
@0e56 bd37e0c5
@0e57 bd1e43f6
@0e58 bd47f4a0
@0e59 3d04b692
@0e5a 3cf56ade
@0e5b 3c5eed09
@0e5c 3ca1fa1d
@0e5d 3b65c1b1
@0e5e bc8b474e
@0e5f 3d17396a
@0e60 3b8fb86b
@0e61 3cec07c5
@0e62 bc0cbbc5
@0e63 bd25ae44
@0e64 3a3d1c31
@0e65 3d2e0e30
@0e66 3c9fda6d
@0e67 3cff7562
@0e68 3ca9403d
@0e69 3ce6867f
@0e6a 3ca96906
@0e6b bc87deb1
@0e6c bd1603f7
@0e6d 3d002843
@0e6e 3b82866a
@0e6f bd1b380c
@0e70 bcc6bf91
@0e71 bc108c40
@0e72 3c9e381b
@0e73 bb02ac46
@0e74 bd4bd68b
@0e75 bc0baa40
@0e76 3cd6bff3
@0e77 3cfabc8d
@0e78 bb525ed8
@0e79 3c61c609
@0e7a bca89b74
@0e7b bcc20361
@0e7c bd01ddaa
@0e7d bce11167
@0e7e 3d3d6f32
@0e7f 3cb971bf
@0e80 bcebfdab
@0e81 bd15d6d0
@0e82 bb4684ac
@0e83 bc89f6b5
@0e84 bb929086
@0e85 bd03da9b
@0e86 3d14b121
@0e87 bd3940c6
@0e88 bd09cfdf
@0e89 3c3d93d5
@0e8a 3d4bcff9
@0e8b bc8c17e3
@0e8c 3d388a3a
@0e8d 3c9e31fc
@0e8e bd381de5
@0e8f 3b073acb
@0e90 bd025ee7
@0e91 bcce6170
@0e92 3c8a5b63
@0e93 3c918a0f
@0e94 bd1d6260
@0e95 3c184add
@0e96 3d4be141
@0e97 bc3b64bd
@0e98 bcd65649
@0e99 bca7b65a
@0e9a 3d0f67ec
@0e9b 3d0d86c4
@0e9c bcbaf3cb
@0e9d bd295e89
@0e9e 3d1da6c4
@0e9f 3d378e23
@0ea0 bc7d2773
@0ea1 bbd78567
@0ea2 3a806283
@0ea3 bd211c53
@0ea4 3d30b279
@0ea5 3d355df3
@0ea6 bd214de9
@0ea7 3c97943b
@0ea8 3d4639fe
@0ea9 bd1396cf
@0eaa 3cb92096
@0eab bc565d12
@0eac 3ccb176f
@0ead 3ca6c464
@0eae 3d3e6297
@0eaf 3cd977da
@0eb0 3bb521d1
@0eb1 3c5ea36e
@0eb2 bd263708
@0eb3 bc375880
@0eb4 bc5dc478
@0eb5 3a02c9ff
@0eb6 3cf6a988
@0eb7 3cbf33e3
@0eb8 bb7e0e1b
@0eb9 3a834bfb
@0eba bc724646
@0ebb bc321b5e
@0ebc 3b28c0e8
@0ebd 3d19014f
@0ebe 3d4c4ca9
@0ebf 3d26ea62
@0ec0 3d12922f
@0ec1 bcb9ab4e
@0ec2 3cd9f4d8
@0ec3 bd3c8754
@0ec4 bd1dbe12
@0ec5 3d05a1e4
@0ec6 bd020214
@0ec7 bd3654c5
@0ec8 bd491f2c
@0ec9 bd349300
@0eca 3b18558a
@0ecb 3c054722
@0ecc 3d036782
@0ecd 3d067a25
@0ece bd085b1e
@0ecf bb7ff3b0
@0ed0 bd4457a5
@0ed1 bcaf8f5c
@0ed2 3b17a6d8
@0ed3 3cc49f45
@0ed4 3c8fd265
@0ed5 bd1dbf09
@0ed6 3cbd38cc
@0ed7 bc8edc7a
@0ed8 3d0229b3
@0ed9 bc0c714b
@0eda bbcd2f75
@0edb 3b79fd9e
@0edc 3d03b4a4
@0edd 3cc68d97
@0ede bd4c7fbb
@0edf bae60140
@0ee0 bd1c215f
@0ee1 3c546081
@0ee2 bccb543a
@0ee3 bbb5cdf1
@0ee4 bcefe6b6
@0ee5 3d08cd33
@0ee6 3d007503
@0ee7 3c75a2cb
@0ee8 3d45e5e3
@0ee9 bd3dfd2f
@0eea bd3abd15
@0eeb bd37279c
@0eec 3b65ad80
@0eed bd331775
@0eee bcecb200
@0eef 3c1c47a6
@0ef0 bd303641
@0ef1 bd43d963
@0ef2 bd3d8b78
@0ef3 bd12e10b
@0ef4 3cf531cc
@0ef5 bd26871f
@0ef6 bd0c3132
@0ef7 3be22b0f
@0ef8 3cb169f2
@0ef9 bd0dc85d
@0efa bc344c9e
@0efb 3ba5cfee
@0efc 3b819aff
@0efd bc4303f1
@0efe 3c1a5826
@0eff bd486c06
@0f00 bd085452
@0f01 3d1cc46d
@0f02 baab424c
@0f03 bd1f16ad
@0f04 3c835abe
@0f05 bd4aad3b
@0f06 bcf180e8
@0f07 3b23e5da
@0f08 bd2a0a11
@0f09 bd4c7c92
@0f0a 3ceddcb3
@0f0b bc4b0cde
@0f0c 3d1a17ec
@0f0d bce6cdb1
@0f0e 3d49ee7f
@0f0f 3c1d5ae6
@0f10 3c99b90a
@0f11 3cef4932
@0f12 bd405bd4
@0f13 bcdb7a7d
@0f14 bd160d88
@0f15 3c9e300a
@0f16 3cb2f79f
@0f17 3cc119ce
@0f18 bb5f1d49
@0f19 bd3c97bd
@0f1a bca3b9e2
@0f1b 3cf8cfc6
@0f1c bd19282c
@0f1d bcd8967e
@0f1e 3b3049ee
@0f1f 3d0637c2
@0f20 3d4957a7
@0f21 3d39b63f
@0f22 bb49f0e1
@0f23 bb663a5c
@0f24 bcb8c6a1
@0f25 3d38b246
@0f26 3d2f4994
@0f27 bcf0d5dc
@0f28 bc6e40e9
@0f29 3cd0f32d
@0f2a 3ca274fa
@0f2b bd395aa6
@0f2c bd122bb9
@0f2d 3c827882
@0f2e 3c606244
@0f2f 3b90d740
@0f30 3d3a3e92
@0f31 bca63839
@0f32 bc17b00c
@0f33 3cf8d9b2
@0f34 3cf59b1e
@0f35 bd02efce
@0f36 bd32c0b5
@0f37 ba2ee674
@0f38 bd4140cf
@0f39 3c9dfd8b
@0f3a bc47c714
@0f3b bd285d83
@0f3c bcd82f24
@0f3d bd3c0d11
@0f3e bd35da65
@0f3f 3ce0bc91
@0f40 3d22b824
@0f41 3cc5624b
@0f42 bc6b3181
@0f43 bcdcd90e
@0f44 bc98985d
@0f45 bcafa549
@0f46 bc53827e
@0f47 bd4a6895
@0f48 3d19f0d7
@0f49 bd2b037a
@0f4a 3c933df0
@0f4b bd4726da
@0f4c 3d350bd1
@0f4d bcba3cd4
@0f4e bd40f8af
@0f4f 3c9ba643
@0f50 3d249618
@0f51 3d27541e
@0f52 bcd0f3b2
@0f53 bc85fa21
@0f54 bd02be4e
@0f55 bcae6097
@0f56 3c41191c
@0f57 3a7e93b6
@0f58 3bb0dd0d
@0f59 3a981b86
@0f5a bc8d540a
@0f5b 3c676ea3
@0f5c 3c28a986
@0f5d 3d2c3bdb
@0f5e bc0e4913
@0f5f bcd06a7d
@0f60 bc19d776
@0f61 3d33d780
@0f62 3d2d7dc1
@0f63 3b990b0f
@0f64 bd0b41bb
@0f65 b9e4f75b
@0f66 3cef22b9
@0f67 3bbd8fbd
@0f68 3d1dcd13
@0f69 bd207990
@0f6a bc881384
@0f6b bb6f4046
@0f6c bbd902a1
@0f6d 3cbc08df
@0f6e 3c571665
@0f6f bd437b4f
@0f70 3d3bf189
@0f71 3c4208b2
@0f72 bd3ca6c5
@0f73 3c84f6ec
@0f74 bb9e89e5
@0f75 bc8e2a45
@0f76 bbbf1467
@0f77 3d3210ef
@0f78 3c80984f
@0f79 bc41ec85
@0f7a 3c17d560
@0f7b 3b4891c5
@0f7c bd0b286c
@0f7d bd221057
@0f7e 3d2c10df
@0f7f 3cc49b98
@0f80 bc7cf6ab
@0f81 bd040ca3
@0f82 ba466f25
@0f83 3c2e72b7
@0f84 3d36822b
@0f85 3c3d95df
@0f86 3c006532
@0f87 bcb40369
@0f88 3d3e5d62
@0f89 3d220138
@0f8a bcffd7df
@0f8b bb0a766e
@0f8c 3b7804cb
@0f8d 3b15bd88
@0f8e bcab4580
@0f8f babacb05
@0f90 bd4ab83c
@0f91 3c8fc767
@0f92 bd2bcee1
@0f93 bc4774e3
@0f94 3c699f95
@0f95 3c294f6c
@0f96 3d2e7bbe
@0f97 3c8ee4e8
@0f98 3c6a765c
@0f99 bc1f38d0
@0f9a 3d2ce850
@0f9b 3c1401ea
@0f9c 3d44cfa2
@0f9d 3cf57c24
@0f9e b7973f33
@0f9f 3c1fc4f3
@0fa0 3c2bc12d
@0fa1 bd2b2818
@0fa2 bc91343d
@0fa3 bb865956
@0fa4 3d11f9ce
@0fa5 3d2f0b93
@0fa6 3d0b3336
@0fa7 3cf317aa
@0fa8 3c26aee1
@0fa9 bd230211
@0faa bd4b84ec
@0fab 3b0b056b
@0fac 3c9a5754
@0fad bd323497
@0fae bd2c1077
@0faf bbfab992
@0fb0 bd27f80f
@0fb1 bd26e167
@0fb2 3be65b6b
@0fb3 3d14cf87
@0fb4 bd417078
@0fb5 bd45ffda
@0fb6 3d411079
@0fb7 bd396848
@0fb8 3c4821a5
@0fb9 3cd0202f
@0fba bb7028ed
@0fbb bd34060f
@0fbc bd2fb367
@0fbd 3c85ff4a
@0fbe 3d0b7cf7
@0fbf bcf3439c
@0fc0 bc4240d1
@0fc1 bb731deb
@0fc2 3b58b05a
@0fc3 3cd5934c
@0fc4 b8b59097
@0fc5 bb80e587
@0fc6 3cc0ec97
@0fc7 3cb4c588
@0fc8 3d3718d9
@0fc9 3c65871c
@0fca bd09d6f7
@0fcb 3d0f0035
@0fcc 3d3c5e4b
@0fcd bc5407ea
@0fce bd315b78
@0fcf bbfd41bf
@0fd0 bd0205aa
@0fd1 3c820d89
@0fd2 bb3ec35c
@0fd3 3d25d23b
@0fd4 bd3a5e3b
@0fd5 3b6696c3
@0fd6 bd012a4d
@0fd7 3d32aed0
@0fd8 3bee66d9
@0fd9 3d057b09
@0fda 3d236b2f
@0fdb bb8f6de1
@0fdc 3d321467
@0fdd bcd0f68d
@0fde bbdd869d
@0fdf 3d00da1e
@0fe0 bc5f51a7
@0fe1 3bdf9e42
@0fe2 3d0692eb
@0fe3 3c9128dd
@0fe4 3b8ab268
@0fe5 bac2f135
@0fe6 bc491276
@0fe7 bc075a5f
@0fe8 3cfc7615
@0fe9 bd38d2d7
@0fea 3cb8f4e5
@0feb 3c4cc01b
@0fec 3ce620fc
@0fed bd0c9e2d
@0fee bd337b70
@0fef bcb1083b
@0ff0 bd044845
@0ff1 3d04592f
@0ff2 bd0779c2
@0ff3 bca031e5
@0ff4 bd1a4d63
@0ff5 3d304264
@0ff6 bcfea824
@0ff7 3c695232
@0ff8 3d3d1542
@0ff9 bc774c12
@0ffa 3cacbabb
@0ffb bd455283
@0ffc bc5c110d
@0ffd 3d3504a5
@0ffe 3cfcc170
@0fff bd00810b
@1000 3ba754f1
@1001 3d19cfc9
@1002 3c7ee9e4
@1003 bcb6f34e
@1004 bd328bf0
@1005 3b323819
@1006 bc8ce312
@1007 3b63e3af
@1008 3d2eac86
@1009 3d0c80ed
@100a bc9a9b2c
@100b 3b6874fa
@100c 3cadf547
@100d ba9a4b4b
@100e bd461d4e
@100f bd1ec625
@1010 bd471377
@1011 bd2da3c3
@1012 bd2db0fd
@1013 bd0a2b69
@1014 3c5096e8
@1015 bd023769
@1016 3c08fb4c
@1017 bca4853e
@1018 3d42d425
@1019 bce15e5a
@101a bbd92d86
@101b bcae5c60
@101c 3c821db9
@101d 3cfc8163
@101e bce503ef
@101f bb64bcf7
@1020 bd2121a8
@1021 3c1a6cdf
@1022 bd0370f1
@1023 3cec56ad
@1024 bc1a8a3a
@1025 3d4203a6
@1026 bd38e20a
@1027 3cdb651d
@1028 bc76e6c5
@1029 bbcc5793
@102a 3d0976d0
@102b bd41cdc2
@102c 3aab0629
@102d bcdf3d22
@102e bd29dc40
@102f bcdaa77f
@1030 bd077d80
@1031 ba82642c
@1032 bc706e62
@1033 bd2c7605
@1034 bb458830
@1035 bd228548
@1036 bafcb8ad
@1037 bca5b1f1
@1038 bcade4d2
@1039 3c7f81af
@103a bcfff975
@103b bca33c8b
@103c bcc639b1
@103d 3cae9730
@103e bd092141
@103f 3cf874e9
@1040 bd4299bf
@1041 3d5679a8
@1042 bb927e29
@1043 3c8c96c3
@1044 3bf7fb2e
@1045 3d11529f
@1046 bc570251
@1047 bd3b6155
@1048 bd0acb4e
@1049 3d11764c
@104a 3d1d0cc3
@104b bd4bcced
@104c 3c83e933
@104d 3cc85c45
@104e bca872d9
@104f bd6fc872
@1050 bd00b36d
@1051 bc47c3a0
@1052 3d0e1241
@1053 3c670c4e
@1054 3c935d6a
@1055 3d26b5d2
@1056 bcd82fa9
@1057 3c8b2948
@1058 bbf838dc
@1059 bd1fb4d6
@105a bcfdc7de
@105b bc97ee4b
@105c bcb5157e
@105d bcd3ef32
@105e bc64d4fd
@105f 3b9ef549
@1060 bb071b49
@1061 bc48267c
@1062 bc907ccc
@1063 bbfe22b6
@1064 3d0dfbdb
@1065 3d781bd2
@1066 3d1a15a6
@1067 bcb49831
@1068 3d0caae8
@1069 bd0b34f3
@106a bd350043
@106b bc8f7102
@106c 3d598246
@106d 3c3e425b
@106e bc6cace2
@106f 3d81def0
@1070 bcb2e747
@1071 bca9e3ab
@1072 3d65ff65
@1073 3b85c765
@1074 bd8151e6
@1075 bd093e6d
@1076 bc49e169
@1077 baa7f8ea
@1078 3c6b8f13
@1079 bcfeffe3
@107a bc3faced
@107b 3d403bf4
@107c bbb70bf7
@107d 3d0a5dd2
@107e 397067d0
@107f ba1df7f2
@1080 3c8623df
@1081 3ce69751
@1082 3d0ef4f8
@1083 3cd84a51
@1084 bd04e421
@1085 bc289467
@1086 ba86a003
@1087 bd6d0c84
@1088 3a2791a5
@1089 3da5b4f1
@108a 3dd34266
@108b bd60d243
@108c 3d4feddd
@108d 3d19f0c8
@108e 3d3d13ea
@108f 3b399988
@1090 3cb1c638
@1091 bcc92871
@1092 bd0c5094
@1093 bc1fe5c1
@1094 3bf5141c
@1095 bd442bd3
@1096 bcb647c7
@1097 bc24ce03
@1098 bc90b376
@1099 bbd07c41
@109a bd2544a6
@109b 3c7983e0
@109c 3d2e1ff3
@109d 3cf3a4c6
@109e bb88e0ec
@109f bd06a88c
@10a0 bd35d9c3
@10a1 bc866d00
@10a2 bca9d408
@10a3 3d2bf3e8
@10a4 bc0c783b
@10a5 bc98bb2e
@10a6 bc02e95f
@10a7 b8ecbfd5
@10a8 3b3148be
@10a9 bd14a037
@10aa 3cffabdd
@10ab 3c4703b2
@10ac 3c7e04aa
@10ad 3a494192
@10ae bbd804bb
@10af bd2107d0
@10b0 3cf33d3f
@10b1 bcc88978
@10b2 bbc79c7a
@10b3 bce72fdb
@10b4 3d4c4467
@10b5 3d3dc138
@10b6 3cb8dee3
@10b7 bd179adb
@10b8 3c9428e4
@10b9 bb030408
@10ba bd1be417
@10bb bd1ec350
@10bc bd2fd9e3
@10bd 3d26cd33
@10be 3cc6626e
@10bf bc3a315d
@10c0 bc848efa
@10c1 3d3bafc5
@10c2 3d37b63b
@10c3 bce5eb26
@10c4 3cafa005
@10c5 3b1c5758
@10c6 bcfbac36
@10c7 bd3b3b57
@10c8 3c8a10a0
@10c9 bbd5e804
@10ca bd34e6e6
@10cb 3bdba179
@10cc 3ce621d8
@10cd 3c9b0ed1
@10ce bca70cdf
@10cf bd0a3a96
@10d0 3cc2c21e
@10d1 bceb027e
@10d2 3bd4600a
@10d3 bd361aaf
@10d4 3cde134f
@10d5 3cc87020
@10d6 3c65ab4c
@10d7 bca14547
@10d8 bb07fe15
@10d9 3d2352aa
@10da 3b5536c9
@10db 3d494722
@10dc 3c74d740
@10dd bd9da9d1
@10de bc69b797
@10df 3c2b6032
@10e0 3c9bd041
@10e1 3c4a9b81
@10e2 3cad1500
@10e3 3ccd28ee
@10e4 bd384a4a
@10e5 bc05d109
@10e6 3d3a74fa
@10e7 3d475b21
@10e8 3cde29c1
@10e9 bb95df2b
@10ea bba74d41
@10eb bd13ddc4
@10ec bd469cde
@10ed 3ca7b35d
@10ee bcb45af7
@10ef bd233f45
@10f0 3d8d959b
@10f1 ba9cdac9
@10f2 bd650dec
@10f3 bd238033
@10f4 bd369b84
@10f5 bd297762
@10f6 bb717c3e
@10f7 3c6b356f
@10f8 ba397820
@10f9 bd410038
@10fa 3d41ffe1
@10fb 3cce88ec
@10fc bc898737
@10fd 3cde59a7
@10fe 3d06af56
@10ff 3ce1fcf6
@1100 3d37ab9e
@1101 bcfc02a9
@1102 bc31c1e4
@1103 3c102c5a
@1104 3bbdb367
@1105 3d5e514a
@1106 3d1501f1
@1107 3ce05202
@1108 bd58a87d
@1109 3d1d1113
@110a bca833ec
@110b 3d313e50
@110c 3d07d0f1
@110d bcc752cf
@110e 3d0a0f96
@110f 3c2b6913
@1110 3bdf57c3
@1111 3b9b2c90
@1112 bcd08131
@1113 3d49bf82
@1114 bcba6d4d
@1115 bc680e4b
@1116 bd2f64e9
@1117 bc0048a5
@1118 bc709990
@1119 3c0598f0
@111a 3c8c49c8
@111b 3cf777b7
@111c 3c40f66a
@111d bc04b3f7
@111e bd1169bc
@111f bd1fe560
@1120 bd0a50f4
@1121 3d1ad8f3
@1122 bd81cba4
@1123 bcbc85d3
@1124 3cf393e6
@1125 3d281a1e
@1126 bca4216c
@1127 3be801d1
@1128 3d058a08
@1129 3d0b0026
@112a bd5174ec
@112b 3cdb8d42
@112c 3c282a2c
@112d bd6e2bff
@112e 3bd99197
@112f 3cd49cf5
@1130 bba56d3f
@1131 3bb512b3
@1132 3bc56fe2
@1133 bd46a34a
@1134 3cfc1587
@1135 bd3b7a7b
@1136 3c7d30d4
@1137 bd369131
@1138 3d07a6c6
@1139 3d667349
@113a 3d1cf0f5
@113b bae1cb1a
@113c 3d27f709
@113d bd0edd3c
@113e bbab3e96
@113f bc82fcbb
@1140 3d2ec1f3
@1141 3c524805
@1142 bd6c9483
@1143 3bb4558a
@1144 3cc0205b
@1145 bc3afc46
@1146 3d743619
@1147 bc79d347
@1148 3c6356c6
@1149 bd0a9132
@114a 3d15bf4c
@114b bc3316db
@114c bc74104c
@114d bcd9701e
@114e 3cbdaf72
@114f bb5ed7af
@1150 bc0d0647
@1151 3d487787
@1152 3bedef72
@1153 bd14113f
@1154 bd4e0c78
@1155 bc3dd431
@1156 3d758f7b
@1157 3ce00f80
@1158 3d47bca6
@1159 bcb48bb2
@115a 3cee54e4
@115b bd113ca6
@115c 3c854de2
@115d bd148795
@115e bd4604e5
@115f bcc5ab60
@1160 3d49c2bd
@1161 3cb1c343
@1162 3cb8cc09
@1163 bcda6e68
@1164 bd45410d
@1165 3d19206b
@1166 bd267309
@1167 3d1bd578
@1168 3cffbd22
@1169 bd03a444
@116a bd07598b
@116b bd033aa2
@116c bc904622
@116d bd489dd1
@116e bd046e5a
@116f bd35ef8a
@1170 3d163b3d
@1171 3d1fb6b5
@1172 3bdab441
@1173 3b2e43ad
@1174 3a23d047
@1175 bc5dac78
@1176 bd0a9ad6
@1177 bd1f2c8d
@1178 3ca4b14f
@1179 3d0697f2
@117a 3d070e78
@117b 3cc3a722
@117c bd409ebd
@117d 3b8ca8f0
@117e b941dd0e
@117f bcb75b87
@1180 bd336fdc
@1181 bccc115f
@1182 3ccd90fe
@1183 3cf94abb
@1184 39c0a769
@1185 3d131ebf
@1186 bc37e07e
@1187 3d32499a
@1188 bbd8a156
@1189 bd006f7a
@118a 3d6813d0
@118b bb38312f
@118c 3b02b6e8
@118d 3c461b8f
@118e 3d0c9045
@118f 3ad7f824
@1190 3d2f9140
@1191 3d5f60e9
@1192 3cd0ad60
@1193 bbe5e283
@1194 3c17eb65
@1195 3d0fcdb1
@1196 3c642817
@1197 3c410b63
@1198 bd3e36ee
@1199 39e5ada6
@119a bd1f7192
@119b 3d058ec5
@119c 3bc37bc0
@119d 3ccd8879
@119e 3ba95d58
@119f bb425180
@11a0 3d15231d
@11a1 bcd098bf
@11a2 bd2c4e17
@11a3 3d42c62d
@11a4 3c06f2df
@11a5 bd239201
@11a6 bcb47406
@11a7 3d082575
@11a8 bcc18fa5
@11a9 baf983fe
@11aa bcde6392
@11ab 3d4b29e7
@11ac 3cb242bf
@11ad 3d5c86d2
@11ae 3c802564
@11af 3d099a68
@11b0 bc915792
@11b1 bcd8b4d2
@11b2 bd470b84
@11b3 bd0245d4
@11b4 3cdc6c3c
@11b5 3c4ac178
@11b6 3d3a59a7
@11b7 bd615d74
@11b8 bd2a8740
@11b9 3d432f3f
@11ba 3cc30a6d
@11bb bc91f4d5
@11bc 3d15d4ab
@11bd 3c964aac
@11be bbe48e21
@11bf bc9c1a72
@11c0 bcb390e2
@11c1 3d2a0c03
@11c2 3c266f2f
@11c3 bce3984a
@11c4 3cabb1b1
@11c5 bd08e4d3
@11c6 bbaf0783
@11c7 bd30a846
@11c8 bd48fae5
@11c9 3c84d167
@11ca bd19c987
@11cb bc36b5b4
@11cc bd1a094a
@11cd 3d16cfff
@11ce bad5177e
@11cf 3c489778
@11d0 bc8dce71
@11d1 3cfd8936
@11d2 3c824b18
@11d3 391803a4
@11d4 bc5b8771
@11d5 3c1a6ab6
@11d6 ba7bc120
@11d7 bd3c026d
@11d8 ba1b7d3e
@11d9 3d1bb5d7
@11da bc5c11c4
@11db bd364f48
@11dc bd3d3f73
@11dd bcde7dd8
@11de bc3b8d90
@11df bd07ee78
@11e0 bd47781a
@11e1 3d193a61
@11e2 3be950a1
@11e3 3d11ed19
@11e4 3c07766f
@11e5 3c9f9866
@11e6 3d1dda40
@11e7 bd08a195
@11e8 bcaac22a
@11e9 bbe5deff
@11ea bcc8b346
@11eb 3ae888ce
@11ec bcc036da
@11ed 3d47b470
@11ee bcd7ae32
@11ef bc3ce1b6
@11f0 bd709154
@11f1 ba73c248
@11f2 3d004a65
@11f3 bd20809b
@11f4 3d0f9235
@11f5 bd075c40
@11f6 3d2585bb
@11f7 bc23392e
@11f8 bd0f4766
@11f9 3cb7ec3b
@11fa bb90b6da
@11fb bcd019ba
@11fc 3d2421d8
@11fd bcffb394
@11fe bd3b59df
@11ff 3d2081f1
@1200 3d6c3cfe
@1201 3c6692a7
@1202 bd576d94
@1203 bc9748bf
@1204 3cc1b86d
@1205 3d57c95f
@1206 3be4d1df
@1207 bd423ece
@1208 3b040660
@1209 bc785f2e
@120a 3d553eab
@120b 3cf0eab3
@120c bc546c6d
@120d 3bbad76b
@120e baae12f4
@120f 3c8c6a28
@1210 bd26db56
@1211 3cd2f1fa
@1212 bce08c66
@1213 bb3856bc
@1214 3d47442d
@1215 3d9b2d41
@1216 3c8aced2
@1217 3c3ea2ba
@1218 bd3697f9
@1219 3c82df40
@121a 3c8042e4
@121b bc38408d
@121c 3d821538
@121d 3d9289d7
@121e 3d8396be
@121f 3c90db38
@1220 bd9b295e
@1221 bd38dfbb
@1222 bbf0c965
@1223 ba477e7c
@1224 bd31e441
@1225 3c0bb90b
@1226 bd8e9b37
@1227 3c0a2ad2
@1228 3b01700d
@1229 3cb47d58
@122a bbe5f7b0
@122b bd3023db
@122c bd4f65b6
@122d bc345383
@122e 3cc932b7
@122f bc656e31
@1230 bc905a7a
@1231 3c5dc904
@1232 bc36f80b
@1233 bb23935e
@1234 b898f85d
@1235 3c27900f
@1236 3c2d7df8
@1237 bd2e145b
@1238 bcf2e6f4
@1239 3d09f68d
@123a 3a99374a
@123b 3c3e9733
@123c 3ca5608a
@123d 3cf410b5
@123e 3c75a16f
@123f bd13dfb4
@1240 bd5af637
@1241 3bb60c5a
@1242 bd3d0296
@1243 3ce4c5d8
@1244 3d0b0fdf
@1245 bc89682c
@1246 bd1f862e
@1247 bd04a061
@1248 bd2e09c7
@1249 bcb48b7e
@124a 3ce6a482
@124b bc2e2980
@124c bae7bcea
@124d bd0c2bc3
@124e bcc3682c
@124f 3d060491
@1250 3d2b4600
@1251 3cae61e6
@1252 bcd06b1e
@1253 3d3d38cb
@1254 bd2bb599
@1255 bcf78cf0
@1256 3be09f18
@1257 3cd7e9ed
@1258 bc9697ff
@1259 3cfd4f59
@125a bd35833a
@125b ba660ed8
@125c 3ba69352
@125d 3d24450f
@125e 3c30e867
@125f b93db9e3
@1260 bc8cc335
@1261 bafd4d89
@1262 3cbead6d
@1263 bcec2350
@1264 394b1353
@1265 bd3d9830
@1266 3cc0b371
@1267 bd0420b0
@1268 bcdab834
@1269 bc5dcac8
@126a 3d157400
@126b 3c30a969
@126c 3ce9e11f
@126d bad752b2
@126e bd0d455e
@126f bd21339d
@1270 bcb45ee3
@1271 bc74d2c9
@1272 bcc04223
@1273 3a23b754
@1274 bcb7f294
@1275 3c9f12e4
@1276 bca78b87
@1277 bd6c0675
@1278 bb2e0aaf
@1279 bc49db58
@127a bb3f7b03
@127b bd0df268
@127c 3d46ad42
@127d bc4ebf78
@127e 3b64b30d
@127f bcbadc57
@1280 3d261143
@1281 bbbdab64
@1282 3bc3ae5b
@1283 3ce144d4
@1284 bc2ae6fc
@1285 bd4db78d
@1286 bcf58369
@1287 3c6267f3
@1288 3d3410f5
@1289 bb1ec037
@128a 3d0743c0
@128b bd0ad2d5
@128c bd37ffec
@128d bb24edd1
@128e 3d5ca8da
@128f bd28aea9
@1290 3d2fd3e2
@1291 3d6aad18
@1292 3d572732
@1293 3d48feff
@1294 bcd6a865
@1295 bc607bed
@1296 bcf99111
@1297 3cb0854f
@1298 bd457703
@1299 3d69ed5d
@129a 3d2a5a72
@129b 3d4ebaca
@129c 3c4c96be
@129d 3c8bceb1
@129e bd1e4407
@129f 3be2fd76
@12a0 3cfe344f
@12a1 3cd9c614
@12a2 bd64e355
@12a3 3cea3727
@12a4 bc42754c
@12a5 3d0374fd
@12a6 bca79a40
@12a7 bd0e9bf1
@12a8 bc04a232
@12a9 3b61bbdc
@12aa 3d61b574
@12ab bd46c178
@12ac 3bb8b935
@12ad 3b4c8d44
@12ae 3c2c1727
@12af ba93c37a
@12b0 bc9a359c
@12b1 bd01e4ef
@12b2 3d4189bf
@12b3 3cde9b49
@12b4 bc194084
@12b5 bbcaf4f7
@12b6 3d2d505f
@12b7 3d0e929c
@12b8 bc9de571
@12b9 bcaa09c0
@12ba bbb560a3
@12bb bcc2650e
@12bc bd03ff42
@12bd 3d15739a
@12be 3afa1ef9
@12bf 3c0410eb
@12c0 bca52d6a
@12c1 3cd72a03
@12c2 3ccacbeb
@12c3 bb917e4d
@12c4 3d16fa68
@12c5 bc0d0f75
@12c6 bc9a9dea
@12c7 3cbb59cc
@12c8 bd266db6
@12c9 bd0d4e23
@12ca bc6dcf5c
@12cb 3a194a63
@12cc 3cc8ebf7
@12cd 3c8fd5dc
@12ce 3b45c4dd
@12cf 3aec0df1
@12d0 bc516f48
@12d1 3d006d38
@12d2 baae92d8
@12d3 3cea09c1
@12d4 bab795a6
@12d5 3d1c7d40
@12d6 bd5467a3
@12d7 bc8e32ae
@12d8 bd2f4ed5
@12d9 bc9807ae
@12da bc68e6c1
@12db bcd2a928
@12dc 3d2fb863
@12dd bd084f25
@12de 3c5f7f2f
@12df bd53894c
@12e0 bd80e5b1
@12e1 bd31f4f0
@12e2 bc40919e
@12e3 3aa22afb
@12e4 3d528739
@12e5 3d76b057
@12e6 bd274ad7
@12e7 3bce831f
@12e8 3d169463
@12e9 3cd55fab
@12ea 3cae8ede
@12eb bcae3182
@12ec 3c61a9d1
@12ed 3b6ce2b1
@12ee 3c5a6dda
@12ef bd5ebe97
@12f0 bd67d168
@12f1 3d07f686
@12f2 bb054ef7
@12f3 3d0ac18e
@12f4 3c39cee5
@12f5 bcee0b46
@12f6 bc9129c7
@12f7 bb655349
@12f8 bd456d86
@12f9 bb1706fa
@12fa bd099baa
@12fb bd2528a9
@12fc bcec8e92
@12fd bcb3ecd5
@12fe bbafac4f
@12ff bcb40846
@1300 3c2967bb
@1301 3c7b6412
@1302 bd3703a7
@1303 bd1fbf72
@1304 3d3a2e1e
@1305 3d3b36ba
@1306 3cdaa757
@1307 3ca7feed
@1308 3d1ad5a4
@1309 3d1b7c42
@130a 3c8f481a
@130b 39d1b6df
@130c bb8493c5
@130d bcf1cd7d
@130e bd82cc71
@130f 3b88e353
@1310 bc9826e4
@1311 bd0bc19b
@1312 3cd7a626
@1313 3d6f24dc
@1314 3c9529dc
@1315 3cd881b1
@1316 3ce99cb4
@1317 3d1eabec
@1318 3d711893
@1319 bc0f547f
@131a bd6b171c
@131b bd743612
@131c bd53e39a
@131d bb95f8d2
@131e 3d305e74
@131f 3cbf6669
@1320 bd2f49c0
@1321 bbe05e58
@1322 bccb3d4c
@1323 3cb86b6b
@1324 3ce7f084
@1325 3d2dbdce
@1326 3c9c67c7
@1327 bd278799
@1328 bca1074c
@1329 3c1d7064
@132a 3cf25a6a
@132b bd04c353
@132c bcc4faa5
@132d bc9753a6
@132e 3d621a50
@132f bc09f16e
@1330 bb3d3881
@1331 3d182fc4
@1332 bd18bf82
@1333 3b364a82
@1334 3d1ccb03
@1335 bc1b72f3
@1336 bd1bd106
@1337 bd11ee7a
@1338 3c7a77f2
@1339 bd052118
@133a 3d23b6f5
@133b bd0052ff
@133c bc5246df
@133d bc879efc
@133e bcac0d1e
@133f 3d2ba39a
@1340 3d0f135d
@1341 3c993c68
@1342 3d1d68d3
@1343 bbbb7263
@1344 bc4ef62c
@1345 3d4010a2
@1346 bd2290cd
@1347 3c9c14ba
@1348 3d6713bc
@1349 3bc7bf5c
@134a bd15925d
@134b bbf7079b
@134c 3c759c90
@134d 3bf9655e
@134e bce9bc77
@134f bd252620
@1350 bd30cdc6
@1351 3c84b911
@1352 3c38a615
@1353 b9b24540
@1354 3bc8c075
@1355 bc4d2156
@1356 bc2f7f23
@1357 ba98242e
@1358 bcb8047f
@1359 ba8ed96b
@135a bd283092
@135b bce6b509
@135c 3bd6e554
@135d bccfd0b3
@135e bc9062c4
@135f bd2383d7
@1360 3d3f5485
@1361 bd14335c
@1362 bd2a16e7
@1363 3d473df9
@1364 3d08c16f
@1365 3d3022fa
@1366 bd49b306
@1367 bcf2a266
@1368 3d310808
@1369 ba8ee1b2
@136a bcd4d8be
@136b 3cfa3c1f
@136c bb947772
@136d bd239cf9
@136e 3cc3af9c
@136f 3d835bc8
@1370 3d25f174
@1371 bb40f90f
@1372 bcc9482b
@1373 bd1b3f5b
@1374 3d40e243
@1375 bc41d838
@1376 bb899f0e
@1377 bc41a612
@1378 3c3c6838
@1379 bcc58736
@137a 3cb0c993
@137b 3c1284de
@137c 3c7fccc1
@137d bd32e39b
@137e bc963fb5
@137f 3cc378af
@1380 bccd525b
@1381 bc1993ac
@1382 bcaf6b69
@1383 bd0c9109
@1384 bcd03fac
@1385 3bb4effb
@1386 bc89f9d1
@1387 bcb20b42
@1388 3d44fada
@1389 3c8e9a5b
@138a bccc0d0e
@138b bcb870a9
@138c bbb4c900
@138d 3d8ab2d0
@138e 3ca8696e
@138f bb09d4cc
@1390 bd017d73
@1391 bac7f695
@1392 bd1c6f5b
@1393 3d5d302f
@1394 bd1b3039
@1395 3c9acde7
@1396 bbc4f8be
@1397 bc456832
@1398 bb1f4163
@1399 3b8305d9
@139a bd1d143a
@139b 3cf12106
@139c bd1e9a10
@139d bc970453
@139e 3cea221d
@139f 3b14fd33
@13a0 3b96abf7
@13a1 bd449c96
@13a2 3d322619
@13a3 3ddf833c
@13a4 3d44a8eb
@13a5 39b5cc8e
@13a6 3cd62eab
@13a7 3d339929
@13a8 3c1521f0
@13a9 bcf3126c
@13aa bd1a5acf
@13ab 3da8986f
@13ac 3d55cd5c
@13ad bd5ae82f
@13ae 3c7958b0
@13af bb75d622
@13b0 3c1d4872
@13b1 bd3c8794
@13b2 3b35ad97
@13b3 3c1bc5ce
@13b4 bc85580c
@13b5 bce7c745
@13b6 3c897ee0
@13b7 3cc4734e
@13b8 3bd3272c
@13b9 bd099881
@13ba bd36bf86
@13bb bbfd2949
@13bc bb2a9d47
@13bd 3c61c51e
@13be ba675641
@13bf bcd004d1
@13c0 3c61fe6c
@13c1 bd589ba7
@13c2 3c1082a4
@13c3 bcae1d2a
@13c4 3d4b6a59
@13c5 3d4f36bf
@13c6 bafd41e7
@13c7 bc41a8c4
@13c8 3c7aea3e
@13c9 3bd8e5a9
@13ca 3b9c494d
@13cb bc9d2048
@13cc bc1aec44
@13cd bd08eaa6
@13ce 3c4445ff
@13cf 3d2b5b6b
@13d0 bcec235d
@13d1 bb0fe8b8
@13d2 bc2548a5
@13d3 3ce365cb
@13d4 bce96b4c
@13d5 bd168a61
@13d6 3ce50393
@13d7 3d020c40
@13d8 bacdb994
@13d9 bd429a6d
@13da 3bff7663
@13db ba3d8e89
@13dc 3d4a4981
@13dd 3d4389e7
@13de 3d43d46b
@13df bb0d1e88
@13e0 bd4345f5
@13e1 3cf8120b
@13e2 bc78bb88
@13e3 bcf90ba5
@13e4 3cbf0782
@13e5 bd0816ff
@13e6 bca5e253
@13e7 bd39f041
@13e8 39072a3a
@13e9 3cd0439c
@13ea 3cde912d
@13eb 3cda2444
@13ec bd79efe8
@13ed bc874c87
@13ee 3a6f021f
@13ef 3c785654
@13f0 3c7a3fdd
@13f1 3ca1b81e
@13f2 3d8835c8
@13f3 bd10e3ef
@13f4 bca3e586
@13f5 3ac4783b
@13f6 3d453350
@13f7 3ce1994a
@13f8 bd01b5de
@13f9 3d1e7701
@13fa bd2d094b
@13fb 3d0af850
@13fc 3ac0fde8
@13fd 3ac4b966
@13fe bd00a061
@13ff bd405893
@1400 3c563362
@1401 3cec8f23
@1402 3ceb1513
@1403 bc4fe968
@1404 bcd03f8f
@1405 3cbcbcd5
@1406 bcda738e
@1407 3bee573e
@1408 3cf7b742
@1409 3d3cde4d
@140a 3c80d907
@140b 3b23ebf5
@140c bc337bfd
@140d 3d16b00e
@140e 3cd535e2
@140f 3d386ac9
@1410 bd063483
@1411 3c29b4f5
@1412 3c9bd985
@1413 3b9d56d0
@1414 bce95757
@1415 bc18a69c
@1416 3cd5167c
@1417 bb8573c1
@1418 3c4a69fe
@1419 bc995733
@141a 3cb286a6
@141b bd319927
@141c 3bf8839f
@141d bca643c5
@141e 3c5ffdb9
@141f 3d1b79cc
@1420 bbd22045
@1421 bcc79791
@1422 3d7706ba
@1423 3d5ebf96
@1424 bc40ba4c
@1425 3cc16b40
@1426 3d0c4d3f
@1427 3cc50354
@1428 3d4087c2
@1429 3c5ca72c
@142a bcd326ef
@142b 3c924a6c
@142c 3ccd4c99
@142d bc2b4ecc
@142e 3c0f6a4e
@142f bd01272f
@1430 3acb2d25
@1431 bba3683d
@1432 3cf400bc
@1433 3d2fd6d7
@1434 bce5e258
@1435 bd6ebb8f
@1436 bcf1cb98
@1437 bd1c551c
@1438 3cb9bad3
@1439 bd2ae362
@143a 3d50f5ba
@143b 3d321ce6
@143c bb2332a6
@143d 3c995f98
@143e bc081199
@143f 3d42d8ec
@1440 3d427b82
@1441 3d0dd921
@1442 3d330cb9
@1443 3aebe49b
@1444 3c00eebe
@1445 3d580077
@1446 3c163d0e
@1447 bc969e5d
@1448 3c77042e
@1449 3cad80d7
@144a bb487e2a
@144b bcc32be8
@144c bcd08546
@144d 3caa8a07
@144e 3c12061e
@144f 3ceabe29
@1450 bd170c93
@1451 bbc1e3c8
@1452 3bfa7507
@1453 baf339b5
@1454 b96a7283
@1455 bccc9bd7
@1456 bc829fd6
@1457 bce8f533
@1458 bcf6c824
@1459 3d153e10
@145a 3bfc9dd7
@145b 3c957ff7
@145c 3c37ec0c
@145d 3ccfd780
@145e 3cf7b2f1
@145f bd11f8ba
@1460 bc642ca8
@1461 bbb735fd
@1462 3d1e5683
@1463 bd0a4594
@1464 3c2218d9
@1465 3d32ee37
@1466 3d212382
@1467 bd4834fb
@1468 bb1329fa
@1469 bc89c246
@146a bce13519
@146b 3cdab3fd
@146c bc8ac97b
@146d 3c94d42a
@146e 3c637b82
@146f 3bf5fe3b
@1470 bc88891c
@1471 3cfb6773
@1472 bc88bf7c
@1473 bbf6f32d
@1474 3c3621d6
@1475 bcf90542
@1476 3cb9beec
@1477 3d34ad2b
@1478 3ca21d6e
@1479 bba76aa8
@147a bc005bd1
@147b bd1a28ca
@147c 3c125862
@147d bd3005a8
@147e 3d46872e
@147f 3ce8b052
@1480 3d106511
@1481 3c9c376e
@1482 bc0ef8b6
@1483 3c932dbb
@1484 3d2e24f7
@1485 bd376725
@1486 bc4755db
@1487 3d4d74aa
@1488 bcf4c55c
@1489 3d1bd69b
@148a bc0c1e1d
@148b 3cfa944d
@148c 3b444ed3
@148d bd142f79
@148e ba85cba8
@148f 3c9fd3e2
@1490 3b9661ed
@1491 3d31a609
@1492 bb070523
@1493 ba544591
@1494 3c8ae233
@1495 3d409e82
@1496 3bdee270
@1497 bcfe276c
@1498 3bc1aceb
@1499 3d491bcf
@149a bb852afd
@149b 3d22c538
@149c 3d814e5a
@149d 3d521581
@149e bc99dae4
@149f bc66527d
@14a0 bc7822a7
@14a1 3c987aaf
@14a2 3d077d7d
@14a3 bd032422
@14a4 bce20519
@14a5 3d48619c
@14a6 3d24d146
@14a7 bd1b1707
@14a8 3d125cd2
@14a9 bc26ccf4
@14aa bcda8d3d
@14ab 3d25df2e
@14ac bd287cb3
@14ad 3bee0935
@14ae ba60a7d8
@14af bce65ac9
@14b0 3c86a794
@14b1 bd0c831b
@14b2 3c25d02f
@14b3 3c2122f5
@14b4 bccff921
@14b5 bc48a34e
@14b6 3cea37f2
@14b7 bd091d74
@14b8 bbc19e65
@14b9 bd137fe8
@14ba 3d317fe9
@14bb 3b853f32
@14bc 3d18a512
@14bd bc4dbf85
@14be 3cc5f23e
@14bf 3d3fb27f
@14c0 bb6a5ad7
@14c1 bd31cc55
@14c2 bd20ac0b
@14c3 bd07ecb3
@14c4 3c02e804
@14c5 bc4f0938
@14c6 3cf60556
@14c7 3c6f1b7f
@14c8 bc049c4f
@14c9 3d5463ae
@14ca bd0c617c
@14cb 3c12ca28
@14cc 3ca5cde5
@14cd bd211183
@14ce 3d55a5f6
@14cf 3caea217
@14d0 3cc4d49d
@14d1 3d136e8b
@14d2 3b5651c7
@14d3 bcbdd56b
@14d4 bd65188f
@14d5 bd353d11
@14d6 3cbc3acb
@14d7 3d2c3e8f
@14d8 3c7a5701
@14d9 bd565ef8
@14da 3cc5182c
@14db 3ca3fb6a
@14dc 3c27b476
@14dd 3c8af61f
@14de bd3b5526
@14df bb516c03
@14e0 bcf17074
@14e1 3c7d18d9
@14e2 3cbd2554
@14e3 bd65a976
@14e4 bd725fd6
@14e5 3d1aa20b
@14e6 bd364997
@14e7 3b418aba
@14e8 bc94ae46
@14e9 3d33fe4f
@14ea 3d23f03c
@14eb 3d3f8ba8
@14ec 3b491e59
@14ed bc7ce124
@14ee 3d3fe817
@14ef bd0f622c
@14f0 3d2a81f2
@14f1 3d3d5985
@14f2 3cc07436
@14f3 bcda7623
@14f4 3d165243
@14f5 3d25f7cd
@14f6 bac43f3d
@14f7 bd3c7a00
@14f8 bce709cf
@14f9 bd23b305
@14fa bc3952d1
@14fb bbe5cf80
@14fc bd48a1c2
@14fd bd17e670
@14fe 3cf841a0
@14ff bb9c0cd8
@1500 bd3a9b2b
@1501 bcafdca8
@1502 bd037b99
@1503 bd22b36f
@1504 3d502779
@1505 3c1735ef
@1506 3b752b2e
@1507 bd2d2c3b
@1508 3cd0201a
@1509 bd0d87e4
@150a 3c8f363c
@150b 3cfd21fe
@150c bce48fa1
@150d bb6ad57d
@150e 3d457bc6
@150f 3bededfb
@1510 3d54da70
@1511 bd3519cd
@1512 bd49dc48
@1513 bd0a7bf9
@1514 3d1bd680
@1515 bd349a43
@1516 bc500b0c
@1517 bd422b0c
@1518 bcc0c434
@1519 3d2d9b63
@151a bd0c47b9
@151b bc087723
@151c 3d36348a
@151d bb141322
@151e bca4d8c8
@151f 3c7811e2
@1520 3ce71a66
@1521 bca7aab2
@1522 3d27d865
@1523 3ced6346
@1524 bd5ca912
@1525 baaa84c7
@1526 3bac1255
@1527 3ca153f9
@1528 bc5d2e8b
@1529 3ccbfc14
@152a bd50d94c
@152b bc92dc85
@152c 3d47c217
@152d bd15bd54
@152e bd08007c
@152f bca2523b
@1530 bd261582
@1531 bd2ea0a3
@1532 bc1f6d59
@1533 bd0dd05f
@1534 3cf3c46a
@1535 3c9c8991
@1536 bd0ea384
@1537 3cf0d5b9
@1538 bceb75e1
@1539 3d52017a
@153a 3cf39c9b
@153b 3cdba906
@153c 3c610ff0
@153d 3d13f756
@153e 3ce4db59
@153f bccdd90a
@1540 3d7a77c7
@1541 3cd233e1
@1542 bce19ec5
@1543 bd84d6bf
@1544 bd507341
@1545 3d4a9c4e
@1546 3c581a9d
@1547 bd6cb8db
@1548 bc6ac9f3
@1549 3cb71261
@154a bba5250e
@154b bd38d063
@154c 3d02a737
@154d bcb08249
@154e 3d0117d3
@154f 3c7cce78
@1550 3ca2d446
@1551 bd2998cf
@1552 bbdf9b4e
@1553 3b577100
@1554 3c4aca8e
@1555 bc0d59b7
@1556 3c161226
@1557 bd4a9b76
@1558 bbbf08fe
@1559 bd0eefd6
@155a bd0a3a65
@155b bd0534a6
@155c 3c805490
@155d 3d2ca033
@155e bcd2660d
@155f 3b25301a
@1560 bd383a67
@1561 bd0fc8e7
@1562 3c852a61
@1563 3c87b92b
@1564 bc53aa26
@1565 bcadb59a
@1566 3c7066ca
@1567 bd1bb567
@1568 3cbb477f
@1569 bba987d0
@156a bd411f82
@156b bba5342d
@156c 3c98eed0
@156d 3d2c9b73
@156e bc07db15
@156f 3bf7aa04
@1570 3b98580d
@1571 3bc59321
@1572 3d277f97
@1573 3b007744
@1574 bae836a4
@1575 bc824349
@1576 3c87464e
@1577 3c9e704a
@1578 bc7bfe7d
@1579 3ba8d68d
@157a 3c9d8089
@157b 3ceec694
@157c bc5c1795
@157d 3b13d245
@157e 3c4f94e9
@157f 3c51820b
@1580 3c2060c2
@1581 3cd23de3
@1582 3cc187d8
@1583 bc365be8
@1584 bc18cb78
@1585 3ccf119d
@1586 bbfc5e12
@1587 bb38e96b
@1588 bc9416a2
@1589 bd23000d
@158a bc2a8c18
@158b bb5f651d
@158c 3ce34e8c
@158d 3af4d5c9
@158e bd45ebbf
@158f 3c442f71
@1590 3d5afb67
@1591 bcb388bf
@1592 bcd10d11
@1593 bc7470bf
@1594 bb349e10
@1595 bcca2e5b
@1596 bba25fa6
@1597 3cbc6802
@1598 3d2717da
@1599 bd3d06a2
@159a bd2d7bab
@159b 3c8d54f3
@159c bcee6a9a
@159d bbe14046
@159e 3d0cb466
@159f 3b25fb35
@15a0 3ce3cf6f
@15a1 3d4b2f07
@15a2 bc8bad93
@15a3 3c733e07
@15a4 3d026e62
@15a5 bd044fe8
@15a6 bbf470d2
@15a7 bd49f86d
@15a8 bd40bede
@15a9 3bae938f
@15aa bcb6a87f
@15ab bd2d6735
@15ac 3cb5d17c
@15ad 3951b665
@15ae 3d264e57
@15af bcb5d30c
@15b0 bc82c52a
@15b1 bd2e1e5c
@15b2 3ccabfa4
@15b3 3a09e571
@15b4 3d0aab09
@15b5 bd23737f
@15b6 bc135f26
@15b7 3d184381
@15b8 3d69edc8
@15b9 3c8b9910
@15ba bd18082f
@15bb bd3f0b4a
@15bc bc45bd75
@15bd 3d2ea562
@15be bcf1f82c
@15bf 3d1dcf3a
@15c0 bc0605f9
@15c1 bce566c4
@15c2 3c4e98a2
@15c3 3c19209f
@15c4 3c608e26
@15c5 3d10e2da
@15c6 bcb1c609
@15c7 3c334d98
@15c8 3c673b0b
@15c9 bce2f50d
@15ca 3b756295
@15cb bc3de16b
@15cc bc9a798d
@15cd 3cd4878a
@15ce b989772c
@15cf bd3c2c36
@15d0 bce24862
@15d1 bcbb7556
@15d2 3d370ad8
@15d3 bcbf403f
@15d4 3c8f4234
@15d5 bab350e5
@15d6 bcb86fda
@15d7 3d35992e
@15d8 bcfba037
@15d9 3d3c578d
@15da 3d019a98
@15db 3d56a659
@15dc bd0933fa
@15dd bd3213ff
@15de bbb031ce
@15df 3a8b7dcb
@15e0 3d073199
@15e1 bcfbd3b6
@15e2 bc94991b
@15e3 3d16a96c
@15e4 3c28450d
@15e5 bbb0a855
@15e6 bc83ccd8
@15e7 bceed855
@15e8 3d3296d1
@15e9 3c42e28d
@15ea bd2a31b3
@15eb 3d201068
@15ec 3c82d468
@15ed 3d11ca6d
@15ee 3c067c97
@15ef bd3a73cd
@15f0 3d4e9b07
@15f1 3cc15385
@15f2 bc837d97
@15f3 3d34b9a4
@15f4 ba3769bb
@15f5 bbb095af
@15f6 3d3263f0
@15f7 3d0220dc
@15f8 3cebcfbe
@15f9 3c52c2f9
@15fa bc970b1b
@15fb bab8ae2c
@15fc 3c7a8b5d
@15fd 3d1b00e1
@15fe bb007841
@15ff 3d33b155
@1600 bc6c91d5
@1601 3c8c6d81
@1602 3d31b0c7
@1603 bd3890e9
@1604 39916177
@1605 bd251997
@1606 3d59f001
@1607 bcc0c76d
@1608 3a64bbf0
@1609 3c99223a
@160a bc9dbcbe
@160b bd302d57
@160c bd3bd31e
@160d bce560e7
@160e bd4e01ff
@160f bcda335c
@1610 bce02829
@1611 bbe6b018
@1612 3d353f23
@1613 3d34765e
@1614 3ce6a8b2
@1615 bcc61247
@1616 3d087c15
@1617 3d05bb52
@1618 3d330684
@1619 bc7801c2
@161a bc867fce
@161b bd2b667b
@161c 3d06df46
@161d 3d45ed20
@161e 3d35020b
@161f 3c44828b
@1620 bc51d3ee
@1621 3d3a7212
@1622 bd0d1769
@1623 bcb15919
@1624 bd35a2a6
@1625 bb03c092
@1626 bd42698f
@1627 bcf5a580
@1628 3b2635e6
@1629 bd179c8b
@162a bca5ee0a
@162b 3cc58fe3
@162c bd295629
@162d 3d26ee82
@162e 3c368200
@162f bbde45e9
@1630 3d2d8306
@1631 bd247bfd
@1632 3aefc19c
@1633 bc2c7fcf
@1634 bd10bea9
@1635 bcbb0e92
@1636 bbfd3f8c
@1637 3d499c5b
@1638 3c2696db
@1639 bd244bc2
@163a 3cc4737c
@163b bcf4702e
@163c 3c8c2487
@163d bd5d06ea
@163e 3d188fe5
@163f 3ce4be1e
@1640 bd05bf90
@1641 bd2837c0
@1642 3b59f595
@1643 bd2ecde7
@1644 3d24ad88
@1645 bd15e643
@1646 3c76b405
@1647 3d322239
@1648 3cb2921a
@1649 3c5f55a1
@164a 3bf34cb6
@164b bd18b18e
@164c 3c1ff527
@164d 3cb58048
@164e bd1f730e
@164f 3d386212
@1650 3c8218ed
@1651 3c2b3f3c
@1652 3d140677
@1653 bb37793d
@1654 3d4aca81
@1655 3c356930
@1656 bbf50efc
@1657 3d23dbe9
@1658 3ca3ca01
@1659 3d1410c1
@165a bb7b418e
@165b bd509f2d
@165c 3d2fec95
@165d bd185b35
@165e 3cb82a7c
@165f bc892319
@1660 bcb0bd9c
@1661 bcac7213
@1662 3cb2a761
@1663 3caf07d7
@1664 bbbba79d
@1665 bb163db2
@1666 3d3e2e93
@1667 3c00a781
@1668 3d168c9e
@1669 bcd54578
@166a 3d30b398
@166b 3d34fbae
@166c 3ca1e93a
@166d 3d06b78e
@166e bd31117a
@166f bcb6674b
@1670 3ba42d65
@1671 bc1b7317
@1672 3a244eae
@1673 3d0bf178
@1674 bcd631b7
@1675 b905e70e
@1676 bd4368cb
@1677 3c2e1968
@1678 3c97fa6d
@1679 bbcf1064
@167a 3ac0e406
@167b 3d2270d2
@167c 3c0d6376
@167d bc026136
@167e bc765dcf
@167f bcc332c2
@1680 bd04baa4
@1681 3d10c43c
@1682 3c2d8229
@1683 bd18e287
@1684 bd0607a9
@1685 bd2b851c
@1686 bd80018b
@1687 bd7b02e5
@1688 3d5b2b32
@1689 3d5ae752
@168a bd11cbb2
@168b 3d14a000
@168c 3d59d574
@168d bc905b1f
@168e bd439af1
@168f bc84ddb4
@1690 bd570056
@1691 3c79414c
@1692 3c28ab13
@1693 3d7586f5
@1694 bc7e0417
@1695 3aba5382
@1696 3d1f3924
@1697 bcacd0d7
@1698 3b9bb8a2
@1699 3d033705
@169a bd7d616d
@169b bc9882d6
@169c 3cf1a207
@169d 3cc8b9be
@169e bb64ad7c
@169f bc2b0598
@16a0 3d8f1497
@16a1 bd6f1f3d
@16a2 bc66a921
@16a3 3c5c72b0
@16a4 3c7ca06d
@16a5 3d14ce8b
@16a6 bc8223aa
@16a7 bcacc569
@16a8 bd37bb9c
@16a9 bd825def
@16aa bccca01f
@16ab bc6a750b
@16ac 3cc7cd87
@16ad bcdb1b8d
@16ae bc8f5cca
@16af 3d1476f2
@16b0 3d0d3292
@16b1 3d547840
@16b2 3cf760be
@16b3 bab3c7c8
@16b4 3ba3a6a5
@16b5 bc9ffff8
@16b6 3964dbac
@16b7 3d4cd69a
@16b8 bbdba15b
@16b9 bce4cd25
@16ba 3d01b1e3
@16bb bc7f94c5
@16bc bce15106
@16bd 3dc8b821
@16be 3dc08bce
@16bf 3d8fd8d9
@16c0 b9ba622a
@16c1 3cac65f5
@16c2 bd393318
@16c3 3d805ad9
@16c4 3d313d4e
@16c5 bd067d9d
@16c6 bd2b5849
@16c7 bd7c8bea
@16c8 3cb901bc
@16c9 3baa55bc
@16ca bccea555
@16cb 3d4ecb04
@16cc 3d41e798
@16cd 3d3d475e
@16ce 3cfe83db
@16cf 3cec188f
@16d0 3cb766e3
@16d1 bd2fdf1f
@16d2 bd21d927
@16d3 bd025bf5
@16d4 3d9bb85b
@16d5 3d2ff929
@16d6 bc97fd5c
@16d7 3d22a2f5
@16d8 3d6eca52
@16d9 3ca84bbe
@16da bc945cba
@16db 3d282d95
@16dc 3c8954d8
@16dd bd1d7010
@16de bc657c8b
@16df 3cd4c610
@16e0 bc358e25
@16e1 3c40ca1b
@16e2 bd0b420c
@16e3 bc896346
@16e4 3d55ddd8
@16e5 3d49a645
@16e6 3cf5cc21
@16e7 bc35f3cd
@16e8 3c7d2329
@16e9 bd32f63b
@16ea bd1a96a7
@16eb bc9b4fda
@16ec 3cd5a66d
@16ed bcb9020a
@16ee 3d283070
@16ef bb50f9a9
@16f0 3c6a1ec5
@16f1 3b6083ac
@16f2 3d029959
@16f3 3ccd8622
@16f4 3b59e85d
@16f5 3d12c9ef
@16f6 bccb598e
@16f7 3bece51d
@16f8 3d148950
@16f9 3c5bdbaa
@16fa bcc3cb4b
@16fb 3c7cd3a7
@16fc 3d2a3326
@16fd 3c8405c2
@16fe bd26a726
@16ff 396d47ac
@1700 3d1ab5a3
@1701 3c0d55d9
@1702 3cc9f235
@1703 bc3b00c8
@1704 3d12b88e
@1705 3d0d1a6a
@1706 3d2b1b96
@1707 b9ae97ef
@1708 bcb20824
@1709 3acad036
@170a 3c7758b3
@170b 3cb5730e
@170c 3cefd509
@170d bd17f475
@170e 3cbe91f5
@170f bc2c7c14
@1710 bc4b6b54
@1711 3c80facb
@1712 bd851d63
@1713 3d1f5590
@1714 3c061762
@1715 bc25fd4a
@1716 3c5bedc3
@1717 3b5e7d57
@1718 3b030002
@1719 ba27e6d4
@171a bcf363c5
@171b bd1de73a
@171c bd9663fa
@171d bdb58107
@171e bd4cd4a0
@171f 3d6db338
@1720 3d68a9d6
@1721 3cdb2585
@1722 bcc7b6c3
@1723 3d333409
@1724 baee4870
@1725 bcdf14a5
@1726 bc4a35bc
@1727 bd31dd4d
@1728 3c53bf8f
@1729 bd029065
@172a 3d0af5e2
@172b 3d13dc97
@172c bd05e5e5
@172d bc9cc7d1
@172e 3d44b433
@172f 3b0ca63a
@1730 3c145be8
@1731 3d2f5762
@1732 bc67a547
@1733 bbb66f60
@1734 3d251fd0
@1735 bcb921b2
@1736 bb8572c8
@1737 3b05904a
@1738 3c8088d7
@1739 3d12a636
@173a 3d2158a3
@173b 3d8dce8d
@173c 3d3b31c8
@173d b94c25c1
@173e bd4e84e0
@173f bd683d02
@1740 bc8e51fd
@1741 bc112683
@1742 3ca54e63
@1743 bcef508b
@1744 bc39ef86
@1745 bd59f514
@1746 3a02cf93
@1747 3b25f58c
@1748 3c15ff25
@1749 bc7a9d37
@174a bcbf73e7
@174b 3d910e53
@174c 3ca089ac
@174d 3d835091
@174e 3b836c73
@174f bd0ac577
@1750 3d871f80
@1751 bb0d27a9
@1752 3cc03ff9
@1753 3dd1e428
@1754 3d6aadca
@1755 bc0ec26d
@1756 3d1f1159
@1757 bca07f06
@1758 bc82fcbd
@1759 3c879369
@175a bd876baa
@175b 3c94999b
@175c bbef8927
@175d 3d173618
@175e bd83c584
@175f bd226e45
@1760 bbf98ebc
@1761 3c958082
@1762 bd0d46a0
@1763 bce8d1c5
@1764 3d64d0f6
@1765 3d2efb9d
@1766 3cc1f07e
@1767 bc5d9824
@1768 3ad9cfba
@1769 3c0e00b5
@176a 3c99a465
@176b 3d1a97ee
@176c 3c8dab01
@176d bdb6e2c3
@176e 3cb6a60c
@176f 3cf6811f
@1770 bbe50caa
@1771 3d389164
@1772 3d51b763
@1773 3ca4a60d
@1774 3d0c4fd2
@1775 bcb89806
@1776 bd4116d5
@1777 bbcac038
@1778 3c9eaf0a
@1779 bb2bf70a
@177a 3d2323eb
@177b bd1ac617
@177c 3d0d88aa
@177d bd22a5ac
@177e bca50529
@177f 3ca69ea3
@1780 3ce2ca26
@1781 3c3cb091
@1782 bd70436a
@1783 3d1a1407
@1784 3d293708
@1785 bc5fa459
@1786 3cc9134e
@1787 3cd2f07e
@1788 3d3e688b
@1789 bbf9efb3
@178a bc84c98d
@178b bd43235a
@178c 3cb00a77
@178d bc9feb07
@178e bc3b02cd
@178f bc2d3929
@1790 bc5b4ac4
@1791 3d15f4c3
@1792 3d64ee6e
@1793 3c6fcd82
@1794 bd83c013
@1795 bb622ad8
@1796 3cffa4f1
@1797 bd1f3c59
@1798 3d20f940
@1799 bbbca690
@179a 3ca88136
@179b 3aa58803
@179c 3cccbf81
@179d 3d0114af
@179e bd56c5ca
@179f bd80fbd1
@17a0 bd6e9383
@17a1 3d22333e
@17a2 b94a2789
@17a3 3c581185
@17a4 bd23c0a4
@17a5 3c381108
@17a6 3c1141fe
@17a7 3cc5d6c8
@17a8 3c99c043
@17a9 bd3e26ae
@17aa bd0eb500
@17ab bc6ad13c
@17ac bc47a706
@17ad bd01dccb
@17ae bb70b572
@17af 3c04dfc0
@17b0 bd60a482
@17b1 3c0aa76e
@17b2 bd341f1d
@17b3 bcc17c53
@17b4 bc90f218
@17b5 bca1f18e
@17b6 3a751c5d
@17b7 bd4e7394
@17b8 bb53be4f
@17b9 3cc43f18
@17ba 3d24aa9a
@17bb bd38b02e
@17bc 3cf695a7
@17bd bc94a6b4
@17be bd194670
@17bf bb2024af
@17c0 bcbc1aa8
@17c1 bbda3f96
@17c2 3d702b6a
@17c3 3c68d274
@17c4 bcbaa9ce
@17c5 bb39c14f
@17c6 3d3e9d67
@17c7 3cd6a270
@17c8 bd12dd25
@17c9 3c6ed8d8
@17ca 3cba8d0f
@17cb 3c46d4a6
@17cc bd2077d4
@17cd bc8cf4c0
@17ce 3d96d8c4
@17cf bc8b77ed
@17d0 3d86d181
@17d1 3d650722
@17d2 3de82e7e
@17d3 3d66a524
@17d4 bd0ae4a0
@17d5 3cc4bd52
@17d6 bc5a447f
@17d7 3c4601af
@17d8 3d3063b5
@17d9 3d2373f4
@17da bd6c99e5
@17db bb508530
@17dc 3bed1f2d
@17dd 3c84a369
@17de 3cfc0175
@17df bd1d994c
@17e0 bcdb4de1
@17e1 3d6930d7
@17e2 bb93db9e
@17e3 bc947d38
@17e4 ba466907
@17e5 bcf6a578
@17e6 3bbca9d2
@17e7 bd0296e3
@17e8 3d78b9d6
@17e9 bd7023d3
@17ea bc942fac
@17eb bcf831ff
@17ec 3d31b486
@17ed 3c1d8f6f
@17ee bc9ab998
@17ef 3acf2f67
@17f0 3b7367ca
@17f1 bd554b5e
@17f2 3d0eff94
@17f3 3c67d7b2
@17f4 bcb7fda6
@17f5 3ba88c2f
@17f6 bcb627c8
@17f7 3cc321dc
@17f8 3d15d7a5
@17f9 bd3bf567
@17fa bb050e9b
@17fb 3cd0dd25
@17fc ba9eb58a
@17fd bc015d08
@17fe 3d0e9408
@17ff 3d6d0b46
@1800 3d6feaca
@1801 bba72dc9
@1802 3c7114d3
@1803 3d160743
@1804 3d56074d
@1805 3d4225bd
@1806 3c215d3b
@1807 3c288121
@1808 bcd32895
@1809 bd3b4088
@180a bcf7659a
@180b bcd493cf
@180c bd2b9e8d
@180d 3d601d6c
@180e 3d16927e
@180f bd6a183f
@1810 bc141c80
@1811 3c4c6350
@1812 3d6a0f06
@1813 3d248e75
@1814 bc4f447c
@1815 bd2b61ec
@1816 3cdef659
@1817 3c8a81a0
@1818 bd782502
@1819 bc13a108
@181a bd321ac2
@181b 3d0b3a22
@181c bd208928
@181d ba99982f
@181e 3c5731fb
@181f bc8ac4c1
@1820 3d334a81
@1821 3c08e5cd
@1822 bcaca00c
@1823 3c6ceb9d
@1824 bc18761b
@1825 bcef621d
@1826 3d175038
@1827 bcfd3b0a
@1828 3d12ecac
@1829 3d68d2d2
@182a 3c17d033
@182b bd0e79de
@182c bd06dad8
@182d bd652162
@182e bd1e488f
@182f bd210f25
@1830 bc021a4f
@1831 3cc493d8
@1832 bd14171f
@1833 bd798db0
@1834 bc8cfc4c
@1835 3bcd3a94
@1836 3d6bd557
@1837 3d949868
@1838 bc1fae7a
@1839 3d181012
@183a 3cd91fdd
@183b 3c0f4a7e
@183c bc3e0d46
@183d 3d0f6d73
@183e bcb9d131
@183f bcf3b6b1
@1840 3c4250e2
@1841 bb2bda9f
@1842 bc438da5
@1843 bc8a0836
@1844 3d7dfee2
@1845 bc6af76a
@1846 bcdc4e16
@1847 3c7a71dc
@1848 bc348fe7
@1849 3c37b3b1
@184a bd17c3d4
@184b bce97062
@184c bd33fb60
@184d 3c23e6f4
@184e 3d20ce75
@184f bbc8f05f
@1850 bcff7c6c
@1851 3cb597b3
@1852 3c25f963
@1853 bd693f7f
@1854 bd975be3
@1855 bc2011ee
@1856 3cb1423d
@1857 3cffa8ba
@1858 3cd51f6e
@1859 3ce5432c
@185a bda364db
@185b 3c387a48
@185c bd7bc346
@185d 3daa8659
@185e 3d4fb72a
@185f bcddb210
@1860 bb5031bd
@1861 bb8c21ad
@1862 3d971f84
@1863 bcb078cd
@1864 bd820517
@1865 bc36fe35
@1866 b9d853a3
@1867 3c48f052
@1868 bd051bde
@1869 3ce1d6b1
