@0000 bdde8e07
@0001 bd34cd8b
@0002 3d81d36a
@0003 bd90d107
@0004 bdc3a36f
@0005 be1e2499
@0006 be19d0c5
@0007 be0edd6b
@0008 3deac12a
@0009 bdc2bafe
@000a bd8e00a5
@000b 3e34e68a
@000c 3e3c6547
@000d 3b09209c
@000e bdfd9383
@000f be4b1f6c
@0010 3de87f56
@0011 3da8e77f
@0012 be28b0a0
@0013 3e21b9a0
@0014 3d87dae9
@0015 3c8fd5a9
@0016 3e31acee
@0017 be084215
@0018 be45b089
@0019 bd0f1f73
@001a 3e321c60
@001b 3e30053b
@001c 39e95ed4
@001d be3b6ad7
@001e be1fa6f0
@001f 3d8f04d6
@0020 bdb23fb5
@0021 bb86780e
@0022 3c8ecaa2
@0023 bcd8ba77
@0024 bde4e718
@0025 3e2662da
@0026 3e21fe18
@0027 bdaad9a4
@0028 3e56845a
@0029 bcff2148
@002a bc6e842d
@002b 3e361871
@002c be2e0b84
@002d 3c869aac
@002e 3dedcc1c
@002f bdb5de75
@0030 3e4831d9
@0031 3ce62966
@0032 bd276cd7
@0033 3e2834e0
@0034 3e908e94
@0035 3cdee3a3
@0036 3daa5c8d
@0037 3d805011
@0038 3c0ea9cd
@0039 3e983a61
@003a 3e5a3015
@003b bdc878d5
@003c 3e591680
@003d 3e5308cf
@003e 3d973c08
@003f bd7bbf63
@0040 3e23c136
@0041 3e586a96
@0042 3e69170a
@0043 3b22f7dd
@0044 3db8f18b
@0045 3c9ba3f7
@0046 3dd041a0
@0047 bc2ec898
@0048 bd9f1057
@0049 3dbcdc15
@004a 3e345d98
@004b 3e97acff
@004c 3e24f3b4
@004d 3ed0fe10
@004e 3eb42693
@004f 3e943db7
@0050 3ed90c8d
@0051 3eb18841
@0052 3e17a8ce
@0053 3e0d8115
@0054 3dfd57f0
@0055 3ebfa86f
@0056 3e364519
@0057 3db6d5e5
@0058 3ece60cd
@0059 3e3da786
@005a 3ec9047c
@005b 3df7733d
@005c 3de26f82
@005d 3ecb1f7d
@005e 3e8285da
@005f 3ec16d3a
@0060 3e39c1c8
@0061 3e9fc842
@0062 bccceab7
@0063 3e3adc60
@0064 3dcfd977
@0065 3e7f4de0
@0066 bca95cb4
@0067 3e427ae2
@0068 3e864b7a
@0069 3d5359ac
@006a 3e6c7d2e
@006b 3e88df85
@006c 3e15dea6
@006d 3df9c2ac
@006e 3e772668
@006f 3eb32883
@0070 3ea57756
@0071 3e909217
@0072 3eb88fcc
@0073 3dc94978
@0074 3e60d719
@0075 3e52044e
@0076 3e31f2e3
@0077 bccba986
@0078 3c38a6eb
@0079 3eb2d878
@007a 3e7bc28b
@007b bd13a776
@007c 3e3e02fb
@007d 3e4c0a06
@007e 3e1ba499
@007f bdbe8bd9
@0080 be448716
@0081 be287abb
@0082 3e347dc3
@0083 bdd44340
@0084 bc7c0a21
@0085 3df5158c
@0086 3dd03970
@0087 be4354f4
@0088 be1e91a7
@0089 b8bc5a50
@008a 3d74f4e1
@008b be0e4d29
@008c bdc8a55b
@008d bda31d70
@008e 3e4235b9
@008f bd4882d6
@0090 3e192ad5
@0091 bdf993fe
@0092 bbb6b615
@0093 bca69591
@0094 be1da7e2
@0095 be196cae
@0096 3d0d3fc4
@0097 bd6b7019
@0098 3bf225dc
@0099 bd30111e
@009a 3c9a009a
@009b bd96dd35
@009c 3d587368
@009d 3ca19431
@009e 3d652496
@009f 3d3b69a7
@00a0 baae43ec
@00a1 bc44f22d
@00a2 3c5dd93c
@00a3 3d9a9bb5
@00a4 bd40e3a1
@00a5 3c801c60
@00a6 3d5feba9
@00a7 ba87c372
@00a8 bcba3e00
@00a9 3c8f042f
@00aa 3d4c4a5c
@00ab 3d187e2b
@00ac 3d218925
@00ad 3d27558e
@00ae 3d59bad1
@00af bd6efbda
@00b0 bd7542a3
@00b1 bab9e075
@00b2 bcc3fe81
@00b3 bd6b789b
@00b4 3cb1d534
@00b5 3d1553f5
@00b6 bd30ddf7
@00b7 bd47f11f
@00b8 bca482fd
@00b9 3d45cc3e
@00ba bc66f6a0
@00bb 3d8be4f8
@00bc bc97d989
@00bd bc940bb9
@00be bd926464
@00bf bd83aa4a
@00c0 3d65a464
@00c1 3c94dc2d
@00c2 3c7b4025
@00c3 3d9cc0c9
@00c4 3b561c68
@00c5 bd1830c2
@00c6 3d2c5f58
@00c7 3b785baf
@00c8 3dbe367a
@00c9 3dd8e1b9
@00ca 3da71008
@00cb bd6e3d92
@00cc 3d7ea38e
@00cd 3dddf29f
@00ce 3cfae6bf
@00cf bc006ede
@00d0 3d4699e1
@00d1 bc7ed833
@00d2 bd3ea205
@00d3 3dbc026c
@00d4 bcf5a1e8
@00d5 bc1cbf67
@00d6 3d5a3fe2
@00d7 3d6455ea
@00d8 bd139184
@00d9 bd96f3c1
@00da 3d2c1549
@00db bd017658
@00dc 3da2303c
@00dd bc97b0b5
@00de bb8e0a96
@00df bb700a29
@00e0 bda4008c
@00e1 3b96562e
@00e2 3e08693a
@00e3 3db4bd5d
@00e4 3de14210
@00e5 3daa100c
@00e6 3e053bf9
@00e7 3e173eb0
@00e8 bc276583
@00e9 bb8d5b20
@00ea 3cb1d504
@00eb 3e222868
@00ec 3db847ef
@00ed 3d649139
@00ee 3d94c9cb
@00ef bd3e3af8
@00f0 3d9e683d
@00f1 3d8badd8
@00f2 3c7bc2d5
@00f3 bc76760e
@00f4 bdb2372a
@00f5 3d8e1ce8
@00f6 3d97e7f1
@00f7 bcc3c6fd
@00f8 3d1aaaf1
@00f9 bab455d5
@00fa 3d3af1b5
@00fb 3ce5e400
@00fc 3dfa0f92
@00fd 3d1044ce
@00fe bb8b2794
@00ff 3dd8f982
@0100 3e06327b
@0101 3d9abd97
@0102 bcae6187
@0103 3bd02a8e
@0104 3db2da27
@0105 3d729a6e
@0106 bd3053eb
@0107 bd64fb80
@0108 bd7d835a
@0109 3d919b95
@010a 3c18f702
@010b bd163845
@010c bd129a22
@010d bb9447ef
@010e 3daa11cf
@010f 3c838576
@0110 bd109190
@0111 3cfe1152
@0112 bdbb943a
@0113 3c507160
@0114 bd1e3163
@0115 3c3bf8ca
@0116 3d90f23a
@0117 3da1d3c6
@0118 bd87064e
@0119 3d7a9622
@011a bd11d7c7
@011b 3d746fc9
@011c bcd8de93
@011d 3cfe54fa
@011e bd811ccd
@011f bd205883
@0120 bd0bc64d
@0121 bcb7fe39
@0122 3cd4e8f4
@0123 3d96b0a5
@0124 bcf70e97
@0125 3a0c20ab
@0126 3b9c8766
@0127 3d077b93
@0128 bd93c588
@0129 bc83bc2f
@012a 3d911d7e
@012b 3b4bc55d
@012c 3c5f5d46
@012d 3d47e142
@012e 3d72ce20
@012f 3bf22090
@0130 bd9319c0
@0131 bd633961
@0132 3c31bae3
@0133 3c78df63
@0134 3d952436
@0135 bc569706
@0136 3c8e0c73
@0137 bcb1a34f
@0138 3da1bb66
@0139 3d966ddf
@013a 3be4db23
@013b 3d203361
@013c bcecf3d8
@013d 3c805296
@013e 3d133624
@013f 3da8de62
@0140 bd6d9dd4
@0141 bd4d06ee
@0142 3d712de9
@0143 bd2063a5
@0144 3d99cf17
@0145 bd15fc45
@0146 3d73ceb0
@0147 bd44533a
@0148 3bcb5ffa
@0149 3d5aeaaa
@014a bcc638b0
@014b 3d809b37
@014c bd449fba
@014d bd5cb1bf
@014e bd0ece66
@014f 3cb764e5
@0150 bd84c84b
@0151 3d34b2b3
@0152 3c0fb909
@0153 bd9513c4
@0154 3d1c4b09
@0155 bcdb98b6
@0156 3c9f24e1
@0157 bb0a0c01
@0158 3d70cc0f
@0159 bc5baaf5
@015a bca79367
@015b 3ce67df2
@015c 3da2558d
@015d 3d557074
@015e 3d041248
@015f 3dc6117f
@0160 3cc0b192
@0161 3d9519d3
@0162 bd4c62fa
@0163 3db14bc2
@0164 bb6ab8e2
@0165 bd78e579
@0166 3d967cf5
@0167 bc44217e
@0168 bbb47798
@0169 3d9cd79b
@016a bd68d4b5
@016b 3d0fc65f
@016c 3db05dd4
@016d 3d6cd616
@016e bcb1bac5
@016f 3bd24875
@0170 bce86333
@0171 3cc75d50
@0172 bb707d82
@0173 3bfed75b
@0174 3db397f4
@0175 3dc90041
@0176 3d90202e
@0177 3d24413e
@0178 3de54e7f
@0179 3dde9fad
@017a 3cb4e0d2
@017b 3d843aeb
@017c 3dca2f17
@017d 3d9ca1de
@017e bc8afa6a
@017f 3dc2de41
@0180 3ccecb9c
@0181 3c477b03
@0182 bd0b3dd0
@0183 3d144848
@0184 3dea2d6c
@0185 3d21e7f9
@0186 bc65191f
@0187 3db16a57
@0188 bd313644
@0189 3e031642
@018a 3c837e34
@018b 3bba2ffe
@018c 3c991300
@018d bd20f6ac
@018e 3cd64388
@018f 3dedebaf
@0190 3d3b9669
@0191 3ccb441f
@0192 bcf1e99d
@0193 3d99772c
@0194 3dd9d0b6
@0195 bcdff798
@0196 3dc7bcaa
@0197 3bf422f3
@0198 bcaeb1f9
@0199 3a919905
@019a 3d1a9d01
@019b 3c70d234
@019c 3d0c4950
@019d 3dbe139a
@019e 3d40b09a
@019f 3cda7876
@01a0 bd4c6c44
@01a1 bd13da74
@01a2 bc8ca994
@01a3 3d6986c9
@01a4 3c8f36c7
@01a5 bd941bbb
@01a6 3d8ece08
@01a7 3d8be7f8
@01a8 3de76556
@01a9 3bcace12
@01aa bd1ba3d8
@01ab bced5e5e
@01ac 3d8d586a
@01ad bd9c03b0
@01ae 3ca34000
@01af bd78cd8f
@01b0 bd885c6d
@01b1 3c6d6485
@01b2 3d373744
@01b3 bd44c25f
@01b4 3d5f2414
@01b5 bacd59c0
@01b6 bd605f80
@01b7 bc4f404f
@01b8 bc023b40
@01b9 3d85e7fc
@01ba bda0052d
@01bb 3d91fa08
@01bc 3d99c1f6
@01bd 3d97c5ee
@01be 3d4b9817
@01bf bcd4a6a4
@01c0 3d4e27a0
@01c1 bd1185f5
@01c2 3c01afd1
@01c3 3d7a8737
@01c4 3d3413b4
@01c5 bd9bab89
@01c6 3c9da404
@01c7 bcee7f59
@01c8 bc9d9e0f
@01c9 bad32566
@01ca bbcefc50
@01cb 3d0876ce
@01cc bd91836d
@01cd bcdc930a
@01ce 3d8bf7a6
@01cf bd37b83a
@01d0 bb61ea42
@01d1 bc9ec066
@01d2 bd4fa8b8
@01d3 bd134c38
@01d4 3d624009
@01d5 bc34e765
@01d6 3acca3f4
@01d7 3d8ce2d3
@01d8 3c8eb653
@01d9 3d88686f
@01da 3d77ca8d
@01db bd64d755
@01dc bd4ab49e
@01dd 3d9e2251
@01de 3d96449f
@01df bc56cc6c
@01e0 3bbe3ac9
@01e1 bcecf169
@01e2 3c59b472
@01e3 bc1ffab4
@01e4 baf054ba
@01e5 bd674caa
@01e6 bd11c50e
@01e7 3cb2785d
@01e8 3d3ffedb
@01e9 bd085a35
@01ea 3c893644
@01eb 3d522703
@01ec 3d94caac
@01ed 3c6566b0
@01ee bd324b94
@01ef bd94e04a
@01f0 bd98f2cf
@01f1 bcb71e20
@01f2 bd983939
@01f3 bd542b86
@01f4 bd353632
@01f5 3bc30d2d
@01f6 3caaf1b5
@01f7 ba0749ab
@01f8 3cb0c216
@01f9 3d42bc53
@01fa 3d8ecdb8
@01fb bd5d41a3
@01fc bd81df91
@01fd 3d86a848
@01fe bba80b7e
@01ff 3d10586e
@0200 bce08da8
@0201 bd48f5d8
@0202 3ca4fadc
@0203 3bea699e
@0204 bd303863
@0205 bd842c7b
@0206 bda60ecc
@0207 3d91f979
@0208 bda10171
@0209 bc0f2e45
@020a bb39e674
@020b 3cece9fd
@020c bd5c886a
@020d 3d315460
@020e 3c951c23
@020f bd250ba4
@0210 3c4d2bc3
@0211 bb5febb9
@0212 3d5050c3
@0213 3d80c780
@0214 bbc5fa7c
@0215 3d065f42
@0216 3d52e2df
@0217 bdba8857
@0218 bd11a318
@0219 3ad47495
@021a 3d58e9b6
@021b 3c88a17b
@021c bd5b99a9
@021d 3b2515ad
@021e 3b55005b
@021f bd949433
@0220 bd0bf531
@0221 3d8f2f74
@0222 bd8112bc
@0223 bd9cd35e
@0224 3d4ba6a1
@0225 3d2fb3ff
@0226 3d881e44
@0227 bda28372
@0228 3c456c1b
@0229 bd1ce9c3
@022a bd9e6bfd
@022b bdb104d5
@022c bc2efcc5
@022d bd06a208
@022e bd1b55b5
@022f 3d600615
@0230 3d26d6f1
@0231 bd8def92
@0232 bc3691e8
@0233 bb67eb4f
@0234 bda3cc44
@0235 bb2c528d
@0236 bd1e0c60
@0237 bd7b1091
@0238 bcd61df0
@0239 bd076129
@023a 3d491e50
@023b bd8488f1
@023c bc1810b2
@023d 3d7b4c42
@023e bd1745a2
@023f 3d93aff5
@0240 bc00fd23
@0241 3d101b1f
@0242 bd18d67c
@0243 3b2e654e
@0244 3d56fcbd
@0245 3d0b4763
@0246 3b80c923
@0247 bd79a63f
@0248 bc7663f6
@0249 3b3df20d
@024a bd110ac2
@024b bd594aa0
@024c 3d6a8375
@024d bbc1c926
@024e bcb4ce7e
@024f 3c39b59a
@0250 bca90e14
@0251 3d0d34b0
@0252 bcd7f371
@0253 bd2c18b0
@0254 3d199ea1
@0255 bd93fe2e
@0256 bcbaf795
@0257 3d92c3c9
@0258 3cce2bf1
@0259 bd6be247
@025a 3d58d1db
@025b bd94c8ae
@025c bd9c73ab
@025d bbaf073c
@025e 3c3c1cbc
@025f 3d6bf065
@0260 bd4ec983
@0261 bd6c1b64
@0262 bd9fbbf2
@0263 bb08beda
@0264 3b0ea112
@0265 3d7d7780
@0266 bd566c43
@0267 3c9e3de1
@0268 bc21ee77
@0269 3d6f55de
@026a 3d1128de
@026b bca168de
@026c bda5eba9
@026d bc053280
@026e bc9bbca3
@026f 3d431832
@0270 bd7dcd0f
@0271 3cd8d57b
@0272 3d8a077a
@0273 3d1dea95
@0274 3d9d3c77
@0275 bd7d7fe0
@0276 3d58ab12
@0277 3bb67308
@0278 bd219663
@0279 bc1303ea
@027a bd3d2068
@027b 3d5a9660
@027c bb8d7009
@027d bd4d0086
@027e bd258382
@027f 3be97bd1
@0280 bd81d302
@0281 bc0fe669
@0282 bd8c4fbc
@0283 3d0a2500
@0284 3d888592
@0285 3d92bf79
@0286 bd95ee9a
@0287 3d62d49d
@0288 bd8de460
@0289 bd89fdd3
@028a 3dd3b1d2
@028b 3da54de2
@028c 3dceb3f2
@028d 3d9c06a4
@028e 3d712554
@028f 3cd97a3c
@0290 3d81887d
@0291 3cc64f89
@0292 3db01f85
@0293 bc98a42c
@0294 3d30a59f
@0295 3dbad8de
@0296 bc9ee1d0
@0297 bd296508
@0298 3d56ebc6
@0299 bd507ffd
@029a 3d98cd2f
@029b 3dd9174b
@029c b8c6f14b
@029d bccd6737
@029e 3ca816cc
@029f bc488aa0
@02a0 bd85c680
@02a1 bd7e771e
@02a2 3d623b91
@02a3 3e0969e5
@02a4 3dbcfb05
@02a5 3e2a6b18
@02a6 3d818cdd
@02a7 3c9c55fa
@02a8 3dff8b13
@02a9 3e0fe0fc
@02aa 3e178c81
@02ab 3c4744a8
@02ac 3dffc54a
@02ad 3e3dcf68
@02ae 3dd55c48
@02af 3dc44527
@02b0 3e31ba1b
@02b1 3d7a1276
@02b2 3d917a2b
@02b3 3dea6ee8
@02b4 3df13986
@02b5 3c4dab5c
@02b6 3df9db57
@02b7 bcee3644
@02b8 3cc8e3aa
@02b9 bbfaec33
@02ba 3cf860f7
@02bb 3d0f42be
@02bc 3ddab39a
@02bd 3c76e004
@02be 3e00ec50
@02bf 3dbb2b93
@02c0 3d850013
@02c1 3dd03e31
@02c2 3db02d9b
@02c3 3e1ae2f0
@02c4 b87328ea
@02c5 3ddb7e22
@02c6 3d5cb3fc
@02c7 3d7908a2
@02c8 3d8be0ca
@02c9 3e003e0e
@02ca 3cecc12a
@02cb 3e08dd14
@02cc 3e04cfb1
@02cd 3cd3af7a
@02ce 3cd9676f
@02cf 3dd157ac
@02d0 bd50327b
@02d1 3db6fb3a
@02d2 3d89442b
@02d3 3c04162d
@02d4 3d826c85
@02d5 3d09b529
@02d6 3d2a5158
@02d7 bd48b36e
@02d8 3d341b1d
@02d9 bd00743d
@02da bb93b004
@02db bc941710
@02dc bd178fe6
@02dd 3ccb1fb9
@02de 3d40fe43
@02df bd8e5db9
@02e0 3d635aec
@02e1 bd76ca54
@02e2 bd35fbbd
@02e3 3d2829e8
@02e4 3c633e71
@02e5 3bf4d2af
@02e6 3d2f3a02
@02e7 3ce01c47
@02e8 bd8df817
@02e9 bd5ae76c
@02ea 3d9958ac
@02eb 3d7237eb
@02ec bd33a0be
@02ed bc43c367
@02ee bd7f868b
@02ef 3d5128ae
@02f0 bda6e981
@02f1 3d6a8bd5
@02f2 bcbea8ef
@02f3 3da1c458
@02f4 3d54cc5d
@02f5 bd8d2ff3
@02f6 bba90118
@02f7 3a1b91a8
@02f8 bd657759
@02f9 bd63629e
@02fa 3d99ea1f
@02fb bda06fe0
@02fc bd68520c
@02fd 3d1e2897
@02fe 3d0aed6e
@02ff bc874953
@0300 3b38bed3
@0301 3d572922
@0302 bc8482dc
@0303 bcea4ebd
@0304 bd312421
@0305 3c614a45
@0306 bd38944f
@0307 bd52e5ef
@0308 b9f01ce4
@0309 bd87e07a
@030a bd2fb089
@030b 3ce9b4e2
@030c 3da50a6e
@030d bd028dd0
@030e bd9543bc
@030f 3d6511a1
@0310 3da12543
@0311 bcd47339
@0312 bc781dc0
@0313 3cef1be2
@0314 bd3e317e
@0315 bd808925
@0316 3d397256
@0317 3d95562c
@0318 3d27ad23
@0319 bd17e1fb
@031a bd10f454
@031b bd3b06f2
@031c bc99c498
@031d 3d9ca0bb
@031e bd28f466
@031f 3ce94f3f
@0320 bcdda882
@0321 3d8747de
@0322 bd5f078c
@0323 3c8e8d70
@0324 bd9ce24e
@0325 3c8f08ca
@0326 3cf5eb43
@0327 bd445eb0
@0328 3d1543dc
@0329 bc415715
@032a bce5393b
@032b bd2b3cec
@032c bd504862
@032d 3d923b4c
@032e 3cae330b
@032f bc99a6ec
@0330 3d255e69
@0331 bd839283
@0332 bd8ef389
@0333 3d54e2ba
@0334 3da4c978
@0335 bd0f7f80
@0336 bd052224
@0337 3d25a4bf
@0338 3d92e357
@0339 ba8f88d1
@033a bd8dfc5c
@033b bd258aa6
@033c bd04abdc
@033d 3c46aec6
@033e 3b28d10f
@033f bd93e047
@0340 bd613703
@0341 3c22175d
@0342 bd56cd2d
@0343 bd99882d
@0344 bd1bf45d
@0345 bd9149ad
@0346 3c8450fc
@0347 bcd59e0b
@0348 bd7009db
@0349 3d47a5e1
@034a 3c97220f
@034b 3d9ced7f
@034c 3cf9526a
@034d bccb0a91
@034e 3db3792a
@034f 3d34045c
@0350 3d0b6235
@0351 bce2739a
@0352 3cd0b6f0
@0353 3ab26b36
@0354 bc6ff1fd
@0355 3ba88407
@0356 bd080e63
@0357 bd4222bb
@0358 3cddfbe4
@0359 3bcd5b64
@035a bcbfa40f
@035b bce43bb4
@035c bc084576
@035d bcce4dad
@035e bd92197e
@035f 3d0acb52
@0360 3c28bdb3
@0361 3d5f7da6
@0362 bd17c087
@0363 3d4b57d6
@0364 bd1a0c62
@0365 baff8303
@0366 3db7418b
@0367 3db22f7e
@0368 3d358dd1
@0369 bcd2c195
@036a bd26c496
@036b bd71a3cb
@036c bca4c8d3
@036d 3d275656
@036e 3c3df6a7
@036f 3cb83887
@0370 3d0311a4
@0371 3d413aca
@0372 bc918bd3
@0373 bc9fa227
@0374 ba6194d7
@0375 3d242505
@0376 bd4164d6
@0377 3aacc0dd
@0378 bd8b8c9b
@0379 bd856c0a
@037a 3d07e044
@037b 3d2e4536
@037c bd9f31ec
@037d bd595c78
@037e 3da3a1b7
@037f bcfbe65d
@0380 3d2f95c9
@0381 3cb02141
@0382 3be1f1ea
@0383 3cf340f8
@0384 3cad0dfd
@0385 bd97aedf
@0386 3d4e461a
@0387 bc9ce518
@0388 bd731af1
@0389 3d4145e2
@038a bda23c6d
@038b bd97e1cf
@038c 3d553563
@038d bd0322a7
@038e bd8479cc
@038f bcca5355
@0390 3ac1156a
@0391 bb3c273a
@0392 3d2e0093
@0393 3d7bcf56
@0394 3da5cf13
@0395 bcf1df0b
@0396 bd8a6dc6
@0397 bd9d928f
@0398 3d038bfb
@0399 3d0e81e8
@039a 3d20cce4
@039b 3c8a5ae6
@039c 3d2819f1
@039d bd28b263
@039e 3d14a040
@039f bd5aae17
@03a0 3d191033
@03a1 bd3113e0
@03a2 3d082aab
@03a3 bd89980c
@03a4 3d5f7385
@03a5 3d32f4cc
@03a6 3ce89dd8
@03a7 bd157594
@03a8 3c8e2aec
@03a9 bcb8d97e
@03aa bc9f30c9
@03ab bd05d0e4
@03ac bb0178a7
@03ad bd506c3a
@03ae 3d65bb13
@03af bcb38b94
@03b0 bd6094de
@03b1 3b245da5
@03b2 bc6ce047
@03b3 3d1ec9f1
@03b4 3d559421
@03b5 bd953f63
@03b6 bd8e9b6f
@03b7 bcf9fd9f
@03b8 3d6c8f29
@03b9 bcb9e609
@03ba 3d6f5664
@03bb 3d842ccf
@03bc 3de02d50
@03bd 3d8c8659
@03be bd4d63df
@03bf 3d9183f5
@03c0 3df13dd2
@03c1 3e01b610
@03c2 3c21c0d5
@03c3 3d8cae82
@03c4 3db1bcdf
@03c5 3d048db0
@03c6 bcf4d157
@03c7 3c8467a6
@03c8 3db62fe6
@03c9 bd9dafc6
@03ca 3d128659
@03cb 3c3fd998
@03cc 3c66b5f9
@03cd bd5f3493
@03ce bd97d39d
@03cf bc805d6a
@03d0 3d8fdc30
@03d1 3d811d44
@03d2 3d60908b
@03d3 3daca606
@03d4 3dde82c6
@03d5 3dad4add
@03d6 3d61e81a
@03d7 bc042170
@03d8 3dc44fe3
@03d9 3e354c00
@03da 3e519ce2
@03db 3e0b27e8
@03dc 3da0cddc
@03dd bc3823ee
@03de 3e2d3203
@03df 3df768cf
@03e0 3d95752e
@03e1 3d411e96
@03e2 bd59820c
@03e3 3e278138
@03e4 3e21a4dc
@03e5 3dea9882
@03e6 bc09b798
@03e7 bd394266
@03e8 bc5491e0
@03e9 3d162688
@03ea 3d138c1f
@03eb bbad6467
@03ec 3da890b0
@03ed 3d4a12a5
@03ee 3c18ed79
@03ef 3c37b909
@03f0 3cf17045
@03f1 3c9624b2
@03f2 3e114db3
@03f3 3dd18b32
@03f4 3d1a7d55
@03f5 3d989f7f
@03f6 bd566f62
@03f7 3b9324f8
@03f8 3d98ad51
@03f9 3dc5565a
@03fa 3d06b384
@03fb bd5099c7
@03fc 3d913bfb
@03fd 3dc9eb04
@03fe 3cb267a0
@03ff bd94995a
@0400 bd80c052
@0401 bd1a7cc2
@0402 3c1ac512
@0403 3d99f24b
@0404 bcd16f80
@0405 bc95564f
@0406 bd69e824
@0407 3d821c6c
@0408 3d9f3916
@0409 3bf95812
@040a 3cfccf59
@040b 3d27da37
@040c bd089a94
@040d bd379cf6
@040e 3d955791
@040f 3da62141
@0410 3cb85b7b
@0411 3d1b5401
@0412 bd5a78ab
@0413 bcc01325
@0414 3d4725cb
@0415 3d974120
@0416 bd5a9f81
@0417 3cb0c822
@0418 3cf638e0
@0419 3d5d6d49
@041a bce79d62
@041b 3c41f188
@041c 3d14bb11
@041d 3c84fcf0
@041e bcc151f5
@041f 3cab78fb
@0420 bccb4ab9
@0421 3d6a34cd
@0422 3bf33178
@0423 bd3332d1
@0424 3d029174
@0425 bd13a17b
@0426 3d96997b
@0427 bd6326f5
@0428 bd1b7c8f
@0429 bd239766
@042a bd3ea847
@042b 3d5fbc11
@042c 3d1be197
@042d bbe48d99
@042e bd52c63a
@042f 3c6582ed
@0430 bd59eb49
@0431 bd913138
@0432 3d437db8
@0433 3c1cf733
@0434 3bef1399
@0435 3d398801
@0436 bc4e5c51
@0437 3c7d1185
@0438 bd4be624
@0439 3d8ee6cb
@043a bd4aac4a
@043b 3da0f001
@043c bbb77eef
@043d bd774fb7
@043e bcb400a2
@043f 3d233f14
@0440 bd045e6a
@0441 bd6dbbd0
@0442 3c7a77d8
@0443 3b1d897a
@0444 bd84d642
@0445 3d3ab5f0
@0446 bd07510a
@0447 bc1f2e93
@0448 bd5380c9
@0449 3b179cf3
@044a 3d5d2709
@044b 3da2e09f
@044c bd605fdb
@044d bc907565
@044e 3dc02e39
@044f 3c94da05
@0450 3d346f14
@0451 3d7c3085
@0452 3d8e5d61
@0453 3da50036
@0454 3cb89c10
@0455 3db841af
@0456 bc467d62
@0457 3d0e6d38
@0458 3dd3911f
@0459 3db03bd9
@045a 3d4c1e18
@045b 3cf079a4
@045c bc45477c
@045d 3dc8fe44
@045e 3d60a975
@045f 3d4c184f
@0460 3d018a94
@0461 3d159e2e
@0462 baba00de
@0463 3dae38b6
@0464 bc3c77e4
@0465 3d86197c
@0466 bd55f2a0
@0467 3c80f360
@0468 3d8f6036
@0469 3e095a96
@046a 3d0ddb86
@046b 3d4c90ed
@046c 3c7c41b2
@046d 3d50da14
@046e 3dca9647
@046f bc4b3542
@0470 3dadfe57
@0471 3dc4e244
@0472 3e083a29
@0473 3de06de9
@0474 3da189f2
@0475 3e01bd14
@0476 3c9af913
@0477 bc13cfa0
@0478 3db112fe
@0479 bd85fe7b
@047a bcd2e194
@047b 3b94ac5a
@047c bd0cd9a0
@047d bd88a154
@047e 3cdd06d3
@047f 3c3b55b8
@0480 3c7590e4
@0481 3dd20433
@0482 3db6ea73
@0483 3d03fe8c
@0484 3e08e090
@0485 3e0a0906
@0486 3d87ff90
@0487 3d6d7713
@0488 3d9ed914
@0489 3c8a3192
@048a 3db484ed
@048b 3ce69c62
@048c 3d13816f
@048d bbb6bea2
@048e 3de1b0bd
@048f 3dc72322
@0490 3d056203
@0491 bd94dd70
@0492 bd612525
@0493 bd044f58
@0494 3da00cc7
@0495 3d4e2cc2
@0496 3ca182ff
@0497 bd23df63
@0498 bd098924
@0499 bd7b51c4
@049a 3c2bb9e3
@049b 3ccc53d5
@049c bcbd6793
@049d bd1dda43
@049e bd7cafff
@049f 3c9996fb
@04a0 bca4db2c
@04a1 3d9ef6f4
@04a2 bd46e7e1
@04a3 3b657433
@04a4 3cc29b43
@04a5 3dac6fb8
@04a6 3d8a298c
@04a7 bd1c4a88
@04a8 3d8c2d59
@04a9 3da9585b
@04aa bc4754a2
@04ab bd8d8efd
@04ac 3d981a57
@04ad 3d808780
@04ae 3da72031
@04af bb06e170
@04b0 bc8385ec
@04b1 3c9def6a
@04b2 3d32d0a2
@04b3 3be9cb38
@04b4 bd3f0faa
@04b5 bc8fcee4
@04b6 3d4dd76e
@04b7 3d0391d8
@04b8 bc9a2819
@04b9 bd286e04
@04ba 3da1a976
@04bb bd3aa277
@04bc bd0cbabb
@04bd 3da28278
@04be bc540bc4
@04bf 3c9e8178
@04c0 3ca1447d
@04c1 bd8e77dd
@04c2 3d2202d9
@04c3 bd92d82e
@04c4 bd758e99
@04c5 3d00b189
@04c6 bc7abfe5
@04c7 bc8fd373
@04c8 3d8cdb7e
@04c9 bc8988e0
@04ca 3d79f789
@04cb 3d9a3899
@04cc bcb121cd
@04cd 3cfc1bae
@04ce 3d42f965
@04cf bc6dfae7
@04d0 3c9889e8
@04d1 3d66095c
@04d2 3d6b7df4
@04d3 3d893da0
@04d4 bd929f7a
@04d5 3d2c1275
@04d6 3dbebe0c
@04d7 3da024bc
@04d8 bd6bbc61
@04d9 bcc9a16a
@04da 3d377f2f
@04db bd0162fe
@04dc 3d389a7b
@04dd 3d95edf8
@04de bcab95c4
@04df 3c11d8d2
@04e0 bc5832dc
@04e1 bcd3ae5f
@04e2 3da3c691
@04e3 3dd4c380
@04e4 bd19ebc3
@04e5 3d8393a4
@04e6 3d2e592e
@04e7 bc393f3c
@04e8 bb0bbe38
@04e9 3d95546f
@04ea 3df7b81e
@04eb 3d7132cc
@04ec bc6360b1
@04ed 3cd03324
@04ee 3d3c732e
@04ef 3cb00d1a
@04f0 3dab8f3a
@04f1 bd3845d0
@04f2 3d341284
@04f3 3ddf3807
@04f4 3d8edb71
@04f5 3d11fd69
@04f6 bd472974
@04f7 bd98fe9d
@04f8 bd2d3674
@04f9 3dd9d202
@04fa 3d87e1d4
@04fb 3dbf4d4e
@04fc 3d81b7a8
@04fd 3de00b7b
@04fe 3d91bc37
@04ff 3d3fba11
@0500 3d6e0ba4
@0501 3e14f39b
@0502 3e37d286
@0503 3e108b6e
@0504 3e495d8a
@0505 3cfe2d64
@0506 3e1238f6
@0507 3e2ae455
@0508 3e7fd139
@0509 3e37ce6e
@050a 3dd463fd
@050b 3dc10554
@050c 3d4380ea
@050d 3d5d01eb
@050e 3e27765b
@050f bdbf3662
@0510 3cbc1f2e
@0511 3c991a0e
@0512 3de6e60c
@0513 3de6eff6
@0514 3d7af32f
@0515 3dc85c36
@0516 bc067be5
@0517 3dc30827
@0518 3e100c71
@0519 bc840e08
@051a 3d9588da
@051b 3e2f05a0
@051c 3d947a89
@051d 3e004e91
@051e bcc71b90
@051f 3d9413d3
@0520 3e2d92ef
@0521 3e06fe20
@0522 3e2dad72
@0523 bb829644
@0524 3d8d7fb4
@0525 3e0747a0
@0526 3dd3367f
@0527 3cdb7feb
@0528 3cc2ea5f
@0529 bcb9a0ff
@052a bbeb99b7
@052b bd011fe0
@052c 3d6def56
@052d bd70deb9
@052e 3d1b7209
@052f 3cc8375a
@0530 3d9ecef7
@0531 3d74f25e
@0532 3c9f5afa
@0533 bda11490
@0534 bd99e64a
@0535 3d178655
@0536 bc54b9ad
@0537 bd7ebaa6
@0538 bcff9361
@0539 bd170474
@053a bd9f46dc
@053b bd323bd3
@053c 3d53fd6b
@053d 3b896ea4
@053e bd0bbea6
@053f bd781d38
@0540 3d806bd5
@0541 bd1cf8f1
@0542 bc83a68a
@0543 3d82dc3c
@0544 bd833cfd
@0545 3cbaac7d
@0546 bd9f86cc
@0547 bbe6ce66
@0548 bce54e35
@0549 3d980a4f
@054a 3cb4fe31
@054b 3d916ee5
@054c bd2c67f2
@054d 3da348b5
@054e 3d697ef7
@054f bbed5a33
@0550 bb97a64c
@0551 bd9cdada
@0552 bc94a67d
@0553 bd9bb280
@0554 bd42b72a
@0555 bccbfee4
@0556 bc52b990
@0557 3d8c0f5c
@0558 bda5df07
@0559 3d4bcbd6
@055a 3d43fcc3
@055b 3d1f7997
@055c bca8dc6d
@055d bd004f9b
@055e bda49d16
@055f bcd21c7c
@0560 3cf4ebc4
@0561 3da18268
@0562 3ceea2a3
@0563 3da2f944
@0564 bd98e797
@0565 bda2f6ca
@0566 bd33a6a2
@0567 397c1dc0
@0568 bd43ffe5
@0569 bc47326d
@056a bd56df7b
@056b bc8b90dc
@056c 3c72ce4c
@056d 3d6d7a87
@056e 3d8d261f
@056f bd0c479a
@0570 3ca368cc
@0571 bb9dbb23
@0572 3d8c6b98
@0573 bd12e571
@0574 3d4cc36d
@0575 3d568195
@0576 bc66585e
@0577 3b0eaa3c
@0578 3d646cbc
@0579 bd9b72f0
@057a bac3e549
@057b 3cf0a60c
@057c bd86b241
@057d 3cd3b91d
@057e bda6735a
@057f bd95de0c
@0580 bd8bda03
@0581 3cffe04f
@0582 3d2ad0ce
@0583 b9cd1d65
@0584 bd6bd152
@0585 3da75a59
@0586 bc3f00ce
@0587 bd03b531
@0588 3b2e5620
@0589 3c8f5190
@058a bd99a7c7
@058b 3bcdc1b3
@058c bd440d04
@058d 3c8cc9d7
@058e bd6c1c76
@058f bd5f55d1
@0590 3d7a38ef
@0591 bccf6bb7
@0592 3ce3d09e
@0593 bcc4eaa0
@0594 3da3ee66
@0595 bc0997de
@0596 3d7084be
@0597 bd51e2fc
@0598 bd17d4fc
@0599 bd87e417
@059a 3da7a2f9
@059b bd8348d7
@059c 3c88cc7e
@059d 3cdf3717
@059e bd81142f
@059f 3c74d887
@05a0 bc1facd4
@05a1 3c8c1936
@05a2 bd17d1d0
@05a3 3da4041f
@05a4 3d2a76d1
@05a5 3d87efe4
@05a6 387e1da1
@05a7 bd438849
@05a8 bd4ee094
@05a9 bd9a9d62
@05aa bd13b91f
@05ab 3c3b5009
@05ac 3d3bef87
@05ad bc1fffb8
@05ae bd600f91
@05af bd66d51c
@05b0 bc2537b8
@05b1 bcce9b47
@05b2 bd89b8e8
@05b3 3bf1b337
@05b4 bd62f565
@05b5 bc24194f
@05b6 bbe99947
@05b7 3d0bf9f9
@05b8 bd4157dd
@05b9 bd72f12d
@05ba 3a82c433
@05bb 3d5e53be
@05bc 3d8f1f3f
@05bd bd45ecf4
@05be bda5ab63
@05bf 3d41ee67
@05c0 3bfe4f1e
@05c1 3d59190c
@05c2 bd2eda3c
@05c3 bd73c6b8
@05c4 bbfd243e
@05c5 3d7a26b9
@05c6 bc8bda07
@05c7 3d918fa3
@05c8 3d4e3fa1
@05c9 bd54e274
@05ca 3d9a2293
@05cb 3b337766
@05cc 3d84a6df
@05cd bd03c227
@05ce 3d5543d0
@05cf 3d005cb0
@05d0 bd9f48e0
@05d1 3b09ffc7
@05d2 3d350652
@05d3 bd22e7a1
@05d4 bd868aef
@05d5 bd97ff8f
@05d6 3d04b3f7
@05d7 bd85643c
@05d8 bc9b7960
@05d9 bd4c4118
@05da bc84b216
@05db bd993cf3
@05dc 3c0e2931
@05dd bd804f8c
@05de bd656337
@05df 3cb5d0e8
@05e0 bc5d2578
@05e1 3d848063
@05e2 3d41e258
@05e3 ba6677f8
@05e4 baa68ceb
@05e5 bd9a01e9
@05e6 bd5938bc
@05e7 bd331f1d
@05e8 bd89566b
@05e9 3d25f735
@05ea ba8c580c
@05eb 3d6840b3
@05ec bd2ec319
@05ed bd64ceb7
@05ee 3d9ff889
@05ef bd943766
@05f0 bd826cee
@05f1 bd9b7c46
@05f2 3d8bb629
@05f3 3d1ea24e
@05f4 bd97fbae
@05f5 3d4e24f7
@05f6 3cc53bee
@05f7 3c8b85bc
@05f8 3d85f5ec
@05f9 bd552a21
@05fa 3d87d6e5
@05fb bd35bb26
@05fc 3c9d6b14
@05fd bcc8b565
@05fe bc64bae2
@05ff 3d87318e
@0600 3d614a90
@0601 bd5d6c4e
@0602 bd8bb0b7
@0603 bd066ddf
@0604 bd72ba5e
@0605 bb428f14
@0606 3d5cdcdc
@0607 3d3b6426
@0608 bd661ebf
@0609 bd87cd9a
@060a bd056635
@060b 3d037f15
@060c 3ccda3dd
@060d bc14b2c1
@060e bc4c0b55
@060f 3d4393b2
@0610 3ca59686
@0611 bd4842fd
@0612 bd51fed2
@0613 3d9d6c04
@0614 bd2543b4
@0615 3c07a833
@0616 bc234dc9
@0617 bd2bc71c
@0618 bcbe6ec5
@0619 3c215b7c
@061a bd0cdd0f
@061b bc4457d0
@061c bd81e111
@061d 3da61909
@061e bd27834e
@061f bd3850c4
@0620 3b96f8ad
@0621 3c9fa6dc
@0622 3d9afd34
@0623 3cc74855
@0624 bd86772f
@0625 bd532b64
@0626 bd345af4
@0627 3e189b52
@0628 3de4ebe3
@0629 3de392e2
@062a 3db48e85
@062b 3d1f8f56
@062c 3df19626
@062d 3d765f8f
@062e bd0a2e22
@062f bc8570f4
@0630 3d384d90
@0631 3dfc7738
@0632 bc57b043
@0633 3d81a6bf
@0634 bd4ff0a5
@0635 b9f25c0a
@0636 3b3f5b45
@0637 bd4525e4
@0638 bda2c6ee
@0639 3d3f8558
@063a 3d79fbfe
@063b bd02ecd7
@063c 3d739593
@063d bd64b184
@063e 3db5f524
@063f 3d642253
@0640 3da37567
@0641 3de752ed
@0642 bcc2912a
@0643 bb8a7770
@0644 3c4ef317
@0645 3dc6a5cb
@0646 bc139f10
@0647 3b969351
@0648 bd814ec1
@0649 bcef6c96
@064a bcdfe368
@064b 3cbc7c1c
@064c bc8d4fd1
@064d bda4ad28
@064e bd920ede
@064f 3d0c2d80
@0650 3d990044
@0651 bd230750
@0652 3db28af0
@0653 3d723005
@0654 bd05a83e
@0655 bd013760
@0656 bd979fbf
@0657 3db3acef
@0658 bca3ae54
@0659 bc55d413
@065a 3d75634b
@065b 3dae0659
@065c 3d83eab8
@065d bd8f0bc4
@065e bba83ab3
@065f bc155d24
@0660 3d4f058a
@0661 3d39ccc5
@0662 bcad5646
@0663 bd514076
@0664 bd5ffff4
@0665 3cec1906
@0666 bc8a1392
@0667 3cfd6d79
@0668 bd2a3c2f
@0669 bd5c7888
@066a bd9c15aa
@066b 3c235c66
@066c bd05bbc0
@066d bd662e2d
@066e 3ccfeb5e
@066f bd90f6eb
@0670 3a94eeeb
@0671 3d89f804
@0672 bd8a9569
@0673 bd9179a9
@0674 3d70bfe7
@0675 bce9618c
@0676 3d1212af
@0677 bd3c52c6
@0678 bd35c7cc
@0679 bd8fe8f2
@067a 3d5f9b75
@067b bd935e46
@067c 3c0f390a
@067d 3d2914fa
@067e 3cbedbb7
@067f bd6815cc
@0680 bd8b0b63
@0681 bd74953c
@0682 3d4c3709
@0683 bd4124ed
@0684 3cc4d3ed
@0685 3d9807a8
@0686 3be7a636
@0687 3aea68c4
@0688 bc834c0a
@0689 bc7133a2
@068a 3cc760b9
@068b 3d551733
@068c 3cb4208c
@068d 3db4c90c
@068e 3c7fe29e
@068f 3c93ede0
@0690 3c5cc9eb
@0691 bd5660ae
@0692 3d907593
@0693 3b11de71
@0694 3d8fec34
@0695 3d13c4d6
@0696 bc64a350
@0697 bd9c60ed
@0698 3d112713
@0699 3d4acf72
@069a bb6ca3f7
@069b bb04c9d3
@069c 3d79fcab
@069d 3c300296
@069e 3af2dff0
@069f 3d4a09cc
@06a0 bc57c80e
@06a1 3cb335d4
@06a2 bd1f7bf6
@06a3 bc20f62d
@06a4 bd4e9647
@06a5 bc22f9a4
@06a6 3d9f57dd
@06a7 3ccc5b31
@06a8 3c7a35e2
@06a9 3d92cc94
@06aa 3d2968f8
@06ab bcdf0a94
@06ac 3c91efe5
@06ad bcf10913
@06ae bd447cba
@06af bd328caa
@06b0 3dc53666
@06b1 bd30ed45
@06b2 3d467ead
@06b3 3c5d4090
@06b4 3d44f9b9
@06b5 bd8340f4
@06b6 bd09e78e
@06b7 bd87e568
@06b8 3d00620c
@06b9 3ce51359
@06ba 3d8e6c2a
@06bb 3b0f8cde
@06bc 3d878434
@06bd 3da682d5
@06be 3ca2bee9
@06bf 3c1a9c7b
@06c0 3dad453d
@06c1 3b62f826
@06c2 3e084141
@06c3 3e1e3b54
@06c4 3da093a5
@06c5 3cfa5cc9
@06c6 bc650523
@06c7 3dbf9cd9
@06c8 3d861979
@06c9 3c25eb7a
@06ca 3d8a009e
@06cb bc9b7f6a
@06cc 3cf1fede
@06cd bd097be6
@06ce 3d8862f5
@06cf bdc3d795
@06d0 bdd11a3d
@06d1 3cb66506
@06d2 3d8e265f
@06d3 bd7d5082
@06d4 bd70cacc
@06d5 bc67e332
@06d6 3c9184ae
@06d7 3d054ab2
@06d8 3d7e58ff
@06d9 3d6943c3
@06da 3d97c407
@06db 3dce3171
@06dc 3caf536e
@06dd 3de03b48
@06de bd6d2fa9
@06df bbe18c75
@06e0 3e05f433
@06e1 3daf0d55
@06e2 3db956e6
@06e3 bcfb0ac7
@06e4 3d2499f8
@06e5 bb016d48
@06e6 3c18247f
@06e7 bcb23d03
@06e8 bd49c34b
@06e9 3d806342
@06ea 3ce82f3d
@06eb bca32775
@06ec bcdb0b38
@06ed bd15604a
@06ee 3d2055b4
@06ef 39cc32ca
@06f0 bd389b36
@06f1 3c223b32
@06f2 3cdb108f
@06f3 bd08b415
@06f4 3d1012be
@06f5 3d4739fd
@06f6 3ce90019
@06f7 3cde73ed
@06f8 bd560527
@06f9 bc97c39f
@06fa 3d5aacbe
@06fb bcd0c76e
@06fc 3c6abd9c
@06fd bd9537e4
@06fe bb8ea499
@06ff 3b38c5f5
@0700 3d7320b4
@0701 3da3f61e
@0702 3d00df26
@0703 bcaca646
@0704 3d22eed8
@0705 3c137acf
@0706 3d4da0ed
@0707 3d8a7cc3
@0708 bc1d55fe
@0709 bda2539f
@070a 3d398230
@070b bd4ffdbe
@070c 3ce5b514
@070d bcc8a5ae
@070e bc6b59a4
@070f 3da3eaea
@0710 3d56ef8f
@0711 3d35b4a6
@0712 3c8263de
@0713 3d8ff114
@0714 3c1c216a
@0715 bd7bfe36
@0716 3d07c5ac
@0717 3d2513e1
@0718 bbddcc03
@0719 3d702446
@071a 3d622ca1
@071b 3d3cc437
@071c 3d86470b
@071d 3d94dea9
@071e 3d099245
@071f 3d35a46f
@0720 3c2994ea
@0721 3d7ea512
@0722 3d57266b
@0723 bcefba9e
@0724 bd996a41
@0725 3b976760
@0726 bb1e7650
@0727 bbca9bfd
@0728 bcedc5f7
@0729 bc3195c2
@072a bcd705f1
@072b 3d1493a0
@072c bb9d1758
@072d bc6a6ff9
@072e bca4157b
@072f bd3d5815
@0730 3d13b13c
@0731 3da0a3fc
@0732 bd0083b1
@0733 bd4f6eb9
@0734 3d031d3c
@0735 bb8717fe
@0736 3d2e9d1f
@0737 bcc5fba3
@0738 bd80cfc7
@0739 3d475163
@073a babb0af6
@073b bcfcdaa0
@073c bd2d9e12
@073d bcfe61cf
@073e 3c223bec
@073f 3ce01f74
@0740 bd1f6d42
@0741 bd68c18e
@0742 3c42a0ab
@0743 bd1e6d27
@0744 3d56567c
@0745 bd1b9b80
@0746 3d8273e6
@0747 bd983421
@0748 3da1bcaa
@0749 bd1753e1
@074a bd3b70f5
@074b bd1bb27a
@074c bd9a6b7c
@074d bce79181
@074e bd16a026
@074f 3cbe03a7
@0750 bd677e29
@0751 bc46aff9
@0752 bd5b4312
@0753 bcb45100
@0754 bd99f323
@0755 3cb58163
@0756 bd06fd59
@0757 3c990738
@0758 3cfc712d
@0759 bd3bac4d
@075a 3d607903
@075b bc162e4e
@075c bd8d039c
@075d 3b0456a8
@075e 3d522be8
@075f 3b63c2b8
@0760 bcef55ff
@0761 3d9f4a67
@0762 ba9d1744
@0763 bd1d4d38
@0764 3b76a62b
@0765 3c3d5f03
@0766 bd8ec4e6
@0767 bcb1989f
@0768 3d315e84
@0769 bd0d3ed6
@076a 3cb3fcc9
@076b 3ba96c32
@076c bd4106f4
@076d bd67631e
@076e 3cde79eb
@076f 3c08daf0
@0770 bd813563
@0771 bd937006
@0772 bc9fa818
@0773 3d2cf9e2
@0774 bd7a293a
@0775 bd23dcb1
@0776 bc9826b4
@0777 3d700bd2
@0778 bc7bf9f3
@0779 3d0ecf21
@077a bd086ac7
@077b 3d07aa66
@077c bb1d0dcc
@077d bda3a9a5
@077e bd1e919c
@077f 3d2805f3
@0780 3d63110c
@0781 bd8ce21d
@0782 bd43be3a
@0783 bd9a78d4
@0784 bd6ed876
@0785 bc1da8e8
@0786 3c797b0c
@0787 3d2f2fa0
@0788 3d375e12
@0789 bd337138
@078a 3d97be01
@078b bd9b3d94
@078c 3d9aaefe
@078d 3d44520f
@078e 3d8a4f8d
@078f 3cfd72d1
@0790 bcaee3b6
@0791 bc6adffa
@0792 3d34a95c
@0793 3d49b4b9
@0794 bd9a1f2f
@0795 3d81e30a
@0796 3d403d09
@0797 3c02fcb7
@0798 bc520b14
@0799 3d84b65a
@079a 3d9c7025
@079b bd2958af
@079c bd146dcf
@079d bd8fb939
@079e bd536b55
@079f bd909075
@07a0 3b310006
@07a1 bd91de80
@07a2 3d8fe136
@07a3 3cf195f2
@07a4 bd638fb6
@07a5 bc1ad8c0
@07a6 3d05c268
@07a7 bd0b3a28
@07a8 bd5b0197
@07a9 3d81cb11
@07aa bcd05611
@07ab bd8220ce
@07ac bc00a2db
@07ad bc7ca470
@07ae 3cd223ad
@07af 3d42b18e
@07b0 bd990339
@07b1 bd832d42
@07b2 bd8e81a5
@07b3 bd8f631c
@07b4 bd47e14c
@07b5 bd4b118e
@07b6 ba96aed3
@07b7 3d8f11bc
@07b8 3d804be7
@07b9 3c966922
@07ba bd737510
@07bb 3cedda91
@07bc 3d83ca6e
@07bd bd1e4295
@07be bc8dc902
@07bf 3c0ea1ae
@07c0 bd312814
@07c1 3d9bac89
@07c2 3a57ae85
@07c3 3c0579da
@07c4 3cbfde84
@07c5 bcbd4f1d
@07c6 bd15b43e
@07c7 3d7f29c1
@07c8 3d128c80
@07c9 3a174dd5
@07ca 3d750732
@07cb bd6e1c33
@07cc bd8afcaa
@07cd 3d439cc1
@07ce 3d8531af
@07cf bd4fcede
@07d0 3cad3dfe
@07d1 3d0a9b29
@07d2 bd03e4d3
@07d3 bd9a0ba8
@07d4 3c90c1a4
@07d5 3da2254e
@07d6 bce923bd
@07d7 bd71c2c2
@07d8 3d8f48b6
@07d9 3c5ae1d2
@07da 3d8d3235
@07db bd50f303
@07dc bd3a5c04
@07dd 3d228d31
@07de bd5ff638
@07df 3d1cf2b0
@07e0 3d98eb60
@07e1 bd8edb5d
@07e2 3ca98d0f
@07e3 bd7e0d14
@07e4 3cb85556
@07e5 bd91dfa8
@07e6 3ce1c728
@07e7 bc44d560
@07e8 3d9c3b14
@07e9 3da26448
@07ea bc9d0531
@07eb 3d9cd84b
@07ec bc16e41b
@07ed 3d048746
@07ee 3d1e91a0
@07ef bd77c963
@07f0 3d874811
@07f1 bd877895
@07f2 bd9300a2
@07f3 3d6b6c68
@07f4 3d7b05a4
@07f5 3d196a4d
@07f6 3d3aa22f
@07f7 bda74ff0
@07f8 bd9f6747
@07f9 bb074963
@07fa 3d80caa6
@07fb bda1f84c
@07fc b90c06f4
@07fd bd3632aa
@07fe bd254898
@07ff bcda222d
@0800 3d8cf0fd
@0801 bd98dbd3
@0802 3d55a6cd
@0803 3d3ba784
@0804 bcb6aeda
@0805 bcb1bb50
@0806 3da49e90
@0807 bd7326ca
@0808 bd34960d
@0809 bd01c627
@080a 3d3de08a
@080b bc715e6c
@080c bd9280ad
@080d bd99a429
@080e bc819cb0
@080f 3c9b6efd
@0810 3d4f7ab2
@0811 3d8c4829
@0812 bd74d4d0
@0813 3d0ce593
@0814 bd7021c0
@0815 ba8a29a2
@0816 3d2f198f
@0817 bd8054a1
@0818 3d38d18f
@0819 3d60bca5
@081a 3d8ba9a7
@081b bb879f0b
@081c 3d810085
@081d 3d6730b0
@081e bd52f836
@081f bd0218ff
@0820 bd4ab9aa
@0821 bc38dad2
@0822 bc196b1d
@0823 bcb44c29
@0824 bcc2800e
@0825 3d87f6ec
@0826 3d768817
@0827 bc69a10b
@0828 3d99e91a
@0829 bd7830a7
@082a 3d868382
@082b bd3596ec
@082c 3a02f760
@082d 3d94a0df
@082e 3d8495db
@082f bc8e4cfd
@0830 3c32438b
@0831 bd3b642f
@0832 3d5c50eb
@0833 bd5818a3
@0834 3d16fe38
@0835 bd796b4a
@0836 3d3b25bf
@0837 3d92e8a7
@0838 3cfdb736
@0839 3d0d020b
@083a 3d44a7c5
@083b bda057c3
@083c 3aaaa279
@083d bd7ccca5
@083e bd0e4a1e
@083f bda06f2d
@0840 3d01765b
@0841 bd0ba0e0
@0842 3d304b8d
@0843 3d3115ff
@0844 3d9fdd44
@0845 3cd19cd7
@0846 bd8a2341
@0847 3c0d8e3d
@0848 3d873ea5
@0849 3c8a7996
@084a bd408d2f
@084b bd7829f1
@084c 3ca3d0ce
@084d 3cfce093
@084e 3d99ac7f
@084f 3cf84044
@0850 3d3f1d54
@0851 3c17b06e
@0852 3d117292
@0853 3d273c8d
@0854 bd683bda
@0855 3d164a8b
@0856 3d0b29b2
@0857 bd63297b
@0858 3d177164
@0859 3d4527f1
@085a 3bc3f7c5
@085b bcc82fdf
@085c 3da3f3e9
@085d bd28ffa6
@085e bd0a64e7
@085f 3c83e614
@0860 3d5db632
@0861 bca86152
@0862 3d0d83fa
@0863 3d02aa97
@0864 bd1c15ac
@0865 3cf9aaf6
@0866 bd271bcc
@0867 bd8cdb19
@0868 3d3ae5d0
@0869 3a5b3dff
@086a 3dc26fc9
@086b 3d8e0eca
@086c bc0d1b83
@086d bd166d06
@086e 3d92c1bb
@086f 3d4d7ca5
@0870 3c225126
@0871 bcafc82b
@0872 3c50c829
@0873 3dc3dfa8
@0874 3cd7e4ea
@0875 bd26e363
@0876 3c76578b
@0877 3dd5a466
@0878 3d402469
@0879 3d35d159
@087a 3db784db
@087b 3cb00da4
@087c bd4f4156
@087d bcc1826d
@087e bceffe2b
@087f bd03f1ab
@0880 3c3322e7
@0881 bd544d24
@0882 3dc7e8ff
@0883 3db810f2
@0884 bd101b9a
@0885 bd56d2c2
@0886 3dc4c042
@0887 3de8ab7a
@0888 3e1cee73
@0889 bd5544cf
@088a 3cf4e281
@088b 3ae0d719
@088c 3e2e47ad
@088d 3bc25226
@088e 3da934cf
@088f 3da2530d
@0890 3e0020da
@0891 3e227d75
@0892 3dc54384
@0893 bd287e1c
@0894 3c97af01
@0895 3cc15bfb
@0896 3deb4b89
@0897 bd22f9f9
@0898 bd96d1f4
@0899 bd893353
@089a bd106dc8
@089b 3bd43b10
@089c 3dc6d660
@089d bd786988
@089e bd888d70
@089f 3decc620
@08a0 3dc36f63
@08a1 3ba14fc8
@08a2 3b95bfe4
@08a3 bc2f0c7d
@08a4 3e13715c
@08a5 3e05dd50
@08a6 3dd3b540
@08a7 bd3f7b87
@08a8 bc0c2a18
@08a9 3e093723
@08aa bcd01a17
@08ab 3beecaad
@08ac 3db222c1
@08ad bad5f40b
@08ae 3c7ff816
@08af 3c3d2e0e
@08b0 bd581349
@08b1 3d55dc6f
@08b2 bd8e999c
@08b3 3d903384
@08b4 bd42a7ef
@08b5 3c5effbd
@08b6 bcdd18ce
@08b7 3d94471f
@08b8 3d91edee
@08b9 3c43fe5d
@08ba 3cf6a49b
@08bb 3c2f221f
@08bc bd8a3ea0
@08bd 3c8a0680
@08be 3cc2cb09
@08bf bd4ab11f
@08c0 bcd0b0ab
@08c1 3d2af47b
@08c2 3ca98b21
@08c3 bcc06725
@08c4 bd02a99e
@08c5 bd7f79c9
@08c6 3d93e2be
@08c7 3c475a02
@08c8 bc33ed74
@08c9 bd8957bb
@08ca bd6ba362
@08cb bb3388fb
@08cc 3d0b4512
@08cd bd57a88c
@08ce bd3f7dbf
@08cf bd9e5141
@08d0 bca46e29
@08d1 3d3a9a0f
@08d2 bced085b
@08d3 bd756a97
@08d4 bd5442f9
@08d5 3d6c3055
@08d6 bc3c423d
@08d7 3c947e5c
@08d8 3cf32bd8
@08d9 3c834cc8
@08da 3c8a4099
@08db 3cb29c07
@08dc 3d4c3332
@08dd bd8a5813
@08de 3d76a0b4
@08df bc8bcd46
@08e0 3d9204e5
@08e1 bd3e5918
@08e2 3d31ab51
@08e3 bd787557
@08e4 3d8f8f48
@08e5 3d3e932d
@08e6 bd4bf920
@08e7 bd4c726c
@08e8 3caf0da4
@08e9 3d46b1bc
@08ea bd5b1133
@08eb 3b022ad4
@08ec 3cfceb1f
@08ed bb97618c
@08ee 3bb10635
@08ef 3ca44146
@08f0 bd6acd19
@08f1 3d1f9e54
@08f2 bcfca065
@08f3 bda0971a
@08f4 bd86867a
@08f5 bd1a14a4
@08f6 3d96d5d4
@08f7 3c92aa43
@08f8 3d111ce3
@08f9 bd3e6d6a
@08fa 3d8bc2dc
@08fb bd1dd9be
@08fc bd4d4380
@08fd bcafa1e0
@08fe bbf6d491
@08ff bd57f686
@0900 3ce66c84
@0901 bc84c18e
@0902 39b18d4c
@0903 3c71223c
@0904 3cc50376
@0905 3d146bbe
@0906 3dcec46d
@0907 bb9fab8e
@0908 bd478704
@0909 bcbe1737
@090a 3d821702
@090b bc382563
@090c 3cbb1972
@090d bd5937be
@090e 3d88797b
@090f 3c90391f
@0910 bc119160
@0911 3d67cda5
@0912 3d811b67
@0913 3d41cbcb
@0914 bcbd5a21
@0915 3df50099
@0916 3df82965
@0917 3d52a98b
@0918 3dc1ebed
@0919 3dafb0ba
@091a 3e149017
@091b 3dc526e1
@091c 3dc2baa3
@091d bd587f51
@091e bd8a8b25
@091f 3e027559
@0920 3cbaab24
@0921 bd271f34
@0922 3c37e815
@0923 3ce2a8ae
@0924 3def5d0b
@0925 3c62322f
@0926 3ca36cda
@0927 bdab37ca
@0928 bdae6ed5
@0929 3d91aa2c
@092a bca15414
@092b bda8cdc7
@092c 3bbe6dc0
@092d bdb8954e
@092e 3e0d9878
@092f 3e0b070d
@0930 3bfe9ea7
@0931 bd29523c
@0932 bcf17dec
@0933 3e04b6fa
@0934 3d96636b
@0935 3db853fd
@0936 bd9810ce
@0937 3d85546b
@0938 3dc3b5fb
@0939 3d5bee3f
@093a bd7c8018
@093b bc8bf725
@093c bd924df4
@093d 3d8c2bdb
@093e 3cbf04ff
@093f 3d472f8b
@0940 bd35b169
@0941 3d07c437
@0942 bd778bc3
@0943 bcb20e5a
@0944 3d5a97a0
@0945 bc501bb2
@0946 bcd63b31
@0947 3c64f503
@0948 bd6cebfc
@0949 bd9a8412
@094a 3da0c19f
@094b 3da432ff
@094c bd624cde
@094d bd8f337f
@094e 3c927356
@094f bd841504
@0950 3cd17e20
@0951 bd16fad0
@0952 3d07e6b5
@0953 3d7752fb
@0954 bd1ccc8f
@0955 3cee69e8
@0956 3d4bb3f5
@0957 bd0e2c88
@0958 bd2d69fe
@0959 bd7b964d
@095a 3d6ad667
@095b 3d52bebd
@095c 3cb67988
@095d 3d06a55f
@095e bc21f85a
@095f bc049803
@0960 3d58d985
@0961 3c431ce6
@0962 3d68196e
@0963 3d86906f
@0964 3d872fbf
@0965 3d92f047
@0966 3d97c287
@0967 bd507432
@0968 3d39df0a
@0969 3ce4ffa9
@096a 3d9916b7
@096b 3d2360ca
@096c bb72d352
@096d 3d554666
@096e bd391751
@096f bd9f6980
@0970 3da46d20
@0971 bd2e1dca
@0972 3cfbae7a
@0973 bd26a583
@0974 bd3d627c
@0975 bd7b0480
@0976 bd9abb69
@0977 bd510d67
@0978 3d96fbdf
@0979 bce3bf63
@097a bc03bcb5
@097b 3d205828
@097c 3cc14f6d
@097d bd55c422
@097e 3daf8f6d
@097f 3c428ff9
@0980 3da48be1
@0981 3d3cd26a
@0982 3d82c0b5
@0983 bd391d12
@0984 3da2f4f8
@0985 3db28335
@0986 bc749685
@0987 bcf5fda8
@0988 3c75a86e
@0989 bd27519d
@098a bd4fd109
@098b bd2907b4
@098c 3d9636c0
@098d bd4773cb
@098e 3b94a280
@098f bb848856
@0990 3cf90f0c
@0991 3907d2f1
@0992 3dba9902
@0993 3d297142
@0994 3cc7deec
@0995 3c27c2e7
@0996 3cf31ee6
@0997 bd026138
@0998 3d827901
@0999 3dfc901c
@099a 3e0ef45e
@099b bd1adda2
@099c bca2f4ac
@099d bcc8f8dc
@099e 3bdd243b
@099f 3e094deb
@09a0 3de934f6
@09a1 3d4a7042
@09a2 3d021f6b
@09a3 bbbacf33
@09a4 3d9f4196
@09a5 3d5de7f3
@09a6 bb13c701
@09a7 3da02e0c
@09a8 bc753749
@09a9 bd7c2120
@09aa 3d667a92
@09ab 3d6148a8
@09ac 3d372041
@09ad 3e3c2938
@09ae 3e0c760b
@09af 3dc1f61b
@09b0 3dabec54
@09b1 3e04a672
@09b2 3dc6ac26
@09b3 3df4f7a3
@09b4 3dff70a9
@09b5 3c975f7e
@09b6 3dab747c
@09b7 3deeae0e
@09b8 3dbdde3b
@09b9 3dd7a5e2
@09ba 3dd06800
@09bb 3e0af867
@09bc 3e34dcb0
@09bd 3e0459a6
@09be 3d87fed1
@09bf bd06ce04
@09c0 3d01772b
@09c1 bcf3f58b
@09c2 bc3c22d7
@09c3 bd8493fd
@09c4 3db46fcd
@09c5 3e05041c
@09c6 3e203d45
@09c7 3e1c75cf
@09c8 3cc21ca7
@09c9 bcae9cf1
@09ca 3e0c6adc
@09cb 3e2dbe3b
@09cc 3de774f2
@09cd 3decaa55
@09ce 3dedbf5c
@09cf 3d992596
@09d0 3d9c4be9
@09d1 3e2ee535
@09d2 3e0b48fa
@09d3 3dec791f
@09d4 3db47d9a
@09d5 3e0267ba
@09d6 bc0795fa
@09d7 3b8371a3
@09d8 3dd25e64
@09d9 bc29a3d2
@09da bd7a7dbb
@09db 3c1473ff
@09dc 3d2c9439
@09dd bcfb8b24
@09de bc95c747
@09df bc3add2d
@09e0 3d96e32d
@09e1 3d801905
@09e2 bd25f33e
@09e3 bda4da1b
@09e4 3c7b2703
@09e5 bd903c9b
@09e6 bd51a7d3
@09e7 bd5b1774
@09e8 bc53ff8f
@09e9 3d2a41ae
@09ea bd4f8d6a
@09eb bd2e31c9
@09ec 3d458a4d
@09ed bd928924
@09ee 3be2f45f
@09ef 3c44cc36
@09f0 3d46e11a
@09f1 3d227a95
@09f2 3c849c26
@09f3 3d0b2662
@09f4 bc6ea927
@09f5 bd9a47d1
@09f6 3cf608b3
@09f7 3d0708a5
@09f8 bd350989
@09f9 3d20bad1
@09fa 3ce54af4
@09fb 3ce7842e
@09fc 3d0fe22c
@09fd 3c9188d0
@09fe bca44346
@09ff bc6dd54d
@0a00 3d0aecde
@0a01 bb962c6a
@0a02 bccb9cc9
@0a03 bc831fda
@0a04 bc5e687c
@0a05 bcc03dc1
@0a06 3b263c8c
@0a07 bd24ff21
@0a08 bd228608
@0a09 3d647163
@0a0a 3c00b431
@0a0b 3c5e1fcd
@0a0c 3d4760df
@0a0d 3d36a3d9
@0a0e 3d3e05c3
@0a0f bc7db9b6
@0a10 bd2c83c2
@0a11 3d2cb5ed
@0a12 bc4122b7
@0a13 bc43afdf
@0a14 3cf61d4e
@0a15 bd164d96
@0a16 bc00c0fe
@0a17 3c7f8914
@0a18 bc00b602
@0a19 bd25485f
@0a1a 3ccc49e4
@0a1b 3c16a98a
@0a1c bc9535b6
@0a1d bd0c5760
@0a1e 3b91a416
@0a1f bcb916ca
@0a20 bd393934
@0a21 3cbf98d1
@0a22 bc7cc161
@0a23 3d1b4f86
@0a24 bd360875
@0a25 3ce68fe1
@0a26 3d1d93d1
@0a27 3be3d692
@0a28 3b975df7
@0a29 bc53e52a
@0a2a bc183d4f
@0a2b bc6295cf
@0a2c bbee76d6
@0a2d 3cd35df6
@0a2e bc8f6e8a
@0a2f bcd669c6
@0a30 bd24f1a4
@0a31 3d280f2b
@0a32 3d005593
@0a33 bd32a377
@0a34 bd302de9
@0a35 bd4207be
@0a36 3d3e77e9
@0a37 bb74003a
@0a38 3ce20fb0
@0a39 bc514f42
@0a3a bcc92a02
@0a3b bd18eca5
@0a3c b99e900b
@0a3d 3d3a302b
@0a3e bc9dd41b
@0a3f 3d0a71f7
@0a40 3d194ed4
@0a41 3c26bf30
@0a42 3d59421b
@0a43 3c82d464
@0a44 3c5ed297
@0a45 bcc99034
@0a46 3b949ded
@0a47 3d30eb2e
@0a48 bbc79910
@0a49 3c1c0810
@0a4a 3cf2c269
@0a4b bd1264bc
@0a4c bd3a4ffa
@0a4d bd4ee873
@0a4e bd298ec0
@0a4f 3d47f16e
@0a50 3baf99be
@0a51 3a1230e8
@0a52 bc49773e
@0a53 3d5c7da5
@0a54 3bd630a5
@0a55 bd24b10b
@0a56 bc803969
@0a57 3c9214b3
@0a58 3cb2d065
@0a59 bc94b8e0
@0a5a 3d229f77
@0a5b bcec32c1
@0a5c bbb5b040
@0a5d bc0fc7a2
@0a5e bcfe6693
@0a5f 3cc00fca
@0a60 bc81a06e
@0a61 bd3ba215
@0a62 bc23e7fc
@0a63 bc03bc42
@0a64 3ccad18c
@0a65 3be21e65
@0a66 bd3e89d2
@0a67 3cef0824
@0a68 bd4b8025
@0a69 3b71cb5e
@0a6a bc8564fa
@0a6b 3cb062d8
@0a6c bcb5ad13
@0a6d bd1c8823
@0a6e bb2b1373
@0a6f ba0aab16
@0a70 3cabf000
@0a71 3d2e4c4f
@0a72 bcac0058
@0a73 bd2f0397
@0a74 3cdcc897
@0a75 bc985b37
@0a76 bd16a199
@0a77 3d0dca55
@0a78 3d496a33
@0a79 bc3c4e41
@0a7a bc8e1f12
@0a7b 3d0d428f
@0a7c 3b4a5254
@0a7d 3ceab574
@0a7e 3d3bb9a5
@0a7f bce10650
@0a80 bcced3a5
@0a81 bc1b9c61
@0a82 bd0c20d0
@0a83 baa8ba74
@0a84 bd13e7ec
@0a85 bcc67fb7
@0a86 bc9f6375
@0a87 bd39a7ed
@0a88 bc867971
@0a89 bc42c647
@0a8a 3d2c95ec
@0a8b bcbda9e3
@0a8c bcb53f28
@0a8d 3d2182de
@0a8e 3cb8bc12
@0a8f bb7c2bf0
@0a90 3ca3f98c
@0a91 bc6e648a
@0a92 3bd49fda
@0a93 bcef15ca
@0a94 bcfd3f5c
@0a95 3cd9db0a
@0a96 bc816051
@0a97 bca25bbb
@0a98 3cc0c9f6
@0a99 bcd79698
@0a9a 3cc8db2b
@0a9b 3c881c09
@0a9c 3d21b28e
@0a9d bd558f57
@0a9e 3d1194d7
@0a9f 3d56bdbb
@0aa0 bb84d8cf
@0aa1 3c4ec93a
@0aa2 bcc7dc34
@0aa3 bc2cebd5
@0aa4 bd2d5b19
@0aa5 bcc4d0ab
@0aa6 3c80c6e0
@0aa7 3d7bbbd0
@0aa8 3d70199c
@0aa9 bd338b4d
@0aaa bd24bf09
@0aab 3c03be9c
@0aac bcb0dff5
@0aad bbd4c76f
@0aae 3d5eb3fa
@0aaf bbdc5088
@0ab0 bc46b089
@0ab1 3d232013
@0ab2 3d2eeec1
@0ab3 3c974f39
@0ab4 bd06fa78
@0ab5 bc1c9c4a
@0ab6 bc890a7f
@0ab7 bcf243c4
@0ab8 bd2c89e7
@0ab9 3cf83d80
@0aba bc5a72f9
@0abb bb165142
@0abc 3d5d20e5
@0abd 3c3b7d5d
@0abe bc94ed7e
@0abf 3cc51c6e
@0ac0 bd192cbd
@0ac1 3cf7cda1
@0ac2 bca5a13e
@0ac3 3ccf466e
@0ac4 3b1b5e7b
@0ac5 3d2c1578
@0ac6 bd0c0e41
@0ac7 3d0b4ee2
@0ac8 3a2eff7c
@0ac9 bb1d2eab
@0aca 3c1d4ab1
@0acb bd01c6e0
@0acc 3cee0b18
@0acd bcc9c088
@0ace 3cdbd8e5
@0acf bc785752
@0ad0 bca4ce1d
@0ad1 bd28b006
@0ad2 bc4deafb
@0ad3 bc542426
@0ad4 3ce99e0e
@0ad5 bd4551c5
@0ad6 bb8e6bd4
@0ad7 3c438b3b
@0ad8 3cadaea8
@0ad9 bd172f11
@0ada 3c885bb4
@0adb 3ca9a905
@0adc bd1718e1
@0add bbf0a086
@0ade bcdc7ef9
@0adf 3d57e37c
@0ae0 bc0ec889
@0ae1 bbe63012
@0ae2 3c49059c
@0ae3 3cc8bdc8
@0ae4 bc0e69af
@0ae5 bcfe55df
@0ae6 3d2d26ec
@0ae7 bcd329f4
@0ae8 bbb96966
@0ae9 bca1d8fe
@0aea 3d52a84c
@0aeb 3b9887b2
@0aec 3d4362a5
@0aed bcb10916
@0aee bd019c5f
@0aef 3c7132a0
@0af0 3c29ea80
@0af1 3d450875
@0af2 3cd1d79c
@0af3 3bceb241
@0af4 3c8d2ae8
@0af5 3bd47917
@0af6 bcd7cbe4
@0af7 3d4b8394
@0af8 3d3c268c
@0af9 3c2582df
@0afa 3bc2f2c1
@0afb 3caf8f2c
@0afc 3d1a57e5
@0afd 3d3f068d
@0afe bd32f943
@0aff 3aeb9fca
@0b00 3c9f9d92
@0b01 bd00ce37
@0b02 bcae9d9b
@0b03 3c7a51db
@0b04 bd30f08b
@0b05 bd4a2374
@0b06 3b236b9e
@0b07 3cfb9b01
@0b08 3cde34c8
@0b09 bbc9bd8a
@0b0a 3d303776
@0b0b bb15f61b
@0b0c 3bdc9a5d
@0b0d bc4ac136
@0b0e 3cd1eb1c
@0b0f bc741705
@0b10 3cf375c2
@0b11 3ca81f67
@0b12 3c8b7595
@0b13 b9b0eac7
@0b14 bc858eed
@0b15 bd220e14
@0b16 bb7c0276
@0b17 3d1ae457
@0b18 bcf8c486
@0b19 3c01a9a9
@0b1a 3c85c694
@0b1b 3c1a9a25
@0b1c bcbb7ad1
@0b1d bc4fcb80
@0b1e 3ce5286f
@0b1f 3cb52241
@0b20 bbc96d13
@0b21 bd447865
@0b22 bd442444
@0b23 3b334096
@0b24 bd4723d0
@0b25 3d331a25
@0b26 3c011491
@0b27 bd1ab456
@0b28 bc143cd4
@0b29 bd355882
@0b2a 3d3e3cf1
@0b2b bd2fdd0c
@0b2c 3c1cda7d
@0b2d bd369832
@0b2e 3cbd7b39
@0b2f 3cfc58bf
@0b30 3d1a9296
@0b31 3d02f402
@0b32 3bcee45d
@0b33 bc2e78b7
@0b34 bccaf215
@0b35 3b3dafef
@0b36 bc823466
@0b37 bcb8bb1d
@0b38 bd193875
@0b39 bc8afe4a
@0b3a bcb7266d
@0b3b b8a61517
@0b3c bc53950c
@0b3d 3cea050b
@0b3e bd22bfc2
@0b3f bb17c2b4
@0b40 3c3fabea
@0b41 3d410e52
@0b42 bd3d005a
@0b43 bd267920
@0b44 3d06a73c
@0b45 3bf101f1
@0b46 bd50b0fe
@0b47 bccd341c
@0b48 bc70d763
@0b49 bc96ca54
@0b4a 3ca776a4
@0b4b 3c9d00c1
@0b4c 3d3fd1c4
@0b4d bc49eaf0
@0b4e bcf576ed
@0b4f bc4edb08
@0b50 3d5003c0
@0b51 3d5d377d
@0b52 ba962f53
@0b53 bd19b0fb
@0b54 3d15f0c9
@0b55 3d381c31
@0b56 bbbbf4ed
@0b57 bc84d1f2
@0b58 bc1b363c
@0b59 3c1a1e1b
@0b5a 3d3f6dd6
@0b5b bcf66210
@0b5c bade4b74
@0b5d bc40f632
@0b5e bd47e100
@0b5f bd21cb35
@0b60 bc583b64
@0b61 3d0a386f
@0b62 bd2e8bfc
@0b63 bd3b2adf
@0b64 bd39dec6
@0b65 3c823a29
@0b66 bceffa6e
@0b67 bb17e92d
@0b68 bca05edb
@0b69 bc5c09ef
@0b6a 3cd25df3
@0b6b 3cceeec7
@0b6c 3bdfa193
@0b6d 3b821033
@0b6e bba32431
@0b6f 3c3dcfbb
@0b70 3d191493
@0b71 bcedea78
@0b72 bce2f53c
@0b73 bcf71079
@0b74 3c10118d
@0b75 3d687802
@0b76 3c03e54d
@0b77 3c53651b
@0b78 3d2ccbf0
@0b79 3d2f71fd
@0b7a 3d397fa1
@0b7b 3c40cefc
@0b7c bd09a3e5
@0b7d bc0bede3
@0b7e 39ea5eb0
@0b7f 3b2171a6
@0b80 bd2ed852
@0b81 3ba11ded
@0b82 bd020e71
@0b83 3d484280
@0b84 bcf69b6f
@0b85 39df5c50
@0b86 3a98209d
@0b87 bd43775e
@0b88 bb81a87e
@0b89 3d1ddb38
@0b8a 3cd663af
@0b8b bd61e62d
@0b8c 3ba06051
@0b8d 3c381b89
@0b8e 3bf1afdc
@0b8f 3d0dcc11
@0b90 3d3ff70e
@0b91 3ceb4f11
@0b92 bcc5c089
@0b93 3cb20146
@0b94 3d387e85
@0b95 bd01469b
@0b96 bcdb15a2
@0b97 bcd7c5cf
@0b98 bc8e0ae5
@0b99 bb94a82d
@0b9a 3bcf05a6
@0b9b bc161985
@0b9c 3b4492d5
@0b9d 3b030ce3
@0b9e 3d1347ca
@0b9f 3d488f42
@0ba0 3d430cd5
@0ba1 3d267ee9
@0ba2 bd3ad4e2
@0ba3 bc366e9f
@0ba4 3c29fa2b
@0ba5 3d164fc3
@0ba6 bcd924cd
@0ba7 3d136eaf
@0ba8 bd23ae06
@0ba9 bbfb7f59
@0baa bcc437b6
@0bab 3d62f235
@0bac 3c60479e
@0bad bc97c6d5
@0bae 3d28aeab
@0baf 38845ce2
@0bb0 3d544967
@0bb1 bd0d8ab9
@0bb2 3cc542b0
@0bb3 bb389136
@0bb4 bd357964
@0bb5 bcf954ed
@0bb6 3d483461
@0bb7 3d127ba9
@0bb8 3d290158
@0bb9 bca9b6b4
@0bba bb76577a
@0bbb 3d25f3c6
@0bbc 3ba8a1a4
@0bbd 3d48e438
@0bbe 3ac34aaa
@0bbf bd33e659
@0bc0 bd2d41b6
@0bc1 3c72406f
@0bc2 bc16e4d8
@0bc3 bbdfbdf9
@0bc4 bce577ee
@0bc5 bced2164
@0bc6 bc717f46
@0bc7 3cf17d8d
@0bc8 b9df4b29
@0bc9 3c9ca9a8
@0bca bcf5532d
@0bcb bc432123
@0bcc 3cc153cd
@0bcd bd360cb3
@0bce 3d3156d6
@0bcf bb027463
@0bd0 3bf216e8
@0bd1 3cc1c799
@0bd2 3cdad6c3
@0bd3 3d254249
@0bd4 bcb6da74
@0bd5 3d246aed
@0bd6 bd26d825
@0bd7 3cedab63
@0bd8 ba2d8262
@0bd9 bd324839
@0bda bd34a044
@0bdb bc7d67ce
@0bdc 3d1a8cad
@0bdd 3d56e154
@0bde 3d2ecf53
@0bdf bc7b8f4d
@0be0 bceb64e4
@0be1 3c0b092d
@0be2 3c8f87fb
@0be3 3a067b93
@0be4 3d027be3
@0be5 bc560e1f
@0be6 bb266153
@0be7 3d56f3b9
@0be8 3d4fb691
@0be9 3c3b191d
@0bea 3cb6ae8a
@0beb bd07da58
@0bec bd0bd74f
@0bed bd08e701
@0bee 3c08351f
@0bef 3d4b62b6
@0bf0 3d0b0bf0
@0bf1 bc66daf2
@0bf2 bcec58e8
@0bf3 bc70b624
@0bf4 3cd5df3e
@0bf5 bbe239ab
@0bf6 bd49eee5
@0bf7 badffbb4
@0bf8 bbebf3f4
@0bf9 bceaae80
@0bfa bd2e8425
@0bfb 3c8e5eee
@0bfc bc04cd5a
@0bfd bc82b0a8
@0bfe bd079a01
@0bff 3c443ec7
@0c00 3d1f9feb
@0c01 3d1ec08b
@0c02 bd1e51fd
@0c03 bd125b93
@0c04 bc57fe7c
@0c05 3c0ce058
@0c06 bd33bb46
@0c07 bd26c0bb
@0c08 3cc6f42d
@0c09 3d36a1f3
@0c0a bccc1061
@0c0b bc205443
@0c0c 3bb3e135
@0c0d bd0b1733
@0c0e 3d12e588
@0c0f 3d6f2e2f
@0c10 3d1bff75
@0c11 bccdcbba
@0c12 bcd56d77
@0c13 bd071b2c
@0c14 bd522d4a
@0c15 bceed223
@0c16 bc046a76
@0c17 bce6eeb3
@0c18 bd3a71cf
@0c19 bd1ad817
@0c1a bb6b4da2
@0c1b 3d226dc6
@0c1c 3d2a228f
@0c1d 3c2138df
@0c1e 3c813be2
@0c1f bd00a24e
@0c20 3d3060c9
@0c21 bd36c05e
@0c22 bbb8e49b
@0c23 3cc5a51a
@0c24 bc8c3c41
@0c25 3d280301
@0c26 3d2b6b07
@0c27 3d3aa553
@0c28 3d767261
@0c29 ba81931f
@0c2a bd3fa1dc
@0c2b 3b5af15f
@0c2c 3be4b979
@0c2d 3c49bcf7
@0c2e bc3edad4
@0c2f 3d02896d
@0c30 3c23282d
@0c31 bb540366
@0c32 3c9f4b99
@0c33 bcbc474e
@0c34 3d19b7bb
@0c35 3d04f80a
@0c36 bd0877a9
@0c37 bce30632
@0c38 bd372e88
@0c39 3c0e83e0
@0c3a 3d715518
@0c3b bb785c88
@0c3c bcb83779
@0c3d bc8ec4e5
@0c3e bd382607
@0c3f 3d1b3a28
@0c40 3d28f73c
@0c41 ba8e7310
@0c42 3cd63f03
@0c43 bd2aac80
@0c44 bc0266db
@0c45 3d4e029b
@0c46 bb78c2f4
@0c47 3cf0be73
@0c48 3d191356
@0c49 bcd69821
@0c4a bbab6551
@0c4b 3d725eb8
@0c4c 3d0ba35b
@0c4d 3c0158a8
@0c4e 3d1bb089
@0c4f 3cfb83ad
@0c50 3ca968fa
@0c51 3d12d39e
@0c52 3d40e410
@0c53 bc0cf677
@0c54 3c8afde4
@0c55 bd3b6b19
@0c56 bd227403
@0c57 3d1bb5b7
@0c58 3ca83a95
@0c59 bcb71682
@0c5a 3ba64aa5
@0c5b bd1376d6
@0c5c 3d305c01
@0c5d 3c9d94f0
@0c5e 3c47842a
@0c5f bc57923a
@0c60 3aece5e6
@0c61 bb6d99fb
@0c62 3c14e79a
@0c63 3c612581
@0c64 bbee5252
@0c65 3cffb1be
@0c66 bb9b6b53
@0c67 bcafea84
@0c68 bccbd0f3
@0c69 3c87ba51
@0c6a bd21cb5d
@0c6b bd38af69
@0c6c bbdc9cb2
@0c6d bcc9d743
@0c6e 3d24e008
@0c6f 3cc8c80a
@0c70 bcd55e5c
@0c71 3d09b388
@0c72 3d35ec26
@0c73 3d3da7c5
@0c74 bd2b6a7b
@0c75 3ce8153f
@0c76 3c980f2a
@0c77 bce436b6
@0c78 3d3abdaa
@0c79 3d132247
@0c7a 3d32e870
@0c7b 3d38de54
@0c7c bd3c4d46
@0c7d bd36b045
@0c7e 3ca6f4bd
@0c7f bd35e7eb
@0c80 3d113b71
@0c81 bc2fd5f8
@0c82 bb2cc9da
@0c83 bca672a0
@0c84 bd1248ee
@0c85 3b768250
@0c86 bd18254b
@0c87 bd1252b9
@0c88 3c724fae
@0c89 3ca58b12
@0c8a bd0720ef
@0c8b 3c0a8a36
@0c8c 3d0b022a
@0c8d bc2fdd90
@0c8e bce79801
@0c8f bc4603aa
@0c90 bc0fa08a
@0c91 3c39fda1
@0c92 bbc26b9b
@0c93 bc290482
@0c94 3c7c9315
@0c95 bc6b6ff5
@0c96 bcc51bf5
@0c97 bcac2ee1
@0c98 3c4330c4
@0c99 bca1cd76
@0c9a 3cdcb6e8
@0c9b 3d2cf5a8
@0c9c bce34a7f
@0c9d bcc0470b
@0c9e bc102bc2
@0c9f 3c6fc628
@0ca0 3b23ba21
@0ca1 bc93beff
@0ca2 bd2ce741
@0ca3 3d2a7cc4
@0ca4 3ce2829b
@0ca5 bccb65f0
@0ca6 bceff444
@0ca7 3d41b21c
@0ca8 bd45553b
@0ca9 bcd534ff
@0caa 3a859e5d
@0cab 3bc8cf0a
@0cac 3cd60cb4
@0cad 3cd86945
@0cae 3d117523
@0caf 3ccad6e0
@0cb0 3d2043c4
@0cb1 3b1d5219
@0cb2 bc5ff8b6
@0cb3 bd38b42d
@0cb4 3cf344ad
@0cb5 bcf72562
@0cb6 3bf0a4c6
@0cb7 bcd225ef
@0cb8 bd09fd84
@0cb9 3d2ba226
@0cba bce33bed
@0cbb bcdc112c
@0cbc bd16ee2a
@0cbd 3beae455
@0cbe bcb7668d
@0cbf 3d478a98
@0cc0 bc3c733c
@0cc1 3c95bcd0
@0cc2 bc97f93d
@0cc3 3cc27580
@0cc4 3c77bdcd
@0cc5 bbd78d41
@0cc6 39cef39f
@0cc7 bd27524c
@0cc8 3d0fb5b2
@0cc9 3cf1ce75
@0cca 3bfe776c
@0ccb bb6519a2
@0ccc bd393ec2
@0ccd bcf15eff
@0cce bd170a99
@0ccf bb17bfcd
@0cd0 3b2e1270
@0cd1 3ce40336
@0cd2 3cfa0efa
@0cd3 3b0b09fd
@0cd4 3ac91570
@0cd5 3d2ded73
@0cd6 3d33dfac
@0cd7 3d02881a
@0cd8 bd10fad1
@0cd9 bd16086f
@0cda bd15b9d8
@0cdb bcb9623e
@0cdc bc80927c
@0cdd 3cc096a3
@0cde bd5e0451
@0cdf 3d2a3f63
@0ce0 3d3c829a
@0ce1 3cfe3864
@0ce2 bb79f3c0
@0ce3 bcd3cd38
@0ce4 bc9eb140
@0ce5 bb3a36a6
@0ce6 bd4e5df3
@0ce7 3c3c0c7a
@0ce8 3c537f35
@0ce9 3cd53c86
@0cea 3d173ed1
@0ceb bd07065f
@0cec 3d3d9ed3
@0ced 3d706c13
@0cee bcdf6a63
@0cef bd15127a
@0cf0 3d6c6906
@0cf1 3ce5cd4f
@0cf2 bd2481f3
@0cf3 3c4d4f71
@0cf4 3cc8d85e
@0cf5 3d2ab0d5
@0cf6 3d3b43ea
@0cf7 bd24c8f8
@0cf8 3d16a1f2
@0cf9 bc57a681
@0cfa 3c990c64
@0cfb bcbeefcb
@0cfc 3c4d668d
@0cfd 3c7b9285
@0cfe 3d224f8f
@0cff 3d0ee377
@0d00 bd16d9fe
@0d01 bc0a733c
@0d02 3baf0c69
@0d03 3cc0f48f
@0d04 3c1d3377
@0d05 bbf520d2
@0d06 bd3c6c7c
@0d07 3d398a5f
@0d08 3c1b36fe
@0d09 bc3c2613
@0d0a bca74b60
@0d0b bd55df2d
@0d0c 3ac79ca1
@0d0d 3b898d77
@0d0e 3cd99758
@0d0f 3c71e6f3
@0d10 bbea89d9
@0d11 bd2aa5ab
@0d12 bc83d5d1
@0d13 bca1a0a0
@0d14 3b7b2526
@0d15 3d58fc96
@0d16 3c3d2cf6
@0d17 3c058918
@0d18 bad559d7
@0d19 bc8bd862
@0d1a 3c544c2c
@0d1b 3c238ac4
@0d1c 3cd731b1
@0d1d 3d3f76d6
@0d1e 3d5fb74c
@0d1f bc8ae596
@0d20 bd0cca32
@0d21 3c18a4b5
@0d22 bd47de6c
@0d23 3cf6dbcd
@0d24 bca764b8
@0d25 3d298764
@0d26 bb67d304
@0d27 3cfbef79
@0d28 bc4f69bb
@0d29 ba0db501
@0d2a 3b19c5ec
@0d2b bd54c1e7
@0d2c 3d57a936
@0d2d 3cb5bca7
@0d2e bce0d472
@0d2f bba911f0
@0d30 bcb93b30
@0d31 bd074af4
@0d32 3c347e63
@0d33 3ca98d0e
@0d34 3c87ad4c
@0d35 3d5be31e
@0d36 3d6f0248
@0d37 3d247c02
@0d38 bcf68b93
@0d39 bd2e3c11
@0d3a 3d370418
@0d3b bbd8c863
@0d3c bd2cdd83
@0d3d 3c9c3562
@0d3e bd3b1df8
@0d3f 3d3e98b0
@0d40 39217197
@0d41 bd2a8ddb
@0d42 bd0d92f4
@0d43 bc27ad10
@0d44 3ce2640c
@0d45 3c09a151
@0d46 bd3b3027
@0d47 bc877ef0
@0d48 bc492245
@0d49 3cfcc1c1
@0d4a bd2de9d9
@0d4b 3ca99fe5
@0d4c bb3defb4
@0d4d 3cc21a68
@0d4e bd030c19
@0d4f 3c6ada2b
@0d50 baf741d4
@0d51 bd3b650b
@0d52 3d40a4b4
@0d53 bcdcb335
@0d54 3bd25106
@0d55 bd483586
@0d56 b9645fde
@0d57 3c14de11
@0d58 bc946816
@0d59 3a73bb8b
@0d5a 3c8e5c21
@0d5b 3d3da4ca
@0d5c 39146d22
@0d5d bd1ac98c
@0d5e 3cf661ea
@0d5f bd20223d
@0d60 3d45f169
@0d61 bd0306ef
@0d62 3d6c739b
@0d63 bb947595
@0d64 3d3f7927
@0d65 3d07065d
@0d66 bcc8eb9e
@0d67 3be9ecef
@0d68 3d516937
@0d69 3d77d013
@0d6a baa44678
@0d6b bd44f24d
@0d6c 3d4be23d
@0d6d 3d3835df
@0d6e bd3a5f97
@0d6f bc1b4875
@0d70 3c7efbce
@0d71 ba9e368e
@0d72 bd082d8a
@0d73 3d27badc
@0d74 3c317599
@0d75 b9857dd6
@0d76 3d1956be
@0d77 3d8e6f3e
@0d78 3cba514d
@0d79 bd36fbba
@0d7a 3ccfd83d
@0d7b 3b5ee803
@0d7c 3ade8edf
@0d7d 3ccabec5
@0d7e 3cd82553
@0d7f bce4b50f
@0d80 bc66e3fd
@0d81 bce17205
@0d82 bd44c134
@0d83 bc68150b
@0d84 3c78803c
@0d85 bc5a5c0e
@0d86 3ca6eb23
@0d87 bc6c22f9
@0d88 bd2f2334
@0d89 3d2aa04a
@0d8a 3d2b3012
@0d8b 3c1c6e72
@0d8c bc7d966f
@0d8d 3c1cc8a4
@0d8e 3b6535f2
@0d8f 3ce91d31
@0d90 bcba5a64
@0d91 bd3c92be
@0d92 3c7a92fb
@0d93 3cb7011b
@0d94 3d81eb08
@0d95 3d136ca7
@0d96 bc9e948e
@0d97 bbf30d92
@0d98 bd2986e3
@0d99 bd002ad6
@0d9a bc2a2fca
@0d9b 3d676161
@0d9c bc2b4039
@0d9d bd0cfe5e
@0d9e 3d02ef29
@0d9f 3c9c9491
@0da0 3d35502a
@0da1 3bffb15b
@0da2 bc9567d9
@0da3 bd2bdfb4
@0da4 3d73640d
@0da5 3c618d96
@0da6 bd77ee4e
@0da7 bd2641db
@0da8 bd0d6658
@0da9 3d87ab09
@0daa bb8b5a2d
@0dab bc7aaea3
@0dac bcb25b04
@0dad 3d8732ea
@0dae bb8d4939
@0daf 3bd5a36e
@0db0 3d6e14b8
@0db1 3d5d23f2
@0db2 3d768ffd
@0db3 3c942b35
@0db4 3d2ccb39
@0db5 bd50b86e
@0db6 bcf89524
@0db7 bcdbfd46
@0db8 3d4647d9
@0db9 bbe77cec
@0dba bd49eb9d
@0dbb 3ce2423f
@0dbc bc748746
@0dbd 3c991ff4
@0dbe 3cd49f51
@0dbf bd278191
@0dc0 3bd3e136
@0dc1 3d41b1f1
@0dc2 bc899d37
@0dc3 3ce83197
@0dc4 bd460e17
@0dc5 3d1b8b42
@0dc6 3c8bc350
@0dc7 3d476d02
@0dc8 3d8a2bd1
@0dc9 bcff74f2
@0dca bcd00c1f
@0dcb 3d2cf1a4
@0dcc 3d0e1cf4
@0dcd bc8ecead
@0dce bc6ab9af
@0dcf 3cfa0141
@0dd0 bd30dc5e
@0dd1 3bb56782
@0dd2 3d16caf9
@0dd3 bcc8ac78
@0dd4 bd5e4b54
@0dd5 3c7762f5
@0dd6 bc833641
@0dd7 bd49376d
@0dd8 bd6e63dd
@0dd9 bd38e8e8
@0dda 3d80c832
@0ddb bc1148b4
@0ddc bca10972
@0ddd bcb7f5de
@0dde 3cf3180a
@0ddf 3c4cb465
@0de0 3ccc5e86
@0de1 3ce6ccc3
@0de2 bd0bf3d5
@0de3 3cc90154
@0de4 bd09586a
@0de5 3d4c89fd
@0de6 bd49bced
@0de7 3b3388b0
@0de8 3a02c8d4
@0de9 3d12613a
@0dea 3ce3a03e
@0deb 39b7f2fc
@0dec 3d33c513
@0ded 3b8b9671
@0dee 3c310ffe
@0def 3be6bf66
@0df0 bca038c7
@0df1 3b8957ac
@0df2 bd09bf12
@0df3 3d048f8d
@0df4 bcc18007
@0df5 3cd46450
@0df6 bcdd90bb
@0df7 3c201709
@0df8 3cda35e9
@0df9 bcb9277b
@0dfa bcb3c7fc
@0dfb 3c256c73
@0dfc bd5631c9
@0dfd bb00f589
@0dfe 3d2d0d92
@0dff 3d09099d
@0e00 3c537cef
@0e01 3d034250
@0e02 3c839273
@0e03 bcd7459c
@0e04 3b3e32d3
@0e05 3d61b5a3
@0e06 3c5321d5
@0e07 bcfbf445
@0e08 bcaf3541
@0e09 3c01f465
@0e0a 3d0f9645
@0e0b 3cbebafb
@0e0c bc97aa5b
@0e0d bd0b8a9b
@0e0e 3d0cc54b
@0e0f bd2427f6
@0e10 bcbc0bcb
@0e11 3d50c59d
@0e12 3cfbd13a
@0e13 3cac3315
@0e14 3ca8fd65
@0e15 3ce05991
@0e16 3c5a0c1e
@0e17 3c94b98c
@0e18 3c465d69
@0e19 3c7c7d07
@0e1a bd1154b6
@0e1b bd33c8d4
@0e1c 3d0ccf7c
@0e1d bbdb3818
@0e1e bd2f78d5
@0e1f 3d11a837
@0e20 3c73aa2f
@0e21 bc737923
@0e22 3c765ddf
@0e23 bc7e6be8
@0e24 bd65e077
@0e25 bd384162
@0e26 3beb1ce9
@0e27 3d106d7a
@0e28 3d1f3efa
@0e29 3c95d207
@0e2a bca70f10
@0e2b bd0a13a0
@0e2c bcbea562
@0e2d bc8f7742
@0e2e bb6e7a15
@0e2f bd2a771f
@0e30 3d485865
@0e31 3d2c974b
@0e32 3cd0234e
@0e33 bcf672ce
@0e34 3cbdd0aa
@0e35 3c8d2655
@0e36 3d0a13bc
@0e37 bd2f2959
@0e38 3d3158f9
@0e39 ba017734
@0e3a 3cdc7a60
@0e3b 3cab8e20
@0e3c 3cbbdea7
@0e3d bc8f529b
@0e3e 3bb4cd4c
@0e3f bc90304b
@0e40 bd3fa69f
@0e41 3c9fbc5d
@0e42 bd47c20c
@0e43 3cfb2d97
@0e44 bbfc154d
@0e45 3ca8f6a8
@0e46 bd3b4071
@0e47 3cc2e50b
@0e48 bc0dbc94
@0e49 bcd0d549
@0e4a 3c3d8e11
@0e4b 3d25c1ee
@0e4c 3d48b0be
@0e4d 3ce9b9fc
@0e4e bd01b050
@0e4f bd2aa615
@0e50 3d53c903
@0e51 bb6128ab
@0e52 3c4288c7
@0e53 3cd9899c
@0e54 baa42e46
@0e55 3d13a72b
@0e56 bd330b87
@0e57 bc17eda4
@0e58 3d1b1499
@0e59 3d377cc9
@0e5a bc3761b9
@0e5b 3d6fcb42
@0e5c 3d000dfb
@0e5d bc634c92
@0e5e bc572c6e
@0e5f 3ccdbead
@0e60 3c1263f4
@0e61 3cc8eb18
@0e62 3d106316
@0e63 bccc0a66
@0e64 bc29540b
@0e65 bd4561f4
@0e66 3cc403c7
@0e67 bc9eab99
@0e68 bc0db3be
@0e69 bd65e41a
@0e6a bd0932c2
@0e6b 3cae234c
@0e6c bb9522e1
@0e6d bd81e455
@0e6e bd03d1f2
@0e6f 3d21b520
@0e70 3c80a7aa
@0e71 bc344abb
@0e72 3c2bf7cf
@0e73 bd117b3c
@0e74 3c9cccfa
@0e75 bcf8cb5d
@0e76 3c23dc78
@0e77 bce612a1
@0e78 3c39b4d5
@0e79 3c8bc9e7
@0e7a bc5f50a7
@0e7b bc382583
@0e7c 3d30cbbd
@0e7d 3d6e3569
@0e7e 3d38cea9
@0e7f bc044387
@0e80 3c10a199
@0e81 3d5462bb
@0e82 3d3f8555
@0e83 3bb4b58f
@0e84 bbf6de23
@0e85 3c99624e
@0e86 3bafeeaf
@0e87 bd08e51a
@0e88 3b8d7b75
@0e89 bc535db3
@0e8a bd277032
@0e8b 3bcc9b7e
@0e8c 3bf014fe
@0e8d bc76016f
@0e8e 3d2def89
@0e8f 3d8fa1eb
@0e90 bc829334
@0e91 bb499932
@0e92 3d3fe2e1
@0e93 bcd9974c
@0e94 bd0708e3
@0e95 3d7fe659
@0e96 bcee3581
@0e97 bbeb94c4
@0e98 3c2f969b
@0e99 bbb1f990
@0e9a 3cde6ffb
@0e9b bd3e39da
@0e9c 3bf72c74
@0e9d 3d18ac5a
@0e9e 3d3a4c5e
@0e9f bae0ac76
@0ea0 3c147ef8
@0ea1 3bd32efc
@0ea2 3d838f7e
@0ea3 bc81be8b
@0ea4 3ce24bd4
@0ea5 3b394c4c
@0ea6 bd3aab37
@0ea7 3d31668d
@0ea8 bc25d51d
@0ea9 3d12c2c3
@0eaa 3d644837
@0eab 3d1e1737
@0eac bcd40dda
@0ead 3cfe17af
@0eae bd015874
@0eaf 3b50ad79
@0eb0 3d51c5f7
@0eb1 bcd35778
@0eb2 3c88429a
@0eb3 3cbf7623
@0eb4 3d5a09a4
@0eb5 bbe48f80
@0eb6 bc1223a5
@0eb7 3d14d85d
@0eb8 bc90e350
@0eb9 3d226839
@0eba bb458428
@0ebb 3c11f1f9
@0ebc bc03a97f
@0ebd 3d821977
@0ebe 3d15fbe0
@0ebf 3b43f2dd
@0ec0 bcef766f
@0ec1 bc1361bd
@0ec2 3d12588d
@0ec3 bc6f2b4b
@0ec4 3d28e13c
@0ec5 3cb17ae1
@0ec6 3c4939ed
@0ec7 bcaacea4
@0ec8 bc946b80
@0ec9 bcb3defc
@0eca bd33e612
@0ecb bd5f17d4
@0ecc 3cf349a1
@0ecd 3c06cb35
@0ece bc0adf5f
@0ecf bc00b506
@0ed0 bd1b073e
@0ed1 bcfab2a8
@0ed2 bba31eb2
@0ed3 3bb71f7c
@0ed4 3d150eef
@0ed5 3d245b86
@0ed6 bcb1717f
@0ed7 3ce629fc
@0ed8 ba64703e
@0ed9 3d187beb
@0eda 3cfa5d4f
@0edb bc9742d3
@0edc bbb2688b
@0edd bb8634eb
@0ede bd2bb965
@0edf bccd0c1b
@0ee0 3cd9aa4e
@0ee1 bd07c57a
@0ee2 3cbb61e9
@0ee3 bc6d975b
@0ee4 3bd25ccd
@0ee5 3cce769f
@0ee6 3d1ec2fc
@0ee7 3b720cc8
@0ee8 bc3af6ea
@0ee9 3cb90d84
@0eea 3d0e3171
@0eeb bd071ad0
@0eec bcff20cc
@0eed bc6614c9
@0eee bd417a65
@0eef 3d49ef65
@0ef0 3d1d964a
@0ef1 bcdeb6db
@0ef2 3c24bf54
@0ef3 bc922630
@0ef4 3d64729b
@0ef5 3d3c7849
@0ef6 3d38a760
@0ef7 3cadfbe8
@0ef8 3d24d4ba
@0ef9 3d138fdf
@0efa bc477e19
@0efb 3c2594f6
@0efc bcc0fa95
@0efd bc9d08af
@0efe bd312de7
@0eff 3d390753
@0f00 3d82675a
@0f01 3d30a8a4
@0f02 bd3477fb
@0f03 b9bf6e8f
@0f04 bc37689d
@0f05 3d538f0c
@0f06 3d3f7d70
@0f07 3ca1c2ae
@0f08 3c9f7185
@0f09 bcb01609
@0f0a 3d03d5b7
@0f0b bc314c96
@0f0c bd0c3d70
@0f0d bd374be9
@0f0e bc8ef225
@0f0f bd09242d
@0f10 3c1a87c4
@0f11 bc26f1ae
@0f12 bd1b63d7
@0f13 3d357e5e
@0f14 3b2e428b
@0f15 bd173249
@0f16 bd049ba1
@0f17 3be43cc3
@0f18 bbd2bbf5
@0f19 bd26e686
@0f1a bd339ae4
@0f1b 3c99c7ba
@0f1c 3c127d51
@0f1d 3ca6dc61
@0f1e bc30a6ce
@0f1f bcc3a050
@0f20 3ae89dd7
@0f21 bccd64da
@0f22 3d3e8553
@0f23 3d1e8d01
@0f24 3b93c01c
@0f25 ba901b43
@0f26 3bd9b8b8
@0f27 3d6272f1
@0f28 bce4e644
@0f29 3c022bce
@0f2a bd454f58
@0f2b bc31b04d
@0f2c 3d53f205
@0f2d 3c9fedd0
@0f2e bcfa2354
@0f2f bd2a19b1
@0f30 bc93ef78
@0f31 3d2f747b
@0f32 3aebc801
@0f33 bb28227f
@0f34 bb84e361
@0f35 ba4af04f
@0f36 3d14866b
@0f37 3ad6a1f5
@0f38 3c9b78bc
@0f39 3d4bc4b1
@0f3a 3d50337e
@0f3b 3d1df392
@0f3c bcb77f21
@0f3d bcc6bdad
@0f3e bbb3f877
@0f3f 3c8368dc
@0f40 3d05d3a6
@0f41 bcf33c38
@0f42 bcd0befc
@0f43 bbca241f
@0f44 3d62072e
@0f45 3b4c8e22
@0f46 bd195578
@0f47 bc108dc2
@0f48 bd7b525a
@0f49 bbef1ebe
@0f4a 3ccebec4
@0f4b 3d5d0f10
@0f4c 3d3450cc
@0f4d bce909f2
@0f4e bc94e99c
@0f4f bd12c5ce
@0f50 3ba43f68
@0f51 bcbd3b52
@0f52 bc840d3e
@0f53 3d0295a1
@0f54 3d123b45
@0f55 bc997fec
@0f56 3d3c1854
@0f57 3d98826f
@0f58 3d06fbd5
@0f59 bc832bbf
@0f5a bcdaef3e
@0f5b bcd37bae
@0f5c 3cada2ca
@0f5d 3c98b278
@0f5e 3d6b781d
@0f5f bd0ae01f
@0f60 bd85fa06
@0f61 ba91c591
@0f62 ba8d91bf
@0f63 3d12d85c
@0f64 3d7480ef
@0f65 bccf6648
@0f66 bd5a0e5f
@0f67 bd2c54f2
@0f68 bc3a4a50
@0f69 3c97a8f4
@0f6a 3da6e894
@0f6b 39904b87
@0f6c bd424429
@0f6d 3d1b82ac
@0f6e 3d0cf2aa
@0f6f 3c4f29bf
@0f70 3d3ddfe3
@0f71 3cd6dac2
@0f72 bc369f75
@0f73 3cbe5239
@0f74 bcc531d6
@0f75 3cf4b4e0
@0f76 bc3a928a
@0f77 3c13fee8
@0f78 3c67b570
@0f79 bcf1892e
@0f7a bd2bac3c
@0f7b bccc7d4e
@0f7c 3d0a5690
@0f7d 3c42e1d4
@0f7e bc840b0a
@0f7f bc679fb3
@0f80 3d0eb0aa
@0f81 bbc14fea
@0f82 bc66f6b3
@0f83 3be7aea1
@0f84 3ba749ac
@0f85 bc97a1b2
@0f86 bc998a36
@0f87 bd19484c
@0f88 3cc3e3ff
@0f89 3c8f3fd4
@0f8a bc14567b
@0f8b 3d440ba4
@0f8c bd110109
@0f8d bd3791be
@0f8e 3d38f398
@0f8f 3c83dded
@0f90 3c09ec40
@0f91 bcc885e8
@0f92 3c812282
@0f93 3d164fde
@0f94 3c7dc161
@0f95 bcd84389
@0f96 bc9f6908
@0f97 3ce2d4c6
@0f98 3a797e23
@0f99 bd400b6a
@0f9a bb71f73f
@0f9b bc63dca8
@0f9c bd05a474
@0f9d bcedac6e
@0f9e 3c072ddd
@0f9f bd122803
@0fa0 bcbb260e
@0fa1 bbabb42b
@0fa2 3d4727db
@0fa3 bcd24e4b
@0fa4 3c5cf496
@0fa5 3c1fdfdf
@0fa6 3c41dc5c
@0fa7 3d45a13d
@0fa8 3cfb242b
@0fa9 bcbed5ed
@0faa 3c8db5cf
@0fab 3c9f8a81
@0fac bd5f3c0a
@0fad bc9ef9e9
@0fae 3ca6fd9b
@0faf 3d46e8a5
@0fb0 bd18179e
@0fb1 bd3f88fa
@0fb2 bd071285
@0fb3 3d453c48
@0fb4 bbd30b78
@0fb5 3d31a7e4
@0fb6 3d1408cb
@0fb7 bce446ed
@0fb8 3d03264d
@0fb9 bcc7c6e8
@0fba bbaf70ee
@0fbb 3c5b1334
@0fbc bd41bcf4
@0fbd bd201007
@0fbe 3d09f9ed
@0fbf bce2f7c4
@0fc0 3ce78bff
@0fc1 3a93b330
@0fc2 3c8ebe98
@0fc3 bd45e6bd
@0fc4 bc8c6adf
@0fc5 3c87aed1
@0fc6 bc348281
@0fc7 3bcbd72f
@0fc8 bd47eaa0
@0fc9 bcbcfac8
@0fca bd077424
@0fcb bd388aa2
@0fcc bc2dde24
@0fcd bc4be91c
@0fce 3c6d128a
@0fcf 3c8a7b17
@0fd0 ba028bc1
@0fd1 3d4c3210
@0fd2 bb27063b
@0fd3 3c34e79b
@0fd4 bd03fc25
@0fd5 bce13dc1
@0fd6 3c8f1546
@0fd7 bd317ebb
@0fd8 bc28b56e
@0fd9 bd24c9fa
@0fda bc1d31aa
@0fdb 3c6ce80c
@0fdc 3d2bd082
@0fdd 3c0faab7
@0fde 3ce577f6
@0fdf 3d115089
@0fe0 3ce52bdc
@0fe1 3bb26961
@0fe2 bbd06e88
@0fe3 3cd89549
@0fe4 bae99ee7
@0fe5 bcc9a64e
@0fe6 bce466b0
@0fe7 3d019ed1
@0fe8 3bada69d
@0fe9 bce8bc4b
@0fea bc05e104
@0feb 3d21fa7b
@0fec bc7fd32b
@0fed bce932d8
@0fee baafa548
@0fef bca0fd3a
@0ff0 bd09effd
@0ff1 baefeb56
@0ff2 3d022968
@0ff3 bcbabdde
@0ff4 bcbec200
@0ff5 3b1daa33
@0ff6 bd78503b
@0ff7 bd56f4d5
@0ff8 bc1c4910
@0ff9 3cc9582b
@0ffa 3d27b344
@0ffb bc0dbcf3
@0ffc 3d2f9c77
@0ffd 3d17563d
@0ffe 3baa282c
@0fff bcc3679c
@1000 3c9f1747
@1001 3c674e01
@1002 3d0bb09f
@1003 bd57e62e
@1004 3ca3aafc
@1005 bcd79024
@1006 3cab6796
@1007 bcb698d0
@1008 3d39c2f4
@1009 3c95269e
@100a 3c585fed
@100b 3d58dd00
@100c 3d11aabd
@100d bcefc017
@100e 3c425fdd
@100f 3d46166f
@1010 bc818dd2
@1011 bd3c9abf
@1012 bbaeb5bf
@1013 bd2336fc
@1014 3cb8e8b6
@1015 3c62ea9a
@1016 3a8a7ae7
@1017 bc3fc2a5
@1018 3c8e2eab
@1019 3bfd0c0a
@101a 3cd71ae0
@101b 3d434f79
@101c bd034e0a
@101d 3d00d531
@101e 3d72a054
@101f 3d2f95da
@1020 3c839c99
@1021 3d2a7b48
@1022 bd4dc036
@1023 bbd18581
@1024 bcc3a0b6
@1025 3d04fa3f
@1026 bb91ee5a
@1027 bcab1915
@1028 bbb8e98c
@1029 bd8d5417
@102a bd37002a
@102b 3c284b52
@102c 3d16c33e
@102d 3cc8e490
@102e bccbb979
@102f bc1ff95e
@1030 bd1c820d
@1031 bb27f871
@1032 ba25aba6
@1033 3d1d33f7
@1034 3bc1bd2b
@1035 bca7c681
@1036 bd1f806d
@1037 bc04c7b7
@1038 bcc2820d
@1039 3ccc2ec2
@103a bc115238
@103b 3d409e5b
@103c 3a7f246f
@103d 3c41e535
@103e bc44ae8b
@103f 3cdd0b06
@1040 bca9a2d0
@1041 3ce1847a
@1042 3d249948
@1043 bd43e8e1
@1044 bd3d274e
@1045 bd35a284
@1046 bd455e99
@1047 3d06ddec
@1048 3d1314dd
@1049 3d2cf028
@104a 3d487238
@104b bc9be30f
@104c bd3a0f8a
@104d 3c9b6ad1
@104e bd310f18
@104f bc5eabdf
@1050 bca31a7d
@1051 bd0a5924
@1052 bd39819a
@1053 bc30b568
@1054 bcd43866
@1055 bcb207e9
@1056 bd11832e
@1057 bd1cdefb
@1058 3a999da0
@1059 3d025121
@105a bd43249e
@105b bcd77a50
@105c bccdf2e9
@105d 3d3ffed1
@105e bb54636b
@105f bcecdbd2
@1060 3c8f18cd
@1061 3d1d5774
@1062 3d326562
@1063 bc5a7de2
@1064 3d40e8f4
@1065 3b2eaf95
@1066 bd2f5e12
@1067 bd2a0446
@1068 bd298a30
@1069 3c3c77b0
@106a bcb608da
@106b 3c74464c
@106c 3c05daa8
@106d 3d20c427
@106e 3c6f8afc
@106f bcdab7b4
@1070 bc2d03a0
@1071 3b2f71a0
@1072 3ca42e3f
@1073 3bb48668
@1074 bcef09bd
@1075 bca7a58d
@1076 3c878e06
@1077 3d1e5443
@1078 3d1cfda5
@1079 3d13381b
@107a bd1780e6
@107b bced9883
@107c 3d2940c3
@107d bc5bb129
@107e 3d164a17
@107f bd2d9632
@1080 3c500064
@1081 3ca0f895
@1082 bd009764
@1083 3d3d3da3
@1084 3ca3859a
@1085 3d474d43
@1086 3d1efaaa
@1087 bca44a22
@1088 bd4c97bd
@1089 bd1199c3
@108a bd10c59e
@108b bcc4d6b1
@108c bccf413f
@108d bcea6a43
@108e 3d412397
@108f 3c5963c4
@1090 ba2f77bb
@1091 bd0b9862
@1092 3c40d488
@1093 bd0af495
@1094 bcdb9aed
@1095 3d00e118
@1096 3cc55b88
@1097 3d036e3e
@1098 bd38e7af
@1099 bd0571bd
@109a 3d4904d1
@109b bca92349
@109c bb834810
@109d bd32b06b
@109e bcc77b0a
@109f bd192362
@10a0 bd329693
@10a1 bcb424e0
@10a2 3a111a80
@10a3 bcdf130a
@10a4 bc65d8c8
@10a5 3d20cb47
@10a6 3b34352c
@10a7 3bce2f38
@10a8 bb961c40
@10a9 3c0843a8
@10aa bd4b2fe5
@10ab bc89e3d7
@10ac bc2cb5bc
@10ad bd0a6baa
@10ae bccd8e1a
@10af 3d0137e3
@10b0 3d1907db
@10b1 3c7ebb84
@10b2 3c94e052
@10b3 bd1fcaeb
@10b4 bd290624
@10b5 bd301bca
@10b6 3c437a68
@10b7 bbfd3140
@10b8 bcbf013d
@10b9 3d2676c9
@10ba bc876e89
@10bb 3cc2c642
@10bc 3ca55b82
@10bd bd16f672
@10be 3ca55fb5
@10bf bd034152
@10c0 3caa10bc
@10c1 bcad41fc
@10c2 bd436edf
@10c3 bc0d75eb
@10c4 bcf5afc8
@10c5 3d499513
@10c6 bd171bdb
@10c7 bce385c0
@10c8 bd147e87
@10c9 3cd5ffa7
@10ca bcede041
@10cb bcf15abf
@10cc bd0b1a85
@10cd 3bc97fd6
@10ce 3cead006
@10cf bcf94ce3
@10d0 3d14cc95
@10d1 bd10be6a
@10d2 3d1518e9
@10d3 3b284880
@10d4 bb2ac820
@10d5 3d0ac601
@10d6 3d4086cf
@10d7 bd38975b
@10d8 3d225b73
@10d9 3cd7ba42
@10da bd1294b5
@10db 3b1227c6
@10dc bcaf422d
@10dd bb1980f4
@10de 3c58a5ec
@10df bd4a28d5
@10e0 bc6a9626
@10e1 bd2a3d27
@10e2 bd4bcf74
@10e3 bbb59e82
@10e4 ba11d92c
@10e5 bd0a80bc
@10e6 bcdf813f
@10e7 3d487d75
@10e8 bcd79ec7
@10e9 3cfee3d6
@10ea 3c36659e
@10eb bd1e8277
@10ec 3d0758e9
@10ed 3cc3f28a
@10ee bd378703
@10ef bcd038a9
@10f0 3d29ac08
@10f1 3cee9021
@10f2 bbcac9d8
@10f3 3cca0482
@10f4 3d10fd29
@10f5 3c62b154
@10f6 3b4cac26
@10f7 bca7e703
@10f8 bcbb8bb7
@10f9 3bb20be3
@10fa 3d3397dc
@10fb 3cb7aa3d
@10fc bc471942
@10fd bcd14ace
@10fe bc2e44d1
@10ff 3c74eb5a
@1100 3d1485a7
@1101 3b903cb0
@1102 3c986382
@1103 bd08bd4d
@1104 bd49e4fd
@1105 3cae61d0
@1106 3d36edc5
@1107 bb962e30
@1108 3c128eef
@1109 3c7ee5e4
@110a bc882140
@110b bd364cb2
@110c bca0aae7
@110d 3d139333
@110e bd19d97a
@110f 3d36ca1d
@1110 3d4b87a2
@1111 bd217de6
@1112 bd25a41b
@1113 3beb6d10
@1114 3d319533
@1115 3d2a1a37
@1116 bd20cccb
@1117 bd44d25f
@1118 3c6b044c
@1119 bcf103da
@111a bd169732
@111b bd02f832
@111c 3d4bce07
@111d bcb30f60
@111e 3d383967
@111f 3d0d13fd
@1120 bd18d3c0
@1121 3ca2c990
@1122 3c9ddc07
@1123 bcd8394a
@1124 bd209d8d
@1125 3c174361
@1126 bc3154d6
@1127 bcbf0a42
@1128 bc581ba5
@1129 3d465db7
@112a 3c8c59b5
@112b 3d22df67
@112c 3b39d979
@112d 3bb889da
@112e 3ca4d196
@112f 3c3dcdff
@1130 3d4a886f
@1131 bd3ef00b
@1132 3c22fcaf
@1133 bd158a20
@1134 3b05d8e0
@1135 bc940fdd
@1136 3cf0a92b
@1137 bc70ac10
@1138 bd2329ca
@1139 3c2acac0
@113a 3d43d011
@113b baa3d6a6
@113c 3d09ff67
@113d bc0cb2ff
@113e 3d2368b7
@113f 3aae75e8
@1140 bd03c018
@1141 bd271147
@1142 bd14eff2
@1143 3d039a58
@1144 b9988989
@1145 bd42e3e1
@1146 3c942d1b
@1147 3c813683
@1148 3c2c38ad
@1149 bd22ef04
@114a 3d421a4d
@114b bc966c9c
@114c bcd412ad
@114d 3bb5bfd0
@114e bab7dce5
@114f bce532b8
@1150 bd329f0e
@1151 bd1a261e
@1152 3cad4892
@1153 3c264a18
@1154 3c6b1917
@1155 bc604f49
@1156 bc88b16a
@1157 bc8f9d2a
@1158 bd411b30
@1159 3cfd1222
@115a 3c9acd09
@115b 3ce17fb4
@115c 3cc31a78
@115d 3af4c440
@115e 3b72d630
@115f bcd2411d
@1160 bcdf4caa
@1161 bcb23d41
@1162 bd2149e1
@1163 3cac0146
@1164 bcaab5ed
@1165 bc89a374
@1166 bc4d89e0
@1167 3d163b37
@1168 bbef8eb5
@1169 bd3845ed
@116a bd332a00
@116b bcf8d667
@116c bd0fd563
@116d bc7e4e7c
@116e 3d39db52
@116f 3d02b1c9
@1170 bca53740
@1171 bc03d566
@1172 bcf2dbd2
@1173 bc389105
@1174 3cab90b5
@1175 3d08391b
@1176 3a49942e
@1177 3ce5a602
@1178 bd1772a5
@1179 3cca817c
@117a bcaaa197
@117b 3a8d8e54
@117c bc4398a0
@117d 3ca4ffbe
@117e 3d13eeb9
@117f bd34a5df
@1180 3d1274be
@1181 bc7f97a8
@1182 3cf5a9e2
@1183 bd49b29a
@1184 3d29da25
@1185 bcf9e026
@1186 b9027500
@1187 3cade092
@1188 bc15758c
@1189 3bc99250
@118a bcce2b8a
@118b bcce4b70
@118c bd2224bb
@118d 3d12f5b5
@118e 3cf286a7
@118f 399c40f9
@1190 bc91824c
@1191 3bc40c1d
@1192 3cbc9567
@1193 ba86f17c
@1194 3ce3ebe4
@1195 3cd6acc9
@1196 bcc8a9ed
@1197 bd4b317d
@1198 bd07c6ba
@1199 3d38f3b4
@119a bbf13abb
@119b bcb2e609
@119c 3c32dd0a
@119d bcdf8dda
@119e 3cc3308c
@119f bd012056
@11a0 bd03fe6c
@11a1 3c251bb8
@11a2 3acc27d2
@11a3 bd40dd65
@11a4 3cd95a22
@11a5 bc86d2b1
@11a6 bc7c1800
@11a7 bcb7db9e
@11a8 3c862f88
@11a9 3bd2e20f
@11aa 3c574583
@11ab bcec385d
@11ac bbe190ab
@11ad bb64e733
@11ae 3d0366c9
@11af 3bf2ba58
@11b0 bd32a41a
@11b1 bcae09a3
@11b2 3d37df4b
@11b3 bb52fbc9
@11b4 bd027e9c
@11b5 bd1a0ab5
@11b6 3bb70710
@11b7 3d10b770
@11b8 bce6d623
@11b9 3cdf86ff
@11ba 3ba3a118
@11bb bd101155
@11bc bcd0d590
@11bd bd079c81
@11be ba4bf086
@11bf bd409192
@11c0 bd098664
@11c1 3d2735e0
@11c2 3d4a2f9e
@11c3 bc66cb7b
@11c4 bca8259e
@11c5 3d1103af
@11c6 3d0e71d3
@11c7 bcf0b248
@11c8 3c14979f
@11c9 bd4cffe1
@11ca bceb54dd
@11cb bcc7e648
@11cc 3cad5cb1
@11cd bd05f24d
@11ce 3d0c7a38
@11cf 3cf86671
@11d0 3d3c69d8
@11d1 3cefc4ca
@11d2 3c077cd8
@11d3 3cc7976c
@11d4 3c39fb61
@11d5 3c4e980e
@11d6 3ccddc69
@11d7 bc7042f3
@11d8 3cef2457
@11d9 3d2adfcf
@11da bc85b6e6
@11db 3cbc89a3
@11dc 3bd2391d
@11dd bce587a9
@11de 3d12e2a2
@11df bd0c78a8
@11e0 3b3e620e
@11e1 3d3e5af9
@11e2 ba1a8f5e
@11e3 3c8e698b
@11e4 bcf0f9b7
@11e5 bc9d3c1d
@11e6 3d165678
@11e7 3ce203d3
@11e8 bc65582e
@11e9 ba2cf1f6
@11ea bd52ee25
@11eb bd04c9b1
@11ec bd0abca1
@11ed bc83f3dd
@11ee 3cc76f2b
@11ef 39b6282a
@11f0 3d3f0f83
@11f1 3cb9036e
@11f2 bcbb8f48
@11f3 bbdd5ac5
@11f4 3cfc12ea
@11f5 3bc0e216
@11f6 3cc23f7e
@11f7 3d0ee1e6
@11f8 bc50607e
@11f9 3cbf77dd
@11fa bc845f2e
@11fb 3cec72b9
@11fc 3ce9e0b2
@11fd 3d25557c
@11fe 3b9ff01c
@11ff 3ce904d5
@1200 3d375c32
@1201 bd2c2e1c
@1202 bd14c4a8
@1203 bc1a2c02
@1204 3ce590aa
@1205 3d2193cb
@1206 bd0a7a8c
@1207 3c53eb25
@1208 bcbbf720
@1209 3c8f6c10
@120a bcb13b1d
@120b 3c1843be
@120c 3b0f229c
@120d 3c8c06e2
@120e 3b687986
@120f bce4546c
@1210 3c2c8bec
@1211 bcdf283d
@1212 3d3c9494
@1213 3cababf9
@1214 bd16e956
@1215 bb93b299
@1216 3cd216ac
@1217 bd2a8a6a
@1218 3c6d1110
@1219 3d0caa1a
@121a bd2881b7
@121b 3c3b6ae3
@121c bbb555f3
@121d 3d3116c7
@121e bb7cada6
@121f bb439738
@1220 3d31002b
@1221 3ca56171
@1222 bc932802
@1223 bd3206fb
@1224 3cf0ea30
@1225 3cc1f551
@1226 bbf6b205
@1227 3d20b3d9
@1228 3af030a2
@1229 bba08503
@122a 3b161428
@122b 3b0b47ef
@122c bd433618
@122d 3cc0e0f3
@122e 3c837d61
@122f babd90ee
@1230 bc93546e
@1231 bd06ad29
@1232 bd310c1f
@1233 bba8f883
@1234 bd06e41d
@1235 3ce2effc
@1236 3d2d69f1
@1237 bd4ab531
@1238 3c31ab1f
@1239 bcb8ea2a
@123a ba30523f
@123b 3d30ef5c
@123c 3cfa2a64
@123d 3d1a18c1
@123e 3ce01a9f
@123f bc09d31a
@1240 3cb38677
@1241 3cbd1b20
@1242 bd02917c
@1243 3d2676ac
@1244 3d074f18
@1245 bc5f94f0
@1246 bc567c2a
@1247 3d142294
@1248 3c35149f
@1249 bbffda7d
@124a 3c4ef1fc
@124b 39f9886f
@124c 3d17dd75
@124d bd1d98c4
@124e bd48d53a
@124f 3ce44aca
@1250 bc1e78fa
@1251 3cb36d7d
@1252 baafe650
@1253 bcc1accf
@1254 3ce5f729
@1255 3c8e4701
@1256 3ba7fe0d
@1257 3cfaf235
@1258 3d2bded8
@1259 bcc5ac7c
@125a 3d16c92f
@125b bc8bdf62
@125c 396c9115
@125d 3c030a57
@125e 3d26a316
@125f 3c11fe99
@1260 bc87fa5e
@1261 bcc719a3
@1262 3c281a01
@1263 bcd4b77a
@1264 bcb77312
@1265 bd412494
@1266 3c96570f
@1267 3d1157f2
@1268 bb212c44
@1269 bc1c0ab1
@126a bb8cb102
@126b bca08de0
@126c bcc8ef5d
@126d bd120176
@126e 3cee06aa
@126f 3c1f5b84
@1270 bd3fd544
@1271 bc05932e
@1272 bd31f1ef
@1273 3d0c49d0
@1274 3cd1a1d5
@1275 bd41291f
@1276 bd34e40e
@1277 bce10603
@1278 3d3d2808
@1279 bccb73e7
@127a bd2b97f0
@127b bd2ec563
@127c 3b08dfd2
@127d 3d1113c3
@127e bd3cee5f
@127f bbdd504f
@1280 bc29ba2c
@1281 3c93b222
@1282 3c185684
@1283 3d113dde
@1284 3b9e4a2b
@1285 bd476324
@1286 bca06b7a
@1287 bd2252bc
@1288 bc656e45
@1289 bce43223
@128a 3ca1c3a9
@128b 3d387005
@128c bc91c01c
@128d bc05e9a2
@128e 3d1f2cfa
@128f 3d417706
@1290 bc6f5909
@1291 bca3c84a
@1292 3b9c3213
@1293 bc15d27a
@1294 3d0b1982
@1295 3c8e6c2b
@1296 3ca2be6d
@1297 bcfae2dd
@1298 bba05c45
@1299 bd0b7633
@129a 3c9d1ef7
@129b 3cfd633d
@129c 3c88a11f
@129d bc8b25fc
@129e 3d2bd670
@129f bcb920b0
@12a0 3bcf5090
@12a1 bca58e66
@12a2 3d2746fc
@12a3 3ccd921d
@12a4 3ae30527
@12a5 bd4844af
@12a6 3cfa64ec
@12a7 3c524e3a
@12a8 3cf4b5e1
@12a9 bb81f8e7
@12aa bb53efe8
@12ab bd3d2305
@12ac bd05bdeb
@12ad 3d195dc7
@12ae bbec7d3c
@12af bd259675
@12b0 3d16b08a
@12b1 3c5235ef
@12b2 bcff22cc
@12b3 bd1a9b9d
@12b4 3d383bb2
@12b5 bce96b98
@12b6 bd29f3ca
@12b7 bb80e6ba
@12b8 bc96da26
@12b9 bd456328
@12ba 3c3cc19f
@12bb bc8aab46
@12bc bcf601f8
@12bd 3d2263b6
@12be 3b3af1c8
@12bf bd32f0f3
@12c0 bcfe8613
@12c1 3c53a6b5
@12c2 bd3a8ace
@12c3 bd40ec36
@12c4 bc4ea11e
@12c5 bc6e7411
@12c6 bd330a1d
@12c7 3d2edf3c
@12c8 bccefaf3
@12c9 3c7842e5
@12ca 3c2f3a54
@12cb 3d07385a
@12cc bd0ebf8a
@12cd 3c9f3238
@12ce 3a80ff83
@12cf bd1b9826
@12d0 bcfe00b7
@12d1 3d0a7798
@12d2 3d38496d
@12d3 bc1f8cfd
@12d4 bc40187d
@12d5 bc628db7
@12d6 3b6058b3
@12d7 3b105e19
@12d8 3d2cd58a
@12d9 bbca30d7
@12da bceca3f9
@12db 3cdb9f71
@12dc 3cf678b7
@12dd bc031f3a
@12de 3c899f06
@12df bd46ac5d
@12e0 3c928bef
@12e1 bcd92605
@12e2 3d3b7a62
@12e3 bc6b4f4b
@12e4 bca7b142
@12e5 3d394701
@12e6 bc1cc2f3
@12e7 3d0e968f
@12e8 bcaef8b3
@12e9 bce36121
@12ea bc691d00
@12eb 3bc2f4d4
@12ec bd1fd46c
@12ed 3c193492
@12ee 3cb4d81f
@12ef bb24bfcb
@12f0 3bbcccba
@12f1 3ccd7ea2
@12f2 bd08f930
@12f3 bc75ea2e
@12f4 3d17a71e
@12f5 bd2011aa
@12f6 3cb7ff5f
@12f7 bcb93d94
@12f8 3ac704f4
@12f9 3d118093
@12fa bc99f330
@12fb bc4250ee
@12fc bd41d9dd
@12fd bb940c25
@12fe bd0d2184
@12ff 3c986a75
@1300 bccb34e3
@1301 bc7860c6
@1302 3d2325e6
@1303 bc6eae1a
@1304 3cb474e6
@1305 bcac39ae
@1306 3afe4412
@1307 bbd83056
@1308 3ca14a68
@1309 39ce0308
@130a 3ca4d6a4
@130b 3d269cd3
@130c bcb7bab9
@130d bd21b648
@130e bccc9ddd
@130f bd4f6331
@1310 3d158191
@1311 bd06a415
@1312 3aac183b
@1313 3c9a03cb
@1314 3c29db88
@1315 bcbc3465
@1316 bd3edbb4
@1317 bcbf775e
@1318 bb4acc3a
@1319 3ccb18fb
@131a bcbf74dd
@131b 3d06a6a3
@131c bd40f9d4
@131d 3c533ff4
@131e 3cecac1b
@131f 3d062429
@1320 3ca5e430
@1321 bc9b3c12
@1322 bc5b8abf
@1323 3d23e472
@1324 bce18a56
@1325 bd3fffbf
@1326 bcb9641e
@1327 bc51e31e
@1328 bd10eef9
@1329 3cf44c7e
@132a 3d413519
@132b bcaeff20
@132c bd15192d
@132d 3c508394
@132e 3bf5bb7e
@132f 3d0a1bf2
@1330 bd30acaf
@1331 3c8b6acd
@1332 3ccf09d0
@1333 3d0a3f73
@1334 3c301167
@1335 3c5ac8c2
@1336 bd3e4db0
@1337 3cd745ff
@1338 bd1098df
@1339 bca66b52
@133a 3d2d98d9
@133b bc66aff1
@133c 3c7795d3
@133d 3caff215
@133e 3d2b0e91
@133f bb5feb2f
@1340 bc0c8d3d
@1341 bcc4d4fe
@1342 bcc90d8a
@1343 3d46baf1
@1344 bd065a5a
@1345 bcd792ae
@1346 3aaefad7
@1347 3cb38d8f
@1348 bc9422c4
@1349 3cc3b2af
@134a bd08b427
@134b 3c92082a
@134c bc900aca
@134d bd4bbc35
@134e bd284eb3
@134f 3bd46399
@1350 3cd16c76
@1351 bd12860a
@1352 3c4ba545
@1353 bd260872
@1354 bd3d257b
@1355 3c89cdff
@1356 bcb4679e
@1357 3ce466b0
@1358 bc91279f
@1359 bc942c62
@135a 3d363f33
@135b bc3b2bbb
@135c bd222773
@135d bd4aaf92
@135e 3d55b3c3
@135f bbd79d79
@1360 3c853ef7
@1361 3c3aee96
@1362 bc2e90c7
@1363 3d1d34c1
@1364 bcd1e2d2
@1365 bd1cc620
@1366 bcc3c966
@1367 3cf24c9b
@1368 3d255796
@1369 3c5aaf8f
@136a 3a0f3b38
@136b bbe3920b
@136c 3a961fcb
@136d bd0e5baf
@136e 3d024679
@136f bc02cd8b
@1370 bd0f9424
@1371 3d61f73b
@1372 3d251334
@1373 bd041d53
@1374 bc8450a5
@1375 bcd7e92d
@1376 3d215c74
@1377 bcb89d8e
@1378 3c740862
@1379 bb8c2911
@137a bcaa72f2
@137b bd375125
@137c 3d4ff4e3
@137d bc0b4c4b
@137e 3d2d39b2
@137f bcce3c11
@1380 3c77216c
@1381 3cfd7756
@1382 3ba719b5
@1383 3c643416
@1384 3c5d181c
@1385 3c1c4389
@1386 bc9d579a
@1387 3d0f20c4
@1388 bd37ee47
@1389 bc6b5a68
@138a bc02e57a
@138b 3d01395b
@138c 3c7c4f55
@138d 3b720a90
@138e bbabad7d
@138f 3c10f04c
@1390 bc4b8037
@1391 3c5ff66e
@1392 bcd9f47a
@1393 3c344803
@1394 bc969b73
@1395 3c84e022
@1396 bd33620b
@1397 bc8c5f15
@1398 bc897ff1
@1399 badb07a8
@139a 3c5f0204
@139b bc90bc54
@139c bd4d130a
@139d 3c5237ff
@139e 3c193b9c
@139f 3d019d25
@13a0 3c00eed8
@13a1 bcd31af6
@13a2 3c8a71cf
@13a3 3d3a9cda
@13a4 3d5ebe6d
@13a5 3cf5987e
@13a6 3bdcb3e4
@13a7 3ce509e3
@13a8 3c80d292
@13a9 3d44234f
@13aa 3cef1918
@13ab bd5e0988
@13ac bd2cfbac
@13ad bd45252d
@13ae bcf97a9a
@13af 3cbac3f4
@13b0 3cef480e
@13b1 3d083ea3
@13b2 bc8c4e9b
@13b3 bd0a7ca9
@13b4 bd14eff1
@13b5 bd19ab89
@13b6 3d0492cd
@13b7 3d10d9b6
@13b8 3b2fe619
@13b9 3d313e22
@13ba bc512feb
@13bb bc914e27
@13bc bcbed57f
@13bd bbe2eee6
@13be bd2d7af9
@13bf bb4e9a8d
@13c0 bd134a3a
@13c1 3d340932
@13c2 3b226f33
@13c3 3d30c901
@13c4 bcca0f8c
@13c5 bcfffd8d
@13c6 3c7d0d00
@13c7 3b722588
@13c8 3c36036e
@13c9 bd381f4b
@13ca 3d35cc6e
@13cb bd22f46a
@13cc 3d249429
@13cd 3b582704
@13ce 3c3d6b02
@13cf 3c4c29f5
@13d0 3d3317ad
@13d1 3d354708
@13d2 3c984d84
@13d3 bd308fcd
@13d4 bc7b447f
@13d5 bc8f8435
@13d6 3ae2f2f4
@13d7 bc521919
@13d8 3cf85024
@13d9 bd38aaa6
@13da bc0b93ad
@13db bc92a080
@13dc 3cf68d7a
@13dd 3c3eba89
@13de 3c2383cd
@13df bcb6f5da
@13e0 3d38c2ca
@13e1 3cdfdcaa
@13e2 bd3e06f8
@13e3 3d24ccb5
@13e4 bce45af9
@13e5 bd234f01
@13e6 bcf867da
@13e7 3d538d49
@13e8 bcd8a80d
@13e9 bcbef5ab
@13ea 3b5de32a
@13eb 3d251224
@13ec 3c554d08
@13ed 3d06d8c6
@13ee 3cfbb3db
@13ef 3ca2a7b6
@13f0 3b57e1d8
@13f1 bd262a1c
@13f2 bd0a595e
@13f3 3c3eb76e
@13f4 3cdb8e3f
@13f5 bd3245f0
@13f6 bca0883d
@13f7 bd0be6df
@13f8 bd3cccba
@13f9 bcbfff04
@13fa 3c9a6392
@13fb bb93bdb2
@13fc 3ad46694
@13fd 3d2f3c6d
@13fe bc2b04cd
@13ff 3d28b332
@1400 3d5052a1
@1401 bcac64a4
@1402 baaaf76a
@1403 bb4129e8
@1404 bcd3e508
@1405 bc1e1a2f
@1406 bcc61ce9
@1407 3d6d196a
@1408 3cb8145b
@1409 3c0bf950
@140a bca961ea
@140b 3cfe770f
@140c 3c847630
@140d 3d138034
@140e 3d530b97
@140f 39466721
@1410 3cd43dd0
@1411 bb69825b
@1412 bb03e2fa
@1413 3d43631b
@1414 bb3b11c2
@1415 3d24e6c9
@1416 bce699a3
@1417 3d21be11
@1418 3ccd4422
@1419 3d0132b9
@141a 39e5a56b
@141b bd0419ac
@141c 3d14bdde
@141d bd27ca8a
@141e bbeccd82
@141f bce3b3eb
@1420 3d05f536
@1421 3be531f0
@1422 3c936a8b
@1423 3ce2dec9
@1424 bca7ae91
@1425 3d143423
@1426 bd0b9744
@1427 bc4edf76
@1428 bd02a999
@1429 bc1babe1
@142a bc041c0e
@142b bd3178bb
@142c 3c5e41ce
@142d 39dd5f26
@142e bd22af98
@142f bca66e06
@1430 bc96a439
@1431 3ced59ae
@1432 bd3b0669
@1433 bc537a59
@1434 bd0a184b
@1435 bc727c10
@1436 bcf79c9d
@1437 3cc78aa3
@1438 bc9db7fd
@1439 3d03f529
@143a 3c0759df
@143b 3d4e735e
@143c bc02bfb1
@143d bd2bda0c
@143e 3c0dea39
@143f bca91a37
@1440 bc8c4103
@1441 3c71e946
@1442 bd4cec07
@1443 bbf3bf2b
@1444 3caf215b
@1445 bd3fa028
@1446 3d1eae6c
@1447 3d0f2216
@1448 3c8338ff
@1449 3bd2c0a7
@144a bc8afd21
@144b 3d0478bd
@144c 3d466aba
@144d 3c3e017e
@144e 3bba31b9
@144f 3c313510
@1450 bd2f5bb9
@1451 3d155764
@1452 3cde2dcf
@1453 bc3336fb
@1454 bc8e766b
@1455 3d3fa9ce
@1456 bccff72e
@1457 bc2e8d78
@1458 bb006584
@1459 39ac17f6
@145a bd2822d2
@145b 3ca996a1
@145c bc710c04
@145d 3d468a1e
@145e bc9a4545
@145f bc826a97
@1460 3d11f67f
@1461 3c639daa
@1462 396dae00
@1463 bd2ff86f
@1464 3d222fc8
@1465 bcf6af05
@1466 3d073fda
@1467 3c3a5e64
@1468 bd056ada
@1469 3d26d3ab
@146a bc81a852
@146b 3cef22ce
@146c ba152ace
@146d 3ce996d1
@146e bc9b8ade
@146f 3c5f58e3
@1470 3d2c9062
@1471 3cdd8436
@1472 3cd1b25b
@1473 3cd060e5
@1474 3cf3cc78
@1475 bd43d3df
@1476 bd0f7efb
@1477 bd26c318
@1478 3d258580
@1479 bd343bd6
@147a bbfa000e
@147b bcc0b750
@147c bd20788e
@147d bd46b86c
@147e bd4b7372
@147f 3ca35ab1
@1480 bcdc8a81
@1481 bc8d1d9c
@1482 b9cf94f5
@1483 bcbc623e
@1484 bd09c754
@1485 bd388287
@1486 3cb9d7a9
@1487 3d1067a8
@1488 bc51b7cf
@1489 bca72aad
@148a 3ca2d7ae
@148b bd4888eb
@148c 3d202334
@148d bbd4c7f4
@148e 3c3396e1
@148f bbcfe917
@1490 3c407238
@1491 3c161316
@1492 3ced000a
@1493 bcb62617
@1494 3d4f12ac
@1495 bd229ab1
@1496 3be29296
@1497 bd493296
@1498 bc6c5af9
@1499 bba4254e
@149a 3c933fe0
@149b bc71239f
@149c 3c0f35ca
@149d bc76194a
@149e 3cd64c71
@149f bcfd7e9a
@14a0 bd35a04b
@14a1 bd3a4cef
@14a2 3cff98ac
@14a3 3cbdeb11
@14a4 3d3adcdd
@14a5 3bdacbd0
@14a6 bba4f4c3
@14a7 bc9566c7
@14a8 bce4be0a
@14a9 bd38fa6f
@14aa 3d3f6acb
@14ab bc95b632
@14ac 3ce72929
@14ad 3d3c2b11
@14ae 3cac2df7
@14af bc28a071
@14b0 3d1c3d6a
@14b1 3d478181
@14b2 bcce0ad3
@14b3 bc0051a5
@14b4 3c7310c9
@14b5 bd22f518
@14b6 3c8b776d
@14b7 3d1009fd
@14b8 bcfc7b71
@14b9 bd028134
@14ba bccf19b0
@14bb bcd4b286
@14bc bd1d2397
@14bd 3d26bd08
@14be bbbdd431
@14bf 3cbdfdf3
@14c0 3cdd5739
@14c1 3d4df401
@14c2 bd03d852
@14c3 3cf3d6a7
@14c4 bd2db737
@14c5 3cde37c2
@14c6 bd3b5a2e
@14c7 bbfb827b
@14c8 bd2df4b1
@14c9 bcd5c6f4
@14ca bd19aeda
@14cb 3cab6fda
@14cc bc7c5eb6
@14cd 3c9f230f
@14ce 3d5b4bc2
@14cf bc95f04d
@14d0 3cff6062
@14d1 bc9dc1b2
@14d2 bd4d0efe
@14d3 bccd13b1
@14d4 3c9ef018
@14d5 3d2a315b
@14d6 bd370351
@14d7 bd1af236
@14d8 3cd7d2f0
@14d9 3ae455a1
@14da bc989e3d
@14db bca1e985
@14dc 3ce3be3b
@14dd bc8ce946
@14de 3c635b3d
@14df bd25f8f0
@14e0 3b8889e2
@14e1 3c04cfe2
@14e2 bd1eb162
@14e3 bd028d2d
@14e4 bd2384dc
@14e5 bcbf6225
@14e6 3d1f3203
@14e7 bcbbaa1b
@14e8 3c60ba50
@14e9 bcd4c2bf
@14ea 3bc36e94
@14eb 3d46a31d
@14ec 3d30c3f5
@14ed bbd7d236
@14ee bcbc685f
@14ef 3b3a1a66
@14f0 bd05d065
@14f1 3d4e1438
@14f2 3ad0b950
@14f3 3b162ac7
@14f4 3cbe0d6e
@14f5 bd398f28
@14f6 3d67e5b8
@14f7 3d2df6ca
@14f8 3c97ddd2
@14f9 3c8bcfa2
@14fa bcaff8e9
@14fb 3d4610e8
@14fc 3c7018d1
@14fd bc89cb78
@14fe bbb27641
@14ff bc5c10d2
@1500 bd1edea4
@1501 3d1b9108
@1502 3d01b0a6
@1503 bd0987a0
@1504 3cba8ae2
@1505 bd0f6f3a
@1506 3c7cd1ca
@1507 3cd2b89f
@1508 3d3c7567
@1509 3d6a5758
@150a 3bbbbfde
@150b bcc28f89
@150c bce71e0e
@150d bbb1b57d
@150e bcf37735
@150f bcfe9f06
@1510 3d205200
@1511 bc5ff46b
@1512 3d1dda1e
@1513 bc8d64f1
@1514 3c39637a
@1515 3cefe46f
@1516 3d2f8637
@1517 3c49b705
@1518 bd166456
@1519 bd1e093f
@151a bc6dba44
@151b 3d03cf49
@151c 3b3fae43
@151d bc80f486
@151e bd4b5ef1
@151f 3cc94628
@1520 3b3d53c3
@1521 3d0132da
@1522 3cfce10c
@1523 bd41901a
@1524 bc358662
@1525 3c3ec335
@1526 bcf832ee
@1527 bd1aa230
@1528 bc9c83f8
@1529 3c1e0f4b
@152a bbd5bcd4
@152b 3cddb1df
@152c bc470726
@152d bd0fd6b7
@152e bd01d44a
@152f bd42b49c
@1530 3ca3a94a
@1531 bc7e2ad9
@1532 bd2ec235
@1533 3d04478c
@1534 3b78b193
@1535 bd087d9c
@1536 3cdde132
@1537 3d180b84
@1538 bcee3014
@1539 3ced14fc
@153a bc85d5e6
@153b bcbfb8eb
@153c 3d0aef7d
@153d 3c491175
@153e bb9121e7
@153f 3b5a349d
@1540 3cf47e67
@1541 3c7269d4
@1542 3ca8710a
@1543 ba75d533
@1544 3d2e2729
@1545 bcd4cebe
@1546 bc9fe38f
@1547 bcd61dc4
@1548 bd235715
@1549 bcde50a3
@154a bd28565e
@154b 3cf30bfe
@154c 3c5d28f9
@154d 3c8eb5cb
@154e bcdd543c
@154f 3d42d341
@1550 3cb693cb
@1551 bc238f25
@1552 3d3c35af
@1553 bb916c7f
@1554 bcf8abc0
@1555 bd17a2c3
@1556 bd1a4d61
@1557 3ca2911a
@1558 bcf04ccd
@1559 3d438b08
@155a bcc54f10
@155b 3c8c9f9e
@155c 3d4e2975
@155d 3cdaf11b
@155e 3ca6bcb0
@155f 3d068405
@1560 3cb400c0
@1561 3d1c7ff4
@1562 bd328241
@1563 3c91369e
@1564 3cdb5b23
@1565 3aba975e
@1566 3c890d79
@1567 bb5b2a62
@1568 bc8c81c9
@1569 bd374d3f
@156a bc9b2df5
@156b 3d30af11
@156c bd38eccb
@156d 3a0fb090
@156e 3d425c13
@156f bc8847f5
@1570 bc66c671
@1571 bd295fa9
@1572 3d3e77fe
@1573 bc95ee7b
@1574 bd142671
@1575 3ca2f54c
@1576 3baaf4f8
@1577 3b1714ad
@1578 3b3b833d
@1579 3c5ec2a7
@157a bd2da429
@157b bcbe876c
@157c 3d3819f3
@157d 3c7420d9
@157e bcf78d1e
@157f bcf0d96f
@1580 3b48b70c
@1581 3bd2a5b4
@1582 3d368b9d
@1583 3d3d8025
@1584 3c14b16b
@1585 3bb3d046
@1586 3d197cd8
@1587 3d525698
@1588 3cabb1ff
@1589 3cdb37b2
@158a bcb4a4c3
@158b 3c4899e2
@158c bcd05a31
@158d bd3a42ef
@158e bb99b1d0
@158f 3d5210ba
@1590 3c8c3d0f
@1591 3a808bd7
@1592 bd0ca92b
@1593 3d5da126
@1594 bbd4f7f3
@1595 3cab15a9
@1596 bb23ddbc
@1597 bd61be73
@1598 3d10ba9e
@1599 3a9ceba2
@159a bc888383
@159b bcebb3e4
@159c bb04da42
@159d bb29acaf
@159e 3cfea15f
@159f 3d73a326
@15a0 3c5ff5cd
@15a1 bb608c17
@15a2 bc958f65
@15a3 3cdf6b90
@15a4 3d198bd2
@15a5 bb2b0f58
@15a6 3d3d78cc
@15a7 bc506e79
@15a8 bca3aba5
@15a9 3d2a87fc
@15aa 3c813dd4
@15ab 3c04f9bf
@15ac 3caf8234
@15ad 3c2b8e0c
@15ae bd036e03
@15af 3c990194
@15b0 3ba93410
@15b1 bcb4a693
@15b2 3d3aa59c
@15b3 bd3b899d
@15b4 3c6838d2
@15b5 3cbf63e8
@15b6 bca81f86
@15b7 bbc9a7e3
@15b8 3d3f39ea
@15b9 bc1ab76b
@15ba 3d1ef9f4
@15bb 3d0be0a4
@15bc bd389827
@15bd bcf19882
@15be 3d318f0a
@15bf 3cce6d79
@15c0 bc4372c7
@15c1 3b89f998
@15c2 3d30c488
@15c3 3cdf6441
@15c4 3ca4bcb4
@15c5 bcc1f151
@15c6 3cbaac68
@15c7 3ceacc6f
@15c8 3d33ce7d
@15c9 bb011805
@15ca bd187943
@15cb 3b94b1ff
@15cc 3cf98f88
@15cd 3d5173d7
@15ce bcb36f89
@15cf 3d297e8a
@15d0 3cf2863d
@15d1 3c915207
@15d2 3d0fa6d6
@15d3 bd0dbcb3
@15d4 3a51aee9
@15d5 bd0f97a5
@15d6 bd43634a
@15d7 3cbf238e
@15d8 3c40892f
@15d9 3c60db2c
@15da 3ce90eee
@15db 3ca189b3
@15dc bce1f0ab
@15dd 3bf8ce98
@15de bc9c4a78
@15df 3d256c86
@15e0 bc8ddb00
@15e1 bd1e2aeb
@15e2 bb6a6208
@15e3 bd226ff4
@15e4 bc991db0
@15e5 bb0c13c3
@15e6 3bc38879
@15e7 3bf88273
@15e8 bce1c853
@15e9 ba57d9c7
@15ea 3d2cf434
@15eb bcc5f466
@15ec 3d378c03
@15ed 3bc9e6e2
@15ee 3d41ecb7
@15ef 3d241cbe
@15f0 3bcced94
@15f1 bc583591
@15f2 bd3e289f
@15f3 bba8d923
@15f4 3bbf4dcb
@15f5 3bb0344f
@15f6 3b18141e
@15f7 3cd74266
@15f8 3d10c252
@15f9 bd3dba23
@15fa 3c8d7c7e
@15fb bbbe7217
@15fc 3be27fa4
@15fd 3d3b9f0b
@15fe bcd4f2e7
@15ff 3c9bf747
@1600 bba46888
@1601 3d0a9c20
@1602 bd25da12
@1603 bd1b0b41
@1604 bd38afcf
@1605 3adfeeae
@1606 bcd51ae0
@1607 bd2165db
@1608 3cf957f8
@1609 3cab8786
@160a bd34e547
@160b bd1975a1
@160c 3bc99c5c
@160d bc8cd462
@160e 3b9fff06
@160f bc05d014
@1610 bd13c523
@1611 bb8a41de
@1612 bd123777
@1613 bcc72f32
@1614 3c552c60
@1615 bc9b94ce
@1616 3c9be2ad
@1617 bd1ebf6b
@1618 baa708c2
@1619 bb6b44fc
@161a bc74ab29
@161b bd2cbc32
@161c 3c4b54e6
@161d 3cd937e5
@161e bcca1497
@161f 3d31f4cc
@1620 3d3874a6
@1621 3bceef57
@1622 3ce49c8d
@1623 3d2f0345
@1624 3d1ca59a
@1625 3d444b57
@1626 3d0f97d9
@1627 bcdf2fce
@1628 bb7f7333
@1629 bc9bb9db
@162a bc64d9ba
@162b 3cd39366
@162c 3d2a5bfb
@162d bd42379d
@162e bcedcdb2
@162f 3d278fc7
@1630 3cea2c55
@1631 3c90ccf7
@1632 bd343050
@1633 3c9e9328
@1634 bcece86a
@1635 3c37db68
@1636 3d07d177
@1637 bc93eaa6
@1638 3cbc1340
@1639 3b263803
@163a 3c5c2eb2
@163b bd1890b8
@163c bd3f7a66
@163d bd089fb5
@163e bac61995
@163f 3c9edabe
@1640 bcbf9be2
@1641 bc33fb18
@1642 bd19dc41
@1643 bc7442e4
@1644 bd18b0d8
@1645 3c0c15bd
@1646 bd4210ce
@1647 bb846df3
@1648 bd045ac7
@1649 bd12aa89
@164a bce58574
@164b 3cdf6572
@164c 3d43e86c
@164d bd226e85
@164e 3bc486c6
@164f bcd78095
@1650 3c0c4ee6
@1651 bd107199
@1652 ba86be72
@1653 3c81fc77
@1654 bc9fbc3e
@1655 3c0dc8fd
@1656 3d11176a
@1657 bd2c78c3
@1658 3d2066e1
@1659 bbd3eb1d
@165a 3c9d1f96
@165b bcd2b02c
@165c 3ce1989b
@165d 3ce71814
@165e 3d038789
@165f bd380908
@1660 3cda9b74
@1661 bd085075
@1662 bcaaa1ce
@1663 3d31bb81
@1664 bd220c12
@1665 3cf238d3
@1666 3cdc9037
@1667 3d5bb07b
@1668 bb81ca04
@1669 3c73730a
@166a 3ca04348
@166b 3c60af67
@166c 3d20abf9
@166d 3d768799
@166e 3a981880
@166f 3d0a1ffa
@1670 bcab4675
@1671 bbef837f
@1672 3c07d666
@1673 bd331b62
@1674 bca96172
@1675 bc9c0236
@1676 3d0469ad
@1677 bcb77816
@1678 3c38370b
@1679 3b3e2983
@167a bc370166
@167b bd138ced
@167c 3beafc56
@167d bd33dd6a
@167e bd310d78
@167f bd6dc859
@1680 bd0047c6
@1681 bd46d206
@1682 bc8758ae
@1683 3d2a1364
@1684 3bd1030f
@1685 bc199bdf
@1686 3c44509a
@1687 3d51c5e4
@1688 3c23428a
@1689 3d104936
@168a 3d25e092
@168b 3cb539ae
@168c 3d054320
@168d 3d1d552e
@168e 3c7c0ce1
@168f bcd80a96
@1690 3d0f1cec
@1691 3d270298
@1692 3ca15df4
@1693 bd341969
@1694 bcbe2d53
@1695 bc56228c
@1696 3b269764
@1697 3d36625c
@1698 bd49fd9b
@1699 3cb6a854
@169a bc896c3b
@169b bcb8fb62
@169c bc0905eb
@169d bbe5f955
@169e 3d283b0b
@169f bc38b526
@16a0 bcd6a7a2
@16a1 3d41c879
@16a2 3cfd96b2
@16a3 3d4a1813
@16a4 3c555956
@16a5 3d571f51
@16a6 3d30f139
@16a7 3cbb0bdf
@16a8 3cd0246b
@16a9 3d13bf90
@16aa bc35ba76
@16ab 3d247280
@16ac bce2c7e8
@16ad bd4a8b56
@16ae 3d2ed22e
@16af 3d3fe74f
@16b0 bd0ff3d9
@16b1 3c943a8b
@16b2 3c8c071c
@16b3 3d0bb74d
@16b4 bd20b153
@16b5 bcc7b86d
@16b6 bcf19602
@16b7 3c89931d
@16b8 bd03bd12
@16b9 bb37ad3a
@16ba bca6ebc3
@16bb bd0b4114
@16bc bb808a92
@16bd 3b41e82a
@16be bc1e2474
@16bf bd1951db
@16c0 bbdb91ef
@16c1 3be6537a
@16c2 bcf53689
@16c3 bd351fb8
@16c4 3b66cb1d
@16c5 3ce96f81
@16c6 3cb902df
@16c7 bc28e97a
@16c8 bc929c36
@16c9 bcc5a02d
@16ca bc0706da
@16cb 3d0c26bc
@16cc 3cffd10c
@16cd 3d1a09b4
@16ce 3c0daa00
@16cf bcbfb616
@16d0 3cf3f1d5
@16d1 3d888c19
@16d2 bce5b853
@16d3 3be59176
@16d4 3c80bb36
@16d5 3d4aef4c
@16d6 3d863e49
@16d7 bb0c973a
@16d8 bcc74223
@16d9 3d17180b
@16da bccff273
@16db bd248352
@16dc bcd9fe06
@16dd 3d00bb44
@16de 3cf9a7bc
@16df ba712525
@16e0 3d42df7a
@16e1 3bf72794
@16e2 3caf84bc
@16e3 bcaf2ff3
@16e4 3cf8713a
@16e5 bd3dd3d1
@16e6 bcab1935
@16e7 bd2dc324
@16e8 bd078a69
@16e9 bd24f917
@16ea 3d434d27
@16eb bb91c894
@16ec 3d358616
@16ed 3d009c54
@16ee bc8aebf4
@16ef bc83e621
@16f0 3c9d0660
@16f1 bd2572a0
@16f2 bd43c1bd
@16f3 3ce4dff2
@16f4 bc522fa8
@16f5 bd703522
@16f6 3cce12c8
@16f7 3c292aff
@16f8 bd2c9f08
@16f9 3d0391b0
@16fa 3c97f628
@16fb 3cf7b806
@16fc 3d07fdfb
@16fd 3bc7ff76
@16fe bd195044
@16ff 3bd176de
@1700 bc8e9c0d
@1701 3d5448da
@1702 bd0472b0
@1703 3d6db752
@1704 bc2a7b8c
@1705 bc5231c0
@1706 3d245308
@1707 3d445c12
@1708 3bb03325
@1709 bc1de324
@170a 3cfff0b7
@170b bb41e43d
@170c bbb9642c
@170d bd48f3ba
@170e bc5b42de
@170f 3c062a1d
@1710 3ccb9ad0
@1711 bd434645
@1712 3cf2657c
@1713 bc22a775
@1714 3a610ea8
@1715 bc6069b8
@1716 bd119951
@1717 bd22a64a
@1718 bc7e6361
@1719 bb99714a
@171a 3d6238e6
@171b bb0c0776
@171c 3d25059c
@171d 3d325cab
@171e bcccdbfb
@171f 3d1cc8c1
@1720 3cba0fc7
@1721 3d5da20d
@1722 bcb32fce
@1723 bd13483d
@1724 3d4fc345
@1725 bcaa1df3
@1726 bd1a0883
@1727 bd5165e6
@1728 bcc8b556
@1729 3b78e8cb
@172a 3bf1f309
@172b 3cea7e04
@172c bcde6b80
@172d bc986d84
@172e bc8fa195
@172f 3bfa441d
@1730 bd0f1ebb
@1731 3d002bf4
@1732 bcbf199f
@1733 bc2601c3
@1734 bcc9b1a4
@1735 3d2fe1d8
@1736 3d388442
@1737 bb393158
@1738 3cf0fdeb
@1739 3d54ea3f
@173a 3d6f9521
@173b bcb539a3
@173c 3cd1bf4d
@173d bc7b1efb
@173e bd2ec627
@173f 3cd30221
@1740 3d38a95b
@1741 3d226ae6
@1742 3cd2750d
@1743 bcf4cf41
@1744 bcebfdcc
@1745 bcdf1ac7
@1746 3d0a5e2b
@1747 3d0cebf6
@1748 3ce0044b
@1749 bd2733c9
@174a bd4936e6
@174b bd27d417
@174c bb85569f
@174d bd32c829
@174e 3d2283d8
@174f bd254d33
@1750 3d1a2192
@1751 3cb56e95
@1752 3cc9a4dc
@1753 bd258f0f
@1754 bd3bd981
@1755 bd15a419
@1756 3c95f69e
@1757 3b53c863
@1758 3d534362
@1759 bc16365a
@175a bc4ff1b5
@175b 3c2a985e
@175c bd1d381d
@175d 3c6ffeb8
@175e 3bd00182
@175f bbbb8703
@1760 baa4d218
@1761 3c6c6b5a
@1762 3ba7d709
@1763 bc51cb2f
@1764 3c0f2a9c
@1765 bc6cbdc7
@1766 bc949fba
@1767 bd24c7df
@1768 3c8af1c9
@1769 3d24dc5c
@176a 3cf59b19
@176b bd371726
@176c 3c71dbab
@176d 3d1e9a8f
@176e bc0bbf87
@176f bc9603b5
@1770 3d1832e8
@1771 bc8f5969
@1772 bce15662
@1773 3cb25360
@1774 3ce729ad
@1775 bd2b9663
@1776 3c92151f
@1777 bd470e71
@1778 3a9ca9d4
@1779 3c373fa1
@177a 3d199576
@177b bb721b6b
@177c 3cf1847f
@177d bd26fbc3
@177e bc84e18f
@177f bd1add9c
@1780 3d335a5c
@1781 bd058d7b
@1782 3cc97a8d
@1783 bd1367e8
@1784 bcbdfc8f
@1785 3d6065b2
@1786 3c82514c
@1787 bc066d79
@1788 3d53bbb8
@1789 3d1cedc4
@178a 3c884773
@178b 3d3ae8fe
@178c bd14b7d2
@178d bc39f61b
@178e 3d4b6bd7
@178f bcece8af
@1790 bcc3f90f
@1791 3cb4af9c
@1792 bcd1a635
@1793 bc17923e
@1794 bbf3d096
@1795 3d0f39fc
@1796 3d08e123
@1797 3ced29fc
@1798 3b8f03ea
@1799 3d468eca
@179a 3d27bb7b
@179b 3d1a3de8
@179c 3d126d6b
@179d bd0310be
@179e 3d20d66f
@179f 3c3e0b83
@17a0 bcf881f5
@17a1 3cc0188c
@17a2 bd2941fc
@17a3 3ca7158c
@17a4 3cc71e31
@17a5 3d1f3eb8
@17a6 3cad1166
@17a7 bca28c74
@17a8 bc8ef47b
@17a9 bc058424
@17aa bcb74aab
@17ab bd1b4b2f
@17ac bc49bf1e
@17ad bd40026d
@17ae 3c89f46b
@17af 3b1f2f10
@17b0 3a209d7f
@17b1 3d1c80ab
@17b2 bce9bef9
@17b3 3ceb23b7
@17b4 bd257979
@17b5 bccf29e0
@17b6 bd1478ea
@17b7 3bd7c297
@17b8 bd207344
@17b9 3d4064a2
@17ba 3cefe434
@17bb bca0c705
@17bc 3d17a17c
@17bd bc32bcc9
@17be bccc05a7
@17bf 3c5e92d4
@17c0 b8d509a7
@17c1 bc7aabf3
@17c2 bd4bba0a
@17c3 bcea9f8f
@17c4 bd1f558b
@17c5 bc6d41f9
@17c6 bc471782
@17c7 3d3da9df
@17c8 bcb863c5
@17c9 bcf3cc16
@17ca 3d1baad0
@17cb 3d57aacc
@17cc 3b02110d
@17cd bca200d8
@17ce bc4479b0
@17cf 3d16a21d
@17d0 3cf459e8
@17d1 bcb2992f
@17d2 3d1d0c47
@17d3 3bf092e3
@17d4 bcb19a63
@17d5 3d307bc3
@17d6 bce3c76a
@17d7 bcd9f9f7
@17d8 3c14cb4a
@17d9 3d079b5e
@17da bcc3093a
@17db bd3a746f
@17dc bd285b07
@17dd bd2be677
@17de bc0b5e23
@17df bcd1b1fa
@17e0 bd30babf
@17e1 3c95e0fe
@17e2 3b18b996
@17e3 3ce38971
@17e4 bcc4a7d1
@17e5 bcc9afdd
@17e6 bcfeedba
@17e7 3b206b85
@17e8 3cd03e6e
@17e9 3d2c5750
@17ea 3c4da51f
@17eb b74ec160
@17ec 3cf05114
@17ed bd2f9c34
@17ee 3c50edc8
@17ef bd82e367
@17f0 3cabd1db
@17f1 3cbae394
@17f2 bd4b9726
@17f3 bc1bc2ff
@17f4 3c8332b3
@17f5 3d1925c9
@17f6 3c4ed43d
@17f7 bd1ab346
@17f8 3c5be6b3
@17f9 bbdf8e31
@17fa 3d13d72d
@17fb bb12b447
@17fc 3d30a57e
@17fd bca406b2
@17fe 3bbcca4c
@17ff bc9577bb
@1800 bcf11528
@1801 3d6efbb4
@1802 3d090de1
@1803 bc2b9e5a
@1804 3d8ec9f4
@1805 3cf33ab8
@1806 bcf171f1
@1807 3d1179ab
@1808 3caef5fb
@1809 3d277b97
@180a 3ce93cd4
@180b 3d2c93dd
@180c bd0eb895
@180d bd53e3c1
@180e bd058986
@180f 3cfbe7b7
@1810 bca712d4
@1811 bd32a05f
@1812 bd76ce5a
@1813 bc62222f
@1814 bc6950a1
@1815 3c558d04
@1816 3d276bf5
@1817 3cdb93c7
@1818 bbcd3561
@1819 bcd13d38
@181a bc2b8788
@181b 3c1734f9
@181c 3d281a5d
@181d bc6b1300
@181e bcb18d7f
@181f bd3a1935
@1820 bd211488
@1821 3a53157f
@1822 3aeb6c05
@1823 bc28036d
@1824 3c9e1258
@1825 bbbddec7
@1826 bc5ad481
@1827 3cd2b007
@1828 bc828713
@1829 bd345117
@182a 3b9d67c4
@182b bb70640d
@182c 3d3260e4
@182d 3d429cc8
@182e 3d5dddf1
@182f 3c6f95b7
@1830 bbe6f80b
@1831 bd2982f8
@1832 bb638cda
@1833 3c416bac
@1834 3afa34db
@1835 bd071c62
@1836 3d6f7f32
@1837 3cc75ecd
@1838 bd095894
@1839 3c13e5b3
@183a 3d1941fd
@183b bc1988b2
@183c 3d11c03b
@183d bcf7e069
@183e bcb7b836
@183f 3b954228
@1840 3c3a5153
@1841 bb8b2572
@1842 bc60a69e
@1843 3d230aa3
@1844 bd05f2cd
@1845 3cbfc667
@1846 bcd7a826
@1847 bcecd170
@1848 bd237c23
@1849 3d2e25e0
@184a bbe841c6
@184b 3d196aa9
@184c 3b4b63a1
@184d 3c754032
@184e bd4e2bf0
@184f baa71932
@1850 bd23f989
@1851 bd282e76
@1852 bc461f3b
@1853 bd15c223
@1854 bd2567db
@1855 3aba0842
@1856 3ccc746e
@1857 3c51412f
@1858 3d08b5b9
@1859 3c3dcbbf
@185a bb8e67f3
@185b 3c8fd23d
@185c bc848c6c
@185d bc94290d
@185e 3d24ef8f
@185f 3d224876
@1860 3c33fb1f
@1861 bcad0c8e
@1862 3b1c96cc
@1863 3d2a9789
@1864 bd14b59b
@1865 3d0034ed
@1866 3d31fc38
@1867 3d3629b8
@1868 3b8a2ce7
@1869 3d821397
