@0000 bd11c2b2
@0001 be2b6e8e
@0002 3e0a87d8
@0003 bcc215d6
@0004 be1e16f1
@0005 bd77bb21
@0006 bd55b501
@0007 be196787
@0008 be0b53c4
@0009 3ab562a8
@000a bd7d93b1
@000b 3ca411e6
@000c 3e54ff28
@000d 3dbb8bdd
@000e bd473c8c
@000f 3c8976ad
@0010 3e30acff
@0011 3c9800a6
@0012 3e0fdc89
@0013 3e3d1b2c
@0014 3d5d412f
@0015 3e76035f
@0016 3e66bcdf
@0017 3e3212d5
@0018 3e5c2447
@0019 3b6e0a9b
@001a 3ec03969
@001b 3ec7e9c8
@001c 3ea05c8e
@001d 3e1332b8
@001e 3e430b80
@001f 3ea5b6f8
@0020 3e6a3d4e
@0021 3c9fea35
@0022 3ebcddff
@0023 bcbe85b2
@0024 3eb640bc
@0025 3ea253dc
@0026 3df08562
@0027 3ddb0322
@0028 3dbe1be4
@0029 bd055f44
@002a 3e863441
@002b 3e7c5e26
@002c 3e6b9d30
@002d bdb18478
@002e 3cfa3eef
@002f 3d48406a
@0030 be1d1af6
@0031 bd1f10b3
@0032 3e840ae0
@0033 3eb55c22
@0034 3e3ecb3e
@0035 3eba7a87
@0036 3e0218d0
@0037 3e9a661b
@0038 3e54554f
@0039 3e127555
@003a 3e4f5cd9
@003b 3ea0e890
@003c 3e9efa6e
@003d 3eb2f931
@003e 3ef4b859
@003f 3e038f0e
@0040 3eb672e1
@0041 3e897234
@0042 3e6ec9d4
@0043 3ee3a84f
@0044 3eb0c086
@0045 3e855f57
@0046 3c9db204
@0047 3e837f57
@0048 3d8e438f
@0049 3d8c5f7c
@004a 3e36ffbd
@004b bd73b838
@004c be15910f
@004d 3e26a3ed
@004e bde70d7e
@004f 3dbb34a0
@0050 3d387917
@0051 bd4b7f11
@0052 3e41bade
@0053 bd642dd6
@0054 3df54128
@0055 bd06f82b
@0056 3e33038c
@0057 3e1c0134
@0058 bb0a5e02
@0059 be24ae2f
@005a be35976b
@005b 3c6f57fc
@005c 3e197f55
@005d 3d5db045
@005e 3e0b55db
@005f 3e32a903
@0060 bd9391da
@0061 be37ccf6
@0062 bdfb219e
@0063 bd28459f
@0064 3dc6c41a
@0065 bda7d807
@0066 3df1c7d9
@0067 3e12c4cd
@0068 3d696ce5
@0069 3e7f4d78
@006a 3c8d958d
@006b 3a71c7cf
@006c 3e5ad2ae
@006d 3e49edf1
@006e bdeca619
@006f bdc5a8b7
@0070 3e463372
@0071 3dc88dcc
@0072 be1f55c7
@0073 3ce3d6d4
@0074 be52dbed
@0075 bdb0b172
@0076 bcf4d893
@0077 3e47a0d1
@0078 be299421
@0079 be4cb902
@007a bd5988cc
@007b bd566d95
@007c be463940
@007d 3e48caf2
@007e 3e609b80
@007f 3ea054ea
@0080 3e9c030b
@0081 3d0c34be
@0082 3e6b3c5f
@0083 3e5da368
@0084 3ebdeff5
@0085 3e8a32ab
@0086 3e065ffa
@0087 3e8178e7
@0088 3efff83f
@0089 3e33d2dd
@008a 3eaff1c5
@008b 3e283765
@008c 3e0fc520
@008d 3eec74f9
@008e 3ecc835e
@008f 3e1438de
@0090 3eb26896
@0091 3eac9969
@0092 3e98e2c5
@0093 3ee28d1c
@0094 3ed5ac95
@0095 3e9ce2fd
@0096 3d9d06f6
@0097 bcb91145
@0098 bc7f2284
@0099 bcf7c0c6
@009a bc3766ea
@009b 3dc59efa
@009c 3c7e9c32
@009d bd3902f9
@009e bd300416
@009f bcc42916
@00a0 3d00fde0
@00a1 3d2db53f
@00a2 3c7a23a1
@00a3 3d6793b9
@00a4 bc0144fb
@00a5 3ca3c451
@00a6 bcbf1c88
@00a7 bd5c2139
@00a8 3bfd03c6
@00a9 3c6e44cf
@00aa bd55b063
@00ab bcbbf296
@00ac bd9cd45a
@00ad bd72bd78
@00ae bbb75fc3
@00af 3d128563
@00b0 bd48bb3b
@00b1 bd902d8e
@00b2 bdc273c1
@00b3 bdb9abaf
@00b4 3d24f40d
@00b5 3c8f3b3e
@00b6 bca8d4e4
@00b7 bd4e5ef8
@00b8 3cd189cb
@00b9 3c098241
@00ba 3d8fa61d
@00bb 3c77cbb1
@00bc 3d8ebd85
@00bd bbbe6c40
@00be bcb59732
@00bf 3caaf7ee
@00c0 3c276e6b
@00c1 3b3c46d6
@00c2 3daede6d
@00c3 bdab0fbc
@00c4 397d0f32
@00c5 bc119cb2
@00c6 3ccd59c3
@00c7 bd583163
@00c8 bbdd9f8c
@00c9 bd23a669
@00ca bd322dcb
@00cb be0429c2
@00cc bc02b0ea
@00cd bd40cdc1
@00ce 3dd75d00
@00cf 3cd05fd2
@00d0 bbf939be
@00d1 bd39c96b
@00d2 3dd8df9e
@00d3 3c4a2f31
@00d4 bc326b65
@00d5 3e0ee475
@00d6 3d97b351
@00d7 bc70db04
@00d8 3db9838e
@00d9 bd0f76d7
@00da 3deab88f
@00db 3d435380
@00dc bc593819
@00dd bde3596c
@00de 3d03c09b
@00df 3d0e8b34
@00e0 bd0e4e85
@00e1 bcc4056d
@00e2 3d2f5169
@00e3 bd651674
@00e4 3b88090f
@00e5 bc8e4ecf
@00e6 bcfd675f
@00e7 3c986095
@00e8 bbc84e7a
@00e9 3d7637c4
@00ea bd930da0
@00eb 3d3c9543
@00ec 3d72df11
@00ed bd2490a4
@00ee 3cf45cf1
@00ef bd405b9d
@00f0 3d7f10eb
@00f1 bd82b8be
@00f2 3d7c9df1
@00f3 bc0fa9c9
@00f4 bcea8275
@00f5 3d510f61
@00f6 3d1f2ddf
@00f7 bd1d4a5c
@00f8 bce80196
@00f9 bd883968
@00fa 3d2233fd
@00fb bceae7d3
@00fc 3c5d8434
@00fd bd4c359c
@00fe bd9e3694
@00ff bd823d7f
@0100 bda068ee
@0101 3d26630e
@0102 3d36e37c
@0103 bda15a82
@0104 bd4200e3
@0105 3cd697fd
@0106 bca3289e
@0107 bc8b4d7a
@0108 bc456d1c
@0109 3cd0a3dc
@010a bce100b9
@010b 3d5af9b2
@010c 3cf8a901
@010d 3d2d38f5
@010e 3cfe0389
@010f 3d3ea1b8
@0110 bd771618
@0111 3d2eeed8
@0112 bcfd6557
@0113 3d229f86
@0114 3c243e8b
@0115 bcbaf45a
@0116 bdc02b5a
@0117 bd3de7c3
@0118 3da8d141
@0119 3d52eeca
@011a bcc3566f
@011b 3db48c14
@011c bd41fd27
@011d bd5fb981
@011e 3d212c7a
@011f 3d2b38a5
@0120 3dfb83fb
@0121 3dc4c82b
@0122 bdbc2474
@0123 bcef1801
@0124 3d04da32
@0125 3d841999
@0126 396c0a3b
@0127 bd98124c
@0128 3cda14e5
@0129 3d2f651b
@012a 3d6a4290
@012b 3d74584a
@012c 3d82ea2e
@012d 3d00d565
@012e 3c9b3a05
@012f bc8fc529
@0130 3cddf3d3
@0131 bd1b29e5
@0132 3db0a544
@0133 3d276221
@0134 bbe8002d
@0135 3c5c691c
@0136 bd0a6f32
@0137 bc85a5aa
@0138 bcfcbef0
@0139 3d9d8733
@013a b8189628
@013b 3c31c6e5
@013c bd8e78f8
@013d bd14b7c5
@013e 3c8cd37f
@013f 3d0ac273
@0140 bd32f1d7
@0141 3d849dc4
@0142 bd46ee81
@0143 bd9d51bd
@0144 3bb5a6c8
@0145 3df2c116
@0146 3d85df31
@0147 bc1a0672
@0148 bdab147d
@0149 3d28541d
@014a 3ce58b99
@014b 3e0b47ff
@014c 3e026e73
@014d 3d553c2a
@014e bd3c21cc
@014f 3d933150
@0150 3db9eb50
@0151 3db8c83d
@0152 3ddbc670
@0153 3d63ecb7
@0154 3d693c7d
@0155 bdb08a8e
@0156 3cd66c8d
@0157 3d88c62e
@0158 3dd23735
@0159 bd9ddc3a
@015a bd7bc0ad
@015b bd9ca439
@015c 3cadc6f1
@015d bd701573
@015e 3da592c3
@015f 3e0e9ebf
@0160 3e110c94
@0161 bd8197ab
@0162 ba2687ac
@0163 3e2bb050
@0164 3e1ea11e
@0165 3e2df75d
@0166 bb20ec46
@0167 3d8b6091
@0168 bba27db0
@0169 3d2d27db
@016a bbf88e4e
@016b 3dcc1509
@016c bcab5bed
@016d bce97808
@016e be069ef7
@016f bdcf142d
@0170 3d292cc9
@0171 3dbd2806
@0172 3c6049ab
@0173 bda2ca1e
@0174 be1530ce
@0175 bccc2790
@0176 3d7268bd
@0177 bd906f07
@0178 bd77ff51
@0179 bb8a5840
@017a bc192a34
@017b 3d39a7b5
@017c 3db00567
@017d 3c91e130
@017e bc85f5a5
@017f bd260a9c
@0180 3d8f7a7d
@0181 bca46630
@0182 bd5ac8e9
@0183 bd0e58da
@0184 bd9e5d56
@0185 3b4abf79
@0186 bd30122c
@0187 bd5383ff
@0188 3d6966a5
@0189 bda5e4bf
@018a bcf4ee23
@018b 3d8a4893
@018c bd8c7ce3
@018d babfdacf
@018e 3cccbff4
@018f bd311d22
@0190 3da8bccc
@0191 3da154c9
@0192 3c8a929d
@0193 3d97bdcd
@0194 bda76d96
@0195 3d5d9c91
@0196 3d43f5e4
@0197 3d8015d5
@0198 3d94ddcc
@0199 bd420a68
@019a 3d166822
@019b 3dd3bf28
@019c 3d557a5e
@019d 3d0eebc0
@019e 3d4aa4a0
@019f bd453005
@01a0 3d5e004e
@01a1 3d7e8cb5
@01a2 3d9ea482
@01a3 bcf279b1
@01a4 bd9f91cd
@01a5 bd8cd9a8
@01a6 3d4514ea
@01a7 bd80ea2b
@01a8 3cf39576
@01a9 3e315be0
@01aa 3df4cf02
@01ab 3df20371
@01ac 3dacf31b
@01ad bd849f07
@01ae 3e15919f
@01af 3e61936a
@01b0 3e0fb775
@01b1 3dd8d35f
@01b2 3d85dc47
@01b3 3daaf06e
@01b4 bd23d645
@01b5 3de45031
@01b6 3d5600d0
@01b7 3c507048
@01b8 be036e12
@01b9 bdb8c50b
@01ba bd28b2dc
@01bb bd4ebff2
@01bc bd818c34
@01bd bcb5deab
@01be bdb58dd2
@01bf bdbbe775
@01c0 bd7cccd3
@01c1 3bc97981
@01c2 3bcc921e
@01c3 bd6fa20b
@01c4 3c7b0f02
@01c5 bd4c9832
@01c6 bd8fc851
@01c7 3d067751
@01c8 bd34409b
@01c9 3c750bab
@01ca 3daa7f2d
@01cb bd2fa909
@01cc bd5ca522
@01cd bd42b631
@01ce bd06f497
@01cf 3d7d12d8
@01d0 bd90e529
@01d1 3c84d8cd
@01d2 3cff87ec
@01d3 bd67e8dd
@01d4 bda9c8b0
@01d5 bdaef814
@01d6 bd6cef15
@01d7 bbc9b404
@01d8 bc9624ef
@01d9 bd0771bf
@01da bd4283ac
@01db bd6d7b3b
@01dc 3d6b69db
@01dd 3cc1d705
@01de bdbf0ffa
@01df 3cecc10e
@01e0 3c91ed18
@01e1 bc77e615
@01e2 3c9b5498
@01e3 bc29b115
@01e4 bd6d9164
@01e5 bbdd7f49
@01e6 bd9744c2
@01e7 3d388958
@01e8 bcf3b08b
@01e9 3d775960
@01ea 3d5b1fd7
@01eb 3d2f87d9
@01ec bca2c34f
@01ed 3c681e96
@01ee 3bcbf278
@01ef bd6dd76c
@01f0 3d720594
@01f1 3b15d042
@01f2 bd934c24
@01f3 bc86a378
@01f4 3d83716e
@01f5 bd85eb27
@01f6 bd00f18a
@01f7 bce3ace7
@01f8 bda4dbe8
@01f9 3d6c7719
@01fa 3c62832b
@01fb bca75f78
@01fc 3d0b18da
@01fd 3d8eb5bb
@01fe 3d964db0
@01ff bcd514fc
@0200 3d983ddb
@0201 3d90c671
@0202 3dd95a32
@0203 3d3d3436
@0204 3de324bd
@0205 3d9d1515
@0206 3c84f4a3
@0207 3d2950dc
@0208 3c78c23d
@0209 3daba9c4
@020a 3d76f41c
@020b 3bc7711c
@020c bd1c3c3d
@020d bd5b7ad4
@020e bd942f87
@020f 3cf62af9
@0210 3d8a20ea
@0211 3d1fc799
@0212 bcc1b58c
@0213 bb237900
@0214 bcfb80b2
@0215 3d419868
@0216 bd1bfdb9
@0217 3d9a3988
@0218 bd953e47
@0219 bd9d62b5
@021a bbad47a8
@021b bd96d902
@021c 3c843213
@021d 3c99bb69
@021e bd972d5f
@021f 3a3abedc
@0220 3d9a069c
@0221 bd8261a3
@0222 bd8141e4
@0223 3d9ebef4
@0224 bc83d51a
@0225 3c8aa63f
@0226 bccf044f
@0227 bd206507
@0228 3c91fb95
@0229 bd2a2399
@022a 3ccbdbb6
@022b bd6ded1a
@022c bd91a7b3
@022d 3bbaab0f
@022e 3d40541e
@022f bdae18fc
@0230 bd831eaf
@0231 3d4f2403
@0232 bd3dddcd
@0233 3d253095
@0234 bcdc24ba
@0235 3d9dd6e9
@0236 bd44821c
@0237 3d60e48d
@0238 bd25f030
@0239 bd791a2f
@023a bbf9860b
@023b bce89fdb
@023c bb36f08c
@023d bb80b716
@023e 3d1a76d2
@023f 3d296a10
@0240 bcb5582c
@0241 bdbb1210
@0242 bd8e18b2
@0243 3d5b8284
@0244 3b82d65c
@0245 bd6bf1cf
@0246 bceeff13
@0247 bd4dbd4d
@0248 3d31c2cb
@0249 3dc11bde
@024a 3bee3bcc
@024b 3d8676b6
@024c bc718827
@024d 3dbbf839
@024e 3d0d68df
@024f 3d534b15
@0250 3cb15f90
@0251 bc7578ab
@0252 bc250d9b
@0253 3dcfa40b
@0254 bcfadc5a
@0255 bda24a99
@0256 bd03ddff
@0257 bd4a153b
@0258 bd0cc530
@0259 bbee1d84
@025a 3dad3e02
@025b 3bbbd7d7
@025c 3dbc6f35
@025d 3d5637fc
@025e bda5b3a0
@025f 3d656fac
@0260 3b276b63
@0261 bd4e777f
@0262 3b1f677d
@0263 bd281fe8
@0264 bd90f325
@0265 3c586287
@0266 bd9f7af5
@0267 3c05cfd6
@0268 3d94d77a
@0269 3c94da99
@026a bd32d408
@026b 3d603e39
@026c bcf04cc4
@026d bd019157
@026e 3da36056
@026f 3db3e132
@0270 3baf8c88
@0271 3d574cdf
@0272 3db9edaa
@0273 3cef5a08
@0274 3dc1f47e
@0275 bcb1c496
@0276 bd48dbea
@0277 3d356f82
@0278 3d76138b
@0279 3da7b77f
@027a 3d6111cf
@027b 3d4d089f
@027c bc82a4cc
@027d 3daf7e2e
@027e 3d867620
@027f 3d61fbb6
@0280 bdbe2dce
@0281 3d2753ce
@0282 bd77c6b4
@0283 bd9c98e4
@0284 3d817787
@0285 bd095cef
@0286 bd994d4c
@0287 3d3f1024
@0288 bda46f17
@0289 bd52d0f1
@028a 3de2b7a5
@028b 3df5fac9
@028c 3ddf9e8c
@028d 3dca8197
@028e 3d235f30
@028f 3db41261
@0290 bc7bfd1e
@0291 3d2e266f
@0292 3c9cb771
@0293 3ce2cc9f
@0294 bdd94d69
@0295 bc637460
@0296 bd102768
@0297 3cabacbf
@0298 bd2d05f8
@0299 bdc2f7d7
@029a bd5b35a8
@029b bcb856fb
@029c 3a7e83ca
@029d bd64a57a
@029e bd44036f
@029f bd9b829f
@02a0 bca3afa5
@02a1 bca9924b
@02a2 3b64545e
@02a3 bd0e5d68
@02a4 3c92c58a
@02a5 3d514fef
@02a6 3ca98aa0
@02a7 3d99c21a
@02a8 3d332ea6
@02a9 bd6b6193
@02aa bd2a194a
@02ab bce82187
@02ac 3cd49130
@02ad bcb00563
@02ae 3d99f119
@02af 3d8585c1
@02b0 bc119f46
@02b1 bd3de8ad
@02b2 bd9bc1cb
@02b3 bd2d841b
@02b4 bcac4c2c
@02b5 bd18a157
@02b6 bd232800
@02b7 3d9f2ee2
@02b8 3d81af79
@02b9 bd02aa85
@02ba ba75f20a
@02bb 3d9a7c69
@02bc 3d9e3a38
@02bd bc4138f6
@02be 3db6685e
@02bf bad465a0
@02c0 3bc462fb
@02c1 3dba0cb3
@02c2 bd1bf7d3
@02c3 3c3db97d
@02c4 3d884017
@02c5 bba861e2
@02c6 bd5f0cfe
@02c7 3dbaeb19
@02c8 bbb9b4d6
@02c9 bd7ebf57
@02ca 3c90c20d
@02cb bd441c2b
@02cc bdab6ee3
@02cd 3cf61430
@02ce 3caea0d9
@02cf 3d915e09
@02d0 bc4787e9
@02d1 bd9a0d38
@02d2 bc8cbc72
@02d3 bcdfe040
@02d4 bac7412b
@02d5 3d8aee4d
@02d6 3e0267fd
@02d7 3daac5e2
@02d8 39e6ca6c
@02d9 3d624ad0
@02da 3c43d573
@02db 3bca941e
@02dc bc47d378
@02dd 3ded3258
@02de 3e03e222
@02df bd1640d6
@02e0 bdcf0081
@02e1 bdbacb5f
@02e2 3c1c89d8
@02e3 bc2fe194
@02e4 bdeef2e3
@02e5 bd593d66
@02e6 bdf0bece
@02e7 3bd480eb
@02e8 bd6cb231
@02e9 bd4af4d0
@02ea bdaaa73c
@02eb bd856c93
@02ec 3cee3781
@02ed bcf8d296
@02ee bda7f6fa
@02ef bbce6237
@02f0 3b9b10d0
@02f1 bcb9f5c3
@02f2 bd2cf6ac
@02f3 3cf1e5f6
@02f4 3c8f0e45
@02f5 3dd5863e
@02f6 3d000281
@02f7 3d1c8f26
@02f8 bc6afe4c
@02f9 3dbee06d
@02fa bc076621
@02fb bd952792
@02fc 3d8301a8
@02fd 3c8ffb1e
@02fe bccc7df2
@02ff 3d8b6f2f
@0300 3d7e6066
@0301 bd9a28b8
@0302 bd9a34e6
@0303 38960712
@0304 3d5b731f
@0305 3cdcaced
@0306 3d92b43f
@0307 bcaa97c2
@0308 3c5db8fb
@0309 3d8a4bb8
@030a 3d071b5a
@030b 3dc3e396
@030c bdfac800
@030d 3991b426
@030e 3c1b5ba0
@030f 3ce156d9
@0310 3d62de07
@0311 bcd7ddf9
@0312 3d42dc04
@0313 3cc69310
@0314 3d91f918
@0315 3d1d51d1
@0316 3ccd2ab1
@0317 3beb8bb7
@0318 3df2e57b
@0319 bd0c64c8
@031a bc3a8fe0
@031b 3da462af
@031c 38de1ab3
@031d 3cd23b66
@031e 38fad433
@031f bd8be380
@0320 bdabd3cc
@0321 bdf6b084
@0322 bd2abacc
@0323 3d2e914f
@0324 3db8ca8a
@0325 be0ab23d
@0326 bdf94486
@0327 bb991adb
@0328 3ddf6e39
@0329 3daa3e8e
@032a bdc96f21
@032b 3bea46de
@032c 3deda4fe
@032d 3c64c669
@032e bd8a66b4
@032f 3d82ad16
@0330 3dcbf4bb
@0331 3cf31b81
@0332 bc8bc386
@0333 3cd3842b
@0334 3dadc94c
@0335 3e15a951
@0336 3c84dbc7
@0337 3bd24aff
@0338 bd3450d5
@0339 bbc2cd1b
@033a 3cf24650
@033b 3d74a8ea
@033c bd6d67a8
@033d 3a5b6c6b
@033e 3d8ea707
@033f bd12acba
@0340 3d8e023e
@0341 3d9140bd
@0342 3d523c7f
@0343 bd9cf0d0
@0344 3d7e3e98
@0345 3cc32e21
@0346 3bedb6bf
@0347 bd974eeb
@0348 bd2852de
@0349 3cf243a4
@034a 3c96b3f5
@034b bd552d9c
@034c bd993a6f
@034d bd5bf363
@034e 3d3524b9
@034f bd93e01c
@0350 bc778bf5
@0351 3d50513b
@0352 3d632c24
@0353 3d86f9b3
@0354 bd7bf789
@0355 3cbf21a3
@0356 bc81ac9a
@0357 3d0827e3
@0358 bda641ed
@0359 bb3f58de
@035a bd942507
@035b 3d4cfbd4
@035c bcb0654c
@035d 3ccb710c
@035e bbaf0566
@035f bd9fc256
@0360 bd4a90b4
@0361 3d73b476
@0362 3d8dc66c
@0363 3bf54a2b
@0364 3d0eb8dd
@0365 bd4485db
@0366 3ce05b5c
@0367 3c7beb7c
@0368 3d08c510
@0369 bd9979a2
@036a 3da20dc5
@036b bdea7f2f
@036c bdf22c37
@036d 3d1d475e
@036e 3d66f01a
@036f 3dc1f1be
@0370 be05be9d
@0371 bdcb3bc1
@0372 3d0608cb
@0373 3dd4c90d
@0374 3b3ea21f
@0375 3d897ad2
@0376 bd4576c5
@0377 3db1e391
@0378 3dabcba6
@0379 bd870016
@037a 3cbbda1a
@037b 3e0d27e5
@037c 3e0ad8f4
@037d 3c577486
@037e 3b2c1fef
@037f 3da5c75f
@0380 3c8e10ca
@0381 3dd3d1fe
@0382 3d1af04a
@0383 bca65f0c
@0384 3d959200
@0385 3cc49e86
@0386 bd4f2672
@0387 3d8cccac
@0388 3cf2bb2b
@0389 3c79b3b4
@038a bd97808f
@038b 3d8967f7
@038c bda51cfc
@038d 3d609640
@038e 3b454ace
@038f bd93de59
@0390 bc2b9faa
@0391 3d19c2bf
@0392 bcfbb8ea
@0393 3c85a379
@0394 bb7a4003
@0395 3d1f9b42
@0396 bd88f12d
@0397 3d9144c9
@0398 3d4eaea5
@0399 3d98baed
@039a 3c212164
@039b bd6716ea
@039c bc8e0188
@039d 3cde1273
@039e 3cd3bf06
@039f 3dc302b6
@03a0 3c93ac3e
@03a1 bd01c8e0
@03a2 3de3b98f
@03a3 3d9b7e7d
@03a4 bce4783d
@03a5 3cfc76ba
@03a6 bd7f51f0
@03a7 3c6d0a4c
@03a8 3d9c833c
@03a9 3d783eab
@03aa bd1e38c5
@03ab 3d4a7edc
@03ac bdbaa7a9
@03ad 3cab629e
@03ae 3d595bfd
@03af 3d5d4fbc
@03b0 bd03aac8
@03b1 bdc42d4c
@03b2 3d8564b4
@03b3 3c2b456d
@03b4 3cbe7af1
@03b5 bd8a0005
@03b6 3c16cb17
@03b7 3d9bcc48
@03b8 3db3d9cf
@03b9 3dcaa1db
@03ba 3ce50431
@03bb 3dca5bbb
@03bc 3c7afdd6
@03bd 3d31a44e
@03be 3e020489
@03bf 3c86b0d6
@03c0 bdccf045
@03c1 3d6d3be0
@03c2 3db190ea
@03c3 bd55d50c
@03c4 bd85d488
@03c5 bda43e16
@03c6 3cfca4ec
@03c7 3ce2f165
@03c8 3bb541dc
@03c9 bc12ee92
@03ca bdc5bcf3
@03cb 3d07af8b
@03cc 3dae091b
@03cd 3dcb6c48
@03ce bd4b75a0
@03cf bd84eb86
@03d0 bcdfede9
@03d1 bd04afb4
@03d2 bd7ad272
@03d3 bc8764ff
@03d4 bd810441
@03d5 bd9e65f8
@03d6 3d3e8e5f
@03d7 3c2ee65b
@03d8 3d3269cc
@03d9 3cbf440b
@03da 3d42737c
@03db 3d18a5ec
@03dc 3d7b0d3a
@03dd bd8c65cf
@03de 3d86976b
@03df bd28b196
@03e0 3d251b91
@03e1 bd071031
@03e2 3d6d3853
@03e3 bd569605
@03e4 bc7cc7f8
@03e5 3c11030e
@03e6 bccf388b
@03e7 3d6a9b6b
@03e8 bd557a6b
@03e9 3dac1c9a
@03ea bc89661a
@03eb bcb57841
@03ec bb5d7762
@03ed 3d3912f0
@03ee 3bb2eff0
@03ef 3d3df7c5
@03f0 3cb963e1
@03f1 3da0db15
@03f2 3d82c2dc
@03f3 3d8ca8c4
@03f4 bd842ee1
@03f5 bc9916c0
@03f6 3bc6602a
@03f7 bd9c2ac1
@03f8 bb4a376b
@03f9 bd9eb5a3
@03fa 3d55813a
@03fb 3caafe93
@03fc bd24535c
@03fd 3cd06ddf
@03fe bba084eb
@03ff bd6cf872
@0400 bd9a20a9
@0401 3d9bb75c
@0402 3de1e5e3
@0403 3e1c7503
@0404 3d414fee
@0405 3d674b3c
@0406 bc98c777
@0407 3d7f508d
@0408 3dee7f28
@0409 bcb39881
@040a bc76363b
@040b bd65f8b6
@040c 3d764ed9
@040d 3c4cd242
@040e 3b10f3ba
@040f 3d86d3e5
@0410 bdaf87d5
@0411 bdce3758
@0412 bd3fec0d
@0413 3da44511
@0414 3c4967bf
@0415 39e0ed03
@0416 3c8cb824
@0417 3d413a34
@0418 bd281dbf
@0419 3d963cd3
@041a bd858799
@041b 3d53272e
@041c bd7f1814
@041d 3c4349d7
@041e 3d2a32cb
@041f 3cc71da9
@0420 bc92b86a
@0421 3ceedfbb
@0422 bd92449b
@0423 bd5042f5
@0424 3d380525
@0425 3d803ceb
@0426 bd68c431
@0427 3d893703
@0428 bbe1ef50
@0429 3d769f09
@042a 3d58cc9a
@042b 3d16d3a0
@042c bd924e89
@042d 3d4074aa
@042e bd663da3
@042f 3c41158a
@0430 bd0dad8a
@0431 bcf51357
@0432 3d6af436
@0433 3d8cc15a
@0434 3d91e5d5
@0435 bd3de76c
@0436 3c6d4a2f
@0437 3b7711f9
@0438 bcd8ff64
@0439 3d11710d
@043a bc8a2281
@043b 3d7dd601
@043c bd53ce69
@043d bd293a5f
@043e 3c8fd0b0
@043f bb960971
@0440 3ce68029
@0441 bd9bc57f
@0442 3d816808
@0443 bd86b11e
@0444 bcd5d35b
@0445 bd7f3ba9
@0446 3d962f56
@0447 bc633c10
@0448 3d562cdd
@0449 3c2faa5d
@044a bd1f50e8
@044b bcf2ff22
@044c bd38e896
@044d bbca248c
@044e 3d481e72
@044f bd333379
@0450 bd86a6eb
@0451 3bc6ed1c
@0452 bd41d370
@0453 bd073d67
@0454 bc001de6
@0455 bd27debd
@0456 3b2f030d
@0457 3c313f7d
@0458 bd3065a1
@0459 bce1633e
@045a 3d30ed2d
@045b bcfd566c
@045c bc1c019b
@045d bd8dbb22
@045e bd132a3c
@045f bd7c6d51
@0460 bcac4bfe
@0461 bd37a0b4
@0462 3d9bc9b0
@0463 3da9d55d
@0464 bd60429c
@0465 3d8f80b5
@0466 bd2e0830
@0467 3bc59b1b
@0468 3c96be2a
@0469 3ceceed4
@046a 3da10b0e
@046b 3d08a6e4
@046c bd9d9f90
@046d 3d75ddb4
@046e bda3742c
@046f 3c297fb5
@0470 3d83c767
@0471 3d4e6288
@0472 3c82d014
@0473 3d7cfa99
@0474 3b3fe1cc
@0475 3d3bd172
@0476 bd8aa572
@0477 3d8d9760
@0478 3d1ee616
@0479 3d56a1ca
@047a 3d5a920a
@047b bd29ab45
@047c bc8e4054
@047d bcaed285
@047e bd97e356
@047f bd849369
@0480 3d3e8b42
@0481 b8e38be9
@0482 bd54a621
@0483 3da31bee
@0484 3d856dcd
@0485 3d6bf222
@0486 3cda136a
@0487 3d0af5ff
@0488 3d94a846
@0489 bd693503
@048a bc2f440c
@048b bd363c8f
@048c bcecc783
@048d bc8545bc
@048e 3d947d4f
@048f bd16647c
@0490 bd604122
@0491 bd091a26
@0492 bd8c8acc
@0493 3d1ed09b
@0494 3d9781a3
@0495 3d91bb9e
@0496 bd4bf90c
@0497 bdc05765
@0498 3cc67185
@0499 3ce0cbb3
@049a bc5658be
@049b 3c05ee21
@049c 3d630f80
@049d bdae7f89
@049e 3d99ae24
@049f 3d31e60e
@04a0 bd97bf18
@04a1 bd0fb01e
@04a2 bd233b35
@04a3 bd8a359b
@04a4 3d6a7a69
@04a5 bd59744e
@04a6 3d81ba70
@04a7 bd93a50b
@04a8 bd1242b5
@04a9 bcaab489
@04aa bd89f00b
@04ab 3d0262d1
@04ac 3d3fc5fc
@04ad 3d8041e2
@04ae 3d337793
@04af bd972de0
@04b0 3ce264f5
@04b1 bda01b5c
@04b2 bd13488d
@04b3 bc35ac53
@04b4 ba35e0fa
@04b5 bda54268
@04b6 bd22cefb
@04b7 bd378344
@04b8 bbf4f29d
@04b9 bc8d5199
@04ba bd9e4869
@04bb bbb5f218
@04bc bb0d151a
@04bd 3d53a6c1
@04be bd706612
@04bf bcd89367
@04c0 bbb3c574
@04c1 3da99176
@04c2 3d9013b1
@04c3 3cc7ac31
@04c4 3da962dd
@04c5 3dbf7f10
@04c6 bcb8b04c
@04c7 bd183e90
@04c8 3d7ea4c0
@04c9 3d9992a0
@04ca 3d09de26
@04cb 3d87f4e7
@04cc bc898045
@04cd 3de35bb0
@04ce 3d45f9ed
@04cf bd4f0a2f
@04d0 3da2184b
@04d1 3d3729f0
@04d2 3dd66768
@04d3 bd2620be
@04d4 bd9c52f3
@04d5 bd24255a
@04d6 3c55ae18
@04d7 3d85dc64
@04d8 bdbec35d
@04d9 be06882c
@04da 3ce49f61
@04db 3d11f769
@04dc bd3d4fdf
@04dd bd3003a6
@04de 3d1f5a5d
@04df bd70f573
@04e0 3da8318f
@04e1 3d6f3d09
@04e2 3dbbfda4
@04e3 3dbac93f
@04e4 3e14a68c
@04e5 3e183a3c
@04e6 3d9187cc
@04e7 bda00cee
@04e8 3c414445
@04e9 3d231013
@04ea 3d73db7b
@04eb 3cf69337
@04ec bdd1352c
@04ed bd62a410
@04ee bcf4c691
@04ef bb9f1f27
@04f0 3d89f842
@04f1 3c932c28
@04f2 bdad4521
@04f3 bbdb9f5a
@04f4 bd61a65c
@04f5 3d6ef698
@04f6 bd462323
@04f7 bcb521e4
@04f8 3c034036
@04f9 3d9d09d8
@04fa 3da35ff4
@04fb 3d97aa5f
@04fc 3ca8d8dd
@04fd bc0020ff
@04fe 3d2655fd
@04ff bd8c36f3
@0500 bc43e6ed
@0501 bda05807
@0502 bd64cf07
@0503 3da81d69
@0504 3d4a45fc
@0505 3d801c36
@0506 3bc38d81
@0507 bbfdffc8
@0508 bd6f3f79
@0509 3d60410d
@050a 3ca80c72
@050b bdb068a4
@050c 3d368969
@050d 3da4b33b
@050e bc5da200
@050f 3cd33f55
@0510 bd818b76
@0511 3990c5e7
@0512 bd70908e
@0513 3d3ce22e
@0514 3cfd5306
@0515 bca60f6b
@0516 bcdc3162
@0517 3d8d8a73
@0518 bd11e7f2
@0519 3db8a06d
@051a bd54d1ba
@051b bcbdfeca
@051c bc60cb90
@051d bc7f1837
@051e 3d0bccec
@051f 3d922808
@0520 3d503036
@0521 3d7aa6a0
@0522 3c34ca92
@0523 3cbfb067
@0524 bd5ac357
@0525 3cb4454d
@0526 bc9c223b
@0527 bca39ba6
@0528 3cdd8ca8
@0529 3d89f670
@052a bd83b2a2
@052b 3c961483
@052c bcb002f4
@052d bd562dbb
@052e 3c3ac450
@052f bbd72f34
@0530 3d80ddec
@0531 3d2adffe
@0532 bd6d6fff
@0533 bd748549
@0534 bc911440
@0535 3c9e2920
@0536 3db1c0ba
@0537 bb9d494a
@0538 bd55a956
@0539 bddf2ad8
@053a bda2c983
@053b 3dad3f0f
@053c bdb9f075
@053d bd0ecfe8
@053e bd99727d
@053f bce66937
@0540 bc2f8e47
@0541 bd5cb013
@0542 3d18b9c9
@0543 3d310c94
@0544 3dc490e9
@0545 bd5a04dc
@0546 bd82cb02
@0547 bd41bbd9
@0548 3d26b33c
@0549 bd8caa28
@054a bd7270d8
@054b bd8a875c
@054c bd9a7f59
@054d bb1ff2fa
@054e bd609286
@054f 3d2b8f34
@0550 bd8041bd
@0551 3d6fb484
@0552 bd01de3c
@0553 bbeca1e0
@0554 bd1c4cb9
@0555 3c2efca0
@0556 3cf1c979
@0557 bda054ff
@0558 3cf55f6a
@0559 bda3ec77
@055a bd91ad6b
@055b bd1607d6
@055c 3ca4ffa2
@055d bd9bc98c
@055e 3d8cf3e5
@055f bcfae78f
@0560 bca07456
@0561 bd8f264f
@0562 3da7b0cb
@0563 bcb182d4
@0564 ba810951
@0565 3c49a6d7
@0566 3d86ae4d
@0567 bda5c31c
@0568 3d4fa176
@0569 bacff82c
@056a bd1b8885
@056b 3d1a1302
@056c bccb9d51
@056d bc48de2a
@056e bcd43c8f
@056f 3d67bf9e
@0570 3d9d731e
@0571 bd6c34f1
@0572 bd6e14eb
@0573 bd6935b8
@0574 bc43c8fd
@0575 3d9d58cb
@0576 bc88dec9
@0577 3d949e40
@0578 3cd86ea5
@0579 3c3758d1
@057a 3ba955cf
@057b bd95d7bb
@057c bd45f533
@057d bd9ff685
@057e bd4bb7f8
@057f bcdc61f7
@0580 3d8dd1d5
@0581 bd97f157
@0582 3d8ed3e7
@0583 3d7bc706
@0584 bcef10fd
@0585 3d05dfdf
@0586 3c3ebf5b
@0587 3c10eeb2
@0588 3c556632
@0589 3d82816c
@058a bd483fa6
@058b bd915378
@058c bd2bc9cb
@058d bd3f02d5
@058e bd2ad179
@058f bd675053
@0590 bd70fdb9
@0591 bb9c5bd4
@0592 bc4b422a
@0593 3a0b99c1
@0594 bd76496f
@0595 3d95ebc9
@0596 bd8425dd
@0597 3d938507
@0598 3d95ff93
@0599 bca2d229
@059a bd50925f
@059b bd7eed28
@059c bd4116a1
@059d bd156742
@059e 3d07e1dc
@059f 3ce0433c
@05a0 3d0e95fe
@05a1 bce2d597
@05a2 3cdeb085
@05a3 bc1de7d3
@05a4 3c835b6c
@05a5 bc5aa63a
@05a6 3d8c7ed3
@05a7 3d2acfd4
@05a8 3d90fda3
@05a9 bb84eac8
@05aa 3d754a08
@05ab bd8ebd27
@05ac 3d1944c6
@05ad 3d7bc4a7
@05ae 3cd84083
@05af bd57ab11
@05b0 3b902ef0
@05b1 3d0c1c21
@05b2 3d428460
@05b3 3d038f04
@05b4 3cf207fd
@05b5 bc86e8eb
@05b6 3da5d553
@05b7 ba375e8e
@05b8 bd4e6c72
@05b9 3d075142
@05ba bd2e0fdf
@05bb 3d30c62b
@05bc bb5e197d
@05bd 3da1feef
@05be 3d3b4d9f
@05bf 3d9df52c
@05c0 3ca6f099
@05c1 bcd74316
@05c2 3d01ecc9
@05c3 bda5bdb0
@05c4 3d295df6
@05c5 bda08b6b
@05c6 3d20c7b7
@05c7 3c6161fc
@05c8 bda4aa5c
@05c9 3d9e934b
@05ca 3d96fe18
@05cb bd4a4c17
@05cc bb52e11a
@05cd 3d83d66e
@05ce bd5805b7
@05cf bd90b375
@05d0 bd81a306
@05d1 bd080482
@05d2 3ca8bd6f
@05d3 bda4b903
@05d4 3ba3f35b
@05d5 3d3f9d18
@05d6 3d99240a
@05d7 3cbeea3b
@05d8 3d31f4ea
@05d9 3afe2b92
@05da bd1a1bc6
@05db 3d9e6d24
@05dc 3d8afd47
@05dd bd78600d
@05de 3bcb7f67
@05df 3d8ede15
@05e0 3acf6272
@05e1 3d47fd56
@05e2 bc063cfe
@05e3 3dc247d5
@05e4 3bf14c12
@05e5 bd7eb420
@05e6 3bcfc230
@05e7 3b1e294f
@05e8 bcea27c6
@05e9 3c721d12
@05ea 3dbd9a6c
@05eb bcc119bc
@05ec bd3bbcd8
@05ed bbc3d26e
@05ee bd938046
@05ef bd3a1e14
@05f0 bd9c3899
@05f1 bba4117e
@05f2 bd9ed9db
@05f3 3d7601f0
@05f4 3ccdedfd
@05f5 bc87ab7d
@05f6 3d1d9d7b
@05f7 3d7459d7
@05f8 bc9c7a74
@05f9 bd4b2deb
@05fa 3c139849
@05fb bd857848
@05fc 3d92db70
@05fd bd9e8071
@05fe bbb275d2
@05ff bd2f2b2e
@0600 3dc95f04
@0601 bc0a3d01
@0602 bd0bdce9
@0603 3da02812
@0604 bd3108e3
@0605 3ddefd3e
@0606 3ded3b5f
@0607 3d2ef59a
@0608 bd654668
@0609 3da35055
@060a 3d7c7bf6
@060b 3c87e70d
@060c 3bc775c2
@060d 3d9e0bc1
@060e 3cd677d1
@060f bda80420
@0610 bdb95022
@0611 bdbf6204
@0612 3c59de73
@0613 3cbf6eba
@0614 bd4bb54e
@0615 bceb144c
@0616 3d830d10
@0617 bd9b9c82
@0618 3d8b5a3a
@0619 3dd344d3
@061a 3e06c13a
@061b 3daabeff
@061c bce499c4
@061d bc5c9a22
@061e 3df57222
@061f 3c094041
@0620 bc114032
@0621 3c8210d7
@0622 bd703ea9
@0623 3d49108f
@0624 bd04c1ef
@0625 bb4d812c
@0626 3da15f9e
@0627 3d66b163
@0628 bd4948df
@0629 bcb850cb
@062a 3c3bbd6e
@062b bcb6c07c
@062c 3bf1d448
@062d 3c8b3e64
@062e 3cb837d1
@062f 3da89a23
@0630 bd63fe9f
@0631 bd84533e
@0632 3d372b77
@0633 bd80c49c
@0634 3d4519a9
@0635 bcaccc52
@0636 bc0f8bb5
@0637 bcf49716
@0638 bd4b686f
@0639 3d97bd39
@063a 3d43346f
@063b bd22c395
@063c 3d7aee23
@063d bd0df56d
@063e 3d72b07b
@063f 3ccc8e07
@0640 bd9a6a99
@0641 bd4d0065
@0642 3d4d1257
@0643 3da47ab8
@0644 bcf6760d
@0645 ba57c2dc
@0646 3b47067d
@0647 bd29ce88
@0648 3d2a3166
@0649 bc12c909
@064a bd25677c
@064b 3c67f7d7
@064c bd874237
@064d 3c95aa00
@064e 3d218ad0
@064f bd8da3a9
@0650 3ca2b9cd
@0651 bcd06f89
@0652 3d305249
@0653 3daa0eb9
@0654 3d1a8a5d
@0655 bd7ed619
@0656 3dbc385c
@0657 bcb1afb3
@0658 bd6b42c4
@0659 3da2f63c
@065a bdafb960
@065b bc83dae9
@065c 3c3aeec6
@065d bdb497ff
@065e 3afaae59
@065f bd65db94
@0660 bcdb38b2
@0661 3d851725
@0662 3d20a989
@0663 3d547318
@0664 3dc07409
@0665 3d93de9c
@0666 3d8a1fe3
@0667 3df7f8b8
@0668 bd6a0678
@0669 3da1fc5c
@066a bcd514d7
@066b bccb4efe
@066c 3dddfa7d
@066d bd4ab278
@066e bc907cd9
@066f bdaa9a74
@0670 bd524672
@0671 bd91909f
@0672 3d6d0599
@0673 3d89d5b2
@0674 3e0bb69e
@0675 bcd19b50
@0676 3dc5845f
@0677 3d9f7890
@0678 3d318e2d
@0679 3c03bd26
@067a 3d78fb2a
@067b 3d095b00
@067c 3d7fe18f
@067d 3db82722
@067e 3d0b1963
@067f 3c2779e1
@0680 3bf02177
@0681 3d650602
@0682 bcf54996
@0683 bd71d33e
@0684 3c992d53
@0685 bd839a0d
@0686 bd09b2e5
@0687 3c7b4914
@0688 bdd1e89a
@0689 bceb2252
@068a 3c8c5063
@068b bdc77d5b
@068c bd1973b4
@068d bd2f6613
@068e bd11f33e
@068f bcdd27d4
@0690 3cab2d92
@0691 3e0d8cb5
@0692 3dba7db0
@0693 3ddaee80
@0694 bc0b9c78
@0695 3dfb6227
@0696 3e4c770f
@0697 3e6414b5
@0698 3e277663
@0699 3e13dbc6
@069a 3e23c1a1
@069b 3de93090
@069c 3e59a226
@069d 3de07cb4
@069e 3df90ee0
@069f 3db69755
@06a0 3e12d261
@06a1 3ded81b2
@06a2 3cb0442b
@06a3 bcd762a0
@06a4 3d4bd331
@06a5 3d633db9
@06a6 bc6dcf5c
@06a7 3d0e0bdc
@06a8 bd0b9d02
@06a9 3e0d996f
@06aa 3e309f3d
@06ab 3e812848
@06ac 3e821726
@06ad 3dfab2ac
@06ae 3ddf5239
@06af 3e55b44f
@06b0 3eafdf93
@06b1 3e98bc12
@06b2 3e4f65c0
@06b3 3e0e2253
@06b4 3de3c321
@06b5 3e7f471a
@06b6 3e696a55
@06b7 3de898cc
@06b8 3c7f1676
@06b9 3dd739c3
@06ba 3dd0dd25
@06bb bd110669
@06bc bb7b4ddd
@06bd bc9865c6
@06be bd787674
@06bf bda50319
@06c0 bd0aba03
@06c1 bd4730ff
@06c2 3c497e44
@06c3 bc567cf5
@06c4 bd3cca51
@06c5 bcaa357e
@06c6 3d0cd4b1
@06c7 bc85f6b9
@06c8 3dc78ddf
@06c9 3d45ada3
@06ca bb931347
@06cb 3cbe3f8c
@06cc 3c7dd5b5
@06cd 3c71cb60
@06ce 3bc854bd
@06cf 3cfa9ae4
@06d0 3babb31f
@06d1 3b079b8c
@06d2 bd1189b5
@06d3 3d96a1b7
@06d4 bca9e4f2
@06d5 3d25cb40
@06d6 3d8a40e5
@06d7 bcfa1df7
@06d8 bd49b8de
@06d9 bdde3a45
@06da bd0bdb06
@06db ba2ac15f
@06dc bd7868ad
@06dd 3c02f3ef
@06de bdbf97ca
@06df bdc2abf1
@06e0 bd39240e
@06e1 3cfe55a3
@06e2 3daff7e8
@06e3 3dc4412b
@06e4 3d03b4a7
@06e5 3d2a899b
@06e6 3c81e4bf
@06e7 3b953a75
@06e8 3df9af39
@06e9 3d44e686
@06ea 37bc88c4
@06eb 3d876c60
@06ec bc043f8d
@06ed 3d82b93d
@06ee 3d2fa733
@06ef 3d86a76f
@06f0 3d16b9ce
@06f1 3dd8196d
@06f2 3e0cc2bf
@06f3 bbeb1e85
@06f4 3e2b5942
@06f5 3e8afffb
@06f6 3eaab878
@06f7 3eb0e1d4
@06f8 3da6d19b
@06f9 3d6b72b8
@06fa 3e91144b
@06fb 3ee245af
@06fc 3ec44425
@06fd 3e3adc48
@06fe 3e1d39ae
@06ff 3e21bed0
@0700 3e727292
@0701 3e114751
@0702 3bc10aed
@0703 bb92b707
@0704 3dceaada
@0705 3d210b99
@0706 3c63719b
@0707 bdc9f570
@0708 3daa95f5
@0709 bd09209b
@070a 3d6ab5ce
@070b bc24b0b8
@070c 3d0bb4eb
@070d 3dc07c06
@070e 3d69288a
@070f bc178914
@0710 bd9be305
@0711 bbcf158f
@0712 bc462a45
@0713 bd04d7e1
@0714 3d742cc4
@0715 3b98fb96
@0716 3cb4f5f0
@0717 3d7fc9da
@0718 3d947369
@0719 bd4e6a85
@071a bd64b813
@071b bd90ae3f
@071c 3d97904f
@071d b9fcc12c
@071e bc3a59c2
@071f 3c619193
@0720 3d2d8e42
@0721 bd9e5815
@0722 3c8c4009
@0723 bd04576e
@0724 3dc91275
@0725 bcc892cd
@0726 bce6520f
@0727 3dd56098
@0728 3e1a2f3a
@0729 3dd684d3
@072a 3dc63bc7
@072b 3d00924a
@072c 3db4f0c7
@072d 3d5209c7
@072e bd32e910
@072f bcd45d40
@0730 bd41327a
@0731 bd8eff9a
@0732 3d657c35
@0733 bd4f4533
@0734 3c8f30ca
@0735 3d8c958c
@0736 bdb04c57
@0737 bd6d6e3f
@0738 bbf5bfae
@0739 bc1aea47
@073a 3d8b60d7
@073b 3db74e1e
@073c 3e07e899
@073d 3e1cd6d4
@073e 3d11f3c1
@073f 3dce47f0
@0740 3dc47861
@0741 3e373edd
@0742 3e324d7d
@0743 3c22b811
@0744 3d497298
@0745 bc8b93fc
@0746 3d55a90f
@0747 3cb13b5e
@0748 bd104ad2
@0749 3cae5878
@074a bc74b49b
@074b bd266211
@074c bd2654c6
@074d 3d9a0682
@074e bba0072d
@074f 3c996fea
@0750 bdc1a22d
@0751 3ce4fbae
@0752 3c0a696d
@0753 bd72ac1a
@0754 bd6afb51
@0755 bd83b9cb
@0756 bd773a2c
@0757 bd6ace62
@0758 bd77bdd7
@0759 bd3309dc
@075a 3c9a884c
@075b bcf13aac
@075c 3d062d1b
@075d bd899b1e
@075e bd05fc66
@075f 3d12a179
@0760 bc5e9eb5
@0761 bb5eea7a
@0762 bc9c7eba
@0763 bd9cc2fe
@0764 3c34c19d
@0765 3d851a7f
@0766 bd2e9e47
@0767 3cacb0c6
@0768 bd4bb5f9
@0769 3d9dabd6
@076a bd8e3724
@076b bd98c75f
@076c bd923cf5
@076d bd6a3330
@076e 3cd7a8de
@076f bc414ec2
@0770 bc52c309
@0771 bcc98c8d
@0772 bd8cd2bd
@0773 bcbfbb5a
@0774 3d3bc099
@0775 3ce2da35
@0776 3d85a7c7
@0777 bd3b6cec
@0778 3d836b0c
@0779 bd0f02bd
@077a bd121410
@077b 3c10f2bd
@077c 3cdbb4a8
@077d 3d8a5d83
@077e bd1ddb1c
@077f ba477ac4
@0780 3ce28c04
@0781 bcbee64c
@0782 bd82610b
@0783 3c50bab1
@0784 bd6a3604
@0785 bbaa0d50
@0786 3dbadd51
@0787 3e0c5614
@0788 3d1aa5a1
@0789 3e0bb2ad
@078a bcce7c60
@078b 3e1cb669
@078c 3daef910
@078d 3cf3f945
@078e 3dd65107
@078f bbb4d315
@0790 3c5c503a
@0791 3d8b3a0f
@0792 bd5d93f0
@0793 3d623694
@0794 3a8e180a
@0795 3c6419b3
@0796 bdf7cd00
@0797 b86e1966
@0798 3d9c1433
@0799 bae89cb3
@079a 3cc88048
@079b bdde728b
@079c 3bd8a4b7
@079d 3dc7d4c9
@079e 3cf9c510
@079f bcceccb6
@07a0 3d82b1ed
@07a1 bb7a0648
@07a2 3d546c94
@07a3 bbd26b99
@07a4 3cdbe0a1
@07a5 bd804734
@07a6 bc436dfa
@07a7 3d4194b9
@07a8 3c093053
@07a9 bc802eef
@07aa 3d5c6932
@07ab bad40cc2
@07ac bce45a4b
@07ad 3b42985f
@07ae 3d922c2f
@07af bca0832f
@07b0 3d7ebb17
@07b1 3c05d932
@07b2 3da295cb
@07b3 bcca214b
@07b4 3d3995e5
@07b5 3d8ec2f6
@07b6 3bf17533
@07b7 3d924b75
@07b8 3d578cfe
@07b9 bd8eca6a
@07ba bd8dd555
@07bb bcf1d4b0
@07bc bc2a78fe
@07bd bd9288f6
@07be bd3697be
@07bf bcef4e59
@07c0 bd63fae5
@07c1 bd6f7cd5
@07c2 3c89ad92
@07c3 bdaa61e3
@07c4 bd8ba375
@07c5 bd97e64f
@07c6 bd0833a8
@07c7 3daafae3
@07c8 bd16c2d9
@07c9 3d3f48c3
@07ca bb38ca5b
@07cb 3cef42e8
@07cc 3d70c64d
@07cd bd47caaa
@07ce bd064ed0
@07cf 3c22dccb
@07d0 3d764dea
@07d1 3cee3a31
@07d2 3d8bde2c
@07d3 3d467c14
@07d4 3c59362e
@07d5 3db47f93
@07d6 3d4bc889
@07d7 bb6a5b58
@07d8 3d6d3486
@07d9 3d8347ec
@07da 3a9346b9
@07db 3cc5e2c8
@07dc bd5050fa
@07dd 3cf3b461
@07de 3cb984c7
@07df 3dbaca9e
@07e0 3d50df6a
@07e1 bc3492f2
@07e2 3db462b2
@07e3 3ae7ba65
@07e4 3dcfd5fe
@07e5 3dba3ee7
@07e6 3dfdfd88
@07e7 3cedff18
@07e8 bd9318e6
@07e9 3cfab70d
@07ea 3c2bcefd
@07eb bcc60afb
@07ec bc8d0906
@07ed bc15dcb2
@07ee bd5b0866
@07ef bd1e6011
@07f0 bd4dd352
@07f1 bcf27e8f
@07f2 3d75784f
@07f3 bc2deb9b
@07f4 3d971dfe
@07f5 bd2cee67
@07f6 3b86e2ce
@07f7 3d326666
@07f8 3c0be87e
@07f9 bd78fbc6
@07fa bb76fa18
@07fb ba810627
@07fc 3d180069
@07fd bd2b8941
@07fe bd875b8b
@07ff 3b542b4d
@0800 3d84aa17
@0801 3d13b839
@0802 3d245f5a
@0803 bd9d3d68
@0804 bd90549a
@0805 3d8bdaac
@0806 3d9bd6cc
@0807 bd86f70d
@0808 bd90a966
@0809 3d5c4578
@080a ba0e22d4
@080b bd36c477
@080c bd99a644
@080d 3d50de3f
@080e 3a971dff
@080f bd290d4c
@0810 bca9dcbe
@0811 bd9cb3d9
@0812 bd933dee
@0813 bd523f03
@0814 bd768d08
@0815 bce93f4b
@0816 3da1606b
@0817 bd68a4da
@0818 bda3bf72
@0819 bd93c7cb
@081a bdad2325
@081b 3d0b6a01
@081c 3d772836
@081d 3c446dc9
@081e bd8d12b1
@081f bdc60325
@0820 bc7e3dc5
@0821 3d69840d
@0822 bcc97650
@0823 bcda155e
@0824 3a4222ea
@0825 bc98241d
@0826 3da3c191
@0827 3db6bc18
@0828 3cc44f55
@0829 bd751849
@082a bb982580
@082b 3df9a794
@082c bd1045ae
@082d bd195bb8
@082e bd640101
@082f 3d56dda0
@0830 3e0f3829
@0831 3d8b77a7
@0832 3d0f8ab3
@0833 3b50a90b
@0834 bce5674e
@0835 3dad7cbb
@0836 3d78b2fa
@0837 bd2fcfc5
@0838 bd45a386
@0839 3d9eb45a
@083a 3c28060d
@083b bd631957
@083c bd916134
@083d 3d19d5d1
@083e 3db64464
@083f 3d0641c9
@0840 bd8fac8d
@0841 3bdde3b6
@0842 3d454c6c
@0843 bd9263c0
@0844 bce6b1d8
@0845 3d3abd62
@0846 bd31757e
@0847 3d8e7076
@0848 bd8a6109
@0849 bd0a76fd
@084a 3d6e5a69
@084b 3d14fecd
@084c bd82afaf
@084d 3c303512
@084e bd3fe629
@084f bd5f9f98
@0850 3c65684c
@0851 3cbb00bd
@0852 bc336187
@0853 3db09001
@0854 3e0c7137
@0855 3db2e31c
@0856 3bc68de2
@0857 3d0c1cca
@0858 3e06ab71
@0859 3dcf1987
@085a 3d388c19
@085b 3d87b11d
@085c 3d74a1e2
@085d 3db7102e
@085e 3d2490cd
@085f bd5cfc3f
@0860 3dba7717
@0861 bd900f7d
@0862 bd0f2cd9
@0863 bdf92d6a
@0864 bd66bf52
@0865 bd882d3f
@0866 bcb696bf
@0867 3a13d693
@0868 bc14e0cf
@0869 3cb28867
@086a 3ce41dbd
@086b 3dac0491
@086c 3cc5b4a4
@086d 3e31b4e2
@086e 3b303ab7
@086f 3c1242c6
@0870 3e1dc971
@0871 3e08d567
@0872 3deacefc
@0873 3e00ac38
@0874 3d242fe4
@0875 3dbc5e3c
@0876 bc9ffd1c
@0877 3d0673f6
@0878 3d5be7fb
@0879 bca83369
@087a 3cd42a02
@087b bdb77b2f
@087c 3b359e9f
@087d bd298ddc
@087e 3c7f012f
@087f bd674881
@0880 bd78f0e8
@0881 3cd44d85
@0882 3d8c5d2f
@0883 bd801aea
@0884 3d049232
@0885 3b5ff493
@0886 3d930714
@0887 bcf64017
@0888 bd7f50e1
@0889 3db5fa7b
@088a 3db24257
@088b 3d2e5af0
@088c 3d8e293f
@088d 3ca12e4e
@088e 3d5a56a7
@088f bd85f14b
@0890 3b9c410a
@0891 bd99fbfd
@0892 3d756a7b
@0893 bd94f25c
@0894 bcf68219
@0895 bd94f8d1
@0896 3ca5d53c
@0897 bd7deb6f
@0898 bd6bb0a3
@0899 bcd7aceb
@089a 3d1cfa8a
@089b bd9ebd99
@089c bc946c7a
@089d 3c5608cd
@089e bd528f7f
@089f bd396235
@08a0 3d76ac25
@08a1 bc2008fe
@08a2 bd7c4197
@08a3 3ce51d9d
@08a4 bc4b0d4c
@08a5 3d949dc7
@08a6 bc07fe7a
@08a7 bd737621
@08a8 3dbd549c
@08a9 bd28cd64
@08aa bd57bc5d
@08ab bcf71907
@08ac bb68de2f
@08ad bda21ee0
@08ae bc276989
@08af b712b538
@08b0 3d898f34
@08b1 3b20ed01
@08b2 bb87dc82
@08b3 3e166805
@08b4 bcb20bb4
@08b5 3c7e50a0
@08b6 3e1e4f11
@08b7 3e35fbf7
@08b8 3e368113
@08b9 3d8d982f
@08ba bce5844c
@08bb 3e0446c0
@08bc 3e236075
@08bd ba942497
@08be 38eb9c0a
@08bf 3da07828
@08c0 3c0dbf33
@08c1 bdb4992c
@08c2 bc86b371
@08c3 bcafa57f
@08c4 bd238042
@08c5 3d2a3ae4
@08c6 be04067d
@08c7 bdcd8ebd
@08c8 bdd4067e
@08c9 bd1de6f7
@08ca 3b8d3342
@08cb bd9a0e49
@08cc bcc0c061
@08cd 3d1c361a
@08ce 3d9a4326
@08cf bd645d29
@08d0 3db809a9
@08d1 3da7bff1
@08d2 3c829812
@08d3 bd43d372
@08d4 3c8d8180
@08d5 3da2245f
@08d6 3d927452
@08d7 3d99f160
@08d8 3d8d0950
@08d9 bda51047
@08da bc1fd1e6
@08db bd09cded
@08dc bc9a3c16
@08dd bd08091e
@08de 3d7b5328
@08df 3bb8c9f9
@08e0 3d73105d
@08e1 bd213928
@08e2 3c00f0d0
@08e3 bda0b8d4
@08e4 bd4f629a
@08e5 3af34589
@08e6 bd0e8c47
@08e7 3cb8e449
@08e8 3da2bacb
@08e9 3da269a9
@08ea bca3119a
@08eb bccb7ece
@08ec bd488f74
@08ed 3da399e9
@08ee 3d2fc9bc
@08ef bd7b979d
@08f0 bd9836e4
@08f1 3d490b8d
@08f2 3d7466be
@08f3 bcff7f2d
@08f4 3c9cb3d9
@08f5 bdb40af9
@08f6 bdada831
@08f7 bcc9f856
@08f8 3da381de
@08f9 bc320b74
@08fa bd6cc4be
@08fb bd8ea148
@08fc 3bc1641f
@08fd bda861e9
@08fe bd14532e
@08ff 3d9139a6
@0900 3d99a57b
@0901 3dd4267a
@0902 3d081350
@0903 3d405ef1
@0904 3d90d1b2
@0905 3c75b10f
@0906 3da0204a
@0907 bcdb11e5
@0908 3daba286
@0909 bd1c13ed
@090a 3c447244
@090b 3de083e4
@090c 3da68e8b
@090d bd8f05c3
@090e 3d079cea
@090f bdbf2157
@0910 3dc11b43
@0911 3c50c4da
@0912 3ce3f650
@0913 bdacdf89
@0914 bc379a6e
@0915 bcc39da6
@0916 3d60b88d
@0917 bd5ab6f8
@0918 3d6a3e23
@0919 3909e092
@091a bd83d8e1
@091b bbf23247
@091c 3daab9f9
@091d bcdc8756
@091e 3b3354c7
@091f 3903d45f
@0920 3d833460
@0921 3d787262
@0922 3c3a5fd8
@0923 bc0f9f1f
@0924 3da96179
@0925 bd03ff18
@0926 3d62d6fe
@0927 bd0aba7a
@0928 3cc1f0ed
@0929 3d027f3b
@092a bd4987bd
@092b 3d239c55
@092c bd128847
@092d 3d6c539f
@092e 3d2c7aa9
@092f 3d1c99fd
@0930 3cbae12e
@0931 bbfcf0a2
@0932 bd460d8a
@0933 bd7751ad
@0934 3d2f142d
@0935 3cf5707d
@0936 3d35664e
@0937 3ca18f2b
@0938 3d921fcb
@0939 3d65ca3e
@093a 3cc328bb
@093b bd6e416a
@093c 3c740020
@093d 3d6616aa
@093e 3d0ba614
@093f bd5eec1e
@0940 bc6e840d
@0941 3d86b34b
@0942 3cfcea3f
@0943 3cc7ec7a
@0944 bd9d9b90
@0945 bd84db71
@0946 bd6282b3
@0947 3d5d0fab
@0948 bd2c47f2
@0949 3c2acbbb
@094a 3d26715c
@094b 3d7e3119
@094c 3da714c6
@094d 3db5c347
@094e 3ca9a2a0
@094f bd8c2093
@0950 bd9c0683
@0951 3d09b3bf
@0952 3d327e40
@0953 3d8c5289
@0954 3d2c06df
@0955 3d0d8245
@0956 3d684b81
@0957 3d69b108
@0958 bd98cc98
@0959 bd82156f
@095a bd8bb189
@095b bd1c0d47
@095c bd721b7f
@095d 3d4c4a1c
@095e 3ca61324
@095f 3bb2bb48
@0960 bcbfe575
@0961 bca9823e
@0962 3d366822
@0963 bd1ac047
@0964 bcff1697
@0965 bd00c988
@0966 3dedba1d
@0967 bc810c3b
@0968 3de093cc
@0969 3d7539aa
@096a bca90a99
@096b 3daa93b9
@096c bd839359
@096d bd9a4c56
@096e 3cd5c3c2
@096f bd962844
@0970 bccd94c8
@0971 3d34c4ba
@0972 bd62e1ea
@0973 bcf2b08a
@0974 bd924a74
@0975 3c897308
@0976 bd1abb58
@0977 3c60599d
@0978 3c0a2a3a
@0979 bd5f05d1
@097a 3c49ea9d
@097b 3c3f289e
@097c bd907429
@097d baa4cd85
@097e 3d8ebd90
@097f 3c948931
@0980 3d3d13b6
@0981 3d9a6e98
@0982 bd1ffa35
@0983 3c53176b
@0984 3d8a625f
@0985 3e24646e
@0986 3e0c00b3
@0987 bd0cedb8
@0988 3dd435b5
@0989 3d8d3287
@098a 3d7535de
@098b 3dd85124
@098c bd8504a0
@098d bd84ba54
@098e 3d889519
@098f 3cdad402
@0990 bdb87fea
@0991 bdaff5ef
@0992 bd47e33c
@0993 3dc93f13
@0994 3d434a18
@0995 3cc089ea
@0996 3d178824
@0997 3e11024f
@0998 3e18ce3c
@0999 3d5fd9a7
@099a 3db182b3
@099b 3d51faa4
@099c 3e379526
@099d 3e2abdd8
@099e 3e4c1d80
@099f 3e241f4f
@09a0 3cfa945e
@09a1 3e0617ca
@09a2 3da0b2e8
@09a3 3d6c424c
@09a4 bd52520d
@09a5 3da971a1
@09a6 bd1a6fdd
@09a7 3d2a6ab4
@09a8 3cccff25
@09a9 bdcc6d8b
@09aa 3d487236
@09ab 3d23d820
@09ac bda509c3
@09ad bd6b6949
@09ae bcc30fc7
@09af 3d04ffe4
@09b0 3d77bc65
@09b1 bd27f11b
@09b2 3d926fb6
@09b3 3d6680d7
@09b4 bc8709d1
@09b5 3d04ba6c
@09b6 3d8c5d31
@09b7 3d88bb56
@09b8 3d25dc2a
@09b9 3c5d3f17
@09ba 3d93dec5
@09bb bd721a20
@09bc bd7afe57
@09bd bd877fe6
@09be bd5be4c1
@09bf bcb78df4
@09c0 bd006876
@09c1 bd804954
@09c2 3d999982
@09c3 bd602732
@09c4 bd00f474
@09c5 bd660633
@09c6 bc6232d3
@09c7 bd5f802d
@09c8 3d1b7bef
@09c9 bcb1a407
@09ca 3c88f811
@09cb bdac53d2
@09cc 3bcfc8fd
@09cd bcaa0850
@09ce bd6a2216
@09cf bd756f96
@09d0 3d78639c
@09d1 3dc2956b
@09d2 bd0aa9f1
@09d3 3daf321d
@09d4 bcef04b1
@09d5 3d7239e9
@09d6 3d3c6cdf
@09d7 3d393f44
@09d8 3c94a425
@09d9 bbd54bdd
@09da 3d1385b5
@09db bd2eeca0
@09dc bbaa99d2
@09dd 3d6569e1
@09de 3da2482f
@09df 3dffc432
@09e0 bd061317
@09e1 bafa3141
@09e2 3e11506a
@09e3 3e337b21
@09e4 3e058446
@09e5 3d2ae7e1
@09e6 3d8aaa84
@09e7 3dd41a5b
@09e8 3e392393
@09e9 3e620f3b
@09ea 3dc304bc
@09eb 3c4c6439
@09ec 3dffab9c
@09ed 3c34f26b
@09ee bc198737
@09ef bc031150
@09f0 bba5dd94
@09f1 3c9c4786
@09f2 3caf6cd7
@09f3 bd3bd1f4
@09f4 bdde5ab9
@09f5 baaab065
@09f6 bcf7c7e0
@09f7 3d2ab8af
@09f8 bc366747
@09f9 bceb1fc6
@09fa 3cf8bdc1
@09fb bc88ff76
@09fc 3ce607e9
@09fd bd04307f
@09fe bcf6024d
@09ff bcbf31b5
@0a00 bb68d6bd
@0a01 3cf07ec0
@0a02 3cdbd619
@0a03 3cfe1d03
@0a04 3cf7c63e
@0a05 3c14d807
@0a06 bc8ebd28
@0a07 3cb10d98
@0a08 bc94e856
@0a09 3d28604e
@0a0a 3c6fd027
@0a0b bd46d67a
@0a0c 3c423faf
@0a0d 3d45fa43
@0a0e 3c2c2b15
@0a0f 3cbcd848
@0a10 bd2eac12
@0a11 3c9129dd
@0a12 3c220f92
@0a13 bc5597bb
@0a14 bcac217e
@0a15 bd4e2dd7
@0a16 bd4d7285
@0a17 bbab21a5
@0a18 3cf86354
@0a19 bd314915
@0a1a 3c1b6d6a
@0a1b 3c4beaa0
@0a1c 3cce72ee
@0a1d 3cd6741f
@0a1e 3c16c2e1
@0a1f 3c5533c3
@0a20 bce42e84
@0a21 3c4d510c
@0a22 3bb3cd6d
@0a23 3cdcf34f
@0a24 3ccca68f
@0a25 3be98702
@0a26 bc7f4a95
@0a27 3c0a121d
@0a28 3b41fc73
@0a29 3d46c10a
@0a2a 3cf55141
@0a2b bd19a034
@0a2c bd4c75e4
@0a2d 3d3b99c0
@0a2e 3c14df10
@0a2f 3d251653
@0a30 3d1dea2d
@0a31 bc92661d
@0a32 3d165cad
@0a33 3d11a41f
@0a34 3d0b5c1b
@0a35 bba40af1
@0a36 3cf80acc
@0a37 3ce6e5ca
@0a38 3d3dafb6
@0a39 bcc98451
@0a3a bd0958f7
@0a3b 3d3598c9
@0a3c bc66ae8a
@0a3d bc83c992
@0a3e 3cf585da
@0a3f 3cef5abf
@0a40 3d0f1eaa
@0a41 3c8de1b3
@0a42 3d3ee31c
@0a43 3d4bc02d
@0a44 bca0d1d1
@0a45 3c7a10b6
@0a46 bd0fe159
@0a47 3d0a9ca3
@0a48 3d3b07e9
@0a49 380ab823
@0a4a 3cc2d62b
@0a4b 3d058f6a
@0a4c bcb7f8af
@0a4d bd1883d9
@0a4e 3d2b1e3d
@0a4f 3ced33b3
@0a50 bd2aa5dd
@0a51 bd20bb71
@0a52 3c731d76
@0a53 bce08c14
@0a54 bcfc176b
@0a55 3cf4ac80
@0a56 bcaee5fe
@0a57 3cdf5b84
@0a58 3b09ebe2
@0a59 bb9252a0
@0a5a bcfe1187
@0a5b bd15d5b9
@0a5c bb92c0f1
@0a5d bcc648a2
@0a5e 3c2e34d5
@0a5f 3c7d1a42
@0a60 bd471594
@0a61 3bd4e31d
@0a62 3d288bb1
@0a63 3c42dbbc
@0a64 3c28b0e5
@0a65 3c7c7fc4
@0a66 3ce1e2bd
@0a67 bcc93a5c
@0a68 bc627526
@0a69 3d39e4c4
@0a6a 3d2c0424
@0a6b bc5e448d
@0a6c babe9bc8
@0a6d bd200020
@0a6e bc2b65ea
@0a6f bce35c47
@0a70 3bdc8d5f
@0a71 3c3bdf5d
@0a72 3d34b24c
@0a73 bd1eac57
@0a74 bc6bf9ea
@0a75 3d471e50
@0a76 bd3b24b9
@0a77 bd44222c
@0a78 bd255ee1
@0a79 3c83325a
@0a7a 3d4356f3
@0a7b bd032e7e
@0a7c bd004fc0
@0a7d bcf09af9
@0a7e bd22f441
@0a7f bd1ea514
@0a80 3d16c12d
@0a81 3d03c125
@0a82 bbfea65c
@0a83 3cdc2736
@0a84 3c3028d9
@0a85 bc57fc25
@0a86 bc22e4f1
@0a87 bd388c10
@0a88 3c723f29
@0a89 bcb1a814
@0a8a bbbc18d2
@0a8b bd0b90d4
@0a8c bd0f600a
@0a8d 3b572dcb
@0a8e 3c5c06c8
@0a8f 3cc4085f
@0a90 3c88e0fa
@0a91 3cace7de
@0a92 3c99c367
@0a93 bd1708aa
@0a94 3cb4d2cf
@0a95 3c002909
@0a96 3d4957e8
@0a97 3d3d3941
@0a98 bd2e6065
@0a99 3c3d5716
@0a9a 3cb73f8e
@0a9b bd2dfda1
@0a9c 3d0aad46
@0a9d bd193ee8
@0a9e 3bb001b2
@0a9f bd0de87c
@0aa0 3ce9abe6
@0aa1 bbc9fb4c
@0aa2 bc84a6de
@0aa3 bd2d2c49
@0aa4 bcb43086
@0aa5 3b18dbf8
@0aa6 bc8e0c28
@0aa7 bcfe216f
@0aa8 3c3906b6
@0aa9 bd3ab920
@0aaa bc9ff15a
@0aab bcdbaf55
@0aac 3d377b9b
@0aad bc71d7a8
@0aae 3d1c7ce2
@0aaf 3d0de38d
@0ab0 bd16e6ed
@0ab1 bd3f4171
@0ab2 3d27add4
@0ab3 3b8622ae
@0ab4 bd3acf90
@0ab5 3d1b9117
@0ab6 bb613218
@0ab7 3b9dbc9f
@0ab8 3d30aca6
@0ab9 3ce419f8
@0aba 3d494edd
@0abb bcd7847f
@0abc bd273317
@0abd 3d2fe584
@0abe bcb18a3c
@0abf 3cb027a3
@0ac0 bd486c49
@0ac1 3cdedd88
@0ac2 3c8a0dc7
@0ac3 bcf60924
@0ac4 3cb8c42d
@0ac5 bc145c0a
@0ac6 3b28bb7c
@0ac7 bc2699d8
@0ac8 3bd0a3d1
@0ac9 3d3426fa
@0aca 3cbe64fb
@0acb bbd84a68
@0acc 3c207dd9
@0acd 3d16e7e6
@0ace bd3e1a36
@0acf 3c2ed407
@0ad0 3d0ecbf0
@0ad1 bc42aff3
@0ad2 3c955317
@0ad3 3d0bb06e
@0ad4 3ca8dc0c
@0ad5 bb8c577e
@0ad6 bcd5961e
@0ad7 3afde741
@0ad8 3c76c66e
@0ad9 3b1696dd
@0ada 3d040a36
@0adb bd37c591
@0adc 3c671c0c
@0add 3c9b845b
@0ade 3c0ca92c
@0adf bd23edbb
@0ae0 bcb09b2c
@0ae1 bd32cce7
@0ae2 bd4a3f16
@0ae3 3d1711dd
@0ae4 bb3f59df
@0ae5 3cc594ec
@0ae6 bc933f9e
@0ae7 3b59cae1
@0ae8 baad69cb
@0ae9 bc4fa34d
@0aea bc8a8ee2
@0aeb bd4df3cb
@0aec 3d2ccdb0
@0aed 3c002247
@0aee bc39fa64
@0aef 3d45c868
@0af0 3d07150d
@0af1 3b699289
@0af2 bd00780e
@0af3 3cb4b156
@0af4 3beb0627
@0af5 bcc5c8a5
@0af6 bbb9742c
@0af7 bd166ad6
@0af8 3cb8d836
@0af9 bd3f837c
@0afa bcabdccf
@0afb 3d0cd5e5
@0afc 3c9b37a3
@0afd bcc0f3a1
@0afe 3d07eb1c
@0aff bcfaeb10
@0b00 bcaa7203
@0b01 3cac30db
@0b02 3cbd58b2
@0b03 bceeacc1
@0b04 bcdc41fb
@0b05 3d2e4ea3
@0b06 bd4f035c
@0b07 bc6881eb
@0b08 3be2bbbb
@0b09 3c8af551
@0b0a 3baa392a
@0b0b bc7950af
@0b0c 3cd30efa
@0b0d 3c3a90fb
@0b0e bc9cf1bf
@0b0f bc6c2657
@0b10 3ccbbff0
@0b11 bcd66a6d
@0b12 bd2ba6fe
@0b13 3d30c2a7
@0b14 3bc82655
@0b15 3d1536a8
@0b16 3b064f11
@0b17 bb08bb8e
@0b18 3d297c48
@0b19 3ca348b0
@0b1a b87227f7
@0b1b 3c5ff2a2
@0b1c bcfd4a3f
@0b1d bd1bc10f
@0b1e bc85c03b
@0b1f ba5c9692
@0b20 bb6ba834
@0b21 3ae37394
@0b22 bd12d537
@0b23 bc15c650
@0b24 3c3a86d0
@0b25 bbc4ceba
@0b26 bd46e839
@0b27 bd2a4f4f
@0b28 bc87a72a
@0b29 3b8678e6
@0b2a 3d109d3d
@0b2b 3c6b0f7a
@0b2c 3d0409ee
@0b2d 3d31678b
@0b2e bcefe0ec
@0b2f bc54f752
@0b30 3d33863f
@0b31 bb9a7852
@0b32 bc3d5b34
@0b33 bd3e164c
@0b34 3c6434a1
@0b35 bc9eb6e2
@0b36 3d3ca770
@0b37 3d24cfe9
@0b38 bc2dd6f0
@0b39 bc6afcaf
@0b3a 3d172810
@0b3b bd108dea
@0b3c 3d0387d8
@0b3d bca71cfe
@0b3e bc9fd55d
@0b3f bb8f9db9
@0b40 bd0ea50c
@0b41 bd4157ec
@0b42 bbc273e5
@0b43 bd24cb8e
@0b44 bd511fb2
@0b45 3d30bc92
@0b46 3d29d21f
@0b47 bd4396d7
@0b48 3b99c722
@0b49 bc7a1f39
@0b4a 3b6387ec
@0b4b bbfb7701
@0b4c 3cfd68af
@0b4d bd3268ae
@0b4e 3d3e479a
@0b4f bcb6e802
@0b50 bd42d6c3
@0b51 bbf3f99e
@0b52 3cb63bf1
@0b53 3c927286
@0b54 bd4b3843
@0b55 3af7439b
@0b56 bcbad166
@0b57 bbc27ed5
@0b58 bcab64fb
@0b59 bc3196b9
@0b5a bd3a75aa
@0b5b 3d1f8f11
@0b5c 3cf8e04d
@0b5d bd4d654b
@0b5e bd41de44
@0b5f 3b15de4a
@0b60 bd33480b
@0b61 3d07b368
@0b62 3d21213b
@0b63 3d2b088c
@0b64 3c39f752
@0b65 bc5656d5
@0b66 bd29cb16
@0b67 3cc6f0f0
@0b68 bc89d554
@0b69 bcb8f486
@0b6a bc4a2a5f
@0b6b bd4f606e
@0b6c bd0a44c4
@0b6d bc83b130
@0b6e 3d37c0d8
@0b6f 3c8a2056
@0b70 bca880d5
@0b71 3d378851
@0b72 3d40a87d
@0b73 3d15194a
@0b74 3b3170da
@0b75 bb671def
@0b76 bcb45124
@0b77 3cd23634
@0b78 bc819d61
@0b79 bbe4c0dd
@0b7a bceac6d9
@0b7b bcdda18d
@0b7c 3d086888
@0b7d 3a597bac
@0b7e bd28d3ee
@0b7f bc9acd45
@0b80 bcf4a023
@0b81 3ab388e7
@0b82 bce285c6
@0b83 3ca04aac
@0b84 bd055135
@0b85 3d11a278
@0b86 3d1ce905
@0b87 3c9d8516
@0b88 bd8948fa
@0b89 3b737ea9
@0b8a bcb1dfb7
@0b8b 3a8311d4
@0b8c bca3c797
@0b8d bc73a408
@0b8e bcfa8f6b
@0b8f 3c6999b7
@0b90 bd50a96b
@0b91 3c9c1e66
@0b92 3c3a3faa
@0b93 3d0b4775
@0b94 3c92f03a
@0b95 bcc9a544
@0b96 3c64ccce
@0b97 bd1d63e5
@0b98 bce7d66b
@0b99 3a935637
@0b9a bce4ad25
@0b9b 3aab4a3f
@0b9c bd2ad9c0
@0b9d bbbbf837
@0b9e 3ca48d42
@0b9f bcda5ef2
@0ba0 bd0a9d58
@0ba1 bcb581ef
@0ba2 3dce8b69
@0ba3 3c8f9923
@0ba4 bc7df945
@0ba5 3d5bf5d5
@0ba6 bd83a393
@0ba7 bc86398e
@0ba8 3d13dd0c
@0ba9 3cd4527c
@0baa bc6ec11a
@0bab 3cb41513
@0bac 3c5fbf24
@0bad 3c6631e6
@0bae bc5bc6e5
@0baf bd1194ae
@0bb0 3c3db3a0
@0bb1 3d705bae
@0bb2 bc030a8f
@0bb3 3ce83bd4
@0bb4 bcaa610a
@0bb5 bc0a35ac
@0bb6 bcfd7b8f
@0bb7 3cb4ee8c
@0bb8 bbae24ce
@0bb9 bcd5241d
@0bba bd582056
@0bbb 3b97e79c
@0bbc bc0a914d
@0bbd bb1b3f74
@0bbe bd3aaa67
@0bbf 3b19ec3f
@0bc0 bc36a45c
@0bc1 bd101494
@0bc2 bd1887a9
@0bc3 bd2d2144
@0bc4 b9b4c956
@0bc5 bc48ef35
@0bc6 bc8dd5d8
@0bc7 bd2d9a45
@0bc8 bcb08f46
@0bc9 bd1582e0
@0bca bc5f46c5
@0bcb bcadf597
@0bcc bc097b8d
@0bcd 3a777fd9
@0bce bcf72219
@0bcf bc1b6587
@0bd0 3cc1ec94
@0bd1 bd2dc66a
@0bd2 bd42fbb3
@0bd3 bb739847
@0bd4 bd33c448
@0bd5 3cd4cbed
@0bd6 3d045930
@0bd7 bc104372
@0bd8 baaa30af
@0bd9 bd5dfc29
@0bda bc00567d
@0bdb bcf5c71a
@0bdc bb49efe9
@0bdd bc29e3b5
@0bde bd21ceec
@0bdf 39fd3d80
@0be0 3d032444
@0be1 bc95aa12
@0be2 3b23c506
@0be3 3d17b4fe
@0be4 3cf1d532
@0be5 bd0774c4
@0be6 3cbc0f87
@0be7 bc8ba80c
@0be8 3cb03c82
@0be9 bca06280
@0bea 3bb0bf2f
@0beb 3cab4665
@0bec 3d7a86b7
@0bed bcaca996
@0bee bd2e49b1
@0bef bc0676f5
@0bf0 3cee7ecd
@0bf1 bc90bc4c
@0bf2 3d281a4a
@0bf3 3c0bc801
@0bf4 3c2d9733
@0bf5 3cb388b3
@0bf6 3ca3b922
@0bf7 bccd142b
@0bf8 3c932759
@0bf9 3d5f7bf0
@0bfa 3d344af6
@0bfb bcf0f0c7
@0bfc bbc85271
@0bfd 3d066c66
@0bfe bc8f9d19
@0bff bcadc70e
@0c00 3a90150f
@0c01 bcb706d4
@0c02 bcc76530
@0c03 3d32fd73
@0c04 bb3f6c08
@0c05 3cec0ed9
@0c06 3d70254b
@0c07 3c85a3a9
@0c08 3d4bcc4c
@0c09 3d211177
@0c0a 3d0de5d7
@0c0b bd6bdaa5
@0c0c 3d07bb75
@0c0d bc26abc8
@0c0e 3c6fdb8c
@0c0f bc895300
@0c10 3bfcb71c
@0c11 3c1611c1
@0c12 3cdd5773
@0c13 3cfacf01
@0c14 bc89e05f
@0c15 3c93980e
@0c16 3c8eb6b8
@0c17 3d5884a2
@0c18 3b927ab8
@0c19 bd51c2c8
@0c1a 3d384cec
@0c1b bd2e2e63
@0c1c 3d2ea94a
@0c1d 3d441507
@0c1e bd1c7dcd
@0c1f 3d2468a8
@0c20 3d0e398e
@0c21 3d28b072
@0c22 3c6b0d47
@0c23 bc2ee22c
@0c24 3cd0fa3d
@0c25 bd1d623d
@0c26 3d3cf342
@0c27 3b424fee
@0c28 3d2049fe
@0c29 bc8d51e9
@0c2a bbf13898
@0c2b bc63eba3
@0c2c bc2ead40
@0c2d badd5d87
@0c2e 3c1e51d0
@0c2f 3c86ced8
@0c30 bd2828cb
@0c31 3d4bc580
@0c32 3af76860
@0c33 bcc27e46
@0c34 3d222798
@0c35 bd19f3a3
@0c36 3d20f21f
@0c37 bd05b7f4
@0c38 3d1b8f51
@0c39 3c48890b
@0c3a bd135ef2
@0c3b bc6b360f
@0c3c 3c7fb2f9
@0c3d 3c37f2ab
@0c3e bd32f9b2
@0c3f 3d3558ab
@0c40 3d71732e
@0c41 bc0744b8
@0c42 bc44db62
@0c43 bd1bf64d
@0c44 3bdb336d
@0c45 bd236bc7
@0c46 3ccf07d2
@0c47 3d5122d8
@0c48 bd1916ce
@0c49 bd0f10c4
@0c4a 3cfc97b5
@0c4b 3d18685a
@0c4c 3d46a27b
@0c4d bd1d1d99
@0c4e 3d3eec81
@0c4f bd4a55c7
@0c50 bc3a097d
@0c51 baea3d4b
@0c52 bb1cf451
@0c53 bd41fe98
@0c54 bccc4a1a
@0c55 3ccfeb0a
@0c56 3b24a49c
@0c57 bc1f8a39
@0c58 bd4599bc
@0c59 3bd33584
@0c5a 3bac8c2f
@0c5b bd3e2d1f
@0c5c 3d1eee13
@0c5d bce21452
@0c5e 3d1ee341
@0c5f bcb8fea0
@0c60 bbae78db
@0c61 3c00ebee
@0c62 bcc9ab87
@0c63 3c86990f
@0c64 3d3f4c1a
@0c65 bceb7e0d
@0c66 3d15a746
@0c67 3cc8e4ee
@0c68 bc644035
@0c69 bcc53e4c
@0c6a 3c826559
@0c6b 3cd3806b
@0c6c 3ca69a6e
@0c6d bbd88f8e
@0c6e bcf3e7e1
@0c6f 3d4374dc
@0c70 3d5123b9
@0c71 bbd9d9bd
@0c72 3d057016
@0c73 bb08a4e5
@0c74 3ce81049
@0c75 3d2ead50
@0c76 bcc1a8e8
@0c77 bd5eb71c
@0c78 3d150884
@0c79 bb7a52bd
@0c7a 3bb129e8
@0c7b 3d5c9640
@0c7c 3cdfa390
@0c7d bce64653
@0c7e bcd30284
@0c7f 3cf73d04
@0c80 3d68f69f
@0c81 3d788daa
@0c82 3d3f675f
@0c83 3ce0d106
@0c84 bce449c6
@0c85 3cef2cbe
@0c86 3ca2ee5d
@0c87 bcc7b0ab
@0c88 bd9a9881
@0c89 bd591549
@0c8a bc58df9e
@0c8b 3d4b92b6
@0c8c 3d31da8d
@0c8d 3d7250f6
@0c8e 3c8d2170
@0c8f bd0266a8
@0c90 bc80756e
@0c91 3d6b21d3
@0c92 3d1992c0
@0c93 3c4874b4
@0c94 3c0e6ca6
@0c95 3d12b142
@0c96 bd227107
@0c97 3ceaa718
@0c98 3cdd1caf
@0c99 bafe388b
@0c9a 3d0fd3f5
@0c9b 3da04ed0
@0c9c 3d299fef
@0c9d 3d408acc
@0c9e 3cbe865a
@0c9f 3d2f7a0b
@0ca0 bc51577a
@0ca1 bc7c5724
@0ca2 bd359b6d
@0ca3 3d3d5b31
@0ca4 bc91e8df
@0ca5 bce79a3c
@0ca6 bd409c1c
@0ca7 3d2fc8c7
@0ca8 bd0402ef
@0ca9 3c209d36
@0caa 3c80d378
@0cab 3d2dfcac
@0cac bbffbf68
@0cad bc861ffd
@0cae 3cccd76f
@0caf bd479784
@0cb0 bd328c49
@0cb1 bb38dea6
@0cb2 bd057258
@0cb3 3d59091d
@0cb4 bd39df45
@0cb5 3c7a1694
@0cb6 bd09d567
@0cb7 3d0ddee6
@0cb8 3aac8297
@0cb9 bcd95e58
@0cba 3cf6a9f2
@0cbb 3d054c21
@0cbc bccf9895
@0cbd 3b2d4129
@0cbe 3d2e6292
@0cbf bbe74834
@0cc0 bd29af4c
@0cc1 3d3f942d
@0cc2 bca112d5
@0cc3 3b495898
@0cc4 bd189433
@0cc5 bccd0705
@0cc6 bce33c9c
@0cc7 3d4f517b
@0cc8 ba90263a
@0cc9 3c271b26
@0cca 3c25e58b
@0ccb bd306ecc
@0ccc 3d054b40
@0ccd 3d2f8c3e
@0cce 3d35a016
@0ccf bcb10a83
@0cd0 3d01cf3e
@0cd1 3c96395d
@0cd2 3bcd978e
@0cd3 bd98af89
@0cd4 bd632527
@0cd5 bc469c2a
@0cd6 3cb6ae37
@0cd7 bc008844
@0cd8 3d5f4ac4
@0cd9 bc259c4d
@0cda bd435dfb
@0cdb 3cd6929d
@0cdc ba99ffe0
@0cdd bbd44141
@0cde bd2a7a4e
@0cdf 3c9060c3
@0ce0 bccd6576
@0ce1 bcdd2f89
@0ce2 bd460f82
@0ce3 3d7594b4
@0ce4 bcb155a3
@0ce5 bc855578
@0ce6 3b99c65a
@0ce7 3b21a2c6
@0ce8 bbdda71f
@0ce9 3ca96474
@0cea bcb00be3
@0ceb bcb9975e
@0cec 3c70da5c
@0ced bd34f61d
@0cee bc9a4ac0
@0cef 3d15a751
@0cf0 3d1f9aec
@0cf1 3cb6244c
@0cf2 bcdae714
@0cf3 bcce405b
@0cf4 3cb4f607
@0cf5 3b809e2c
@0cf6 3c6f47dc
@0cf7 bcc3db56
@0cf8 3b37c152
@0cf9 3d417c9a
@0cfa 3d3b2aa5
@0cfb 3b54a87b
@0cfc bb76a97f
@0cfd 3cb93fc5
@0cfe 3c9c0403
@0cff 3d8c6d7e
@0d00 39e6c406
@0d01 bd0f9003
@0d02 3d7c90d1
@0d03 bd10d659
@0d04 3c81cb64
@0d05 bda17e86
@0d06 bd7a7ec4
@0d07 3c8b85f0
@0d08 bd1946e4
@0d09 3cb1ceef
@0d0a bc85ee8c
@0d0b 3bd70f07
@0d0c bd3f4b05
@0d0d bd42b31b
@0d0e 3d71b209
@0d0f bcc10b3c
@0d10 bd3b62af
@0d11 3cdf69d7
@0d12 3cd2aff9
@0d13 bc593897
@0d14 3c987f4d
@0d15 3d4ef78b
@0d16 3bec31ed
@0d17 3ceade51
@0d18 3c41fbfc
@0d19 3d0aa661
@0d1a bb92b699
@0d1b bd1a3b1e
@0d1c bd69b7ca
@0d1d 3c0c6f51
@0d1e bd50a56c
@0d1f bcb744e8
@0d20 3c9c5932
@0d21 bcd65c89
@0d22 baa024e2
@0d23 3cd4389b
@0d24 bd380829
@0d25 bd196400
@0d26 bd1378c7
@0d27 bcd94c1c
@0d28 bc90fe7a
@0d29 3d0e3ced
@0d2a 3d3d2ed5
@0d2b bc9fa4b6
@0d2c 3cb2fba7
@0d2d 3cf72c78
@0d2e 3c3c5bd5
@0d2f bc598389
@0d30 3d99e3a9
@0d31 3d8edbc9
@0d32 3d343a5a
@0d33 3c22a9ab
@0d34 3a9f1a2a
@0d35 3d2ffd69
@0d36 3c656ae0
@0d37 3cf9e7a4
@0d38 bd43488a
@0d39 3cee677f
@0d3a bd344f0b
@0d3b bd1a53aa
@0d3c 3d14e161
@0d3d bd086398
@0d3e bd189b38
@0d3f bd553075
@0d40 bceb2e19
@0d41 bc8a4162
@0d42 bce10136
@0d43 3b0b0ac2
@0d44 bbbd3a6e
@0d45 bbef332f
@0d46 3cb15525
@0d47 3d230487
@0d48 3cc02130
@0d49 3d3903d2
@0d4a bd0b5e90
@0d4b bc2a5875
@0d4c 3d13ab6f
@0d4d 3b386e44
@0d4e bc931fd6
@0d4f 3c9fc290
@0d50 3d1432ff
@0d51 bad9b55e
@0d52 3ca28e26
@0d53 3c2776d7
@0d54 bca019a2
@0d55 3cc028e3
@0d56 3c8aa894
@0d57 bcdcb434
@0d58 3d232ea7
@0d59 bb78d7fc
@0d5a 3c88e82c
@0d5b 3cd19053
@0d5c 3c9bbb30
@0d5d 3d1ff3a8
@0d5e 3c94edc1
@0d5f 3b33044c
@0d60 bcb15b0c
@0d61 3a8516b9
@0d62 3c65937d
@0d63 3c0d6523
@0d64 bc4d21bd
@0d65 3d3a70e8
@0d66 3d254cca
@0d67 3c01b476
@0d68 3c1d9c86
@0d69 bc165803
@0d6a bd24a0e2
@0d6b 3d56311c
@0d6c bc99d24d
@0d6d bd4878dc
@0d6e 3d2d59a2
@0d6f 3ced6f7e
@0d70 bd1a7951
@0d71 3d01c71d
@0d72 bc5c5471
@0d73 bcbd50ae
@0d74 3c5d227b
@0d75 3be4a520
@0d76 bc0fab9e
@0d77 3d1ceb3f
@0d78 3bd37730
@0d79 bd00194b
@0d7a 3af14c64
@0d7b bcf1a5a2
@0d7c bd4e65ac
@0d7d 3c581745
@0d7e 3ab10027
@0d7f 3c82b616
@0d80 bbeb470b
@0d81 3d1226dd
@0d82 3cd72d47
@0d83 3ce1efc2
@0d84 3cce569c
@0d85 bd670284
@0d86 bc1c2612
@0d87 bd3f8c8c
@0d88 bc4e45b7
@0d89 3c9cd5db
@0d8a 3d509884
@0d8b 3aae5537
@0d8c 3ce2d4f8
@0d8d bbc58212
@0d8e bd16dba4
@0d8f 3d40cdbd
@0d90 bc279179
@0d91 bd1c557a
@0d92 bc476508
@0d93 bd37f426
@0d94 3cda7bec
@0d95 bd007330
@0d96 bc7eee52
@0d97 3ce377ca
@0d98 3ccf3e9e
@0d99 3d2efc90
@0d9a 3af972f6
@0d9b bba22ad9
@0d9c 3d1c0804
@0d9d bc288407
@0d9e bd46e2dd
@0d9f 3d086949
@0da0 3d203063
@0da1 bd48fb82
@0da2 bd1d078b
@0da3 3c2f4ed1
@0da4 bc0d949a
@0da5 bcff213c
@0da6 bd1ce52c
@0da7 3bb3e217
@0da8 bd76d044
@0da9 bc877e45
@0daa 3bc44dc6
@0dab bc113e3f
@0dac bd251362
@0dad 3d2ab198
@0dae 3d13c678
@0daf 3d4a2d5a
@0db0 bd1042e1
@0db1 bcfd0c86
@0db2 bd465cde
@0db3 bd2e044a
@0db4 bcdd555a
@0db5 bd27b858
@0db6 3c2da5f9
@0db7 bd0f0bc3
@0db8 3d13e023
@0db9 bcf9721c
@0dba b910caec
@0dbb bd2fbc03
@0dbc ba86cfe6
@0dbd bd221fb6
@0dbe 3c157942
@0dbf bcee352a
@0dc0 3d4761c6
@0dc1 bc8d7a47
@0dc2 bd09d74b
@0dc3 3d2c856e
@0dc4 3d354998
@0dc5 3d270704
@0dc6 bbc73ed1
@0dc7 3a4cde6f
@0dc8 3ccc9b0e
@0dc9 bd1774f7
@0dca bac2d513
@0dcb bb330c6a
@0dcc 3b0a1751
@0dcd 3d399f5e
@0dce bc444cd0
@0dcf 3ca2527a
@0dd0 3c598499
@0dd1 bd41e10c
@0dd2 3acbb739
@0dd3 bd06a067
@0dd4 3c3caa86
@0dd5 3d40238e
@0dd6 3d78d19e
@0dd7 3ce2f523
@0dd8 bcb1a94d
@0dd9 bd440fc1
@0dda 3a8e2cc0
@0ddb bba0ffde
@0ddc 3d10073e
@0ddd 3ccee848
@0dde 3d2662b1
@0ddf 3bb3225d
@0de0 3d275a86
@0de1 bcd6fdfb
@0de2 3d1b06f1
@0de3 3d107dee
@0de4 bd2b0ff9
@0de5 3cfd0a8d
@0de6 3cbf764a
@0de7 3c8f2ace
@0de8 3d467e06
@0de9 3cfd81ec
@0dea 3d2a846b
@0deb bd28bede
@0dec bc653d35
@0ded 3d267bcf
@0dee 3d42c4f6
@0def bd043fda
@0df0 bb77dc2e
@0df1 3c82bbfd
@0df2 3d46efea
@0df3 bd3d2ea0
@0df4 3d013ca4
@0df5 3d21356d
@0df6 3bc761a2
@0df7 3cb202d0
@0df8 bc4d15b5
@0df9 3d1db09b
@0dfa bcb1e2b1
@0dfb bac82282
@0dfc 39d8915c
@0dfd bcf3277c
@0dfe 3c02929a
@0dff bcae6d58
@0e00 bd2a1a6a
@0e01 bcb89c94
@0e02 3d2bf302
@0e03 3d7a7d43
@0e04 3d0dc3ca
@0e05 bcd54eae
@0e06 3b453c2c
@0e07 bd1fcba1
@0e08 ba603fd1
@0e09 bcec8816
@0e0a 3cca6275
@0e0b 3d680ec6
@0e0c bc04423a
@0e0d bd054143
@0e0e 3ca90491
@0e0f bd1012da
@0e10 3d903402
@0e11 3dc88806
@0e12 3d857a1f
@0e13 3d285479
@0e14 3d280d18
@0e15 bce0ee70
@0e16 bd9f861f
@0e17 bbf01309
@0e18 bada08b6
@0e19 bd82277e
@0e1a bb97f43d
@0e1b bcf8a302
@0e1c 3d20a77d
@0e1d bc2b3199
@0e1e bcd71883
@0e1f bda855b6
@0e20 bdb8b204
@0e21 bc54300a
@0e22 3ce5cf35
@0e23 3d163800
@0e24 3d88dbea
@0e25 3c9081f2
@0e26 3d16b432
@0e27 3cef9407
@0e28 3d85c48d
@0e29 3cc87221
@0e2a bcf37a26
@0e2b bd0544fb
@0e2c bcc8a767
@0e2d 3b89c830
@0e2e 3c8a31f6
@0e2f bc7def18
@0e30 bc682957
@0e31 bc84787f
@0e32 bd2b3da8
@0e33 bc9ac835
@0e34 3cce6f99
@0e35 3b974ad4
@0e36 3c6f04a4
@0e37 3bbbed1a
@0e38 bd29d268
@0e39 bd142cc8
@0e3a 3d3a99ca
@0e3b bc51c0b2
@0e3c bd3ecda7
@0e3d 3b54e5cf
@0e3e bb73b4a7
@0e3f 3cba05b2
@0e40 bd04a657
@0e41 3ad2b208
@0e42 3d2f2e61
@0e43 bcbb96ba
@0e44 3ad0b4aa
@0e45 bcadaab3
@0e46 bd58d3e4
@0e47 bbf03049
@0e48 bc6eb8d7
@0e49 3b5cdbae
@0e4a 3cedfc04
@0e4b bca47625
@0e4c bcaae589
@0e4d bcba502a
@0e4e bd72588a
@0e4f bd3237f6
@0e50 bd4dd410
@0e51 bbee2285
@0e52 bd40ea18
@0e53 3b7041d7
@0e54 bb4ba70f
@0e55 bce2dd97
@0e56 bca890ef
@0e57 3b3dab1a
@0e58 3ca282fa
@0e59 bc5a5bed
@0e5a 3c4ef060
@0e5b 3c79a178
@0e5c bbc27693
@0e5d bcad3fdd
@0e5e 3d028a19
@0e5f bc53dbb8
@0e60 bc065cd2
@0e61 bd417d66
@0e62 bc1f726a
@0e63 3c8e5c8b
@0e64 bcb6ec4f
@0e65 3cb1724b
@0e66 3d346cf1
@0e67 bc2c7d76
@0e68 bb792cd9
@0e69 bc8c4322
@0e6a bd2facde
@0e6b 3d003bb3
@0e6c bbde010e
@0e6d bcce5e06
@0e6e 3d05fba6
@0e6f 3d6ee357
@0e70 3bcc5e94
@0e71 3d52667f
@0e72 3d726663
@0e73 3c69b7cc
@0e74 3c8c0a72
@0e75 3d1ebbb9
@0e76 bc5b88b4
@0e77 3c9baeae
@0e78 3cd0ac1e
@0e79 bcc6173e
@0e7a bcf616f8
@0e7b 3cf6e4a8
@0e7c 3cec0587
@0e7d 3c54b094
@0e7e bd065aa7
@0e7f 3ccddf4f
@0e80 bcf59752
@0e81 3b1c4641
@0e82 bb3f789c
@0e83 3c9abd2f
@0e84 3c929228
@0e85 3cb70148
@0e86 3ce0cacf
@0e87 3bf620d1
@0e88 bba1f483
@0e89 3d1efe9f
@0e8a 3d29f354
@0e8b bca3b739
@0e8c 3c8a6862
@0e8d 3accb6b5
@0e8e 3d0bc4c5
@0e8f 3d4ca7a8
@0e90 3d75c823
@0e91 3d19c9c7
@0e92 3ca22bd0
@0e93 bd8b24a6
@0e94 bd19ff63
@0e95 bca09b49
@0e96 3ceb3228
@0e97 bbce545a
@0e98 bd0cad8b
@0e99 bcffc6a3
@0e9a bbf83b27
@0e9b bc3b1c72
@0e9c 3c2f7c50
@0e9d bd6de88b
@0e9e 3c91771d
@0e9f 3cb6a1ae
@0ea0 3d01e6aa
@0ea1 3cda56d0
@0ea2 bc968f2e
@0ea3 bcd58af8
@0ea4 3b67c964
@0ea5 3cec4a41
@0ea6 3d509abd
@0ea7 3d5d1da7
@0ea8 bc6e34cf
@0ea9 3c45d7d0
@0eaa 3c9530e9
@0eab 3d1fe80b
@0eac 3cfdf63c
@0ead 39209fa8
@0eae 3b810d1e
@0eaf 3c1d6fa4
@0eb0 bd3a2e1f
@0eb1 3d38a763
@0eb2 3c9549b1
@0eb3 3c0d40cb
@0eb4 3cc87a93
@0eb5 3cc07b52
@0eb6 bcfe055d
@0eb7 bd119365
@0eb8 bd4056f6
@0eb9 bccfb301
@0eba 3d41842a
@0ebb bd2bbc19
@0ebc bc7b39b5
@0ebd 3cb91af7
@0ebe bcb959a3
@0ebf bd14b2df
@0ec0 3d47e6ee
@0ec1 3c84dee3
@0ec2 bd273f81
@0ec3 3cf1c976
@0ec4 3d24d0ce
@0ec5 bcaf1482
@0ec6 3d2efedd
@0ec7 bc850462
@0ec8 3d52d44b
@0ec9 bcdbaefc
@0eca bd24a923
@0ecb bd3ace80
@0ecc bd081db1
@0ecd bc3f7b3e
@0ece bd1b2e0f
@0ecf bc9d9927
@0ed0 3d253fab
@0ed1 3d0cccd1
@0ed2 3c94d5e3
@0ed3 bd289232
@0ed4 bcfdbff6
@0ed5 3d618b1d
@0ed6 3cdf748b
@0ed7 3bdd9502
@0ed8 38d425f8
@0ed9 bc0b7da3
@0eda 3cf9b6a0
@0edb bc3da9fc
@0edc bc0bfb9e
@0edd 3d3b8544
@0ede bcfaca96
@0edf 3c637967
@0ee0 bc2b70b2
@0ee1 3cd19702
@0ee2 3d34e008
@0ee3 bccb50a0
@0ee4 bca7c62b
@0ee5 3ce73ad4
@0ee6 bc727f2d
@0ee7 bd0f1ae1
@0ee8 bd117353
@0ee9 bd161f75
@0eea 3b46b550
@0eeb bca587a3
@0eec bcfcf28f
@0eed bca240fe
@0eee bbefde1c
@0eef bd1213af
@0ef0 3d1ad806
@0ef1 3d1aa64d
@0ef2 3d69a090
@0ef3 3d49d889
@0ef4 3b30fc9b
@0ef5 bc9cafad
@0ef6 3cde2d55
@0ef7 3d229b5e
@0ef8 3d371b7c
@0ef9 3c63aa65
@0efa 3d048bbd
@0efb bbcfb7f9
@0efc 3d1afa04
@0efd bce6024d
@0efe bba54aee
@0eff 3d23c7a5
@0f00 3d09960c
@0f01 3b726c70
@0f02 bc935a18
@0f03 3d385754
@0f04 3cb7c291
@0f05 3ca6131c
@0f06 3bc70e4c
@0f07 b925e3bd
@0f08 3c750f68
@0f09 3d05d23c
@0f0a bc28d0dd
@0f0b 3c4de608
@0f0c bd863345
@0f0d 3d68c70f
@0f0e 3c901225
@0f0f 3ba824d9
@0f10 3b4e6e6d
@0f11 bd25f04b
@0f12 bc8499a9
@0f13 b9aefa57
@0f14 3d25f6f1
@0f15 3cb24258
@0f16 3d5952a3
@0f17 3d835dca
@0f18 bb9bbc7b
@0f19 3be4660d
@0f1a b81e9c01
@0f1b 3cf367c8
@0f1c bce4a008
@0f1d bafa753f
@0f1e b96b2712
@0f1f 3d14c33c
@0f20 3cdc341a
@0f21 bc5da816
@0f22 3c2d52b6
@0f23 3d4217dc
@0f24 bd051202
@0f25 3d144ef0
@0f26 3ce1a7a4
@0f27 3c5d542e
@0f28 3d315959
@0f29 3d10da5d
@0f2a 3d15505e
@0f2b 3d0998bb
@0f2c 3bb0b21d
@0f2d 3ce42dad
@0f2e bd4f81ec
@0f2f 3c7f8ee3
@0f30 bc9f1472
@0f31 bd450ea7
@0f32 bd2bd036
@0f33 3d04bce2
@0f34 bc69e5b3
@0f35 bd0fd7fb
@0f36 3d14c314
@0f37 3cc0d509
@0f38 bd5b3d7f
@0f39 3d07e327
@0f3a 3d3f9ef7
@0f3b 3bcc08ba
@0f3c bd109e32
@0f3d bbe55b01
@0f3e 3be2a260
@0f3f 3cf524cb
@0f40 bd059dcd
@0f41 3d2c3dfa
@0f42 3cad44fe
@0f43 bd3fa910
@0f44 bcb67c4f
@0f45 bd06641e
@0f46 ba977024
@0f47 bbf680e4
@0f48 3d3a811d
@0f49 3d1e5aad
@0f4a bd1831f6
@0f4b 3b84f966
@0f4c bcff2923
@0f4d bcb76383
@0f4e 3cf433d7
@0f4f bbc299e7
@0f50 bcf2fc1b
@0f51 3c60aeda
@0f52 3c1f643c
@0f53 bd07a15c
@0f54 bcb664e6
@0f55 3cd338b4
@0f56 bce1de8e
@0f57 3ccb8d35
@0f58 bc856bb2
@0f59 bc8ef3ca
@0f5a 3c13e197
@0f5b 3ca472db
@0f5c 3ca310bc
@0f5d bce6be48
@0f5e 3c7acf11
@0f5f bd04b053
@0f60 bb9f2b72
@0f61 bd6044c1
@0f62 3c8e83eb
@0f63 3d33d007
@0f64 bcc4f6dd
@0f65 3cecf544
@0f66 bd31afb7
@0f67 bb885f2a
@0f68 bcdd853a
@0f69 bd4aba16
@0f6a bc90fbf2
@0f6b 3ca9c761
@0f6c bcc997a5
@0f6d bcb4a22e
@0f6e 3c8fcb69
@0f6f bd43e827
@0f70 3d1e166d
@0f71 bcf65b81
@0f72 3d2035b0
@0f73 3aa87fd2
@0f74 bc8a64b8
@0f75 bcec537d
@0f76 3d0c2be8
@0f77 3c2fcffc
@0f78 bca90d48
@0f79 bce9b0e0
@0f7a bcba6c87
@0f7b bd3f30f6
@0f7c 3d3e58ac
@0f7d 3cacd4cf
@0f7e baee7002
@0f7f bc8b3074
@0f80 3cd34851
@0f81 bd206821
@0f82 3d2bcdd6
@0f83 3d2d4d37
@0f84 3c9b2ad7
@0f85 babb781d
@0f86 3d407747
@0f87 3c05e28d
@0f88 3d62f46a
@0f89 3d43d462
@0f8a bc0e0edc
@0f8b 3cccaae8
@0f8c bb23be82
@0f8d bd4ed4b5
@0f8e 3c639394
@0f8f bcbc28c6
@0f90 bca314b8
@0f91 bcd98e89
@0f92 bc36d8e2
@0f93 bca14f90
@0f94 3b9cc82d
@0f95 bd12c510
@0f96 bbbe0c89
@0f97 3ca0db9a
@0f98 bd1c641d
@0f99 3b088e04
@0f9a 3bb580a5
@0f9b 3cf607e7
@0f9c 3d4a956c
@0f9d bc7f7180
@0f9e 3ce90823
@0f9f 3cc074f5
@0fa0 3d98fc53
@0fa1 3d363848
@0fa2 bc0e00eb
@0fa3 3d0fa128
@0fa4 3d73e1b3
@0fa5 bd9136f7
@0fa6 bd8933d4
@0fa7 bcdd8947
@0fa8 3d5a4fda
@0fa9 3c818c6e
@0faa bc91753e
@0fab bd98d6a3
@0fac bd50870f
@0fad bd0371c1
@0fae 3cf173a9
@0faf 3c615ca9
@0fb0 3d45ddbf
@0fb1 3c32507f
@0fb2 bcb05ed6
@0fb3 bc85df77
@0fb4 3c93f4ae
@0fb5 3a59a51e
@0fb6 3cc6cba4
@0fb7 3c20ee7c
@0fb8 3d402ee4
@0fb9 bd37f8d6
@0fba bd34677c
@0fbb bcc49c72
@0fbc 3d188174
@0fbd bc015153
@0fbe 3c8c7ca8
@0fbf 3c8f19d0
@0fc0 bc44f5fd
@0fc1 bca33539
@0fc2 3d574a0a
@0fc3 bd405fbf
@0fc4 3cb40d98
@0fc5 3cf55251
@0fc6 3bf95527
@0fc7 bc89b492
@0fc8 3d2f0998
@0fc9 3cc0ddc5
@0fca 3c3e25af
@0fcb bd0c847f
@0fcc 3bab5474
@0fcd 3cd5e901
@0fce 3ccdb54e
@0fcf bc954ce5
@0fd0 bd026c62
@0fd1 bc892ecb
@0fd2 3cf3fd22
@0fd3 3cae6343
@0fd4 3c3d3369
@0fd5 3cc76fe9
@0fd6 bcdc9ad2
@0fd7 bc9fe4ef
@0fd8 3d141d02
@0fd9 bcc45f54
@0fda 3d45bc4c
@0fdb bd087134
@0fdc bd232c23
@0fdd 3cb305ee
@0fde 3d1a7e76
@0fdf bd02e787
@0fe0 3d0a4432
@0fe1 3c6c2cce
@0fe2 bd2e5575
@0fe3 bd4a4ab3
@0fe4 bd07d54d
@0fe5 3d3e3aee
@0fe6 bcead2b5
@0fe7 3d063a42
@0fe8 bc5b2425
@0fe9 3d1ccf7e
@0fea 3c8a779c
@0feb 3d2d98be
@0fec 3d628a6a
@0fed 3c6bc265
@0fee 3d3a3940
@0fef 3d02faf0
@0ff0 3932ba3c
@0ff1 3cd54391
@0ff2 3c491fa7
@0ff3 3d12afc4
@0ff4 bd10dd70
@0ff5 bc06e7ba
@0ff6 bd4f0a06
@0ff7 3a3a0f53
@0ff8 bd16f23a
@0ff9 3a14d80f
@0ffa bd2f3d3e
@0ffb 3cfe4672
@0ffc 3ce56fdc
@0ffd bd3437b3
@0ffe 3d03f6b2
@0fff 3d3880e5
@1000 3d548338
@1001 3d535647
@1002 bcdeebce
@1003 bc00a6ae
@1004 bc963763
@1005 bb8b7dc6
@1006 bba2d1bc
@1007 3ce0dccf
@1008 bd2182fb
@1009 3d107782
@100a 3c984a54
@100b 3c6d7251
@100c 3ad98254
@100d bd1b2fe2
@100e 3c01f13b
@100f 3c2793b1
@1010 bb2a78dc
@1011 3bfb6b47
@1012 bbf3259d
@1013 3d066af8
@1014 3cc2e875
@1015 3cb2645f
@1016 3ba9bcc6
@1017 bd024f3e
@1018 bcb3a20a
@1019 bc840359
@101a bd061868
@101b bca8f066
@101c 3d2cdf8b
@101d 3d796c06
@101e 3c99cc36
@101f 3d41f4dd
@1020 bd20dc9f
@1021 bc8fa93a
@1022 bd66fc69
@1023 bd6ee6f1
@1024 bd926664
@1025 bd551ca2
@1026 bc57b17e
@1027 bd5d47d5
@1028 bd42d4f2
@1029 bd247623
@102a 3ce9f326
@102b bbfed685
@102c 3c132219
@102d bb42d105
@102e bd06a6b2
@102f 3c69db79
@1030 3ccfa753
@1031 bcfbb64f
@1032 3bc009f4
@1033 3d244578
@1034 3cb17fc7
@1035 bceaabe0
@1036 3c7a4bf4
@1037 3d55d3bf
@1038 3bbde551
@1039 bd18b670
@103a bd0270f7
@103b bc97a77e
@103c bd74bfdb
@103d bc85a014
@103e 3d51193b
@103f 3d1bf82e
@1040 3adedcf0
@1041 3d45cf9e
@1042 3c83ef70
@1043 3d21da49
@1044 3c81e10c
@1045 bbe2492c
@1046 bd28fab3
@1047 bcb66157
@1048 bd29892d
@1049 bc8e28be
@104a bc74b629
@104b 3ca764eb
@104c 3c3d6967
@104d 3a6ab12b
@104e 3cce6d15
@104f 3d0b77f8
@1050 3ad6d317
@1051 bb14c1da
@1052 3caa8487
@1053 3af08336
@1054 bd17657f
@1055 bcf43c02
@1056 3c86a397
@1057 3c9d82ad
@1058 bd4a3a88
@1059 3d741068
@105a bcd8fdc6
@105b 3c8157dd
@105c bca59415
@105d 3d08356d
@105e 3d11dfdd
@105f bcce1afc
@1060 3b6b4082
@1061 bd19853c
@1062 bc38b89a
@1063 3cb1f992
@1064 3d1e8ce5
@1065 bd29ddbc
@1066 3d000759
@1067 3c8f4193
@1068 3c5fd9a9
@1069 bc9218f1
@106a bcc9dda2
@106b 3d52e5fc
@106c bb967eaf
@106d 3cf3b5fd
@106e bd3f130d
@106f bbae2847
@1070 bc44f705
@1071 bca5d84a
@1072 3c3234f2
@1073 3c6281ac
@1074 3a93a6b2
@1075 3c075ae8
@1076 bbf64c9b
@1077 3d3f3666
@1078 3c9ad9f7
@1079 3d091941
@107a 3c6b2ac5
@107b 3d210925
@107c 3cc1d467
@107d bc9caa0f
@107e bcdf908a
@107f 3c88e12a
@1080 3c9c269b
@1081 3d0ec63a
@1082 bc4247c5
@1083 3d0032c6
@1084 3d64c975
@1085 bc7c2b5e
@1086 baa1a4af
@1087 3d4d7da6
@1088 3d58e7bf
@1089 bcc987fd
@108a 3d80a31c
@108b 3cd46b58
@108c bd1ee7f9
@108d 3d289481
@108e 3d0fee69
@108f 3cba1494
@1090 bd12faf4
@1091 bc8f5e2d
@1092 ba81cbbd
@1093 bc68bb50
@1094 bbcb6edf
@1095 3d07d427
@1096 bbbdd504
@1097 bc1456ec
@1098 bd4298fd
@1099 3ce944a9
@109a bccd708a
@109b bd51d4c6
@109c bc81decb
@109d 3d243cf3
@109e 3c6b3add
@109f 3ca7fe7e
@10a0 3d03d2c7
@10a1 3d026358
@10a2 bd29f9fe
@10a3 bcec5d39
@10a4 3cd1dc21
@10a5 bca33856
@10a6 3bb8e9b3
@10a7 3cc0301a
@10a8 3d182189
@10a9 bc8a0040
@10aa bd0ac782
@10ab bd003c8c
@10ac bc489202
@10ad 3d5c6d27
@10ae bbb1a1b9
@10af 3d18a8e6
@10b0 3d1b83ba
@10b1 3d37f6f0
@10b2 bcef11d1
@10b3 bca0a9bc
@10b4 bc3389fb
@10b5 bcf25442
@10b6 bd1be62e
@10b7 3ce67cb8
@10b8 3b6a4b4d
@10b9 3b354a52
@10ba bc10561c
@10bb 3ce93c91
@10bc 3d1e3e4e
@10bd 3d35342a
@10be 3c3286bd
@10bf bd63eb05
@10c0 3b260ba5
@10c1 3c760ee5
@10c2 bc1756db
@10c3 3b3d572c
@10c4 3c94d185
@10c5 3bfd817e
@10c6 bcd22e17
@10c7 bc27eec2
@10c8 3c498fab
@10c9 3ce6dfb0
@10ca bd52c659
@10cb 3cb90877
@10cc 3cdf247f
@10cd 3d2cbe4b
@10ce bcddcc56
@10cf bd359b34
@10d0 3cda49ae
@10d1 bcdf4fe0
@10d2 bd3d19a8
@10d3 3d3bede0
@10d4 bb9da8bc
@10d5 bc584244
@10d6 bab3209b
@10d7 bd249c8f
@10d8 bd454d36
@10d9 badf089b
@10da 3d45d1e1
@10db 3d1723bc
@10dc 3bed1a79
@10dd bd3392da
@10de 3d46b512
@10df bd21dfc3
@10e0 3cf38c1e
@10e1 bc819ac7
@10e2 bd3b2ce6
@10e3 3c39cd2f
@10e4 3d10a8a8
@10e5 3b978b40
@10e6 3c271277
@10e7 bc209804
@10e8 bc2b15c4
@10e9 bcf4e908
@10ea 3b0e69a5
@10eb bc57a588
@10ec 3c3b2943
@10ed 3c9ddcfa
@10ee 3ca31696
@10ef bc8e4288
@10f0 bd234338
@10f1 3c33463f
@10f2 3cc20db8
@10f3 3d009584
@10f4 3b53fa5b
@10f5 bd28e032
@10f6 bd1e7332
@10f7 bbb40dc8
@10f8 3d291b9d
@10f9 bd52429e
@10fa bbb9946c
@10fb bd5ae0a3
@10fc bd644ccb
@10fd bd46b58b
@10fe 3cb4b0f0
@10ff b9984886
@1100 3c9a483f
@1101 3d2b40b5
@1102 bc412400
@1103 3cccc354
@1104 bd4aa021
@1105 bd472dc0
@1106 3cd96a15
@1107 3c88d645
@1108 3cb30ccf
@1109 bd1492fe
@110a 3c8f8ef7
@110b 3bc174bd
@110c 3cc11faf
@110d 3d4b350e
@110e bc9f6d31
@110f 3b74abfb
@1110 bbeac5af
@1111 bd448bdb
@1112 bc5dacfe
@1113 3d42a655
@1114 3b939205
@1115 bd28c182
@1116 bc4f53ec
@1117 3d30fb75
@1118 bc9f8c2b
@1119 3d43a7b9
@111a 3d00696b
@111b 3cfa7e70
@111c bcdd60c8
@111d bd560939
@111e 3bead002
@111f bb0172cf
@1120 3be26201
@1121 bd0061f2
@1122 bd14b00d
@1123 bcc2539c
@1124 bc8d1c00
@1125 3c7ad5ad
@1126 bd1dda48
@1127 3a5778d8
@1128 bd4f43e2
@1129 bbeb5d30
@112a 3c3b775b
@112b 3d1a02c5
@112c 3d283c07
@112d 3c47ecca
@112e badeb095
@112f bb737674
@1130 3d18a40b
@1131 3dbf4899
@1132 3dddf47d
@1133 3d465a97
@1134 3d81f0eb
@1135 3d0e52ce
@1136 3ce8844d
@1137 bbc00982
@1138 bda64a0e
@1139 bd8e9853
@113a 3d208781
@113b bcb22e55
@113c bd8c7c5f
@113d bccd863e
@113e 3d495fb1
@113f bd347ef4
@1140 bd59f142
@1141 bd8a9af9
@1142 3ae15e72
@1143 3d6ef9b7
@1144 bc1e1c3a
@1145 3d0632fc
@1146 3d45f82c
@1147 3d1e2db3
@1148 bc27cd9d
@1149 3d1072fa
@114a 3cd2d2f2
@114b bd100c42
@114c 3d4cf505
@114d 3b793178
@114e 3ca6d976
@114f 3c7ac9c4
@1150 3d50776a
@1151 bd2c67c0
@1152 bc669fd3
@1153 bd265e09
@1154 3cf4b1ec
@1155 3cbbcf11
@1156 bd7c3b4b
@1157 bc6be5bd
@1158 bd1e958b
@1159 bd0d9c6a
@115a baf1f540
@115b bc77dfcb
@115c 3d2d877f
@115d bb7f2efb
@115e 3c7f269d
@115f bbb08fa2
@1160 bd229a9a
@1161 bba34f6a
@1162 3bbcf806
@1163 bd470e24
@1164 3d2080c9
@1165 bc7d78a6
@1166 bd6ceaf5
@1167 368d9e0c
@1168 3b7d770f
@1169 bce9de54
@116a bd4fcd02
@116b bb2d189c
@116c bd3cf177
@116d bb15d5e1
@116e 3c9c43e9
@116f 3abee940
@1170 bc853249
@1171 3d13681a
@1172 3d07dbb1
@1173 3d43e4a1
@1174 3c5f4e5d
@1175 bceeef11
@1176 bc8330e0
@1177 3b51421b
@1178 bb304575
@1179 3d1f2058
@117a 3cf8d47c
@117b 3d2a58dd
@117c 3d5186dc
@117d 3d128b48
@117e bca9ee9d
@117f 3c6c2c8a
@1180 bbb258ae
@1181 3d457a5f
@1182 bc4989af
@1183 b75748d8
@1184 3cad187f
@1185 3ca002f0
@1186 3d52a86c
@1187 3cb88a10
@1188 bd7d51dc
@1189 bc425bfc
@118a bcd43c8f
@118b bd6db726
@118c bd50d7a2
@118d 3d2d2b54
@118e bd23c452
@118f bd0c8c83
@1190 bbba7f38
@1191 3d057794
@1192 3d2b7b25
@1193 3cf2a7cb
@1194 bd3d5d3a
@1195 3d2155c6
@1196 3cbc2091
@1197 3d0493b3
@1198 bd2046de
@1199 3d4d0fd5
@119a bbc97aad
@119b 3cd0c5e2
@119c bcd1e30a
@119d 3cddab14
@119e 3d5ccf04
@119f 3ae4b737
@11a0 bbad23c0
@11a1 3ca990cd
@11a2 bcf43d38
@11a3 3d2fe1d2
@11a4 3c822677
@11a5 3d139f69
@11a6 bc41060e
@11a7 bd41de62
@11a8 39f8cfac
@11a9 bc6c4dde
@11aa bc658b51
@11ab 3cd8f929
@11ac bcaaab7d
@11ad bcc62421
@11ae bcd8eb04
@11af 3d2daec2
@11b0 3b94018f
@11b1 bc8c9871
@11b2 b85c7b48
@11b3 bd152f98
@11b4 3d55800e
@11b5 bcfcc10a
@11b6 bd985f3b
@11b7 3ccd0ae5
@11b8 bcb2b214
@11b9 3d119623
@11ba 3c962022
@11bb bb97b477
@11bc bce0ed99
@11bd bc2ce276
@11be bd47ab99
@11bf bc444e63
@11c0 3c2d785b
@11c1 3c806786
@11c2 3d3841c1
@11c3 3d3bf7f5
@11c4 3d81782e
@11c5 bcf4036d
@11c6 bcdbc443
@11c7 3c845c92
@11c8 bd426094
@11c9 bd1bac2d
@11ca bc11c793
@11cb 3d184639
@11cc bc8f1c89
@11cd 3bd8dfe1
@11ce 3c356c6c
@11cf bd343009
@11d0 bc8a78ef
@11d1 3cbe7a8d
@11d2 3cf428b0
@11d3 bd3d6be9
@11d4 bd29b812
@11d5 3d04e89b
@11d6 bc6502b5
@11d7 bcb71a74
@11d8 3d2c7024
@11d9 3d13ce73
@11da 3c827fea
@11db 3c327a66
@11dc bc58a3d4
@11dd bd3130d9
@11de 3cf3a6bd
@11df 3cf3fde1
@11e0 bc5228a5
@11e1 3d0939d3
@11e2 3d07699a
@11e3 bcee966d
@11e4 bd5af61a
@11e5 bcca30fd
@11e6 3d1bccfb
@11e7 3d0842fd
@11e8 3ccfd879
@11e9 3cae1975
@11ea bcd80f09
@11eb 3d7a5176
@11ec 3cb4098e
@11ed 3d07688f
@11ee 3cc57eaa
@11ef bc6992ad
@11f0 3c258836
@11f1 3a583e70
@11f2 bc8db2b0
@11f3 bb7a3666
@11f4 3d3696d3
@11f5 3c6b5a4f
@11f6 3cd7f4c4
@11f7 baaea317
@11f8 3d4b4f99
@11f9 bb4f2957
@11fa bcf2c03c
@11fb 3cbfcdea
@11fc 3d2689b9
@11fd bc89f581
@11fe 3c9e2816
@11ff bceed570
@1200 bd08317d
@1201 bd1aa7df
@1202 3bd75d95
@1203 3c80d873
@1204 bc946c75
@1205 3b0a5f29
@1206 bceef3a1
@1207 3d1589c9
@1208 3c8c22c1
@1209 3d4c58c2
@120a 3cbb583c
@120b bd0b9134
@120c 3cf88dbf
@120d 3cea4dec
@120e 3ce5b235
@120f bd1a124b
@1210 bcbf20b7
@1211 bd17abd4
@1212 39c4c4ab
@1213 3d0e8595
@1214 bcde68ac
@1215 3b4677e1
@1216 bd16f720
@1217 bce5df6a
@1218 bcee272f
@1219 bc62d2df
@121a 3cd085e0
@121b 3d256f3c
@121c bb4b3dc3
@121d bd3f5d84
@121e 3c2b8f01
@121f 3c502f43
@1220 3d31d6f5
@1221 3c586229
@1222 bcfed0e7
@1223 bd64b074
@1224 bd30dfc5
@1225 bd07da21
@1226 bcfdcfdc
@1227 3a6046ac
@1228 bce3d17b
@1229 3cd3e197
@122a bcfc16a2
@122b 3d469269
@122c 3d5765e3
@122d 3b421619
@122e bd27ba53
@122f bcb0159d
@1230 bc9aa7e8
@1231 3d4b2a4e
@1232 3d1c4a56
@1233 bd3165f3
@1234 bcc932f9
@1235 3c9112ff
@1236 bd849f6f
@1237 bd6e5218
@1238 3cdc9a93
@1239 3a94d5a3
@123a 3c466825
@123b ba46626d
@123c bc70d479
@123d bd0a2d9c
@123e 39423bb6
@123f bc075540
@1240 3d1ef41b
@1241 3d3af993
@1242 bc2b4be7
@1243 bc2002c0
@1244 bcd6ca1e
@1245 bd060437
@1246 bc0c0486
@1247 bce761cb
@1248 bcd0f8e1
@1249 bc9d9211
@124a bd1cee7b
@124b bd3526f7
@124c bc8789f1
@124d ba287c80
@124e 3d01cd53
@124f 3cf1e785
@1250 bd24c5e5
@1251 3cca1460
@1252 3b73702d
@1253 3d2cb527
@1254 3bef9572
@1255 bb4a979a
@1256 bc4e1844
@1257 bcc48c0c
@1258 3d545294
@1259 bb75e335
@125a 3bc9485d
@125b 3b8802f3
@125c bc10241f
@125d 3ca07034
@125e bd223a45
@125f bc77b2c1
@1260 bab11009
@1261 bd1fc24e
@1262 3b293ac7
@1263 3c548250
@1264 3cd54dcf
@1265 3c099722
@1266 bd26e1c4
@1267 bcf57fde
@1268 3bdee77a
@1269 3d41e0ba
@126a 3cf13e5c
@126b 3d2f0756
@126c bc9cf7d7
@126d bd1ee456
@126e baaee7b0
@126f bcff22fd
@1270 3cd7bd14
@1271 3d080be4
@1272 bd480a9c
@1273 bd360751
@1274 3cd62130
@1275 3d3bd296
@1276 3ca473eb
@1277 bc9f6bc9
@1278 b91466ff
@1279 3aec47e9
@127a 3c7523ec
@127b bd352ef5
@127c 3bb0f04e
@127d bd03f042
@127e 3c1375e0
@127f 3d0d3cbc
@1280 3c89a518
@1281 bd1d0f19
@1282 3aba06a5
@1283 bc96ebd7
@1284 bc8b934d
@1285 3cf87cc6
@1286 3b1fac03
@1287 bd19ae28
@1288 bd13e35f
@1289 3d3df7a8
@128a bc81e305
@128b 3cb96785
@128c bce74683
@128d 3cacf337
@128e bd176791
@128f 3c1bd1e5
@1290 3a9ca49c
@1291 bb0e886c
@1292 bd1fd69a
@1293 ba741fe6
@1294 3d0673a4
@1295 3d325ebf
@1296 bd04e109
@1297 3c6a56b0
@1298 3c60125e
@1299 3c90fcda
@129a 3cf40aa0
@129b 3cf81ff4
@129c bd00f8d4
@129d bc33472d
@129e bd29a82a
@129f 3d03b38e
@12a0 bd3029ae
@12a1 3c3b6aad
@12a2 3bcb86a5
@12a3 3d03258a
@12a4 bd2105d5
@12a5 bc10359b
@12a6 3cab8770
@12a7 3d25aa86
@12a8 3d26341f
@12a9 ba5584be
@12aa 3b807434
@12ab 3d06769d
@12ac 3cc3bdfb
@12ad 3cd062b3
@12ae bc3588dd
@12af bb4cc733
@12b0 bc4390ba
@12b1 3d0bf9fb
@12b2 3d4c9628
@12b3 3bdf32fe
@12b4 3cedee79
@12b5 bc780043
@12b6 bcd88d27
@12b7 3d0b5811
@12b8 3cafaf3b
@12b9 3c9c8eb6
@12ba 3d2029b4
@12bb 3ce03b34
@12bc 3c884d73
@12bd bc7fd661
@12be bd26745d
@12bf bc630928
@12c0 bd0c38f6
@12c1 3c8c9833
@12c2 3cf9d6a4
@12c3 3b293307
@12c4 3d3e6934
@12c5 bb3a59db
@12c6 3c5308b7
@12c7 bd1c9859
@12c8 3d528741
@12c9 3d88f921
@12ca bb0a9ab7
@12cb 3d1f239d
@12cc bda616ec
@12cd bc470218
@12ce 3d7b3b04
@12cf 3c9b0e0e
@12d0 bc7d4c06
@12d1 bc47f935
@12d2 bc05b6e3
@12d3 3c6971a4
@12d4 ba004673
@12d5 3d71932d
@12d6 3d01c4fe
@12d7 3d045456
@12d8 bca8d95d
@12d9 bd2a0219
@12da bcf88451
@12db bce445e5
@12dc 3d1dbbda
@12dd 3c0dcf91
@12de bb8e7ecc
@12df bd46e4ce
@12e0 39f220a9
@12e1 bd3e06b0
@12e2 3d673ed7
@12e3 bd16897b
@12e4 bbd5b38e
@12e5 3cbc40b9
@12e6 3c88e1c0
@12e7 bcb912df
@12e8 3d081566
@12e9 3b278cf4
@12ea 3b42c9bf
@12eb 3c7687c4
@12ec 3cc08125
@12ed bb905f6c
@12ee bd353c4a
@12ef bc99c408
@12f0 3cdc95f0
@12f1 bd333ddd
@12f2 3d20a786
@12f3 3bdd0ffe
@12f4 3d39efb4
@12f5 3cdb5f31
@12f6 bb03d3c2
@12f7 bd00adaa
@12f8 babcf06a
@12f9 b9cb2994
@12fa 3d11fd2b
@12fb bb425b26
@12fc bce2f208
@12fd bb30d428
@12fe 3cb1f152
@12ff 3d05172f
@1300 3d226adf
@1301 3ca9f609
@1302 3cb0b98e
@1303 3d472e9b
@1304 3b98797b
@1305 3d354bb2
@1306 3d40619e
@1307 3c9b6ba8
@1308 ba886239
@1309 bc6d27c6
@130a 3cbadc04
@130b bcd2ca73
@130c bc96390b
@130d 3b1d2165
@130e bc45fd41
@130f bcc566eb
@1310 3cf2a872
@1311 bc9ff519
@1312 3d24b2d4
@1313 3c83dff7
@1314 bd360cf9
@1315 bb851a65
@1316 bb1b0358
@1317 3cbf9fd3
@1318 bd4d5ff1
@1319 bd184f9d
@131a bd2edc31
@131b bb8606bb
@131c bd7c4c52
@131d bd0d52e6
@131e 3d454cff
@131f bc5f63ce
@1320 3c8f394b
@1321 bcea9b06
@1322 bc1e3a09
@1323 bca275f3
@1324 3d147931
@1325 bcc32931
@1326 3d1037f3
@1327 3a8ab429
@1328 3d17dda5
@1329 3b734b1c
@132a 3d322158
@132b bcf4b9af
@132c 3c8fa232
@132d bcda5717
@132e 3d17e37c
@132f 3c90ee8c
@1330 39003222
@1331 bab8905e
@1332 3d1c9252
@1333 bd11bb9b
@1334 bd17a146
@1335 3ce7e82c
@1336 bd52ca8d
@1337 3c19fed6
@1338 3d227033
@1339 bc3b03d0
@133a 3d04d7fe
@133b 3c5fbb04
@133c 3d2edf3a
@133d 3cc9fea0
@133e bd0767b4
@133f bcacca8f
@1340 3d6abac9
@1341 3c2192d5
@1342 3cd5b8c8
@1343 3d5131e3
@1344 3d0ef664
@1345 bcbc7d72
@1346 bc91b63f
@1347 3d2b37ce
@1348 3b918d51
@1349 bd31749b
@134a bc603837
@134b bd0f8f5e
@134c 3d548d76
@134d 3cdefdfa
@134e bd55947c
@134f 3c611772
@1350 3cf186e9
@1351 bd032290
@1352 bcbaf53b
@1353 3ce92ed5
@1354 bc21e545
@1355 bc270592
@1356 bb48fdbe
@1357 bcb8ac5f
@1358 bc4a2bb9
@1359 bd243cf6
@135a 3d1b2a41
@135b bd13aa4b
@135c bbadb279
@135d bc836b72
@135e 3ce4327b
@135f 3d304a22
@1360 bcd14d5a
@1361 3c092a60
@1362 bc8c450c
@1363 bd14fc7d
@1364 bcca91b2
@1365 3b3b3e59
@1366 3d2f450a
@1367 3d403ba8
@1368 3d4b1e76
@1369 bc58cd42
@136a 3d2aa00b
@136b 3bb36d14
@136c 3d17c8c2
@136d bd2e10e4
@136e bcc705f2
@136f 3ce16b48
@1370 3b139fa9
@1371 3d0ecc8b
@1372 3cae36e2
@1373 3d3765d5
@1374 3d1d3f1f
@1375 3c361962
@1376 bcf8eee3
@1377 bd15dbe1
@1378 bca1e0e0
@1379 3d33c836
@137a 3d36375e
@137b 3d00cdfb
@137c 3cb07824
@137d bad5a4fd
@137e 3d41846e
@137f bc7e09fb
@1380 3c00aaa3
@1381 bd365b21
@1382 bc2b3144
@1383 3d04d676
@1384 3d326c20
@1385 bcd9fd50
@1386 3cc92a9f
@1387 3c3172e8
@1388 3d1f2f79
@1389 bcdb088d
@138a 3d229f11
@138b 3c4f3acf
@138c bc9b259c
@138d 3cb350a5
@138e 3d0bae7e
@138f 3a389e30
@1390 3beede81
@1391 bc8241e5
@1392 bc7e28fc
@1393 bc1d97d0
@1394 bd286a93
@1395 bc5fd641
@1396 3d0799ae
@1397 bcdcd160
@1398 bd3886bb
@1399 bc417f69
@139a bc8438a6
@139b bd472fba
@139c 393260c1
@139d bc3c1427
@139e bd289f6c
@139f 3cfc164f
@13a0 3c9573ca
@13a1 bd1d8ae3
@13a2 bd4321c0
@13a3 3d0fa34f
@13a4 bce22431
@13a5 3d22be79
@13a6 bcc9905a
@13a7 bd2202a0
@13a8 ba8c24fa
@13a9 bcb3470c
@13aa bd35c56c
@13ab bd305dd1
@13ac bb79bbce
@13ad bcdbba7b
@13ae bd2b0af1
@13af bc095e3b
@13b0 bc985d5f
@13b1 3b0c42ca
@13b2 bca7a099
@13b3 bcdcff78
@13b4 bc842266
@13b5 bc207c8a
@13b6 3c2ed81e
@13b7 3cd5ce1f
@13b8 3ccbb11a
@13b9 3aca6c37
@13ba 3cf7a6ab
@13bb bcaf6c10
@13bc 3ae756b0
@13bd bb8640d8
@13be bcb28e97
@13bf bc29e6ae
@13c0 bc6f4d04
@13c1 bcdb4b44
@13c2 3d101c82
@13c3 3d430fa2
@13c4 bce3e573
@13c5 bd198ee9
@13c6 3ca12603
@13c7 bc07d400
@13c8 3ce72f74
@13c9 3c493334
@13ca bd09b22d
@13cb bba7ece1
@13cc bc950498
@13cd bd2eaee1
@13ce 3a604a0c
@13cf 3d4baef7
@13d0 bd303953
@13d1 3d1127af
@13d2 bd350ed3
@13d3 3d3028c2
@13d4 bc91bf2b
@13d5 bd32506b
@13d6 3c7bdd87
@13d7 3cde66e9
@13d8 bd3effa4
@13d9 bafb71e5
@13da bc17a89b
@13db 3d37597b
@13dc 3c6a7147
@13dd 3c894deb
@13de 3cd7ec05
@13df 3cc2d580
@13e0 bad920b7
@13e1 bc230387
@13e2 bd48da3e
@13e3 bd17f6d9
@13e4 bc86ad8d
@13e5 bd2782db
@13e6 3c3b946d
@13e7 3c81c123
@13e8 bd0960e5
@13e9 3d15f4d7
@13ea 3ce539df
@13eb bcb61a30
@13ec 3c32c922
@13ed bbe2cc96
@13ee bd0cedd3
@13ef bc88d966
@13f0 3cbc49ff
@13f1 bb45726d
@13f2 3c8b13da
@13f3 bc91eda8
@13f4 bc0a5255
@13f5 bc01f342
@13f6 bd443c11
@13f7 bcad05d0
@13f8 bc768f73
@13f9 bc9c6608
@13fa bc5d1ced
@13fb 3bc6e615
@13fc bd19d7f0
@13fd bc2a148b
@13fe 3cfda0bc
@13ff 3bc6b3b6
@1400 3d1914b2
@1401 3d3fa00f
@1402 bcaf822a
@1403 bc814c3b
@1404 3d1b8b79
@1405 bc6e1c1f
@1406 bc9b90f9
@1407 bd29096e
@1408 3cf77f59
@1409 bd13e009
@140a bcd7643e
@140b bc2bcd9d
@140c bd1d3c8c
@140d 3d2c58d6
@140e bc2bb975
@140f bd45bb7e
@1410 bcd7328b
@1411 bd3994ce
@1412 3ca055a6
@1413 3d30de75
@1414 bd00842f
@1415 3d22f27f
@1416 bbdcaaf9
@1417 3d0c83f5
@1418 bccef6fe
@1419 bcf7a788
@141a bb85ff31
@141b 3d0e4216
@141c 3cff1ebf
@141d 3ce9b994
@141e 3cddf5fb
@141f bcda77ac
@1420 bd3598b9
@1421 3b8183ce
@1422 bd2992d0
@1423 3b145e05
@1424 3d44a2cb
@1425 3cc8293a
@1426 3c5a5aee
@1427 bd3bb0dc
@1428 3d33ccf2
@1429 3d13dea5
@142a 3c74c499
@142b bc907d12
@142c 3c9ed382
@142d 3c02d74d
@142e 3ba30a02
@142f 3d0e8bcf
@1430 3c896bcc
@1431 ba84851f
@1432 bce60b94
@1433 3c39761d
@1434 bd13b2af
@1435 bb8b3945
@1436 3d198518
@1437 3b0d36c0
@1438 3c46dd95
@1439 3d32dd81
@143a bbc1b3d0
@143b bcccb522
@143c 3c2c56e2
@143d 3d172f39
@143e 3c4cc20f
@143f 3ca90aaf
@1440 3ce2a26e
@1441 3c81ef60
@1442 bd3aedc0
@1443 bc834984
@1444 3bc9eb16
@1445 3c64607c
@1446 3d27e8db
@1447 3d11f844
@1448 3c390051
@1449 bd418187
@144a 3d32ca05
@144b 3d3cea21
@144c bd2ce84e
@144d 3d1773aa
@144e 3d1a30f2
@144f bc0f7403
@1450 3cdd4a55
@1451 bd33f5fc
@1452 b778dd26
@1453 3ca6a140
@1454 3d205af4
@1455 bcb1f3ee
@1456 bd48dbff
@1457 bd18b9fa
@1458 3c22bd0c
@1459 bcf1ba66
@145a bcb8f754
@145b 3c8b5520
@145c bd4b9cdc
@145d 3c2dd4e7
@145e bd4fcf2b
@145f bcc23964
@1460 3aedd34a
@1461 bcef2d5e
@1462 bc9ecfa0
@1463 bd41084b
@1464 3ca67654
@1465 3d04684f
@1466 3ced0935
@1467 bd16553d
@1468 bca26b0e
@1469 bd0e7152
@146a bd2fcf1c
@146b 3d48fa4d
@146c 3d23237e
@146d bb1c1f77
@146e 3b8b7af8
@146f 3c89b2b9
@1470 3d0419c7
@1471 bd18ffa9
@1472 bbdb90be
@1473 3bf459b9
@1474 3c3ae1ae
@1475 bc4f3d74
@1476 bd2724e4
@1477 3d0ef851
@1478 bc6aa39b
@1479 3d2c23e5
@147a 3d1127e6
@147b bd4b1541
@147c 3d2fb195
@147d 3d2c41fb
@147e bbc59d8a
@147f 3c0394cd
@1480 bccbc991
@1481 bcbd7cfc
@1482 bcc0c519
@1483 bcddab05
@1484 3ccc6e4e
@1485 bd3dd73a
@1486 bb7cf58e
@1487 bd034157
@1488 3d18359a
@1489 3d103a70
@148a bcd01bda
@148b bcbbf853
@148c bcbf185e
@148d bc2ada11
@148e 3b172dfb
@148f bd4a37d9
@1490 3cf34257
@1491 bd0d1b49
@1492 bcc020b7
@1493 3c603d05
@1494 3c3d98f3
@1495 3b57905d
@1496 bb0c1473
@1497 3c0a4a58
@1498 3cf4c260
@1499 bd394d18
@149a bd10481f
@149b 38167127
@149c bcbca008
@149d bbd0d96b
@149e bd1ae0fe
@149f 3d161ef2
@14a0 3c35110d
@14a1 3cd67839
@14a2 bcb0454d
@14a3 bd55426c
@14a4 bd1fdda7
@14a5 3d4a12a7
@14a6 3cecb4dd
@14a7 bc92f864
@14a8 3cfbf35c
@14a9 3bbea103
@14aa 3c960952
@14ab 3d3f47ff
@14ac bc5435b7
@14ad 3bc040de
@14ae 3c356a5d
@14af bd47fabb
@14b0 bcc9357a
@14b1 bcc5134c
@14b2 3d4d7a8d
@14b3 bd403662
@14b4 3cb3b4e0
@14b5 b9219e96
@14b6 3cbc4066
@14b7 bcf20bbd
@14b8 bc89414a
@14b9 bd0063e0
@14ba bc98badc
@14bb 3cc2d263
@14bc bcfb86b3
@14bd 3cc8267f
@14be 3be3cb40
@14bf bd1a2a8e
@14c0 3cb069f9
@14c1 3cbfbb4c
@14c2 3d20f18e
@14c3 3d1d0be8
@14c4 3d091ff4
@14c5 ba082d09
@14c6 3cd33c21
@14c7 bd0461c6
@14c8 3bf43d90
@14c9 babd8ff8
@14ca 3ceab61f
@14cb bc848d0e
@14cc 3d0d5f8c
@14cd 3cb6ea89
@14ce bd285c47
@14cf 3d222418
@14d0 3cee4841
@14d1 3d2f8e6d
@14d2 3cfd59de
@14d3 3b5bfecb
@14d4 3c96e938
@14d5 3d364ecf
@14d6 bcaf007e
@14d7 3d1e5581
@14d8 3cfaf65b
@14d9 3c717c5b
@14da bd5bcbff
@14db bd4c370e
@14dc bd3e40b8
@14dd 3d3835a2
@14de bd43d5e9
@14df bc998d27
@14e0 bc219c41
@14e1 3c0f5c02
@14e2 3c23e696
@14e3 3d58b9e3
@14e4 bcecb5be
@14e5 bd2d6e4d
@14e6 3d2cf9c8
@14e7 bca52e47
@14e8 3b6d91ca
@14e9 3d3d797e
@14ea bcc04741
@14eb 3d557a69
@14ec 3c6ce1d1
@14ed 3cd03a2c
@14ee 3cd64af6
@14ef bd30516a
@14f0 bcd8411c
@14f1 bd48ba3d
@14f2 3d252ae5
@14f3 3ca4720a
@14f4 3c3df8d5
@14f5 3d05f417
@14f6 3d4610ca
@14f7 bd5da247
@14f8 bd06636f
@14f9 bbb78fc0
@14fa bcd5d2b7
@14fb bd00f0c3
@14fc bce5f318
@14fd 3cadf386
@14fe bd2fe978
@14ff bc52adad
@1500 bb74655b
@1501 bd379af0
@1502 3b2cb5e6
@1503 3d268e89
@1504 3cb8aaae
@1505 3c798200
@1506 bd0941c5
@1507 bd9573fc
@1508 bc74f246
@1509 bd7badcc
@150a bd2bc663
@150b bbbda220
@150c 3d2a05d1
@150d 3d2dd526
@150e bcdc28ae
@150f bcecf4a1
@1510 bc0fb021
@1511 bcf845c3
@1512 bd4063de
@1513 3cbdae68
@1514 3c2596eb
@1515 3c0fe00c
@1516 bcd7c41d
@1517 bd21961b
@1518 bcdd2b67
@1519 3d2c5a01
@151a bd19817c
@151b bca92b70
@151c bd2dc66f
@151d b992765e
@151e bd18e7ab
@151f bd2904af
@1520 3d2bbf6b
@1521 3d2271d0
@1522 bd02525b
@1523 3c035f12
@1524 bd224f0e
@1525 bd0a94c4
@1526 bcb4e3cd
@1527 3c3fc48d
@1528 bc10a57a
@1529 bcfe250d
@152a 3d1c2f49
@152b bce2b97f
@152c 3d22a0c4
@152d bd541f91
@152e 3ca513f0
@152f bd36392f
@1530 3addf93a
@1531 3cad4440
@1532 bc8d7191
@1533 3d0742bf
@1534 bc8d4d5a
@1535 bd5a57c0
@1536 bb8b2d5d
@1537 3d2e902f
@1538 3aece3b4
@1539 bd523410
@153a bd4a3486
@153b bcfa5f2c
@153c 3bac8a42
@153d 3d138b8a
@153e bc8ad7e5
@153f 3cc45277
@1540 bd23252c
@1541 bcac8749
@1542 bd13b05d
@1543 3b75ccbc
@1544 bd0a18c0
@1545 bc90bcc3
@1546 3cbd4896
@1547 bd01d312
@1548 3c87d11f
@1549 bd2a4e2c
@154a bca14f12
@154b 3d7dad74
@154c 3d156e49
@154d 3cd00aaf
@154e bd86a964
@154f 3d0c5744
@1550 bd1e94d4
@1551 3d1e0f76
@1552 3cdc644b
@1553 3d0ebd12
@1554 3d1e1622
@1555 bd18a2d0
@1556 3c405de0
@1557 3d28fedd
@1558 b991c06b
@1559 bc53764e
@155a bcbb298c
@155b bd32e5f0
@155c bd5847ef
@155d 3d3208e8
@155e 3d0ed014
@155f 3d16430f
@1560 bcce6548
@1561 bcbc55d3
@1562 bd40c22f
@1563 bd0dcc8f
@1564 3ae53e4d
@1565 3bf45547
@1566 3cbc1529
@1567 3bdc5ef2
@1568 3d193b86
@1569 bacad944
@156a 3ba27bf1
@156b bd207a01
@156c 3cf26d47
@156d bcad684d
@156e 3c8357ba
@156f 3b3fa8df
@1570 3ce80e08
@1571 bc9b00fc
@1572 3bfa5e6e
@1573 bc9af42d
@1574 3cfe8518
@1575 bcd86178
@1576 bd3ee219
@1577 3d2aaac0
@1578 bced051c
@1579 3d217ce1
@157a bd44eb6a
@157b bcaa102a
@157c bad47d30
@157d 3c915fed
@157e 3d038999
@157f 3d25ad0e
@1580 bd12ac7a
@1581 bd214686
@1582 bce177e5
@1583 3bd667b1
@1584 bd305f9b
@1585 3bfeec19
@1586 3b152ecd
@1587 bcaca903
@1588 bd31c723
@1589 bcc14c63
@158a 3ce7ecc7
@158b 3cce8988
@158c 3d2442c7
@158d bcb47c42
@158e bbe72760
@158f 3d46aaa8
@1590 bd4a4089
@1591 bcfa7a9a
@1592 bcc314d9
@1593 bab0de30
@1594 3aa623ed
@1595 3c770e9d
@1596 bcac5616
@1597 bc04e7e7
@1598 3c28d196
@1599 3cc257ca
@159a 3cb17ae3
@159b bd3183c9
@159c bcf25cc2
@159d 3d005409
@159e 3c9843f4
@159f 3ce7cf27
@15a0 3d3611a2
@15a1 bb78095b
@15a2 3c3a2e3b
@15a3 3d1f3145
@15a4 bc9b731b
@15a5 bb93f5f7
@15a6 bc22dcb0
@15a7 bca3cfb8
@15a8 3d079097
@15a9 3d3d44fa
@15aa bc0e8a98
@15ab bca7b8f4
@15ac bcc3e78c
@15ad bb325fbd
@15ae 3c747d9d
@15af bd29978b
@15b0 ba26106f
@15b1 bb80d2d6
@15b2 3d0967aa
@15b3 bd088e8e
@15b4 3d25a136
@15b5 3bb6d54a
@15b6 bc819f83
@15b7 3d00b465
@15b8 bcc622a1
@15b9 bd48c3bf
@15ba bc618f48
@15bb 3d2f1313
@15bc bd3865da
@15bd 3ceb6cf2
@15be 3d17d54c
@15bf 3c226ea0
@15c0 3d48123d
@15c1 bd3704ad
@15c2 3cdf5a19
@15c3 3cd3c8da
@15c4 3d2a5c1c
@15c5 3b1b6e76
@15c6 ba016f45
@15c7 3ba7d956
@15c8 bcef3ef4
@15c9 3c429f9e
@15ca bd2e4d74
@15cb 3ce5f96e
@15cc 3d409d76
@15cd 3d2fa2fb
@15ce 3d37ba7e
@15cf bc46ae7a
@15d0 bc1e70db
@15d1 3c9cff74
@15d2 bb31558d
@15d3 bcf22806
@15d4 bcfc4a1f
@15d5 3d0d81db
@15d6 bcb004cc
@15d7 3ce209b8
@15d8 bd2d8de6
@15d9 bd462b7b
@15da bd173e1a
@15db bd173ca5
@15dc bd4a326c
@15dd 3d22ee47
@15de 3ca8ecc0
@15df 3c758cc3
@15e0 bd302bb1
@15e1 3c3522ab
@15e2 3c92bd0e
@15e3 3c40a151
@15e4 bd09ced3
@15e5 3d55dd51
@15e6 3d116d5f
@15e7 3c16fd61
@15e8 3d0ae4dd
@15e9 bd9834a8
@15ea bcd7e62e
@15eb 3c0af607
@15ec 3dbc408c
@15ed bc98761d
@15ee bd84f41c
@15ef 3d96c10a
@15f0 3dc0b2cf
@15f1 3c82eb2c
@15f2 bd9155d6
@15f3 bd2bb3bc
@15f4 3c7de3e8
@15f5 bcbb3b9d
@15f6 bdc8f836
@15f7 3ba32f6b
@15f8 3bdd6ace
@15f9 bd1bd6dc
@15fa 3988e14a
@15fb 3d116ff9
@15fc 3d580d5c
@15fd 3d597c44
@15fe bca3ec07
@15ff bbd8eba8
@1600 bd5ce9da
@1601 bd62e2ba
@1602 bcb524c8
@1603 bd15bf37
@1604 3d13e8af
@1605 bcf76344
@1606 3d0433e9
@1607 3b31372b
@1608 3cfe208f
@1609 3ce6563d
@160a 3d0a39ac
@160b 3ce932df
@160c bd749dae
@160d 3bacf40c
@160e 3c5849bc
@160f 3d0712e0
@1610 bd1f2535
@1611 bcfedc06
@1612 bce3ee2d
@1613 bb1e704f
@1614 bcabef81
@1615 bb4025b1
@1616 3d09c520
@1617 bbf1464a
@1618 bd07440c
@1619 bcd1c0c5
@161a bd020e6f
@161b 3d2cf263
@161c 3cef44e6
@161d 3d6730ee
@161e 3d38764f
@161f 3d0e80c7
@1620 bbaa4542
@1621 3d08b2cd
@1622 3d317775
@1623 bd447247
@1624 3cb3d1a9
@1625 bc2d72fd
@1626 bd062965
@1627 bca4f246
@1628 3d307890
@1629 3cf4a1c8
@162a 3a01e9c0
@162b 3cef4a72
@162c 3c47fc06
@162d bbe35a25
@162e bccc3244
@162f 3d4ba411
@1630 bcf1265f
@1631 3d2f0abf
@1632 bd226abd
@1633 3c17576a
@1634 3cd06719
@1635 bcd968f7
@1636 3b154d45
@1637 bd10d685
@1638 3cd494af
@1639 3cd4de59
@163a 3d21b59a
@163b 3c5adece
@163c 3bb9e5d5
@163d bd5e818c
@163e bd92f2ef
@163f bc56e5a1
@1640 3d4994dc
@1641 bbe2d503
@1642 bd90998f
@1643 3a72da07
@1644 3ca855b7
@1645 bc871f5e
@1646 3d3b297c
@1647 3aef6bb1
@1648 bcdd48df
@1649 bcf764bd
@164a 3d3e7457
@164b 3c541899
@164c 3d3ca08e
@164d bb6de42d
@164e bc970785
@164f bd00ced3
@1650 3ce35988
@1651 bce10ee4
@1652 3cdcd27e
@1653 bb8b15af
@1654 3d4dae52
@1655 3d083857
@1656 3d102a28
@1657 bd5a7286
@1658 3d4f50e6
@1659 bc371804
@165a bce93c24
@165b 3c7fb20c
@165c bbe58d09
@165d bcb9df8c
@165e 3d3f1d22
@165f 3ca74cc2
@1660 3d6bb634
@1661 bcb5ac36
@1662 3d346a9a
@1663 bb844877
@1664 3c84285f
@1665 3d2bee86
@1666 3c51337d
@1667 bcebd5c5
@1668 bd29cea3
@1669 3c864564
@166a 3cd2ffd0
@166b 3c8a427c
@166c 3d340b22
@166d 3d562323
@166e 3d361edf
@166f bd0eecff
@1670 bcc2b43b
@1671 3cf58bc9
@1672 3c14db60
@1673 bcb64e75
@1674 bc1643f2
@1675 bc2a86d9
@1676 bb9a6446
@1677 bcc9aaa0
@1678 bd3a9fd7
@1679 bc109c2b
@167a 3caa14c5
@167b bd3ddeab
@167c 3d2c61b0
@167d 3cdd6326
@167e 3d0ffa87
@167f bd476c7b
@1680 bcd1bac0
@1681 bd48832e
@1682 bc7ec41e
@1683 bc842ac3
@1684 3cf35eff
@1685 bd1f9278
@1686 3d2a24b4
@1687 3b4d87c2
@1688 bd3340eb
@1689 bd115d5e
@168a 3cd8bfa5
@168b bcfe97dd
@168c 3b1fa253
@168d bd219328
@168e 3bb2e2c6
@168f 3d206f85
@1690 bd7c1f25
@1691 3c4077a5
@1692 3c90eab2
@1693 bd65a21b
@1694 bb8f5fd4
@1695 bcd60f20
@1696 bd78570b
@1697 3a17fab2
@1698 bd1242f1
@1699 bccb1459
@169a 3d03161c
@169b 3d1d77a7
@169c bb43bfef
@169d 3d1d34e4
@169e bc75156a
@169f 3cd53f57
@16a0 3c779918
@16a1 bd54f635
@16a2 bc299d6e
@16a3 bd8f40c1
@16a4 3d2c6d86
@16a5 3c874fdf
@16a6 bc71830f
@16a7 3d17ce73
@16a8 bd1e4cbd
@16a9 bcbd5ba5
@16aa bc711e91
@16ab 3ce1659d
@16ac 3d1b9ddb
@16ad b9cf5a93
@16ae bd046918
@16af 3c75e7b3
@16b0 3d1a4a85
@16b1 bc952996
@16b2 bbc2fa5f
@16b3 3b0e686c
@16b4 bd2a094a
@16b5 3d17cbfa
@16b6 3d291f33
@16b7 3c2df04d
@16b8 3c350995
@16b9 bbe8bc66
@16ba 3c5e046e
@16bb bc73906b
@16bc 3d2d0f0b
@16bd bd332b49
@16be 3c4d9933
@16bf bd0a0936
@16c0 bd04251d
@16c1 bcad1092
@16c2 3b84be05
@16c3 bd275133
@16c4 bd6191e9
@16c5 bc4176df
@16c6 3c61aa34
@16c7 bd634567
@16c8 3ab4b8c4
@16c9 bc9106db
@16ca bcd35813
@16cb 3cef471e
@16cc 3c8e9a15
@16cd bc8b73f0
@16ce 3d347712
@16cf 3d1a8795
@16d0 3d0f501b
@16d1 bc9da4da
@16d2 bc69f5c5
@16d3 bcf3aa7e
@16d4 bcbad641
@16d5 bcb25724
@16d6 3c0df294
@16d7 bd1751ec
@16d8 3d12fb15
@16d9 3bdc1973
@16da 3c9a2a42
@16db 3d4b6e24
@16dc bd3a726f
@16dd bd47237f
@16de bc9704db
@16df 3c5d35d1
@16e0 bcab70b1
@16e1 bcc08363
@16e2 bcc535a6
@16e3 3cb337d9
@16e4 bcf96ca6
@16e5 bc6999c0
@16e6 bc90aed8
@16e7 bd3bb267
@16e8 bd598280
@16e9 3cd299ec
@16ea 3cb0bbb7
@16eb b9b250a7
@16ec bc8e8341
@16ed bc05dc72
@16ee 3d814ae6
@16ef 3c26a86f
@16f0 3d035876
@16f1 bc425630
@16f2 bc51eb38
@16f3 3d3ebca3
@16f4 bce79f3f
@16f5 3c905722
@16f6 bc2a2d2a
@16f7 3b1d3255
@16f8 bc2d8291
@16f9 3d1c18e2
@16fa 3c07b272
@16fb 3c6abc4f
@16fc 3c2e3b4c
@16fd bc964d7a
@16fe bd2b52cd
@16ff 3d413cdd
@1700 3d7d5323
@1701 3ca39858
@1702 bd24b92f
@1703 3cd9ffb7
@1704 bbacefca
@1705 bc4fe0de
@1706 ba9fc562
@1707 3c76b242
@1708 3d22db6f
@1709 bd05e2cd
@170a bd343bc1
@170b 3d11850a
@170c baf11f13
@170d bce0e712
@170e bd420605
@170f 3b02915f
@1710 bcd73ee5
@1711 bd32d7a4
@1712 3c643fae
@1713 bbe97137
@1714 3c11b735
@1715 3ca19a86
@1716 bd1e9021
@1717 bcc194dc
@1718 3d258751
@1719 bd020572
@171a bd2782b1
@171b bd2512a2
@171c bc5407cb
@171d bc98a3d5
@171e bd483e48
@171f 3c3a744f
@1720 bd067682
@1721 3cc3add1
@1722 bc9801dd
@1723 3be820b7
@1724 bcc92310
@1725 3d4dac7e
@1726 3d242465
@1727 3cd4b30b
@1728 bca6afd9
@1729 3a6e4d49
@172a bc393607
@172b 3cccefb6
@172c bd706b50
@172d bcaf41e9
@172e 3d1670a6
@172f bc5c52ad
@1730 3cd73f73
@1731 bd2fabc0
@1732 3d33925a
@1733 bcafd03c
@1734 bc9e68b3
@1735 3d3b14df
@1736 bc68dcef
@1737 bd3c767b
@1738 3cd4bc02
@1739 bc90b1dc
@173a 3c499fe1
@173b bcd82309
@173c bcadd41a
@173d bd15abc3
@173e 3cb9718d
@173f 3d070e73
@1740 bb85366b
@1741 3d345d75
@1742 bac8866d
@1743 bcce8e97
@1744 bc458016
@1745 3d3531c2
@1746 bd4b1bca
@1747 3c1e170d
@1748 bcc21ad8
@1749 bca1dfbf
@174a 3b87f733
@174b 3a416ced
@174c 3cc7ab0a
@174d 3c872716
@174e 3cfcf77f
@174f 3d37a0a7
@1750 3d01aca1
@1751 3cd72c0d
@1752 3d2c994b
@1753 bcedde97
@1754 3c821406
@1755 3d275a69
@1756 3c750aa3
@1757 bca350a5
@1758 bd677ea7
@1759 bc1ce886
@175a bbee590e
@175b 3cf65066
@175c 3d356e0e
@175d bd34c764
@175e 3cd45efd
@175f bd2a557e
@1760 3d1e9201
@1761 bd039e22
@1762 bcab6045
@1763 3c823466
@1764 bd08e9e7
@1765 bc4582e9
@1766 bbea7002
@1767 3d2688e8
@1768 bb147147
@1769 bd44e525
@176a 3d0813de
@176b 3b4b32c3
@176c bcd16cd9
@176d bc81b5d1
@176e bd23ab95
@176f bc57faaf
@1770 bcf268d4
@1771 bc1841ce
@1772 bd39d15b
@1773 bc2e8d76
@1774 bd044f81
@1775 3d13a8c0
@1776 bc864c72
@1777 3d9300c8
@1778 3d999449
@1779 3d830519
@177a 3c8584f4
@177b 3d505cf7
@177c 3d442406
@177d 3c9be1a3
@177e 3ca61d88
@177f bc397963
@1780 3d1e59fa
@1781 baaee834
@1782 3cb74ab5
@1783 bcc404be
@1784 bd85d094
@1785 bc7ee3be
@1786 3c9c596b
@1787 bd88dfe4
@1788 3c69f2d3
@1789 bd446279
@178a 3d33c191
@178b 39eec782
@178c 3d1d572d
@178d bd401ab8
@178e 3d247738
@178f bc679b2b
@1790 3cbca712
@1791 3d258255
@1792 bba69d43
@1793 bd30a7ce
@1794 bcf4501d
@1795 3d7f95bf
@1796 3d8075fb
@1797 3c8b3743
@1798 3c00d4e9
@1799 bccd9877
@179a bd14124e
@179b bb88a5a6
@179c bd4cbd1d
@179d bc8d5294
@179e bd14fae4
@179f bd117ca3
@17a0 3d1edddb
@17a1 3cb76a27
@17a2 3d23b93e
@17a3 3d06b6d8
@17a4 bad7b5fc
@17a5 bc8403b8
@17a6 3b14477c
@17a7 3cd55c71
@17a8 3d41c8c0
@17a9 bd39f367
@17aa 3c410726
@17ab bd25ed1a
@17ac 3b374ebc
@17ad 3baf5b76
@17ae bd154c47
@17af bba87280
@17b0 bd1e0ff7
@17b1 bd00ced0
@17b2 bd0d13c3
@17b3 3c2ebb15
@17b4 3d21d300
@17b5 bd343025
@17b6 bce09853
@17b7 bbf00846
@17b8 3ca53ba2
@17b9 3c93da2f
@17ba 3bc9294c
@17bb 3c3ee4c2
@17bc bd2fe967
@17bd bcf1907a
@17be bd5aa850
@17bf bd4aabf1
@17c0 bd5cd0e0
@17c1 bd504677
@17c2 3d29a698
@17c3 bc1bd0b8
@17c4 3c34591e
@17c5 ba16cfcb
@17c6 bd1708a5
@17c7 3d849cd7
@17c8 bbc6fc24
@17c9 bd34ca75
@17ca bcc24083
@17cb 3d211c3e
@17cc 3d20399a
@17cd bd37a70b
@17ce 3d424edf
@17cf bc2e42ff
@17d0 bca199cb
@17d1 ba659cb2
@17d2 3d468772
@17d3 bcd2b1fc
@17d4 bc7ca253
@17d5 3b0db0c8
@17d6 3d39bc87
@17d7 bd1f65a1
@17d8 bd0e9fd5
@17d9 3d17354a
@17da 3c1a87d1
@17db 3d214aef
@17dc 3c49427e
@17dd bd230f3a
@17de 3ca8d6ba
@17df 3d56aa6d
@17e0 3d3f7503
@17e1 bcaaacbb
@17e2 bc38fd28
@17e3 bd4021a3
@17e4 3c5020b4
@17e5 bbc2fc39
@17e6 3c971db9
@17e7 3c830add
@17e8 3c6d490f
@17e9 bb96c967
@17ea 3c046309
@17eb bc0c8df8
@17ec bd0db34f
@17ed 3ca35472
@17ee 3d2610a1
@17ef 3c3bdd3d
@17f0 3d28b275
@17f1 bd4d7e1f
@17f2 3c3e62d9
@17f3 bd16fbba
@17f4 3c9a2252
@17f5 3d569c51
@17f6 3d73668b
@17f7 3bd75868
@17f8 3c1e2063
@17f9 3c8e05d3
@17fa 3d6caa13
@17fb bc2ccde6
@17fc bcfb5ade
@17fd 3d8097cb
@17fe bc47f6e3
@17ff bcaa12af
@1800 3be0f350
@1801 bce68cff
@1802 3d2538aa
@1803 bc9359c8
@1804 bc674abd
@1805 3c4c485e
@1806 bbc45190
@1807 3b168d87
@1808 3cbdf13f
@1809 3d26702c
@180a bc05cadc
@180b bc862992
@180c bcefc1f2
@180d bb0efd99
@180e bd1b1f18
@180f bcc734be
@1810 3cfb759f
@1811 3d3e1d9b
@1812 bc05f6bc
@1813 3c2cbf41
@1814 3d309df4
@1815 bd33736e
@1816 bc9da9af
@1817 bd49d0f2
@1818 3c8ecf05
@1819 bd38f92a
@181a bb9c4984
@181b bc0cd3ca
@181c 3c22cb2d
@181d 3d1bb705
@181e bc962d5e
@181f bc9ec45e
@1820 bcd79f49
@1821 bcecf3a6
@1822 bd32cf28
@1823 3d29d586
@1824 3d1f08e9
@1825 3d3ca24f
@1826 3bbfd434
@1827 bcddf066
@1828 3d30dde5
@1829 3d2b7a5b
@182a bd18cc3a
@182b 3c6b52ce
@182c bc6c58bd
@182d 3b94b10b
@182e bc0d9a9a
@182f bcd6ffd8
@1830 bc1528b3
@1831 3ca6c146
@1832 3d3a91c7
@1833 3a98bb32
@1834 3cd221ff
@1835 3d060975
@1836 bd195f38
@1837 3c8002c4
@1838 3d28b223
@1839 bb82ad9b
@183a bd085796
@183b 3b8f77a1
@183c bb43a024
@183d 3b160066
@183e 3c40e62f
@183f 3cc43757
@1840 3cd9589b
@1841 bd3d1859
@1842 bb9057f5
@1843 3ce8d7e5
@1844 bd1ba23f
@1845 3c455df7
@1846 3c01f5e4
@1847 3d338f19
@1848 bd123566
@1849 3c79685e
@184a 3d3d329b
@184b 38a5ba04
@184c bcfaf2c8
@184d bcb3f9fc
@184e bcae4cce
@184f 3cfc6fdf
@1850 3c05aaa4
@1851 bc91ac2a
@1852 3d0a6e13
@1853 3c08d11d
@1854 bd1e27e3
@1855 3be658c9
@1856 bc82d751
@1857 bd245fd2
@1858 bd238a49
@1859 bca983aa
@185a bd2193fd
@185b bcd0e19a
@185c bc419946
@185d 3cff9382
@185e 3d300ab9
@185f 3d46a891
@1860 bc7b8255
@1861 3d0a8ad7
@1862 bbae2889
@1863 bd25e576
@1864 3cbfdecd
@1865 3d1ac2da
@1866 3c86783c
@1867 3d10cad9
@1868 3ced2c71
@1869 ba49146f
