@0000 bd270f3c
@0001 3e1e2ef1
@0002 3e42886f
@0003 3d9af597
@0004 3e910eb2
@0005 3e26cb6a
@0006 3e370734
@0007 3e8b9e24
@0008 3e04b069
@0009 3eb7817f
@000a 3e612abb
@000b 3e7aff62
@000c 3edc6d5a
@000d 3e1b2092
@000e 3e55f909
@000f 3e505493
@0010 3dc42657
@0011 3ea0e455
@0012 3eb7fa52
@0013 3d6d3435
@0014 3ebf3e56
@0015 3eae06ba
@0016 3ebd9668
@0017 3ea9d990
@0018 3e93ce0d
@0019 bda80829
@001a bd9305c7
@001b 3d4b16a0
@001c 3de62e24
@001d 3d9b6057
@001e 3c8d03e2
@001f 3e2c94e2
@0020 bdcbcf7c
@0021 3e33acd2
@0022 bd2ace6c
@0023 be2daff8
@0024 be07fbae
@0025 3dc82e9a
@0026 be08dc79
@0027 be051e0f
@0028 bc93cdde
@0029 bdd2c7f1
@002a 3b5130e2
@002b 3d950d21
@002c be15b5c2
@002d bba0d246
@002e 3db9219e
@002f 3d8a59e7
@0030 bdd1f99b
@0031 bcb94cf5
@0032 bc90282d
@0033 be4b74b8
@0034 bdeea757
@0035 bdb2799b
@0036 bd711a0c
@0037 3be458e9
@0038 3d978f74
@0039 3e4a5c1c
@003a bc31c779
@003b be210c6e
@003c bd993002
@003d bd877c6e
@003e 3d95fff4
@003f bd38b270
@0040 be04de71
@0041 3dc65e9c
@0042 bdfa0703
@0043 3e41dd30
@0044 be0e93ee
@0045 be1bc57b
@0046 bd02712f
@0047 3d758e51
@0048 be0326a5
@0049 bd3bfd82
@004a bd57ae16
@004b 3e194a61
@004c bc8aff11
@004d 3e2ab1ef
@004e bdd2050a
@004f 3e446c98
@0050 bd19740f
@0051 3e082ed6
@0052 3e4bcd6c
@0053 bda186a0
@0054 3e5d5d87
@0055 3dcc6c78
@0056 3d7a9b5c
@0057 bc6c2c94
@0058 3d2e55e9
@0059 bd0fd7cf
@005a 3ce5dcb3
@005b bde21891
@005c 3e2484f2
@005d 3e4aa2f7
@005e 3dac29f6
@005f bdbcce1e
@0060 bdaa8684
@0061 bd4ebab2
@0062 bd6f9c1b
@0063 bcb7fecc
@0064 3ea17b5b
@0065 3ed81982
@0066 3ebe6aa8
@0067 3e1f1552
@0068 3ee15640
@0069 3e111698
@006a 3ef14f7a
@006b 3ef5c8da
@006c 3f03aeb4
@006d 3f06b45a
@006e 3e586749
@006f 3eb6d382
@0070 3ef1bf78
@0071 3e4995a0
@0072 3ec7b68a
@0073 3e8c2d69
@0074 3e216835
@0075 3ebd6efb
@0076 3f059095
@0077 3ed6e702
@0078 3d3aaea7
@0079 3e505670
@007a 3e6520af
@007b 3e20f496
@007c 3eac6910
@007d bd5c8b53
@007e 3e4a3058
@007f be25aafa
@0080 3e535a17
@0081 be2046d5
@0082 3ce08ad1
@0083 bd9a0c5d
@0084 be12ed3d
@0085 3e4ba3e8
@0086 3e1bf83c
@0087 3e0894c8
@0088 bd46a455
@0089 bcd331d9
@008a bdd7d026
@008b 3e69ac9e
@008c be37f930
@008d bd561531
@008e be15da07
@008f 3d657460
@0090 bda7d965
@0091 3e4973dc
@0092 3e43f685
@0093 3d9c87a5
@0094 3de2f57f
@0095 3dab80ff
@0096 3d12da4e
@0097 bcc476b2
@0098 bdab4cae
@0099 bdc2cb69
@009a 3a8b3e7e
@009b bc77033f
@009c bdaf4a5a
@009d 3d5ba9d6
@009e bcbc4fb2
@009f 3db165cb
@00a0 bd182ffa
@00a1 bcfecf0a
@00a2 3e21cf7c
@00a3 3e19e9ac
@00a4 3e145ba1
@00a5 3b5e470d
@00a6 3ca45cb0
@00a7 3e4524d8
@00a8 3d8984f7
@00a9 3dbb3866
@00aa bc3148c9
@00ab 3c6c90c4
@00ac 3d41267a
@00ad 3dede58f
@00ae 3d2cfe6c
@00af bd74cc63
@00b0 bc99445d
@00b1 ba4162c3
@00b2 3d7ba4e6
@00b3 bd4b800a
@00b4 3d648b67
@00b5 bd3dfcbb
@00b6 3d84b9e4
@00b7 bd09510a
@00b8 bcaf7685
@00b9 3c853025
@00ba 3d8e3714
@00bb 3b6f4dbf
@00bc bcfed02a
@00bd 3d6cb7c9
@00be 3d56526e
@00bf 3a037e31
@00c0 3b71599f
@00c1 bd302e8a
@00c2 bcdd22d7
@00c3 bd4b5fae
@00c4 3cea5b15
@00c5 3d5cc968
@00c6 3ab66a6a
@00c7 bd959743
@00c8 3b59f975
@00c9 3b4e9f06
@00ca bd80056a
@00cb 3d8ae4c0
@00cc bd9644cb
@00cd bcfe5190
@00ce bd2e38e5
@00cf 3bf4d474
@00d0 3d4de479
@00d1 3d23b577
@00d2 bc495c5b
@00d3 3d7ee5a8
@00d4 bd0ab1c8
@00d5 bd75ab13
@00d6 3d25e4b0
@00d7 bc3c55c6
@00d8 b94d1afb
@00d9 3ce09b51
@00da 3da5fe4e
@00db bc30b5af
@00dc 3c92083f
@00dd bc34a584
@00de bd0ddefb
@00df 3d69454b
@00e0 3d3c344c
@00e1 bd53da5f
@00e2 3d7b047f
@00e3 bd482f83
@00e4 baa2849d
@00e5 bd499a56
@00e6 bc9af1d7
@00e7 3d571f45
@00e8 3d127b4b
@00e9 bcb70bdb
@00ea 3d793bf4
@00eb bd4988d3
@00ec bda1482d
@00ed 3d65610d
@00ee 3d1dfdc1
@00ef bd0ad6b8
@00f0 bcd9b97d
@00f1 3d23e13f
@00f2 bc9b2fa2
@00f3 bc86bca3
@00f4 3dbaefef
@00f5 3d1ace34
@00f6 3ca2f33b
@00f7 3a39d167
@00f8 bc26c9af
@00f9 3dcdaba9
@00fa 3b6ed2df
@00fb 3da9a5ca
@00fc bcc523bc
@00fd 3c46f7c8
@00fe bdf217c5
@00ff bc49223c
@0100 3d037ffc
@0101 3ccadc98
@0102 3d9b3bc7
@0103 3c1628e0
@0104 3cb3c7a0
@0105 bd4a63e9
@0106 3d178b22
@0107 3ccafd73
@0108 3de5b229
@0109 3b302c33
@010a 3e2eacb0
@010b 3e3ade30
@010c 3e6efb69
@010d 3e230f42
@010e 3cf73ffa
@010f 3e0f279a
@0110 3db4a8d3
@0111 3e65a300
@0112 3d8f14fa
@0113 3a85c41d
@0114 3d417ecf
@0115 3d253856
@0116 b905fe07
@0117 bb9b54f9
@0118 bd6ec271
@0119 3d7d4a44
@011a 3b19f3a6
@011b 3d2cc0e8
@011c bd84d6ca
@011d bd95f570
@011e 3d9a20a5
@011f bcee327c
@0120 3dcc26be
@0121 bcdcd736
@0122 3cc45282
@0123 3d3d1757
@0124 3beafb89
@0125 3d3d01e8
@0126 3d719ef3
@0127 bcfa2f04
@0128 3c2b6266
@0129 bd1029a5
@012a 3d37185a
@012b bda0ec43
@012c 3ca9bf82
@012d bd3b0ea6
@012e 3c8f7159
@012f bcbc6e43
@0130 bc894be9
@0131 bcd7fdbd
@0132 bd9ee831
@0133 bdc4e81a
@0134 bc0bc45c
@0135 bd343442
@0136 3d7ae74e
@0137 bd33855e
@0138 3d177c3c
@0139 bd72cedd
@013a bbd78629
@013b 3d788ffc
@013c 3cb3e1fb
@013d 3dca7ac0
@013e bd211edc
@013f 3bfb919b
@0140 3d6a5655
@0141 bd2c1574
@0142 3dc999ff
@0143 3d8b117b
@0144 3ddb9483
@0145 bbb2d5ea
@0146 3d5d0556
@0147 bca60b21
@0148 3d3fcd8f
@0149 bd81d540
@014a 3da06e09
@014b 3cc6b02d
@014c 3da46a32
@014d 3d01bd07
@014e 3d14aa94
@014f 3ae6469e
@0150 bb4c9318
@0151 bd80fe26
@0152 bd8e79b8
@0153 3d4b642c
@0154 bd6d1a7a
@0155 3d7f28dc
@0156 3d15026f
@0157 bd1e43cc
@0158 bd65e501
@0159 3c718a14
@015a 3d108647
@015b 3d8cdcea
@015c bd90dacd
@015d bd8c3336
@015e bba8a650
@015f bc58c1b9
@0160 bd06b175
@0161 3d4610ae
@0162 bc07d135
@0163 3d3a2f7b
@0164 3b8d4b21
@0165 bcf908c1
@0166 3d7147ab
@0167 bc8208e4
@0168 3d1e01fd
@0169 bc85ee22
@016a 3c2e9315
@016b bd5b3fda
@016c bd455897
@016d 3d966e25
@016e 3d6ac5de
@016f 396468b5
@0170 b949e5d3
@0171 3d0dcd47
@0172 3d855378
@0173 bca5cd62
@0174 3ced3b6c
@0175 bd6a1849
@0176 3d487aa2
@0177 3d964470
@0178 bd76fcee
@0179 3c0e7cdb
@017a 3c86f42e
@017b bd48b0ba
@017c 3d63039b
@017d bd1b2e93
@017e 3cea9bd4
@017f bd6d2335
@0180 3db05371
@0181 bce32f12
@0182 bd0378e8
@0183 3b646311
@0184 3d1f826a
@0185 bda4f9f4
@0186 3c341dc1
@0187 bbc99428
@0188 3ad82d5f
@0189 3bd49355
@018a bd37c6c8
@018b 3d63f254
@018c bd933139
@018d 3b1012f5
@018e 3ca5eb7f
@018f bd5e9f02
@0190 3d191519
@0191 3d2fd03d
@0192 3dd163b7
@0193 3e067327
@0194 3d321c2a
@0195 bb9043b2
@0196 3bdc3097
@0197 3b4ff500
@0198 bd803a1a
@0199 3d9cb6ff
@019a 3dc71d8e
@019b 3d56c650
@019c bdd395ac
@019d bddef3d8
@019e bb607b3c
@019f 3e0bab91
@01a0 3a5ab92b
@01a1 bd27bcc2
@01a2 3d30f175
@01a3 3d47ebbb
@01a4 3de94749
@01a5 bc33485c
@01a6 3d9ecd17
@01a7 3db6b8a1
@01a8 3d51656d
@01a9 bc0e3a5e
@01aa bceb0ae2
@01ab bca80b84
@01ac bc70e159
@01ad bcfc8b1d
@01ae 3d3e9163
@01af bc95d8de
@01b0 3c8aaaed
@01b1 3da4fc6f
@01b2 bcbf3dbd
@01b3 bd727d5a
@01b4 bd52ae81
@01b5 3d8f612e
@01b6 bd4fd48c
@01b7 390a38d6
@01b8 3d605c27
@01b9 bcad18be
@01ba bd8662df
@01bb bd0f8e66
@01bc 3c920f20
@01bd 3d959888
@01be 3d1a0146
@01bf bd7f6982
@01c0 3d896b61
@01c1 bd1580e7
@01c2 bd77bca8
@01c3 3b7875d7
@01c4 bd89ab1b
@01c5 3c0ee809
@01c6 3c473846
@01c7 3d463622
@01c8 3c93755d
@01c9 bda1e15d
@01ca 3d16478a
@01cb 3d521e05
@01cc 3d9e9174
@01cd bd4aca82
@01ce 3d19b97c
@01cf 3cd6855e
@01d0 bd0b23da
@01d1 3b99e3b5
@01d2 bdb44dad
@01d3 3d6ad8d1
@01d4 3bfd5f53
@01d5 3d58d029
@01d6 bd73a531
@01d7 bd968273
@01d8 3d1d5697
@01d9 3d3e9bbd
@01da bcc25ac6
@01db 3ad085bf
@01dc bd32aa89
@01dd bd2d9cc7
@01de bd60117f
@01df 3ce92898
@01e0 bd8249a4
@01e1 3da10446
@01e2 3d023854
@01e3 bcf0dc9e
@01e4 3d91fa8a
@01e5 3c961dc2
@01e6 bd5c3968
@01e7 3d338d5f
@01e8 bd1f9627
@01e9 3d9f9387
@01ea bd83afcb
@01eb 3d4d208b
@01ec bd879762
@01ed bd8abfc4
@01ee bda3b97d
@01ef 3d578457
@01f0 bd69454c
@01f1 3d9c88e9
@01f2 3d7ad48c
@01f3 bcfcd686
@01f4 3d349ddb
@01f5 bd9e6a9d
@01f6 bd26659b
@01f7 bd5d62e8
@01f8 3c2efda1
@01f9 bd8aaef3
@01fa bda25303
@01fb bd45d868
@01fc bbcc57b4
@01fd 3c574801
@01fe 3ae08dbf
@01ff bd15e1ee
@0200 3d75b11c
@0201 3d250ae8
@0202 bd812272
@0203 bb95f44b
@0204 ba86a405
@0205 3cc05c04
@0206 bd2b45fb
@0207 bd8469e6
@0208 3d110326
@0209 3d8f4a75
@020a ba514a6b
@020b 3cc89fb0
@020c 3d8fb6d9
@020d 3cd0cbfd
@020e 3d8564c4
@020f 3d8f6e8f
@0210 3da53589
@0211 bcc347f9
@0212 bc5272fa
@0213 bce90371
@0214 3c0662ef
@0215 3d73a122
@0216 bd6d7cdc
@0217 bd580b2a
@0218 bda9aa05
@0219 3d523c64
@021a bd573624
@021b bd5c0f5d
@021c bd398280
@021d bd21d70e
@021e 3b4a3b1c
@021f bd0d1550
@0220 3ccf16df
@0221 3d850b80
@0222 3d985eeb
@0223 bd79cc39
@0224 3cc4a4b8
@0225 bbb4f555
@0226 3dc8a604
@0227 bd5f5e15
@0228 bd5bbf2b
@0229 bd0f9ab8
@022a bd091df7
@022b 3d4d614c
@022c 3d535fbc
@022d bdc048a3
@022e bd003199
@022f 3b198d0b
@0230 3d2e0b14
@0231 bd65e4da
@0232 bd1a8448
@0233 3d9d251b
@0234 3dc44fcf
@0235 3c0da553
@0236 bd8d84a4
@0237 3dafeb64
@0238 3da8f5f5
@0239 bca8477f
@023a bd7b5984
@023b bdb884f0
@023c 3da8e2c3
@023d bd4e41fb
@023e 3ddb8045
@023f 3d7e9fa6
@0240 bcf074a8
@0241 bd4f43fb
@0242 3d97622a
@0243 3daaacee
@0244 bda4f5b9
@0245 bd978d35
@0246 bd8155d1
@0247 bd3b55a6
@0248 bd9772f4
@0249 bcf60d43
@024a 3d9f5b02
@024b 3cc4266e
@024c 3d12c1f8
@024d 3cdb7961
@024e bd91d111
@024f 3d844002
@0250 bd57f938
@0251 3d9f2e3c
@0252 bd94fe32
@0253 bd438353
@0254 3bc16547
@0255 bd7261c4
@0256 bcedbeee
@0257 bd7b7fbe
@0258 3dd3e25b
@0259 3db3c1a7
@025a 3dda385f
@025b 3dfbcad2
@025c 3d459be2
@025d 3e0455cc
@025e 3b875007
@025f 3ddfe22a
@0260 3d38bab0
@0261 3d3b07b4
@0262 bced0fd1
@0263 bd9e4e6c
@0264 bd7140cd
@0265 bcf7e51c
@0266 3dc1e3da
@0267 bdec05de
@0268 bd938533
@0269 bd2fd9f0
@026a bd1839ba
@026b 3d76a23a
@026c bdbd0e5a
@026d bbfd27e7
@026e bcf0dbee
@026f bcbec97b
@0270 bd95e053
@0271 bd68dd97
@0272 3cc420a5
@0273 bd7e9c5b
@0274 bc5e903e
@0275 3d9533ef
@0276 bcce9f27
@0277 3ce9a96d
@0278 3d8f4ce8
@0279 3cd03f4b
@027a 3da01825
@027b bd503e95
@027c 3db09cf3
@027d 3cb21bc1
@027e bd4f04d5
@027f bc849f17
@0280 3da11e54
@0281 bafe097c
@0282 3c7379fb
@0283 3d5142e0
@0284 bcdb4a02
@0285 bc47b446
@0286 bcbc974e
@0287 bc5fdef7
@0288 3d0ffd9e
@0289 bc053557
@028a 3d73d273
@028b bd9c916a
@028c 3cbb4f3f
@028d bd97bbed
@028e 3c23dfc7
@028f 3d9b66cd
@0290 3cbbae68
@0291 3d976d6c
@0292 3d669fef
@0293 bcac37d8
@0294 3d53d198
@0295 3d5514a8
@0296 3d662059
@0297 3ba05af7
@0298 3d3f3bb5
@0299 3d1967bc
@029a bda6f218
@029b 3d7dfa8f
@029c 3c55560c
@029d 3d89d7ad
@029e 3d972008
@029f bd799c70
@02a0 3d701c61
@02a1 ba937688
@02a2 bd9ebb60
@02a3 3d99eba1
@02a4 3c23b2f8
@02a5 3d270d74
@02a6 bd1ccb03
@02a7 bd8dddab
@02a8 3d6b6a77
@02a9 3c402a80
@02aa 3c8cddf3
@02ab 3d3d910d
@02ac 3db2e7f4
@02ad 3ce07525
@02ae bd290f5e
@02af bbed3ca6
@02b0 bc0d669b
@02b1 3c8ff3a6
@02b2 bd7dda14
@02b3 3d996794
@02b4 bbd7220f
@02b5 bd8a2ad0
@02b6 3dab5a27
@02b7 bd2718c0
@02b8 3d78587d
@02b9 3c437ff8
@02ba bd432f16
@02bb bd0c19e1
@02bc 3e25f049
@02bd 3d805bd4
@02be 3e4370ab
@02bf 3de39d65
@02c0 3b04a4e5
@02c1 3e50100f
@02c2 3e4b147c
@02c3 3dfde7cd
@02c4 3e17e814
@02c5 3d81f5a9
@02c6 3ca4547f
@02c7 bc953b83
@02c8 3d70561f
@02c9 3d62ae1f
@02ca 3dfb84ca
@02cb bd480661
@02cc be042b56
@02cd be082cf8
@02ce bcd5537c
@02cf 3d0548e4
@02d0 bdc6c6df
@02d1 bde9788c
@02d2 bd956361
@02d3 bcfea7fd
@02d4 bd8afa10
@02d5 3c94538b
@02d6 3dc0b60a
@02d7 3cc117ae
@02d8 3c4c5f74
@02d9 3c5c4fe7
@02da 3d1447e6
@02db 3d450e7f
@02dc 3b4c0a71
@02dd bcbba341
@02de 3cb6dd5e
@02df 3d80ae75
@02e0 3c3ce605
@02e1 3d1298d3
@02e2 bd173d39
@02e3 3be88668
@02e4 3d61abc3
@02e5 bc5fb686
@02e6 3c842703
@02e7 bd67660b
@02e8 3da4a704
@02e9 bda14cba
@02ea 3c859218
@02eb bc86d505
@02ec bbc41760
@02ed 3c029bfe
@02ee 3d82d28b
@02ef 3d2d35f2
@02f0 3d502fb4
@02f1 3dd394d6
@02f2 bc9c58ee
@02f3 bd6a73e8
@02f4 bd53de1d
@02f5 bd5c5a48
@02f6 bcab2675
@02f7 3d6ca404
@02f8 be135c3e
@02f9 be0a4b9c
@02fa 3d70bfea
@02fb 3de1944f
@02fc 3c3c72f1
@02fd bdff2dd9
@02fe bdb9a4c2
@02ff baa0930e
@0300 3df7aaf4
@0301 3bf998eb
@0302 bdf0d340
@0303 bc29a51c
@0304 3d3e4820
@0305 3e023f56
@0306 3df20fbe
@0307 3cee0540
@0308 ba6769d9
@0309 3d594b0a
@030a bd949ad4
@030b 3cdb1d2c
@030c bd0ac227
@030d bd3f51c0
@030e bcc6bf94
@030f 3cfd7509
@0310 bca7645e
@0311 3d774aa8
@0312 3d59c108
@0313 3d7a0923
@0314 bd9e2fa2
@0315 bd300535
@0316 bcb8f009
@0317 bd513ca0
@0318 3d919a56
@0319 3c00f02e
@031a bd078ec3
@031b 3d1415b2
@031c bc9c9482
@031d 3b823582
@031e bc23b2ed
@031f bd83158f
@0320 bc933b19
@0321 bd45718a
@0322 3d9aa72f
@0323 3d1e0a0b
@0324 3d22bea6
@0325 bd9a9acb
@0326 3d71d803
@0327 bd686c85
@0328 bd78f092
@0329 bd217993
@032a bd9528a6
@032b bd711af4
@032c bc1ac68b
@032d bd88a8d8
@032e 3da0d9bf
@032f 3cd2c5de
@0330 bc4cbfdc
@0331 3d84ac22
@0332 bd51b016
@0333 bd9ad27c
@0334 bd80bb67
@0335 bc5a76e0
@0336 bd6a8360
@0337 bc9506f1
@0338 bd854880
@0339 3bf4da5d
@033a 3a9829f1
@033b bce0ffc6
@033c bbb1ef44
@033d bce0b5fd
@033e bd6a395a
@033f bc0ce1fc
@0340 bca25229
@0341 bd593e10
@0342 bd16012b
@0343 3d9eba08
@0344 3d37fcdd
@0345 bbeb1cc5
@0346 3a5428bf
@0347 3c196619
@0348 bd52ed95
@0349 bd8230df
@034a bd6b459b
@034b bd710030
@034c 3d1a0b8e
@034d bcdc0970
@034e bd982b0e
@034f 3d136b4d
@0350 bb87d04d
@0351 bd6dacd6
@0352 3de54dd6
@0353 3e1ee15c
@0354 3da5d233
@0355 3d6209ee
@0356 3dc7860d
@0357 3d8b71d7
@0358 bcf61f92
@0359 3dbda48e
@035a 3df785f0
@035b 3db6ac60
@035c bdc42859
@035d 3cbdf321
@035e 3c893c53
@035f 3de1d369
@0360 3cb35856
@0361 bdea1611
@0362 be0bc130
@0363 bd2b6c67
@0364 3e0caa3f
@0365 3ca11db6
@0366 bded3e04
@0367 bd708a2e
@0368 3d2fdb55
@0369 bad5915d
@036a 3e01027d
@036b bcaea666
@036c 3bbe0cf2
@036d 3d9a0b2c
@036e 3d26dc9c
@036f 3c59e1d0
@0370 bd87ae19
@0371 bda13f21
@0372 3da6c04f
@0373 3d9e486a
@0374 bd0ee20d
@0375 3d270891
@0376 bd02b63d
@0377 3d1630a6
@0378 bd113d18
@0379 bc7b4f50
@037a bd208171
@037b 3d2165a9
@037c 3d40b682
@037d 3d265971
@037e bd2df517
@037f 3ca28416
@0380 3c035bdb
@0381 3d904468
@0382 3c2f253f
@0383 3cf03b32
@0384 ba937279
@0385 bd4affd8
@0386 bdb365ee
@0387 3d01d552
@0388 3d0333bb
@0389 3b32bc78
@038a bd8e6d04
@038b bd58c6a9
@038c bcd7a2b1
@038d bcd14ea5
@038e bd367ab3
@038f bd6f11d7
@0390 bc9864e2
@0391 3d6bfe3c
@0392 bc804769
@0393 bc7dee0e
@0394 bd970b7e
@0395 bd4fa535
@0396 bd6f7866
@0397 3dbea5a7
@0398 3d8949fb
@0399 3d3f0d0f
@039a 3cee00ea
@039b 3db0bef1
@039c bd618d7c
@039d bd626653
@039e 3d25990c
@039f 3c5c3000
@03a0 3d62386a
@03a1 bcd9851c
@03a2 3c574940
@03a3 3d93c24f
@03a4 bd92b421
@03a5 bd886e82
@03a6 3cf66a80
@03a7 3d2be201
@03a8 3d11994f
@03a9 3d1b2481
@03aa bd8a83a4
@03ab bd36154f
@03ac 3bc6e68c
@03ad bc8aa9e0
@03ae bcf7ccd0
@03af bd07d8c8
@03b0 bd7e65d6
@03b1 bd7bd586
@03b2 3cc920aa
@03b3 bc2fe125
@03b4 3d8405f5
@03b5 3d0cc65a
@03b6 3d5ce5e4
@03b7 bd72c3b7
@03b8 3d6833d9
@03b9 bda0157f
@03ba bd13022c
@03bb bcaf6802
@03bc 3d956dfc
@03bd 3cc8226e
@03be bd859a13
@03bf bd7a028e
@03c0 3d8cf318
@03c1 bc9f27e9
@03c2 bd99af8a
@03c3 3bfaba4a
@03c4 3d29626c
@03c5 3d659c90
@03c6 3d8faa53
@03c7 3d8005a3
@03c8 bd4caa16
@03c9 3d51338a
@03ca bcc60e3d
@03cb bbae86f0
@03cc bd214733
@03cd bd5561a3
@03ce 3d32b63f
@03cf 3c0697e9
@03d0 bd83253b
@03d1 3d290f8b
@03d2 ba815157
@03d3 bd8618b9
@03d4 3c7fedba
@03d5 bc8e45d1
@03d6 3d35a159
@03d7 3d98ecf0
@03d8 3ce605c4
@03d9 bd23a358
@03da 3bf40116
@03db 3ccce6cc
@03dc 3cfa7aa5
@03dd bcff9ea6
@03de bcce4965
@03df 3d58122d
@03e0 bc2d96f6
@03e1 bd30789b
@03e2 3da6fb26
@03e3 bd4a4c56
@03e4 bd389449
@03e5 bca5016e
@03e6 3d64da5a
@03e7 bcdc5d91
@03e8 bacec5f6
@03e9 bdb6344c
@03ea bd194bca
@03eb 3b892ac9
@03ec bd8a2b19
@03ed 3da51ac4
@03ee 3d69c3dc
@03ef bd74f887
@03f0 3d2184e9
@03f1 3c98f3d6
@03f2 bd04087a
@03f3 bdb02ca3
@03f4 3c8e6343
@03f5 bce70e1c
@03f6 bd2927e2
@03f7 bb1f5fb5
@03f8 3ce0dd1d
@03f9 bbef0c27
@03fa 3d232f23
@03fb 3dbbe257
@03fc ba28e283
@03fd bd89bd00
@03fe 3d37660a
@03ff bc8bf3e1
@0400 3dd2b200
@0401 bba34f6c
@0402 3d046f50
@0403 3becfa29
@0404 bd88954f
@0405 bcd49bf4
@0406 3ca268b5
@0407 3d84f8f7
@0408 3cd378f9
@0409 bb9aa6f1
@040a 3d0a71b7
@040b 3a91adc3
@040c bd9f35da
@040d bc2d6abf
@040e 3d830e5b
@040f 3cc09e49
@0410 3d9e96ff
@0411 3c1f59ca
@0412 3cb724dd
@0413 bc9241f7
@0414 3d9438e2
@0415 3d578e9e
@0416 3d6f60b4
@0417 bd0ff237
@0418 3d4c03c7
@0419 bd9dbef9
@041a 3db215f2
@041b 3d230449
@041c 3d7f8ffe
@041d bc36da3d
@041e 3ce70f13
@041f 3d1f40eb
@0420 3de1e7c0
@0421 3d25921b
@0422 3e18fb84
@0423 3de60135
@0424 3cd20d69
@0425 3d8e38c9
@0426 3be82c99
@0427 3db15c12
@0428 3dd56247
@0429 3ce0b758
@042a bd7aca65
@042b be029a00
@042c bde27c73
@042d bd440d08
@042e bdc445aa
@042f 3a9597ce
@0430 bd9be267
@0431 3c36a1ff
@0432 bcadaf95
@0433 bc195165
@0434 3d9ab600
@0435 bd39f9ca
@0436 bd96a14a
@0437 bd96f06e
@0438 3d75e590
@0439 bbae1a89
@043a 3ca171e0
@043b 3d9ec791
@043c bd4b5aaf
@043d bd741000
@043e bd0bdc99
@043f 3d55d71c
@0440 bd86dfdf
@0441 3d483ad9
@0442 3d48ec5e
@0443 bd6a76f4
@0444 bc2a9937
@0445 bd23e785
@0446 bda112dd
@0447 bd7218f5
@0448 3ce875b2
@0449 bd8b4aea
@044a 3d898c26
@044b 3d803c25
@044c bd175f51
@044d bd16386b
@044e 3b78d528
@044f bd485ad8
@0450 3da4008f
@0451 bc5624e8
@0452 bd737671
@0453 bd404028
@0454 bcae26b0
@0455 bcbb73b0
@0456 bc315284
@0457 3da0a36d
@0458 bd933707
@0459 3d7194ef
@045a bd0ccc5e
@045b 3d2ad2cc
@045c 3d0fa15e
@045d 3d2f62fa
@045e bd47b7a8
@045f bd99e8d2
@0460 3da0df3a
@0461 bd096d70
@0462 bcf58670
@0463 bc067b0a
@0464 3d9d8689
@0465 3ccb41a3
@0466 bd887852
@0467 bcd686ed
@0468 bda5fc04
@0469 3d0401b2
@046a 3dab5c8d
@046b 3d8445bc
@046c 3d847ecc
@046d bb6dea4f
@046e bd663cc5
@046f bd62dc42
@0470 3d92154e
@0471 bcddfc4f
@0472 3dc0d3ab
@0473 3d4dd5eb
@0474 bd8b8aef
@0475 3da382db
@0476 3d73f21a
@0477 3c5a72e9
@0478 3da70833
@0479 3bb20608
@047a 3cdfde42
@047b 3c05d943
@047c 3cba7249
@047d bda09b3a
@047e 3dc5b72a
@047f 3db94075
@0480 3bd83faa
@0481 3dd13d23
@0482 3dd23fe9
@0483 3d620a38
@0484 3dd87405
@0485 3e4044c2
@0486 3d27919e
@0487 3e1ba0e5
@0488 3dccc862
@0489 3d666f19
@048a 3db66f46
@048b 3da1df2c
@048c 3e2a55d9
@048d bcca57ab
@048e bdb00f8f
@048f bd98f23b
@0490 3ba73897
@0491 3c522474
@0492 bc823e72
@0493 be340b72
@0494 be16d6f9
@0495 bde4d3ad
@0496 3cb44349
@0497 3c948a34
@0498 bb22ee20
@0499 bcf9a6bf
@049a 3db1da51
@049b bd415230
@049c 3d2eaf2a
@049d bd8da57b
@049e bd16a66d
@049f 3d3d89cb
@04a0 bbf21e5e
@04a1 3b62e26b
@04a2 bd7e9daa
@04a3 bd90cf2c
@04a4 bce1738d
@04a5 bd59b010
@04a6 bc451c02
@04a7 bd96f3b7
@04a8 3d137448
@04a9 3d990f3d
@04aa 3cb6d319
@04ab 3d285994
@04ac 3d0f6baa
@04ad bce44fe4
@04ae bce8dc2c
@04af bbd9ee2c
@04b0 bd1f0e37
@04b1 bd9cd47b
@04b2 bdc404f1
@04b3 bc9ab1fa
@04b4 3d4e4067
@04b5 bd96022d
@04b6 bdb25edb
@04b7 3dad558d
@04b8 3da36155
@04b9 3dfbe633
@04ba bd01e834
@04bb 3dc66ea2
@04bc 3d96cf7d
@04bd 3e7e3378
@04be 3e26f9ae
@04bf bbf679a7
@04c0 3d5be784
@04c1 3e0db3f4
@04c2 3e886033
@04c3 3e2ca72b
@04c4 3df888a3
@04c5 3d027399
@04c6 3e1e16a5
@04c7 3e3de5a7
@04c8 3d9f0206
@04c9 bd5874fb
@04ca bcafc335
@04cb 3ccc0f8b
@04cc 3c3cf455
@04cd 3c9c35ad
@04ce 3d787638
@04cf bd7614ef
@04d0 bc440b1d
@04d1 3c4f6e15
@04d2 bd40b7c6
@04d3 bbb75ca9
@04d4 bd518be4
@04d5 bc339c76
@04d6 bd75bab2
@04d7 3c2918ef
@04d8 3d4c4ebb
@04d9 3d4b87a7
@04da bb502259
@04db 3d69abdc
@04dc 3da69aa9
@04dd bd080947
@04de bc1024ce
@04df bd7833cf
@04e0 3ca82347
@04e1 3d91c914
@04e2 3cff40ae
@04e3 bda13416
@04e4 3d258bd0
@04e5 3d8433bd
@04e6 bc85902b
@04e7 bd9a4cd9
@04e8 3d7f69a9
@04e9 3c783a11
@04ea bb8e7d85
@04eb 3cefc6f9
@04ec 3da1921d
@04ed bca34829
@04ee 3cb78629
@04ef 3cba91f6
@04f0 3c110f9c
@04f1 bbe12cac
@04f2 3d47987a
@04f3 bccf1e92
@04f4 bc5cdc64
@04f5 bd4af32a
@04f6 bd195c1a
@04f7 bd5bd0c7
@04f8 bd1b15e9
@04f9 bcdcb201
@04fa 3d91c97c
@04fb 3d399789
@04fc 3d73f2e7
@04fd 3db40d5e
@04fe bd2f42f0
@04ff 3bd46cbf
@0500 3c30dd16
@0501 3d50c847
@0502 bcf4e7b8
@0503 bd9bcd43
@0504 bd415fa3
@0505 bac97d68
@0506 bd4744e2
@0507 3d095b7c
@0508 bd5b4901
@0509 3d640356
@050a bd4c395f
@050b bcfafdfa
@050c 3cb5d53d
@050d 3bd7d22e
@050e 3c80982f
@050f 3d845c0d
@0510 3d46eee4
@0511 3da69c98
@0512 3de57635
@0513 3bdb5623
@0514 3dc26d5f
@0515 3cb0fa17
@0516 3d5106af
@0517 3d9fdb99
@0518 3e10bb56
@0519 3cbe1615
@051a bd397398
@051b bd82cc34
@051c 3e1b0da5
@051d 3e1fb53e
@051e bdc9823a
@051f bd4b7ca7
@0520 3d99f312
@0521 3e8a3c0b
@0522 3e2c9d18
@0523 bd0a0504
@0524 3d799205
@0525 3ea46f0b
@0526 3e393c62
@0527 3ddf2147
@0528 3d92dee6
@0529 3e801393
@052a 3e9ad5c8
@052b 3e571fd7
@052c 3de0c14a
@052d bd6e81e4
@052e 3ce7eb3d
@052f 3c12826b
@0530 bcf75828
@0531 bd89b499
@0532 bd9dbaa4
@0533 bc980b82
@0534 bc82a9e9
@0535 3d418668
@0536 bd550503
@0537 3b877a07
@0538 3da73e36
@0539 3cd04924
@053a 3d9a9b54
@053b bd629eb1
@053c 3c03ee00
@053d bd5f797e
@053e bd456d35
@053f bd5ed857
@0540 3dae53e9
@0541 3d64b43c
@0542 bd134cec
@0543 bb9573a6
@0544 bd74e537
@0545 3cb319b9
@0546 3d107f52
@0547 bd3423c6
@0548 bd00c1a3
@0549 bc31fb99
@054a bd6b9dfe
@054b bd019bbe
@054c bd9cab75
@054d 3d067459
@054e bd91738d
@054f 3d4a78ff
@0550 3dbc85e7
@0551 bbc77cd9
@0552 3d705024
@0553 3d55d6b5
@0554 3de10f5b
@0555 bd3e3dbd
@0556 3ddb8547
@0557 bc84cd42
@0558 3d9ff7b7
@0559 3c017699
@055a 3c83ee4e
@055b 3df01dc4
@055c 3de5bf05
@055d bd7bf97a
@055e bd2defd1
@055f bc560e36
@0560 3c907e85
@0561 bd9ee9be
@0562 3cb1d3d3
@0563 3d962111
@0564 bd6db2e3
@0565 3c28f0ea
@0566 3d917d99
@0567 bc5c79fe
@0568 3d9fac9e
@0569 3d580c8a
@056a bcd19adf
@056b bcc62d0b
@056c bcb5387a
@056d bb8b01db
@056e bd9a608c
@056f 3d208458
@0570 3d19e4e4
@0571 3ce6f63a
@0572 bd59ad06
@0573 3cd08c04
@0574 bd82fa31
@0575 3d0f1037
@0576 bd9c2826
@0577 3cce8c23
@0578 bbb4137b
@0579 3d0ee9c0
@057a bd4c7231
@057b bd8ea963
@057c bd9c5280
@057d 3d9be30c
@057e bc7c5012
@057f 3b8e1944
@0580 3bdc635e
@0581 3cf72414
@0582 bd51c9eb
@0583 3c42249b
@0584 bda03f6f
@0585 3c37e5b4
@0586 3d4fc3e3
@0587 3cb91389
@0588 bd6f8f3e
@0589 3d8f3216
@058a 3bd09f55
@058b 3d991eb0
@058c bbb53435
@058d bc48e68c
@058e 3d895f6d
@058f 3d40deac
@0590 3d925ecb
@0591 bcf193af
@0592 bd8015c2
@0593 3d093c82
@0594 bd8b1305
@0595 bc6d67c9
@0596 3d3854cb
@0597 3cb62e63
@0598 bd955f0f
@0599 bc81a198
@059a bda78194
@059b bd0d361f
@059c bd0fdd50
@059d bd238e7b
@059e bda2abd2
@059f bcb33e8a
@05a0 3d43ecd2
@05a1 3d90ab7c
@05a2 3c90c84b
@05a3 bd3d3b32
@05a4 bcb0a492
@05a5 3d7e90e7
@05a6 bd4be572
@05a7 3ce0d8ae
@05a8 3cd3c441
@05a9 3ca00927
@05aa 3d0acf43
@05ab bd927547
@05ac bdd6667d
@05ad bcc08a46
@05ae bc9964d9
@05af 3cdf753a
@05b0 bd88fcb1
@05b1 bce8e103
@05b2 bd9ca61e
@05b3 bccb6604
@05b4 3c822f82
@05b5 bda397c3
@05b6 3d2a0f56
@05b7 3d8be6e9
@05b8 3de638e9
@05b9 3d0e405f
@05ba 3da3b3b1
@05bb 3d6867e5
@05bc 3d6d984b
@05bd 3cc20c1a
@05be 3d932380
@05bf bad098e1
@05c0 3d98b87c
@05c1 bd9310bc
@05c2 bd4998b2
@05c3 3c34892f
@05c4 bd71c0d7
@05c5 bc91d055
@05c6 3c855985
@05c7 3d9584b7
@05c8 bda245d5
@05c9 bd6a3f6b
@05ca bd893c1e
@05cb 3c91ce2f
@05cc bd546e7d
@05cd bc6d0d5c
@05ce bd7389c3
@05cf bce944c2
@05d0 bb6eb77a
@05d1 3bd55589
@05d2 3d95579a
@05d3 bd91048b
@05d4 3d413264
@05d5 bd95a0e7
@05d6 3d202ade
@05d7 3ca8f985
@05d8 3d918f6d
@05d9 bd2a4701
@05da bb6939ec
@05db 3bdd1bb3
@05dc bd065894
@05dd 3dbc6fd0
@05de bd2b1064
@05df 3d483dc9
@05e0 3d425484
@05e1 bd71d500
@05e2 3d810d30
@05e3 3dd3af4f
@05e4 3d66a8f0
@05e5 bd7d82ac
@05e6 3d3d5c66
@05e7 3da77ca3
@05e8 bd8c5a12
@05e9 bd6ee05f
@05ea bceea156
@05eb 3dbdbf61
@05ec 3d8bbd3e
@05ed bc921bac
@05ee bd9e6b8c
@05ef 3d448aad
@05f0 bca16520
@05f1 3d01cc03
@05f2 bd7ed503
@05f3 bd83a8d2
@05f4 3d138865
@05f5 3d9f1da3
@05f6 3cb3e0cc
@05f7 bc7c9beb
@05f8 3d0b1039
@05f9 3a18ac84
@05fa bd9a35d1
@05fb 3d9cfa21
@05fc 3d4d3b8c
@05fd bcb882ef
@05fe bda5abc6
@05ff ba7c8eab
@0600 bd5b9336
@0601 3d87016e
@0602 3beb9f52
@0603 bd547240
@0604 3d92d083
@0605 bd296e9c
@0606 bd634b22
@0607 3c7dbd5e
@0608 3d5535a4
@0609 bd6be9fc
@060a 3d70e867
@060b bd91f96e
@060c 3a987223
@060d 3c505cfc
@060e 3d5cb9ac
@060f 3cbe751f
@0610 3d969fb5
@0611 bd9df14c
@0612 3cd12141
@0613 3d8fda21
@0614 bd985289
@0615 3c690072
@0616 3cbaee1c
@0617 3d8accb0
@0618 bd5f7d63
@0619 3c0b5a0a
@061a bc09cd0e
@061b bceed711
@061c 3d2fe26d
@061d bd9d332d
@061e bcbf7301
@061f 3cd1aafb
@0620 3d10941f
@0621 3da0dc65
@0622 3ca089c3
@0623 bb9a99d8
@0624 bd8d822d
@0625 bccc527a
@0626 bcbd2cf0
@0627 bd4ec5c1
@0628 3d8098b7
@0629 3d45f3f7
@062a 3d1621f0
@062b bd8bda2e
@062c bd202ea7
@062d 3ca37a7f
@062e 3d872ad4
@062f bca7a85f
@0630 bd8a1ee0
@0631 bd998427
@0632 bd9bdf62
@0633 3d9d6ab7
@0634 3d16d46e
@0635 bd5ded1e
@0636 3c608830
@0637 bd09d470
@0638 bc89aaaf
@0639 3d1f2f85
@063a 3ccd26e5
@063b 3d44f751
@063c bcbad5fc
@063d 3cb3f66a
@063e 3d97b3de
@063f 3d1d8599
@0640 bd9bc588
@0641 bb1b2408
@0642 3def7ac0
@0643 3d8d18f6
@0644 3dc2df6d
@0645 bca9b426
@0646 3af26b27
@0647 3dce8b3a
@0648 bc218e26
@0649 3c34d18c
@064a bd299ae1
@064b bd3888db
@064c bd75560f
@064d 3d88710a
@064e bd356463
@064f 3d858e92
@0650 3c5d967f
@0651 bbdbf447
@0652 bc44be44
@0653 bd76a347
@0654 3e04423f
@0655 3da6c545
@0656 3d779518
@0657 bc72576d
@0658 bd293335
@0659 3d2923a1
@065a bcc43e6c
@065b 3ce76240
@065c 3c89db79
@065d 3d3f3204
@065e bd56168b
@065f 3d5815d8
@0660 bd2b5702
@0661 3d0db302
@0662 bd2cf901
@0663 3caeb715
@0664 bd18c70a
@0665 3da6f756
@0666 3c6710f0
@0667 bd87c391
@0668 bcb7f8a2
@0669 3d254e56
@066a 3d95dc39
@066b 3d81f7ac
@066c 3cd02925
@066d 3c87dee4
@066e 3cd22068
@066f bd7a23f2
@0670 bb9898dd
@0671 bda8afe1
@0672 bd8a3dd5
@0673 bdfebcb2
@0674 bd870563
@0675 bd942e0a
@0676 3d87c0d5
@0677 bce6f754
@0678 3c0c83f2
@0679 3acdef15
@067a 3dc13243
@067b 3dc6b028
@067c bd333882
@067d bd088f2e
@067e 3dc8df63
@067f 3d8d6038
@0680 3dcaec9a
@0681 3d8454de
@0682 3de4905e
@0683 3d290769
@0684 3da05b21
@0685 3dc2872a
@0686 3d591463
@0687 3a9d889d
@0688 bd30c7d9
@0689 bc2fecc4
@068a 3d3d48ef
@068b bcf6ff17
@068c bd5b2b55
@068d 3cc4e0f7
@068e bd43aff4
@068f 3cf0a917
@0690 ba9fb57f
@0691 bc46ac34
@0692 bc78cff6
@0693 bcff6dad
@0694 3d928fb6
@0695 bcf6a3f4
@0696 bd89eaf2
@0697 3d56968c
@0698 3d63fa37
@0699 bd3495de
@069a bcb3ed2b
@069b 3c934b81
@069c 3ce9c9f5
@069d 3d5983a5
@069e 3c9cd652
@069f bcd5914b
@06a0 bbc2f924
@06a1 bcbdfb8f
@06a2 bd21beff
@06a3 3c598dc0
@06a4 3da61722
@06a5 bd124aba
@06a6 bd8db469
@06a7 bd961e51
@06a8 bcf8803a
@06a9 3c8d50df
@06aa bc6a6f94
@06ab 3ba78948
@06ac 3cb5c30b
@06ad bd998df9
@06ae bd7931e8
@06af bd715293
@06b0 3a4fa109
@06b1 bce2a0ec
@06b2 3d9cf08c
@06b3 3bd03827
@06b4 bd8a2778
@06b5 3d72f654
@06b6 3c02b48a
@06b7 3d2d2fea
@06b8 3d1267f6
@06b9 3da2e80f
@06ba 3da64071
@06bb 3d290d1a
@06bc bd13f829
@06bd bda5ac97
@06be bc40ba08
@06bf 3c84065a
@06c0 bcf5321a
@06c1 3da56fce
@06c2 bdb7a22c
@06c3 3cc2903d
@06c4 bd7fe50c
@06c5 3d9bfcf5
@06c6 3da92b6d
@06c7 bcd4ba5e
@06c8 bc51b1e8
@06c9 bd0ad48c
@06ca bd7fed24
@06cb bc7a242d
@06cc 3cd08f2d
@06cd bd2f9d03
@06ce bcb416ec
@06cf 3d37a7e4
@06d0 3da09e73
@06d1 bd5337ca
@06d2 3cbb12dc
@06d3 bd61c6ed
@06d4 bbc3995f
@06d5 bc60ca81
@06d6 bdb31f92
@06d7 bdff0d66
@06d8 bda7c301
@06d9 3d9f9951
@06da bccb2ff5
@06db bddccf1a
@06dc bdf8ce3f
@06dd 3d60df19
@06de 3df0e8f1
@06df 3c72d809
@06e0 3d0cd235
@06e1 bcf3e7bb
@06e2 3d96daf5
@06e3 3d8b6a88
@06e4 3de887ec
@06e5 3d815a4d
@06e6 bc9261c4
@06e7 bd15ab93
@06e8 3cc4ffad
@06e9 bcc3bf9c
@06ea 3d9d4aac
@06eb 3e024398
@06ec 3aa17b3a
@06ed 3d447c95
@06ee 3dc5ce30
@06ef bd7db794
@06f0 bc9ff94a
@06f1 3c942671
@06f2 bd91bb37
@06f3 bd621e84
@06f4 bda7c97e
@06f5 bd908f2d
@06f6 bb190522
@06f7 3cdc97c5
@06f8 3c375f3d
@06f9 bc79a137
@06fa 3d2ad292
@06fb bcbb05dd
@06fc 3d0c16f6
@06fd 3da1caef
@06fe 3d3a5ad3
@06ff bd826aa4
@0700 3bd0d0bc
@0701 bd9741bb
@0702 bb426a82
@0703 3c3acf7d
@0704 bd46ca16
@0705 3c01e3ab
@0706 bd92696f
@0707 3cfc7705
@0708 3de1c62c
@0709 3c8fa7e2
@070a bd957459
@070b bc8d277d
@070c 3d596e70
@070d 3e0f5b49
@070e 3d235066
@070f 3d37828f
@0710 3d3851e2
@0711 3de29725
@0712 3cfc204f
@0713 3e3a3c2d
@0714 3dfd0675
@0715 3e1a4653
@0716 3e21a3e6
@0717 3e01f8e4
@0718 3e2febd8
@0719 3dc6d309
@071a 3e3b213e
@071b 3d2ca35e
@071c 3dc40a30
@071d 3b8786a4
@071e 3d34f3aa
@071f 3da6c3ef
@0720 bd0b8572
@0721 bc51b94b
@0722 bcb577c5
@0723 bc84d630
@0724 bd44ceca
@0725 3d6701eb
@0726 bd856a0f
@0727 bc81b2b7
@0728 3d8b7a1b
@0729 bd90086f
@072a 3ca03c9d
@072b bca728ff
@072c bd135c11
@072d bcebd8d2
@072e bc488e44
@072f bcb10d36
@0730 3d08165f
@0731 bc4d457e
@0732 3d75002c
@0733 bd583d02
@0734 3d8d47ae
@0735 3d23816a
@0736 bd8c782a
@0737 3d22f958
@0738 bc47fd50
@0739 3d527d96
@073a bd15e2a5
@073b 3d8c30f7
@073c bd5f5466
@073d 3d97f36f
@073e 3d5150b0
@073f 3d859e09
@0740 bd963362
@0741 bcf58475
@0742 3d932b04
@0743 bd80fae8
@0744 3bd7daee
@0745 bc8796c5
@0746 3d073dbe
@0747 bd97a41b
@0748 3d810a7e
@0749 bc9b0eb4
@074a 3d136cc0
@074b bd2aeb18
@074c 3d2e671e
@074d 3c29658e
@074e bd6c9233
@074f 3d29bd30
@0750 bd9fde64
@0751 3da0c4e4
@0752 bd63c72d
@0753 3d8bb535
@0754 3d21226b
@0755 bdb0a81f
@0756 bd910c5f
@0757 3c081849
@0758 3d07f4ce
@0759 bcb9e847
@075a bd7d5c04
@075b 3d83d906
@075c 3d2ab320
@075d bc9ab89e
@075e 3db850d7
@075f bd0038e1
@0760 3dae5f17
@0761 3da9668a
@0762 3dbddada
@0763 bca8adc4
@0764 3d60bc58
@0765 3d823ae1
@0766 bc98ccbb
@0767 3c6e69c4
@0768 3dbe3f78
@0769 3d51b424
@076a bcb35122
@076b bd5ab5dd
@076c 3d2533ab
@076d 3da19354
@076e bd5fa1ef
@076f bdd34fd2
@0770 3cc7ab1f
@0771 3d5543ed
@0772 3e1a137c
@0773 3cb98f9c
@0774 bc31796d
@0775 3d85b4e4
@0776 3e76a40d
@0777 3e93ab72
@0778 3e86c049
@0779 3e8eae73
@077a 3e7b0689
@077b 3e3efe16
@077c 3e46279c
@077d 3ea6dce5
@077e 3e547e07
@077f 3e2bf89e
@0780 3e06710a
@0781 3e23aab0
@0782 3e1fb49c
@0783 3d677aa9
@0784 3df5ca63
@0785 bcc6a89c
@0786 bd89048a
@0787 bd00012c
@0788 bd4e697b
@0789 3d21d534
@078a bc98ea48
@078b bc77cb45
@078c 3cf0142c
@078d 3dd761ba
@078e 3d981743
@078f 3d10071e
@0790 bd55e07e
@0791 3dd15c6e
@0792 3dc09c5f
@0793 3c996825
@0794 3da39008
@0795 3d0bc4cf
@0796 bd82bfcb
@0797 3daea375
@0798 bd35d164
@0799 bd07d2a8
@079a 3c8bf0a3
@079b 3c6b77a6
@079c bd05b5d3
@079d bc5325e5
@079e 3dffefef
@079f 3deb625e
@07a0 3e63d31a
@07a1 3dd95a0d
@07a2 3b2326c7
@07a3 3e2225e3
@07a4 3e5b2ac5
@07a5 3e64f760
@07a6 3e1da859
@07a7 3d397853
@07a8 3df62234
@07a9 3e01a69d
@07aa 3db7e59d
@07ab 3ddb3229
@07ac 3d5a9324
@07ad bcb3c330
@07ae 3d2db2a8
@07af 3d96644b
@07b0 3d7ce87a
@07b1 bd5c0b31
@07b2 3d1438f4
@07b3 bdac6d72
@07b4 bca80807
@07b5 bdbd54f7
@07b6 bd8ffa18
@07b7 bd5bd868
@07b8 bd807f37
@07b9 3d874f96
@07ba 3b92d4eb
@07bb 3c545d41
@07bc bda12466
@07bd bc59f98c
@07be bd9b8403
@07bf bd98ddbd
@07c0 bb73ec89
@07c1 bd91483f
@07c2 bd8f1ee3
@07c3 3d848346
@07c4 3bc15246
@07c5 bc3123a3
@07c6 3d1ffdf9
@07c7 3da8d7ef
@07c8 bd88522c
@07c9 bd52cc69
@07ca 3ad22d5f
@07cb bd77b363
@07cc 3cb9f1fb
@07cd bd5c1066
@07ce bcfc91a1
@07cf 3d24b5ad
@07d0 3cc982bd
@07d1 bcc231e7
@07d2 bd4aa34b
@07d3 3ce382c3
@07d4 bcaa807c
@07d5 3d0bc6a6
@07d6 bd3a1b2d
@07d7 bc4dff03
@07d8 bc852d6a
@07d9 bd8d2348
@07da bd2eaf50
@07db 3c27901b
@07dc 3d95a532
@07dd bd795e78
@07de bc09c39f
@07df 3ba80781
@07e0 bd6c14d9
@07e1 3c982762
@07e2 bd6d66b1
@07e3 bced5750
@07e4 bb2802d3
@07e5 3bf20d74
@07e6 3d8f9ba6
@07e7 bd490f86
@07e8 3d902167
@07e9 3d4fedce
@07ea bc8a57ec
@07eb 3d03cd69
@07ec 3ce5051b
@07ed bca1786b
@07ee bbb7a60c
@07ef 3c095316
@07f0 3de658d0
@07f1 bd513c80
@07f2 bd749faa
@07f3 3d83a6b4
@07f4 3dac5366
@07f5 3c8d8578
@07f6 3db7fdca
@07f7 bc86a614
@07f8 bcdaada5
@07f9 bd2abb77
@07fa 3da15af5
@07fb bcb93ed2
@07fc bd132bbd
@07fd bd91abe5
@07fe 3bf34d43
@07ff bdb09edc
@0800 bc43b333
@0801 3b8cc83f
@0802 3e1e4357
@0803 3e55d025
@0804 3db432e8
@0805 3d803fc3
@0806 bd46d0be
@0807 3e21c209
@0808 3eb8bae7
@0809 3e9db8fd
@080a 3e0407f7
@080b 3de71213
@080c 3e51d146
@080d 3e3709ee
@080e 3e9ceaf5
@080f 3e0e53ea
@0810 3d800dbc
@0811 bb65ab90
@0812 3de94cd4
@0813 3ccb1263
@0814 bbb4de56
@0815 3da418a1
@0816 3d57665b
@0817 bd3462da
@0818 bdd1c509
@0819 3cba0c79
@081a 3dc0d619
@081b bd1a7252
@081c bd48b646
@081d 3da56fbb
@081e 3c685c29
@081f 3d2ea0e1
@0820 bc12b5b9
@0821 3d836ec0
@0822 3dbb0180
@0823 3d9442b1
@0824 3c2306a8
@0825 3da52c3f
@0826 3d9abd39
@0827 bd9454fa
@0828 bd0e992d
@0829 bcfcdfe2
@082a 3d420d08
@082b 3d74e624
@082c 3c8e5ba9
@082d bd846a6c
@082e 3d09f224
@082f bc75c3b4
@0830 3d8d3f0e
@0831 3d30a510
@0832 bd81f7e6
@0833 3d2927b1
@0834 bd925750
@0835 bc629744
@0836 bd103428
@0837 3d619314
@0838 bd628fbd
@0839 bd1b5da1
@083a bcecd4f9
@083b 3d832228
@083c 3ad8da43
@083d 3d2b9ffa
@083e bd71d3f9
@083f bc799942
@0840 3d5da10d
@0841 bd80e11e
@0842 3ce44088
@0843 3d8671fa
@0844 3d3c6f3a
@0845 bcd1d362
@0846 bd4406ba
@0847 bd608c54
@0848 bd853c7b
@0849 bcb67b28
@084a bd884c3f
@084b bd8d51c6
@084c bd278cdb
@084d ba6ebcf0
@084e bc72758a
@084f 3be62b31
@0850 bc299bf9
@0851 3c890b92
@0852 3d8994c3
@0853 3c858662
@0854 bd962c1d
@0855 bbe414d6
@0856 bd2fb9d6
@0857 bcc9fe45
@0858 bcab17b6
@0859 bcef6235
@085a bd9c5244
@085b 3c7fccb3
@085c bd34ebe7
@085d bc20f080
@085e 3d5b736c
@085f bcda2134
@0860 bd93d432
@0861 3d8fbbb9
@0862 3d533225
@0863 3b6195a4
@0864 3c49622a
@0865 3d196f8d
@0866 bc6c1083
@0867 3d30a8b3
@0868 3cceaca2
@0869 3c4af4c7
@086a bd0db85b
@086b bcb485d7
@086c 3d9b13b7
@086d 3d8b5ff7
@086e bc2e8996
@086f 39aeb8ad
@0870 3d76bc59
@0871 bd87d1d1
@0872 3cb509b9
@0873 3d9ea766
@0874 bcd6dc33
@0875 bd095b92
@0876 3d164304
@0877 bb9ba25f
@0878 3d3e16ac
@0879 3d36a42d
@087a bd825e5e
@087b bd5a7bfc
@087c bda06805
@087d bd7ad49f
@087e bd108ef8
@087f 3c37bdc7
@0880 3d67b479
@0881 3d870fdf
@0882 3cdcacdb
@0883 3d920a4b
@0884 bcaaecf9
@0885 3d415a44
@0886 bd4f836e
@0887 bd291ba0
@0888 3c6a0c32
@0889 3ce39e50
@088a bd88a727
@088b bcd674b6
@088c bd6d6f85
@088d 3d9c1656
@088e 3c6aa0dd
@088f bcdea691
@0890 bd95844a
@0891 3da1062e
@0892 3d1b9b9d
@0893 bcf9524d
@0894 3d170e87
@0895 3c00b6ce
@0896 3d273bc8
@0897 3cfcae65
@0898 bb30c02d
@0899 bccd2b53
@089a bda5effa
@089b 3d271b97
@089c 3d3aa014
@089d bda3d4e8
@089e 3c959541
@089f 3d814164
@08a0 3db89e66
@08a1 bc21a4ca
@08a2 bd4ba30e
@08a3 bd4e8bd6
@08a4 bd0c5076
@08a5 3dd1a3d7
@08a6 bcadda17
@08a7 bd07ecd8
@08a8 bc83d788
@08a9 3c3e5fbb
@08aa bd82b6b1
@08ab 3dd20d87
@08ac bd94c3ff
@08ad bcf29b22
@08ae 3c4bf567
@08af 3caf8c23
@08b0 3d6c887b
@08b1 bd1065aa
@08b2 3d9141c2
@08b3 3d0fc347
@08b4 bc52247c
@08b5 3d435e6b
@08b6 bd45aa6f
@08b7 bce668dd
@08b8 bd9dabf7
@08b9 bd9afa8e
@08ba bd8d6737
@08bb 3ce490fc
@08bc bd6f9b7f
@08bd 3d929781
@08be bd89e254
@08bf 3d818315
@08c0 bd1fae85
@08c1 bb688a27
@08c2 bd6d02b2
@08c3 bd3a438e
@08c4 bd72d4e9
@08c5 3d69ef9d
@08c6 3b97a719
@08c7 bd60c70b
@08c8 3c9882b4
@08c9 bd02a6be
@08ca 3db01198
@08cb 3db98855
@08cc bd93f943
@08cd bd2d0ad4
@08ce bcf7d95f
@08cf 3deff64a
@08d0 3c2e330e
@08d1 bd53195c
@08d2 bcf87cdf
@08d3 bcefea5d
@08d4 bac30756
@08d5 3d82811b
@08d6 3cd5b116
@08d7 bd4a261c
@08d8 bd48f365
@08d9 3da1e2a2
@08da 3dad10c0
@08db 3c907ad1
@08dc 3d1754a3
@08dd 3d9c3187
@08de bd85e0a4
@08df bd1a98ea
@08e0 bd83f01a
@08e1 bda84aa9
@08e2 bd8787b8
@08e3 3d6c1dbc
@08e4 bc97b02d
@08e5 bd4d3030
@08e6 bd79d4e8
@08e7 3d82633b
@08e8 3d45e13f
@08e9 bd8f124f
@08ea 3d7bf104
@08eb bd96f3e2
@08ec bcf3ac8f
@08ed bc2cdd85
@08ee 3d13673b
@08ef bbb0652f
@08f0 3da181d8
@08f1 3d6db00d
@08f2 3d5c697a
@08f3 bd072afc
@08f4 bbac2a0f
@08f5 bd218d40
@08f6 3d19d617
@08f7 3d95753f
@08f8 3c7a3162
@08f9 3d59a26e
@08fa bd9026d8
@08fb bc98e9db
@08fc bc95bea4
@08fd bd8d77a5
@08fe 3c333d43
@08ff bc8fd8dd
@0900 bcaf2269
@0901 3d86d542
@0902 bd3eaf34
@0903 3c84b8ef
@0904 3d772cc7
@0905 bd8bae3b
@0906 3d0a26dd
@0907 3d86ac9c
@0908 3d617cb2
@0909 3d11ccdd
@090a 3cb6afd6
@090b bcc7f27c
@090c bc6f49d7
@090d 3c4381c5
@090e bd5eb839
@090f bd11457c
@0910 3c0a9e4d
@0911 3ccb57a5
@0912 bab31e57
@0913 bd88cb43
@0914 bd9254a1
@0915 bd9f39ff
@0916 3ccfb820
@0917 3da64eb6
@0918 bcbd1c20
@0919 bca67daf
@091a 3d020c9e
@091b bd80363a
@091c 3d819abd
@091d bd419a65
@091e bd26ad28
@091f 3d749d9c
@0920 bd36cc71
@0921 3b888720
@0922 bc48f893
@0923 3d9de9e6
@0924 3d74f4ca
@0925 bc74716c
@0926 3d665b98
@0927 3d9f51c3
@0928 3c201536
@0929 bd8afb82
@092a bcfa411d
@092b 3c04b341
@092c bd8bd519
@092d 3c512fe3
@092e 3da8a9e3
@092f 3d2945b9
@0930 3d08d2f3
@0931 3d014fb3
@0932 bd834c94
@0933 3c1271c1
@0934 3d78ebf6
@0935 bd13de26
@0936 bd83ff2c
@0937 3c20f906
@0938 bbec9e02
@0939 3d42a5a4
@093a bcebfd0e
@093b 3bdf5b7e
@093c bd8c6be8
@093d 3d88abb7
@093e 3de170dc
@093f 3dc71827
@0940 3d779fb2
@0941 bd4a2e29
@0942 3da36b3a
@0943 bc88bc52
@0944 bd8b31cd
@0945 3c306b37
@0946 bb02f111
@0947 ba7da394
@0948 bd551d3c
@0949 3d8f7270
@094a bcc5a855
@094b bda1b8eb
@094c bd9de73b
@094d 3d83f1fb
@094e bc341710
@094f 3d701967
@0950 bd95e953
@0951 3cf379bf
@0952 bd991dbb
@0953 bc5aebf1
@0954 3d5eb154
@0955 3d67accf
@0956 bd264839
@0957 3ce68198
@0958 bcf9fac2
@0959 3d8a80df
@095a 3d883290
@095b 3d23abd6
@095c bcd8d527
@095d bc30e21f
@095e bd84b03c
@095f bcea15a2
@0960 3d08e643
@0961 bcffed23
@0962 bbff341d
@0963 3d8e3a17
@0964 bd679ec2
@0965 3d8db73f
@0966 bd2ddfe3
@0967 3d8d6a06
@0968 3d999867
@0969 3d4fb535
@096a 3c4953c5
@096b 3d06c466
@096c bc953553
@096d bb0822e9
@096e 3dbd1d8f
@096f bd0cca9b
@0970 bceb093a
@0971 3c351f12
@0972 bd1d0502
@0973 3d90bc08
@0974 3d155637
@0975 bb181e95
@0976 bd86fecf
@0977 bcdd2588
@0978 3d860889
@0979 bbe11f7b
@097a 3cd0d650
@097b bd6edcee
@097c bd5cf1a8
@097d bce848bf
@097e 3d219943
@097f bcc707ae
@0980 3c41dbb6
@0981 bcbfd83d
@0982 3d354192
@0983 3d9034d4
@0984 bd811f23
@0985 bd391adc
@0986 3d5c38c3
@0987 bd7474a4
@0988 bd3a2ea8
@0989 bd33e2d0
@098a bd3764f3
@098b bd8a8971
@098c 3ca8a752
@098d bd263e69
@098e bc930ec1
@098f 3ca6e629
@0990 3d9890bc
@0991 3d962230
@0992 3bb77ab6
@0993 bb52083a
@0994 bc9e051d
@0995 3d98dccd
@0996 bc48c25c
@0997 3c27b4c2
@0998 bd30052f
@0999 3b67cd11
@099a 3d9b45e2
@099b 3d949b0d
@099c 3d3ca404
@099d bd6ec9b4
@099e 3bc3488f
@099f 3c8a29c0
@09a0 bce72bb5
@09a1 bcc0d4b4
@09a2 3da571e8
@09a3 bcf9e32a
@09a4 3c2c7ba5
@09a5 bd8e2156
@09a6 bc8d0315
@09a7 3d8f05fd
@09a8 bc0c26a4
@09a9 3d5230b2
@09aa 3d66eac1
@09ab 3c8f64c1
@09ac bd3b38e4
@09ad bd89b0f5
@09ae 3cdafe25
@09af bda21b9e
@09b0 bbaa55ae
@09b1 bccb2094
@09b2 3cacfffd
@09b3 3d2b052a
@09b4 bd88d340
@09b5 bd9347d2
@09b6 3d4aa379
@09b7 3d923c26
@09b8 3d96430f
@09b9 3d92790b
@09ba bb34ad25
@09bb 3d986aaf
@09bc 3b12ce57
@09bd bd4be313
@09be 3da14689
@09bf bd2e77e7
@09c0 3c82155d
@09c1 bd195f00
@09c2 3da642de
@09c3 bcf5c515
@09c4 3c14967b
@09c5 bb73bcaa
@09c6 bd0d4d2c
@09c7 bdab0870
@09c8 bdace222
@09c9 bd77fd0b
@09ca 3d3b30d7
@09cb 3c853783
@09cc 3cacf37a
@09cd bd561a6e
@09ce 3d3fdaaf
@09cf bcd01912
@09d0 3c669350
@09d1 3d70a931
@09d2 3d915c3f
@09d3 3c515d12
@09d4 bd8c3efe
@09d5 3c96b7c4
@09d6 3c0db497
@09d7 3da2275f
@09d8 bd8eef92
@09d9 bc8bfacf
@09da bd6081eb
@09db bd42ddee
@09dc bd03c69e
@09dd 3d6e65b6
@09de 3d9ae74b
@09df bd9d8f53
@09e0 3d168026
@09e1 bda1c4ed
@09e2 3d3a8ae7
@09e3 bd1bab5f
@09e4 3da784e0
@09e5 3d96fe15
@09e6 3ce32012
@09e7 bd23e4ba
@09e8 3cdab064
@09e9 3d8b6943
@09ea bb1f48c7
@09eb 3d2ff942
@09ec 3c392049
@09ed 3d49e025
@09ee bd9024b3
@09ef bc09a1b9
@09f0 3cb45537
@09f1 3d66394e
@09f2 bd9b907f
@09f3 bd4e5f79
@09f4 bcb6a380
@09f5 bd83e284
@09f6 bcd7b74c
@09f7 3d2d09e3
@09f8 bb929091
@09f9 bc484b04
@09fa 3c9d0d74
@09fb 3b8fc256
@09fc 3cb623fc
@09fd 3bc0a77a
@09fe bd2be4da
@09ff bc10be99
@0a00 3c7025d2
@0a01 3bb70f81
@0a02 3b870447
@0a03 3c3a9e79
@0a04 3c399d65
@0a05 bd2fdfd1
@0a06 3cd25576
@0a07 3be02fc5
@0a08 3d2a847f
@0a09 bd11cc62
@0a0a 3ba87c44
@0a0b bd3175ed
@0a0c 3c8637ac
@0a0d 3c92de41
@0a0e bc903933
@0a0f bd0c8779
@0a10 bd1d6119
@0a11 3d2f7902
@0a12 3d5432d2
@0a13 3ca04a14
@0a14 3d11649f
@0a15 bd1cf5c0
@0a16 bd635436
@0a17 bd302860
@0a18 bcf16988
@0a19 bc817245
@0a1a 3c2952bf
@0a1b bcce2239
@0a1c 3cc4deca
@0a1d bd07f9e6
@0a1e 3c4987a4
@0a1f bc7b264d
@0a20 bced7651
@0a21 3d37e90a
@0a22 bd166911
@0a23 3d293cb2
@0a24 bcdc94f5
@0a25 3c3b6990
@0a26 bc12b001
@0a27 3d51abfb
@0a28 3d0aea6e
@0a29 3bbe4fe8
@0a2a bc8640a4
@0a2b 3c467dcb
@0a2c 3c9ad09d
@0a2d bcbddeb2
@0a2e bd19c6da
@0a2f 3c838fd1
@0a30 3c0c6d62
@0a31 bc56d712
@0a32 3d4a67ab
@0a33 bbb7fd8e
@0a34 3cda032a
@0a35 bd284000
@0a36 bb2accba
@0a37 3c7332f7
@0a38 bc91447a
@0a39 3d48172a
@0a3a bd21049f
@0a3b bcb96ece
@0a3c 3d430105
@0a3d 3cf4e716
@0a3e 3cfa4209
@0a3f 3cd0c78f
@0a40 3ce1c7a6
@0a41 3c83084f
@0a42 bd65408d
@0a43 bd414262
@0a44 bd334d69
@0a45 3cd1a2dd
@0a46 bc1d9f3f
@0a47 3ac67dce
@0a48 3d42cb29
@0a49 bc9ecb26
@0a4a 3c279452
@0a4b bce13a8a
@0a4c 3d436348
@0a4d 3d38231d
@0a4e bd208e4c
@0a4f 3a6716b4
@0a50 bd0b2dd6
@0a51 3ba4134d
@0a52 bd7b094b
@0a53 bd088398
@0a54 bca164a1
@0a55 3b846de3
@0a56 3d3b8da5
@0a57 bcbe9f44
@0a58 bd123531
@0a59 bd1b22a6
@0a5a 3cfce4cc
@0a5b bd23beb8
@0a5c 3d166dbb
@0a5d 3d15dfb1
@0a5e bc8a0bf5
@0a5f bc78e75c
@0a60 3ce384b3
@0a61 3cd86a01
@0a62 3d26f5df
@0a63 bcbfff1d
@0a64 3cb00885
@0a65 bd2502dc
@0a66 3d5d8791
@0a67 3c894d1a
@0a68 3b791653
@0a69 bd15270c
@0a6a 391c5b71
@0a6b bce385e5
@0a6c 3d11e359
@0a6d bd2eb5dc
@0a6e bd359037
@0a6f bac06085
@0a70 3c2e68d2
@0a71 bb4adfb0
@0a72 bce82902
@0a73 bc9a3a79
@0a74 3d43c72f
@0a75 3ce55579
@0a76 bd183db7
@0a77 3c3e6afb
@0a78 3c2fe3cf
@0a79 bce91de6
@0a7a 3cbd5540
@0a7b bc62da82
@0a7c bc8d7a48
@0a7d 3c387a65
@0a7e 3c525951
@0a7f bd3b7b54
@0a80 bcf3f562
@0a81 3d3e9957
@0a82 bd12f6a1
@0a83 3d3560bf
@0a84 3cbf3cd6
@0a85 bc5470fe
@0a86 bcfd1840
@0a87 bc65f65f
@0a88 bd03a206
@0a89 3c9e5af1
@0a8a 3be43df4
@0a8b 3b5078f6
@0a8c 3cf0d4aa
@0a8d bd7cc5d8
@0a8e bd416864
@0a8f bd61d176
@0a90 3c135bc4
@0a91 bcccbddf
@0a92 bc98770c
@0a93 bc7b853e
@0a94 3d589b15
@0a95 3caf7644
@0a96 bcc4caaf
@0a97 3c8e2b83
@0a98 bd040059
@0a99 3c8f6fab
@0a9a bc9d51c3
@0a9b bd264398
@0a9c bd334460
@0a9d bd4adc86
@0a9e bc9912b8
@0a9f 3d4f8428
@0aa0 bd074f8d
@0aa1 3c9bf982
@0aa2 bc429268
@0aa3 3d0a880e
@0aa4 3cb69b3b
@0aa5 bbbc9bdf
@0aa6 3c6af6bb
@0aa7 3d05464e
@0aa8 bcda7c98
@0aa9 bd3a6b7e
@0aaa 3d01b97c
@0aab bd1a0c20
@0aac bc4855db
@0aad bd10d568
@0aae bcc61c6c
@0aaf 3cf97503
@0ab0 bcec50c9
@0ab1 3d0143ac
@0ab2 3d804ca7
@0ab3 3d00d28e
@0ab4 3cb8350e
@0ab5 bcbf8847
@0ab6 3d53abbf
@0ab7 bb7a2dc8
@0ab8 bcb8f711
@0ab9 3c91c904
@0aba 3cc9a20d
@0abb ba9ae312
@0abc 3cbea656
@0abd bd0d1105
@0abe 3cf69b36
@0abf 3d20aceb
@0ac0 3c662c33
@0ac1 bd27ef05
@0ac2 3c0366b6
@0ac3 bc13695a
@0ac4 3d4dbfed
@0ac5 bbc7bc8b
@0ac6 bd55b3f9
@0ac7 bcf8a599
@0ac8 3d4f5e19
@0ac9 3cafc5a1
@0aca 3d023fef
@0acb 3ceb7278
@0acc 3d1a1dd4
@0acd bc034bc4
@0ace bc81051f
@0acf 3d6cb143
@0ad0 3c5a075d
@0ad1 bd343f7b
@0ad2 bd35c312
@0ad3 bd30e8eb
@0ad4 3cb12a20
@0ad5 bcd1a0b7
@0ad6 bd36b369
@0ad7 3c4dcb15
@0ad8 bcce723f
@0ad9 3ca31596
@0ada 3d57b145
@0adb bd15fbe6
@0adc bd0e7808
@0add bc8ecb70
@0ade 3c3d202a
@0adf 3cc81b9a
@0ae0 3d45f27b
@0ae1 3d00e9f8
@0ae2 bc569a74
@0ae3 bd02d234
@0ae4 bc8f862a
@0ae5 bc94347c
@0ae6 bc3d4103
@0ae7 3aa48e47
@0ae8 bd3216c8
@0ae9 3d259ad1
@0aea 3b054a3b
@0aeb 3be23899
@0aec bd02e560
@0aed 3cf942ac
@0aee 3caf3d3e
@0aef bb35d76c
@0af0 3c966c9d
@0af1 bce266f0
@0af2 bd12aac0
@0af3 3d049d6b
@0af4 3cb14b71
@0af5 3c76d1fb
@0af6 3c12779a
@0af7 3d5f0334
@0af8 3d236a75
@0af9 bc86fe56
@0afa bb8ca247
@0afb 3c2da658
@0afc bc1a557f
@0afd 3d2dfbed
@0afe bd27eb80
@0aff bd488ee3
@0b00 bb4c190a
@0b01 3cf4fdbf
@0b02 bcdac1a0
@0b03 bcbd48de
@0b04 3c968490
@0b05 bd241fb1
@0b06 bcd605f2
@0b07 bcf4452e
@0b08 bd462fe9
@0b09 bcb1d66b
@0b0a bd48f26b
@0b0b 3cb9a323
@0b0c 3cbdeb1e
@0b0d 3b3f7b38
@0b0e bd2918b7
@0b0f bd235003
@0b10 3b7f6653
@0b11 3c3c0891
@0b12 3c07b8b9
@0b13 3d37c9ef
@0b14 bcb18f53
@0b15 3bce7af7
@0b16 3d51b6af
@0b17 3d04efcc
@0b18 bd01eefe
@0b19 bbec8f64
@0b1a bc1dc112
@0b1b 3d421fe7
@0b1c bd3163ae
@0b1d 3ca95b21
@0b1e 3d598a6f
@0b1f bcca2c75
@0b20 3ce575ef
@0b21 bd18c1d0
@0b22 bd28496e
@0b23 bcd9adcb
@0b24 3a3dd19d
@0b25 bcfa99ff
@0b26 3c2a245c
@0b27 3ce83086
@0b28 3c41ed09
@0b29 3d161ff3
@0b2a bc21b204
@0b2b bd12886c
@0b2c 3c8593b9
@0b2d bd449dcd
@0b2e 3c8cdbee
@0b2f 3c857357
@0b30 3d6fe479
@0b31 3c840bc5
@0b32 3bb04e48
@0b33 bd424e52
@0b34 bcf86591
@0b35 3d6745ab
@0b36 bd2b5cf0
@0b37 3a2636fe
@0b38 bc46a40f
@0b39 3d73770c
@0b3a 3b64fea3
@0b3b bd35f3e9
@0b3c 3c9357d1
@0b3d bc4ba883
@0b3e bd1ad6f9
@0b3f 3cba61fe
@0b40 3d072f29
@0b41 bd0c00bb
@0b42 bcf9d371
@0b43 bca5c5db
@0b44 3d456e80
@0b45 bcd53d99
@0b46 3d3d4434
@0b47 bba22c6f
@0b48 3c43411a
@0b49 3c1dfc46
@0b4a 3d3c0dc5
@0b4b bc6bcc20
@0b4c bb88e13c
@0b4d 3c7bed82
@0b4e bd0f2b8e
@0b4f b920d5ea
@0b50 bbe90b60
@0b51 3c93b755
@0b52 3c7f67b6
@0b53 3be7ae2b
@0b54 bd15fc4e
@0b55 bd234bd0
@0b56 3b9bb12b
@0b57 bbfdebb4
@0b58 bd25c7e7
@0b59 bafb1981
@0b5a 3d3d8924
@0b5b bc9078b5
@0b5c bc24429b
@0b5d 3b9937b2
@0b5e bcf085b4
@0b5f 3d1a9be7
@0b60 3ce64b36
@0b61 bcc63d23
@0b62 bcfe2d99
@0b63 3d244a41
@0b64 3cec24ed
@0b65 bd271fd3
@0b66 bc8c3101
@0b67 3cd858fe
@0b68 3d25ebbf
@0b69 bcb41333
@0b6a bd1a8fb9
@0b6b bc3a4d97
@0b6c 3c3fd0c8
@0b6d bd22e248
@0b6e 3d2491d7
@0b6f bd31824f
@0b70 bba608b7
@0b71 bc810e0c
@0b72 3d447b5c
@0b73 bb797a1e
@0b74 3c9f7520
@0b75 3c846183
@0b76 3d12aa96
@0b77 3bc44ac5
@0b78 3d2a3c5f
@0b79 bd27f3c5
@0b7a 3d3e9224
@0b7b 3d4891e0
@0b7c 3b17564e
@0b7d bbd79fcd
@0b7e 3cc63e76
@0b7f bcfbce8d
@0b80 3b62012e
@0b81 bd2f4985
@0b82 bc23759b
@0b83 3bf87d2b
@0b84 3cfad882
@0b85 bd410129
@0b86 3cf96fb4
@0b87 3d023880
@0b88 bd384e63
@0b89 3d390c79
@0b8a 3d0a1c30
@0b8b bd1dfd02
@0b8c bc587f04
@0b8d 3d582e8b
@0b8e bcdd9925
@0b8f 3c765300
@0b90 bc4ea1bb
@0b91 bd2b75d1
@0b92 3a8e047a
@0b93 3d0d6590
@0b94 3d3273e8
@0b95 bc91e9c2
@0b96 3d03f9e8
@0b97 3d4ee2b5
@0b98 bd136ccc
@0b99 bcd42fbc
@0b9a 3c098f46
@0b9b bd3dcd1c
@0b9c 3a2325bf
@0b9d bbab93c4
@0b9e bc871aa8
@0b9f bcc22e42
@0ba0 bd10de95
@0ba1 bd492ab7
@0ba2 3c334d79
@0ba3 bcabd4b9
@0ba4 bc2ea9e4
@0ba5 3ae1d867
@0ba6 3bed395e
@0ba7 bd197739
@0ba8 3d527a95
@0ba9 bbc33a17
@0baa 3c4d9f06
@0bab 3c3741ea
@0bac bcd5d63d
@0bad 3a985e75
@0bae 3c34443e
@0baf ba2d4166
@0bb0 3d1d3542
@0bb1 bd1624b0
@0bb2 bcf87a66
@0bb3 3cdf1f6d
@0bb4 bbcea91b
@0bb5 bcf299a4
@0bb6 bd0ca79a
@0bb7 bd27638c
@0bb8 bd4b48dd
@0bb9 bcfa17f7
@0bba 3ca77a3b
@0bbb 3cc532df
@0bbc bbbd80e0
@0bbd bc913a9b
@0bbe bcd2e7b9
@0bbf 3d49d78d
@0bc0 3a8b14e7
@0bc1 3c96d2f9
@0bc2 3d2bacab
@0bc3 3c677355
@0bc4 3b889d6f
@0bc5 bb929d53
@0bc6 bd2b3ba7
@0bc7 bd1521a3
@0bc8 3c0cc26b
@0bc9 bcba7ac4
@0bca 3c26ae3b
@0bcb bcdd028c
@0bcc 3cb64dbf
@0bcd 3cd2ecfe
@0bce 3d10a8a4
@0bcf 3bb4e23a
@0bd0 3b2e8095
@0bd1 3d22e40b
@0bd2 3b367490
@0bd3 bd3ab0c8
@0bd4 3d36f9a0
@0bd5 3d24bec6
@0bd6 bab2c4a6
@0bd7 3cbe0745
@0bd8 3b1b5af8
@0bd9 bca1f8ef
@0bda 3d195854
@0bdb bb9f3abc
@0bdc bd1933ce
@0bdd 3c3cc7cf
@0bde 3cd6087e
@0bdf 3d09785e
@0be0 bcd9806f
@0be1 3d1cd8f0
@0be2 3c9b641f
@0be3 bab9bc48
@0be4 bd189586
@0be5 bcfa0c60
@0be6 bcb21739
@0be7 bcdc01b0
@0be8 bc9535b9
@0be9 3b984424
@0bea bd536822
@0beb bd3ea729
@0bec 3d3a9364
@0bed 3d06c216
@0bee 3cf1cfda
@0bef 3cffad07
@0bf0 bc1770d4
@0bf1 3cf79223
@0bf2 3cbb49f3
@0bf3 3be4b7e0
@0bf4 bd3d8bd5
@0bf5 3c995842
@0bf6 bd1ecdc2
@0bf7 bd174bfb
@0bf8 38d0aad4
@0bf9 bd13cbc4
@0bfa 3d3a9fd7
@0bfb bca49780
@0bfc 3c7e93db
@0bfd 3ced4837
@0bfe 3ccc44e0
@0bff 3bdf7f65
@0c00 bd2b97fb
@0c01 bba37016
@0c02 3c532ab2
@0c03 3cb314ae
@0c04 3c2fcb0c
@0c05 3d2b340c
@0c06 bd04ef81
@0c07 3c117e72
@0c08 bc2fc9df
@0c09 bc51345b
@0c0a 3c0d9a46
@0c0b 3bf8a15b
@0c0c bd4153be
@0c0d 3c1800f4
@0c0e ba9576e0
@0c0f bc7ce3ec
@0c10 3cf2f22f
@0c11 3cd1f77c
@0c12 3bdf3928
@0c13 bd36c622
@0c14 bc716eb0
@0c15 3d404ce0
@0c16 bd106a5d
@0c17 bbc0aefb
@0c18 3d39e0e4
@0c19 3c576088
@0c1a bd23e030
@0c1b 3d467322
@0c1c bcb2d890
@0c1d bb7baefb
@0c1e bd2c62ac
@0c1f 3bffc6a4
@0c20 bc2c2299
@0c21 3d3d1d06
@0c22 bd1ba579
@0c23 3c89fbb2
@0c24 bd432a45
@0c25 3c5bfde5
@0c26 bd1c2518
@0c27 bcdf6d22
@0c28 3d536eda
@0c29 bd1e39d3
@0c2a bc742ddc
@0c2b 3c39adc2
@0c2c bd260374
@0c2d bd1a5205
@0c2e 3d4de488
@0c2f 3cdbd2c5
@0c30 bd38d8fc
@0c31 bce79894
@0c32 3d272e41
@0c33 bd34f264
@0c34 bc8d73ad
@0c35 3b062c43
@0c36 bd1bdd6b
@0c37 bcb39afc
@0c38 3b5c2fb1
@0c39 bbc8473a
@0c3a bd160752
@0c3b 3d305949
@0c3c 3d258ea7
@0c3d 3caa14f5
@0c3e 3cc7ade4
@0c3f bd5df3cc
@0c40 bc043162
@0c41 3d6ccfad
@0c42 3d0cd6ef
@0c43 3b5e8e86
@0c44 bce168e3
@0c45 3d39f27a
@0c46 3d1c216a
@0c47 3cba39f2
@0c48 3cd8010a
@0c49 3cdefa3a
@0c4a 3c53d5f6
@0c4b bcbc5284
@0c4c 3af5b896
@0c4d bd22c54b
@0c4e 3d3172b2
@0c4f bc6fdaa7
@0c50 3c5de95d
@0c51 3d4bae60
@0c52 bb335ec5
@0c53 3cc481a0
@0c54 bcbab03f
@0c55 3d1c3405
@0c56 bca69094
@0c57 bc801a9a
@0c58 3cb11867
@0c59 3cedb4a5
@0c5a bcdbab79
@0c5b bd4832f3
@0c5c bd1c53cf
@0c5d 3b2af94a
@0c5e bc661649
@0c5f 3ae5eadb
@0c60 3d23a0a8
@0c61 3cfd5046
@0c62 bb876104
@0c63 bd3cf72a
@0c64 bd1b216b
@0c65 3d17e8c7
@0c66 bd0c20df
@0c67 bd42124c
@0c68 3c43306e
@0c69 bcc59458
@0c6a bc703cda
@0c6b 3d4e6e6f
@0c6c bbf70337
@0c6d bc832893
@0c6e 3c503922
@0c6f 3c4e22b4
@0c70 bd07be8e
@0c71 3c7e7d71
@0c72 bd2f5601
@0c73 3d1f4460
@0c74 bd1ac5d5
@0c75 3ca51ddd
@0c76 bd234144
@0c77 b8e6bf4d
@0c78 bd09a44b
@0c79 3c808ea4
@0c7a 3d163dd3
@0c7b 3c552c96
@0c7c bd2d58d6
@0c7d bd2b5871
@0c7e 3d068c49
@0c7f bd4c2162
@0c80 bd02acd4
@0c81 3bec0b99
@0c82 3cdc0fd0
@0c83 3d290ffe
@0c84 bc94d5bc
@0c85 bd30ba14
@0c86 3c837330
@0c87 3c878907
@0c88 3b336326
@0c89 bd2a04b0
@0c8a bb6ce8d5
@0c8b 3d33ff3d
@0c8c bb44e5f0
@0c8d 3ce05cf2
@0c8e bd173030
@0c8f bcab7f79
@0c90 ba71239a
@0c91 bbf61505
@0c92 bd117a60
@0c93 bcb4bc5a
@0c94 3d0d0458
@0c95 3c3735c3
@0c96 3c071301
@0c97 bce2489b
@0c98 bc7e20b1
@0c99 bd02dc0f
@0c9a bc019268
@0c9b bc16f5d8
@0c9c 3d385351
@0c9d 3d34a32f
@0c9e 3b27cf59
@0c9f bcfbb41f
@0ca0 bd13cbfc
@0ca1 bcdf810c
@0ca2 bd07ca5d
@0ca3 3c8805d6
@0ca4 bd1e8315
@0ca5 bbfc962f
@0ca6 bcde932f
@0ca7 bd158200
@0ca8 bb1a304b
@0ca9 bd43b2c1
@0caa bc293dfe
@0cab 3d07f9c6
@0cac 3d395f84
@0cad bb114213
@0cae bc15e6df
@0caf bd05c85f
@0cb0 3cd3b41d
@0cb1 3c6c3ff6
@0cb2 bd01dd0d
@0cb3 bd2f6486
@0cb4 bcc399ce
@0cb5 3cdf7c41
@0cb6 3cba74bd
@0cb7 3d03a70b
@0cb8 bd507c36
@0cb9 3d334236
@0cba 3d0dd314
@0cbb bcc009c8
@0cbc bd12c43c
@0cbd 3cbbf8db
@0cbe bd077705
@0cbf bd033416
@0cc0 3cdb8136
@0cc1 3d079c2b
@0cc2 bd2ee6e4
@0cc3 bd2b13cf
@0cc4 3c4d279f
@0cc5 3c2e5059
@0cc6 3b9781d0
@0cc7 3cf414d7
@0cc8 3d066218
@0cc9 3cdcbcdf
@0cca bd34cd4f
@0ccb bc939a63
@0ccc 3c41c0d4
@0ccd bca2831f
@0cce 3c8fcc6c
@0ccf bba3aef3
@0cd0 bcab126b
@0cd1 bc65904e
@0cd2 3cfd31cd
@0cd3 bcc2bddb
@0cd4 3bd8804d
@0cd5 bd4b178f
@0cd6 bcf5faa3
@0cd7 bd1f95d5
@0cd8 3d255d44
@0cd9 bd037831
@0cda 3d1dfdfd
@0cdb bc9c9974
@0cdc 3cee3522
@0cdd 3c16ef77
@0cde bcb31a3e
@0cdf 3d0ed3ac
@0ce0 3cf77566
@0ce1 bd0ad5a7
@0ce2 bd108db3
@0ce3 3ca7c15a
@0ce4 bc95a28d
@0ce5 3d0c50ed
@0ce6 39e92b37
@0ce7 bc8de9fd
@0ce8 bcbf72e9
@0ce9 3c9fc1cd
@0cea bd12e7be
@0ceb 3d16e61c
@0cec 3d347282
@0ced bd18f460
@0cee 3cf54aaa
@0cef bca31f6c
@0cf0 3cb6d3e9
@0cf1 3ca0df39
@0cf2 3cdd688e
@0cf3 3c793357
@0cf4 3d0edf88
@0cf5 3d0f6a7e
@0cf6 3bbb3e82
@0cf7 3d44b2dd
@0cf8 3c532274
@0cf9 bd0e34dc
@0cfa 3a8e2892
@0cfb 3c5f88c7
@0cfc bd052953
@0cfd 3b0081aa
@0cfe 3d19dd11
@0cff bc950ac9
@0d00 bcf9932a
@0d01 bce57fc9
@0d02 bcd21fcc
@0d03 3d185091
@0d04 bc50ee16
@0d05 3d429bed
@0d06 3d4b3ed5
@0d07 3d1b36ba
@0d08 bab5fcea
@0d09 3abf6718
@0d0a 3cf06dbd
@0d0b 3cb6f159
@0d0c bc10a3f8
@0d0d 3d1843d8
@0d0e 3d464b38
@0d0f bd058055
@0d10 bd3f8528
@0d11 3d1abc2c
@0d12 bd05a932
@0d13 bc534953
@0d14 bcbbf8b6
@0d15 bc601333
@0d16 bd093370
@0d17 bcd59de3
@0d18 3d136e2e
@0d19 3ca82ca2
@0d1a 3cd726da
@0d1b 3c86aac0
@0d1c 3c89d327
@0d1d bc80a0bd
@0d1e bd204c39
@0d1f bcffe8c9
@0d20 bd1b05b8
@0d21 bd592b4e
@0d22 3d27b1f8
@0d23 3caa839c
@0d24 3aecf1e8
@0d25 bd242135
@0d26 bc79c00f
@0d27 bd2533b5
@0d28 bd1ad933
@0d29 3cb8b01e
@0d2a bd25d3ca
@0d2b 3c521997
@0d2c bd80e91f
@0d2d 3c7721bc
@0d2e 3d0636ce
@0d2f 3d513fb4
@0d30 3d1bb1fb
@0d31 bd34e80b
@0d32 bd19c531
@0d33 bc08f513
@0d34 3d556c52
@0d35 bc8c9467
@0d36 3cd7ca37
@0d37 bd33734d
@0d38 3d4dab4d
@0d39 bc94caa2
@0d3a 3ca013a1
@0d3b 3d3aa161
@0d3c bc194c3f
@0d3d 3d4e2a92
@0d3e bc721834
@0d3f 3c2b17b4
@0d40 bcf2c5cb
@0d41 3b6e081c
@0d42 bd1ca52c
@0d43 3c94d096
@0d44 bd2efc28
@0d45 bc927296
@0d46 bd48f8d5
@0d47 bd148463
@0d48 3cf054e2
@0d49 bce85cdc
@0d4a 3c9c992f
@0d4b bd18733d
@0d4c bc0884e8
@0d4d bc54ff75
@0d4e 3c84c168
@0d4f bd2e027e
@0d50 bd2e74af
@0d51 bcfb37ec
@0d52 3972708f
@0d53 bbdd3e7a
@0d54 3d43a2bf
@0d55 3cccda1d
@0d56 bccaf1c7
@0d57 3cc6d3a2
@0d58 3cc93cc1
@0d59 3d4c5154
@0d5a 3d377cb7
@0d5b 3d179cde
@0d5c 3d4673da
@0d5d 3d04e5a4
@0d5e bd188b23
@0d5f ba884101
@0d60 3d277836
@0d61 bbd0b40f
@0d62 bd003adf
@0d63 bcb86f17
@0d64 3d68c0c4
@0d65 3d5c9fc2
@0d66 3cabab22
@0d67 3a4a5ee0
@0d68 3d2a152b
@0d69 bca9fbba
@0d6a 3aebcd05
@0d6b 3cd490d7
@0d6c 3c5a0b02
@0d6d bcab2675
@0d6e bd2e2547
@0d6f 3b87922b
@0d70 bd3dfe71
@0d71 3d044fde
@0d72 3d49b88c
@0d73 3d488d03
@0d74 bc4bf5c5
@0d75 bc9d91d9
@0d76 3d1b36fb
@0d77 3d35c7e4
@0d78 3cc61b46
@0d79 bba50629
@0d7a bd1b22e1
@0d7b bcc88214
@0d7c 3d3fd473
@0d7d 3d45b445
@0d7e 3c82a0d3
@0d7f bab5d24a
@0d80 3d2abdcf
@0d81 3d4f1681
@0d82 3d344d26
@0d83 bd307e53
@0d84 bd3c95cb
@0d85 bd44c214
@0d86 3d06ec1e
@0d87 bd18f802
@0d88 bd3bfb4e
@0d89 3cadb8fa
@0d8a 3c9fac0d
@0d8b bbfc0562
@0d8c bb288487
@0d8d bd18bb0a
@0d8e bca8c699
@0d8f 3c96af03
@0d90 3d30b39b
@0d91 bcf7bc29
@0d92 bc634ae7
@0d93 bbfb232c
@0d94 bc12df87
@0d95 3d3b893a
@0d96 bc93bef3
@0d97 bbac96d7
@0d98 bca21b93
@0d99 bc0313b7
@0d9a bc26a9b1
@0d9b 3cbc3c52
@0d9c 3ce9178f
@0d9d 3c394d92
@0d9e 3d3138bd
@0d9f 3cc7ff4b
@0da0 3be1b85c
@0da1 3d4bef2d
@0da2 3c3cd2c7
@0da3 3a9f3793
@0da4 bd183e40
@0da5 bcbca012
@0da6 bcc369f2
@0da7 3d254a74
@0da8 bc7a9b34
@0da9 bd278cfe
@0daa bd345d9e
@0dab 3bbf3cdb
@0dac bca19a63
@0dad 3d488d6b
@0dae bb6c828c
@0daf 3cfb2ea2
@0db0 bc1e6e04
@0db1 3ce0c09a
@0db2 bc0d8db4
@0db3 ba1b4a79
@0db4 3d0ba659
@0db5 bd115805
@0db6 3d3c2357
@0db7 bc687ec8
@0db8 bceb2fb0
@0db9 3cef1a56
@0dba bcff0300
@0dbb 3c2de9e6
@0dbc bc349a7d
@0dbd 3d6f1080
@0dbe 3c93e7f8
@0dbf 3cc51f0e
@0dc0 3d3c9957
@0dc1 bc4727fa
@0dc2 3ce0f40a
@0dc3 bcd5c92d
@0dc4 bb88c561
@0dc5 bcecd295
@0dc6 bcb27439
@0dc7 3cf7b7d3
@0dc8 3c6928e1
@0dc9 3c1b27a8
@0dca 3d379c17
@0dcb 3cbbbce2
@0dcc 3d32dea3
@0dcd 3d7328e5
@0dce 3c6e9ba9
@0dcf 3c395dfb
@0dd0 bd76a492
@0dd1 3d9a755f
@0dd2 3d32232c
@0dd3 3d0eb67c
@0dd4 bb6869e4
@0dd5 bcbe266c
@0dd6 3cce0206
@0dd7 3c599f3e
@0dd8 3ceeebfe
@0dd9 3c8b1de9
@0dda 3bd13f33
@0ddb bd47b912
@0ddc bd25f54c
@0ddd 3ae0cddc
@0dde bcdbce3f
@0ddf bccbea38
@0de0 3d4d258d
@0de1 3d34cc0a
@0de2 3d22fc60
@0de3 3a8f917f
@0de4 bd0687ec
@0de5 bd00b6d3
@0de6 bd47ef36
@0de7 bcd86345
@0de8 3a87ce8d
@0de9 3cfc616b
@0dea bc0d1809
@0deb 3c2d495a
@0dec bcf2cc93
@0ded 3d20ab68
@0dee 3d5f8fb6
@0def bc73f311
@0df0 3ba93d14
@0df1 bd16ba22
@0df2 3d12dc05
@0df3 3c447590
@0df4 3c11edcc
@0df5 bcd35efb
@0df6 3d3e459d
@0df7 3d21f4d0
@0df8 bba38261
@0df9 3d1ae8f7
@0dfa 3bb5641b
@0dfb bd4f710d
@0dfc bc9dddb4
@0dfd 3cdae53e
@0dfe 3c6396b1
@0dff 3c9e69f0
@0e00 bc1cee88
@0e01 3d1578d1
@0e02 bd23bc1b
@0e03 3d0084e8
@0e04 3c81973f
@0e05 3c4b30d4
@0e06 3c316909
@0e07 3c0af5ff
@0e08 3d52de78
@0e09 bd0f44d2
@0e0a bb286f70
@0e0b bc900fbf
@0e0c bcaee367
@0e0d 3bf77bc4
@0e0e bc88f079
@0e0f bcfefbe5
@0e10 3aed77ed
@0e11 bcd516ec
@0e12 3d3ea5a8
@0e13 3cd49a93
@0e14 3d2a0fff
@0e15 bcf87dbf
@0e16 3d1436b4
@0e17 bd51ab70
@0e18 bd237c70
@0e19 bcacd17f
@0e1a bccc6f78
@0e1b 3cc3779a
@0e1c bcdca675
@0e1d bb258fb0
@0e1e bd0e6dd5
@0e1f 39ce11db
@0e20 3cb7df49
@0e21 3d1454d3
@0e22 3d088b9e
@0e23 3d2e095c
@0e24 bcf35ee6
@0e25 bcee0463
@0e26 bd3b6943
@0e27 3ced2bc7
@0e28 bd18a73d
@0e29 3ce5ff75
@0e2a 3d9ef827
@0e2b bc9a639e
@0e2c 3d806df2
@0e2d 3cf2f080
@0e2e 3d02a872
@0e2f 3c0fdc49
@0e30 3cf97b14
@0e31 bc9b61b9
@0e32 3cd403dc
@0e33 bd6799b7
@0e34 bd3c4cbc
@0e35 bcd6be90
@0e36 3a681f61
@0e37 3cbb5c62
@0e38 bd46c97f
@0e39 bd558ce1
@0e3a 3b4f2255
@0e3b 3a272123
@0e3c 3c51046d
@0e3d 3cc358c2
@0e3e bd609f72
@0e3f 3b921c54
@0e40 3c5635c2
@0e41 3bf7ad75
@0e42 3d7a164e
@0e43 3b89bdab
@0e44 3cf855ea
@0e45 bced292f
@0e46 3c802607
@0e47 bd2eb7e7
@0e48 bd1e0e8a
@0e49 3d4f0de4
@0e4a 3c371eb4
@0e4b bbc96411
@0e4c bbbfde85
@0e4d bc2fa8c9
@0e4e bcc118bf
@0e4f 3c72a9b4
@0e50 3d586f16
@0e51 bcdd6be9
@0e52 bd1c8a01
@0e53 bcca3611
@0e54 3c2d20f9
@0e55 bd06edee
@0e56 bc3a313b
@0e57 bd5898be
@0e58 3c97157f
@0e59 3a5fc293
@0e5a 3d03f0a2
@0e5b 3bc1834a
@0e5c 3c9a1f63
@0e5d bcf86cc0
@0e5e 3c81626a
@0e5f bd49c540
@0e60 3cb6d606
@0e61 3d135d08
@0e62 3d2d4907
@0e63 3cce1c81
@0e64 bbfd39d7
@0e65 39ed3812
@0e66 3d42525d
@0e67 bcbe5788
@0e68 3b87f5ff
@0e69 3cdcf9c8
@0e6a bc27a6bc
@0e6b 3c5d78f4
@0e6c 3d279cce
@0e6d 3c72133f
@0e6e bd2c1a68
@0e6f 3cff625e
@0e70 3cca573d
@0e71 3b945c9d
@0e72 bc714995
@0e73 bb24eff9
@0e74 bd0986c2
@0e75 3d01e64e
@0e76 3c44eec8
@0e77 bcf270c8
@0e78 3d4408e0
@0e79 bc4c6dd5
@0e7a bd271bd5
@0e7b 3d23850a
@0e7c 3d4917ad
@0e7d 3ce042b9
@0e7e 3bb45889
@0e7f bc6a1dbc
@0e80 3b4d520a
@0e81 3cc6d095
@0e82 3c29a1f4
@0e83 bd05dc16
@0e84 bbc17ff8
@0e85 39896eca
@0e86 bc2f9fbb
@0e87 3b08f22e
@0e88 3c0e7ed6
@0e89 ba470f45
@0e8a bd5dd0b0
@0e8b bd3399de
@0e8c bd08453f
@0e8d 3d48e343
@0e8e bc261b73
@0e8f 3d53980d
@0e90 bc6b7b63
@0e91 3d505969
@0e92 3c627ab5
@0e93 3d34b90f
@0e94 bcb1f395
@0e95 bb47fc96
@0e96 bd01aa83
@0e97 3d1501c1
@0e98 3d495b84
@0e99 bc3ad086
@0e9a bd13cde9
@0e9b 3d0d1a34
@0e9c 3c817452
@0e9d bcb3003a
@0e9e bce7b3df
@0e9f 3d22759f
@0ea0 3d30bd76
@0ea1 3d392fe4
@0ea2 bc482d79
@0ea3 3c2b2af3
@0ea4 bc0dfb6a
@0ea5 3ad41c90
@0ea6 3ccf83cb
@0ea7 bd099765
@0ea8 3d41d322
@0ea9 3d088859
@0eaa 3ceccd67
@0eab bbe56d82
@0eac 3caac1f9
@0ead 3d85a30a
@0eae 3c103a96
@0eaf 3b241b0e
@0eb0 3c3dd178
@0eb1 bd411254
@0eb2 bbd047e8
@0eb3 3cf79a7d
@0eb4 bc7a22f2
@0eb5 bd4413c2
@0eb6 bc8d0aec
@0eb7 bcf755d4
@0eb8 ba0e6ffe
@0eb9 bd578a70
@0eba 3c93a56e
@0ebb bc6b6412
@0ebc bc9a22bd
@0ebd bd0b45f8
@0ebe bc3b4f58
@0ebf bb6793b1
@0ec0 3d1ff619
@0ec1 bd29b57c
@0ec2 bd2432f5
@0ec3 bbce3e6e
@0ec4 3d0e13b9
@0ec5 bd14754e
@0ec6 3d25e1b8
@0ec7 bce215aa
@0ec8 bcc09178
@0ec9 bcba9f79
@0eca 3b4c722c
@0ecb bbc14c2c
@0ecc 3d2e93ca
@0ecd 3d6adedd
@0ece 3c6d34b1
@0ecf 3bf4e877
@0ed0 bd287a70
@0ed1 bd59a69e
@0ed2 3d139b03
@0ed3 bce80fb8
@0ed4 bbeb10eb
@0ed5 bd0afc8d
@0ed6 bd130027
@0ed7 3cc057c2
@0ed8 3d40b503
@0ed9 bc2e1f62
@0eda bcb9be5b
@0edb bd3a74e6
@0edc bd10fa82
@0edd 3b0b3e9d
@0ede 3c04ab3d
@0edf bd1334fc
@0ee0 badd67c8
@0ee1 bd24f75f
@0ee2 3d200153
@0ee3 3c299b5e
@0ee4 3c9f8cd2
@0ee5 bc781fdf
@0ee6 3cc4fce0
@0ee7 bd2fcc0b
@0ee8 bd41d755
@0ee9 3c805c18
@0eea bcc7f425
@0eeb bcb08317
@0eec 3d2c2623
@0eed 3d06c0ab
@0eee bc17a07e
@0eef bb6ffbb2
@0ef0 3d050de2
@0ef1 3cb08705
@0ef2 bc27d08f
@0ef3 3c852206
@0ef4 3c43a67a
@0ef5 bcd598d9
@0ef6 bc883b8c
@0ef7 bcd5cb5e
@0ef8 bcf0e730
@0ef9 3cf1e417
@0efa bd0d6a74
@0efb bb4d337f
@0efc 3cfe8d63
@0efd 3be02d19
@0efe bca9fa42
@0eff bd137db2
@0f00 bc93f52a
@0f01 3c4d3139
@0f02 3ca88333
@0f03 3d0765f7
@0f04 bd3799b2
@0f05 3d2dc15f
@0f06 3c0190b2
@0f07 bd8177de
@0f08 3c46a29f
@0f09 3c331025
@0f0a bc1b352f
@0f0b bc8a1f54
@0f0c 3d004dad
@0f0d 3d34ca1f
@0f0e bcf229fa
@0f0f bc216165
@0f10 3d34abaf
@0f11 bd01689f
@0f12 3c6e63fd
@0f13 3be27cae
@0f14 3c63e999
@0f15 bd039cec
@0f16 3cde2dbf
@0f17 3d40dc75
@0f18 bcbca472
@0f19 bacf79b1
@0f1a bcd8bd70
@0f1b bd389dc2
@0f1c 3ab42d4f
@0f1d bcb5bfac
@0f1e bd319c7a
@0f1f bd17d1e9
@0f20 bd837a73
@0f21 bc8b69aa
@0f22 3c912376
@0f23 bcd91872
@0f24 bd575abf
@0f25 bd1d52ad
@0f26 bc949a16
@0f27 bce2e767
@0f28 bbd72518
@0f29 bcf1b3be
@0f2a 3cbaf228
@0f2b 3ce0a6d7
@0f2c bc2dd9f6
@0f2d 3cd78568
@0f2e 3cd92833
@0f2f 398867dc
@0f30 bc1d68ad
@0f31 bd3d9f8e
@0f32 3c88c8bb
@0f33 3c89cb63
@0f34 3c297ec5
@0f35 3d2375e2
@0f36 3cc12508
@0f37 bbbf66c0
@0f38 bd5043a4
@0f39 bd2fc3bf
@0f3a 3cd4b68a
@0f3b b9c4f21e
@0f3c 3b545da9
@0f3d 3d43bf73
@0f3e 3d6fddff
@0f3f 3d19a007
@0f40 3b75bd7c
@0f41 bd62578f
@0f42 bc206276
@0f43 bccbdc15
@0f44 bc99e031
@0f45 3cbf9762
@0f46 3d6e1037
@0f47 3c973895
@0f48 3c5b4e61
@0f49 3c095ae2
@0f4a bb83526d
@0f4b bd28ab67
@0f4c bcfdd125
@0f4d 3a48a007
@0f4e 3c54232c
@0f4f bc78b433
@0f50 bc965436
@0f51 bce24a34
@0f52 3c07db3f
@0f53 bd45df29
@0f54 3c468e45
@0f55 3c3d09ff
@0f56 3d13db6b
@0f57 bc62125f
@0f58 bd1c83b7
@0f59 3d864543
@0f5a 3c9f814c
@0f5b 3d0aa4cf
@0f5c bb8f4362
@0f5d bc88049e
@0f5e bcff4e0c
@0f5f 3d867a9e
@0f60 3ae60353
@0f61 bd4734e9
@0f62 bccda36d
@0f63 bd082489
@0f64 bc7f74c1
@0f65 ba7a1660
@0f66 3bb6362f
@0f67 3c85277a
@0f68 3d2aa1f0
@0f69 3d13c423
@0f6a bc8613a4
@0f6b bd3183ea
@0f6c bd725aa5
@0f6d 3bd617b2
@0f6e bcd636da
@0f6f bd005278
@0f70 bd53a305
@0f71 bb5f87da
@0f72 3d6bedca
@0f73 bc9b6876
@0f74 bd40d126
@0f75 3caa1bfe
@0f76 bcc18bdb
@0f77 bcb6e261
@0f78 bd46d05e
@0f79 3d2af754
@0f7a bd32ab71
@0f7b bcb13f72
@0f7c bd317a7e
@0f7d bc009727
@0f7e bd601777
@0f7f 3d3f95f6
@0f80 bd2f29bd
@0f81 3b88ab3e
@0f82 bcd490dc
@0f83 bc995b82
@0f84 3d277581
@0f85 bd4c433d
@0f86 bc1263ef
@0f87 bbae1bc7
@0f88 3b46bfd1
@0f89 bd1dfa44
@0f8a bc8a9118
@0f8b bd008067
@0f8c bc2e55c9
@0f8d bbc86382
@0f8e 3d3914b1
@0f8f bcb95232
@0f90 3bfc4004
@0f91 3d44afc1
@0f92 bd1e053f
@0f93 3d253a85
@0f94 bcee4b8a
@0f95 3cb6743b
@0f96 3d4921c7
@0f97 bba16676
@0f98 bd40b848
@0f99 bce8063e
@0f9a bd31883a
@0f9b bcbdc665
@0f9c bc6cc94e
@0f9d 3d1881c9
@0f9e 3c379e81
@0f9f bd030713
@0fa0 3d27eed1
@0fa1 3cb92653
@0fa2 3d3ae53b
@0fa3 bcf396f0
@0fa4 bba49541
@0fa5 3cf68db7
@0fa6 3ccf8957
@0fa7 3d01724e
@0fa8 3d2ac012
@0fa9 3cf0ccbc
@0faa b9fe763f
@0fab bc98a654
@0fac bd54a947
@0fad 3ba5c58c
@0fae bcdb664f
@0faf bd5a4eb4
@0fb0 3cb4ceea
@0fb1 3bbfa2e9
@0fb2 b956f0b6
@0fb3 3ba0289a
@0fb4 bcefe2b8
@0fb5 3c6072ef
@0fb6 bc663a70
@0fb7 3d3ea0c5
@0fb8 bc2f1444
@0fb9 3d5b8119
@0fba 3d15c6ff
@0fbb 3d2be009
@0fbc 3d47cac2
@0fbd 3d7a0b91
@0fbe 3d1a65e3
@0fbf 3d6a2572
@0fc0 3d37e65c
@0fc1 3bd79dca
@0fc2 3d81a66f
@0fc3 3d10fe9a
@0fc4 3c6a1738
@0fc5 bd2b6a59
@0fc6 bcd945aa
@0fc7 3d428b63
@0fc8 bca80b36
@0fc9 bb949c98
@0fca bd15fffd
@0fcb 3d00a173
@0fcc 3cf3a28a
@0fcd bd799293
@0fce 3cca036c
@0fcf 3a9494da
@0fd0 bd1958ee
@0fd1 3bc202eb
@0fd2 3c1385d7
@0fd3 bc66366f
@0fd4 3c797340
@0fd5 3d89ca3f
@0fd6 3be020f9
@0fd7 3c90ceaf
@0fd8 bcb8f048
@0fd9 bd06a077
@0fda 3c8f3925
@0fdb 3cfdc0a8
@0fdc 3c7b8036
@0fdd 3d2654dd
@0fde 3d03e2e3
@0fdf 3d40cfd1
@0fe0 3d8ecbd1
@0fe1 bc4dafde
@0fe2 bd53a976
@0fe3 bd2df3ba
@0fe4 3d30ab57
@0fe5 bc9a2b8e
@0fe6 bcb1e894
@0fe7 bd2cb797
@0fe8 3cddc9f9
@0fe9 bc86074c
@0fea 3c86d425
@0feb bbb1f778
@0fec 3d143f14
@0fed 3d0a6432
@0fee 3c315d67
@0fef bc56129c
@0ff0 3d32a110
@0ff1 3d202c56
@0ff2 3d1903ec
@0ff3 bc8d7575
@0ff4 bbb393f9
@0ff5 bc456199
@0ff6 bb229711
@0ff7 3d36f50a
@0ff8 3a00f008
@0ff9 3abf92f6
@0ffa 3d32ab0c
@0ffb 3c3e76ad
@0ffc bd3e0588
@0ffd 3c701a98
@0ffe 3c68c6c5
@0fff 3cccade9
@1000 bcf5533d
@1001 bd3a47a5
@1002 bd2d513a
@1003 bcd776d3
@1004 3d1d2cf5
@1005 bc9dd3ea
@1006 bbd59bb5
@1007 bc0b8cce
@1008 bd11cdcc
@1009 bcb2e1e6
@100a 3bdb3ef4
@100b 3c560f3a
@100c 3d3ffa32
@100d 3ba70cc7
@100e bc83c68c
@100f bc4719ea
@1010 3c800869
@1011 bce5c257
@1012 3d40dddc
@1013 bce4baf9
@1014 3b8ca480
@1015 3d02e8c6
@1016 bceadb9d
@1017 3c8fc995
@1018 bcaccde9
@1019 3be2cb0a
@101a 3c8e772f
@101b 3d1bf44e
@101c 3bfc1b63
@101d 3cdb7ee4
@101e 3c3484be
@101f 3c049a51
@1020 bbaec33e
@1021 3b90914f
@1022 bc3ccb80
@1023 3d15d681
@1024 bd310f31
@1025 bc814f13
@1026 bd19d7ac
@1027 3cb80a7d
@1028 ba704c74
@1029 3d3a4a69
@102a bc4c682b
@102b 3d020bf5
@102c bb15e5ae
@102d 3c5d8b55
@102e 3cf4b766
@102f bb947d2a
@1030 bd09a0a9
@1031 3d542f36
@1032 bb1f80af
@1033 bad94061
@1034 bcb27fa7
@1035 3cfc46ed
@1036 bcf3149f
@1037 bc0a48f5
@1038 3c24711e
@1039 bd4882d7
@103a bd7ae26a
@103b 3d306a37
@103c 3caa5dea
@103d 3d4fd587
@103e bd5eb3d7
@103f bc45be5d
@1040 3c3e7243
@1041 bd01735a
@1042 bd0551fb
@1043 3d84f011
@1044 bc837277
@1045 bd815adf
@1046 3d44caa5
@1047 3be2bbe1
@1048 bd5e1660
@1049 bce6c1b0
@104a 3b7cfbd8
@104b 3d3b7f37
@104c 3d239791
@104d 3ac0bd29
@104e bbf31a3d
@104f bca379ea
@1050 bd0928fa
@1051 3d2b2d3f
@1052 bd4d8cfa
@1053 3c64da82
@1054 bd1633ae
@1055 393ed980
@1056 3cfe381a
@1057 3b93bb58
@1058 bcc4a6e3
@1059 bd1065d6
@105a 3d15b225
@105b 3c99b7a1
@105c 3c919644
@105d 3cbd67a4
@105e 3d38e292
@105f bd22697f
@1060 bd07d7fa
@1061 bd0d9be1
@1062 bd66e0d7
@1063 3b828f4e
@1064 bc83ad1d
@1065 3d217bdb
@1066 bcda6837
@1067 3d3ddc89
@1068 bbfb8bcd
@1069 3d2e272e
@106a bcb09781
@106b bcc2d25c
@106c 3cecc12b
@106d 3bcba73f
@106e bcfb02f7
@106f bd167777
@1070 bc84134d
@1071 bd1c6e18
@1072 3cd20471
@1073 3d520981
@1074 3c14a0fa
@1075 3b3ebdd2
@1076 3ca3e061
@1077 bd1e9262
@1078 bc97af42
@1079 bd1b6492
@107a 3b45523f
@107b bb031c40
@107c bc053208
@107d 3d26e8bd
@107e bba6ebd6
@107f bd18b9d1
@1080 3c999369
@1081 bd3525ca
@1082 3c36f41d
@1083 bc853d30
@1084 bc6a15b3
@1085 3c819c2d
@1086 bd7ba294
@1087 bd334ddf
@1088 bd9656d3
@1089 bd2b0096
@108a 3d01ba12
@108b bce7e502
@108c 3c8d9bf5
@108d 3d2e8df8
@108e 3d200b1b
@108f bcb8960c
@1090 3c500b4b
@1091 bd3f7432
@1092 3b963fe7
@1093 3d4829bd
@1094 bca04f29
@1095 3c8466e6
@1096 3cc600c3
@1097 3cc46163
@1098 bd8dfcef
@1099 bd317343
@109a 3cede9d1
@109b 3d653166
@109c 3c6ddc4f
@109d bd3c9c5e
@109e bd05c109
@109f 3c175c84
@10a0 bd4bc1c6
@10a1 3bb9a848
@10a2 bd94541a
@10a3 bb381caa
@10a4 3b9d8e2c
@10a5 bd00a2c9
@10a6 ba858b83
@10a7 bcdb8b07
@10a8 bd197501
@10a9 3d7298fe
@10aa 3c84b470
@10ab 3d3095d0
@10ac 3cdddb10
@10ad bbe774d9
@10ae 3d145246
@10af 3b4c6030
@10b0 3d419965
@10b1 bd35e0cc
@10b2 3c600933
@10b3 bcd5df7c
@10b4 3c0db9b0
@10b5 bd2dd8a0
@10b6 3bbde212
@10b7 3b0d6f4b
@10b8 3cedf7c2
@10b9 bd1a6c26
@10ba 3d3c4f2f
@10bb bd337d09
@10bc bca829df
@10bd 3cb659c5
@10be bc0d609b
@10bf 3b23f1f0
@10c0 3d269222
@10c1 3d093cc3
@10c2 3d31592e
@10c3 bd0326fd
@10c4 bd083580
@10c5 3c036e25
@10c6 3d242a38
@10c7 bbfd6ba6
@10c8 bc1272c5
@10c9 bd25f560
@10ca bd3636a6
@10cb bd01f99d
@10cc bd1bb5fa
@10cd bd73761f
@10ce bc3d6266
@10cf 3c477fcb
@10d0 3d503f64
@10d1 bbb10fcd
@10d2 bc7edb39
@10d3 bd7feaf5
@10d4 bd3d2240
@10d5 bcd0851c
@10d6 3d0ac94f
@10d7 bbd20815
@10d8 3bc08a55
@10d9 bcce7157
@10da 3d06a8c6
@10db bc89fc12
@10dc 3b0d82d6
@10dd bd47f8c2
@10de bc2c7bfb
@10df 3cbd17bf
@10e0 bd0a1db9
@10e1 bbb58004
@10e2 bd6ff3a1
@10e3 bc6c97e1
@10e4 3d0baa1e
@10e5 bdb8a3bc
@10e6 baaa9e77
@10e7 3b234e40
@10e8 bd459b22
@10e9 bcdda7d8
@10ea 3cca7ccc
@10eb 39e1f6e3
@10ec 3dac338e
@10ed bd85c8a2
@10ee bc947ffa
@10ef bd695a90
@10f0 3ca07be4
@10f1 bd11cdb3
@10f2 bc125a6d
@10f3 bca68819
@10f4 bb92e506
@10f5 3d8080d4
@10f6 3cc31ebb
@10f7 bb45a03e
@10f8 3b96cf90
@10f9 3caf95bb
@10fa bb93fd0b
@10fb 3d942b75
@10fc 3c99d199
@10fd bb8b732f
@10fe bc303837
@10ff 3b2e118c
@1100 3d17d09d
@1101 bbe12b61
@1102 3d153d35
@1103 bc9530f2
@1104 bb61dae0
@1105 3b7c37da
@1106 3cf915ff
@1107 bc5e7725
@1108 bcc6baee
@1109 3d2f073d
@110a 3c0feffe
@110b 3cbc951c
@110c 3ad376a8
@110d bd17d928
@110e bcc45d14
@110f bc67994f
@1110 3d4a26f4
@1111 3d02ec97
@1112 3d08c75e
@1113 3d1ae923
@1114 3d24c660
@1115 ba8c6d04
@1116 3c09cdcb
@1117 bcb8aeab
@1118 bc5e3f3c
@1119 bc07e739
@111a 3d5455cb
@111b bd267924
@111c bcdc0e24
@111d 3c5aa791
@111e 3c514da7
@111f 3c03aafd
@1120 3c025afa
@1121 3c83114d
@1122 bc4127c9
@1123 3d5db6ff
@1124 bd2020cf
@1125 bcd6481f
@1126 bc1d7a45
@1127 bd395cb1
@1128 bc2948a2
@1129 3cd5a5f5
@112a bd31dd33
@112b 3c68afba
@112c bd021566
@112d bd009fbb
@112e bccb69fb
@112f 3d211b20
@1130 bc701b5d
@1131 3cc98b90
@1132 bc977f92
@1133 3cbd469c
@1134 bd12f823
@1135 3d4f7793
@1136 bca1dff1
@1137 3d583d4b
@1138 3d5bde97
@1139 bd395bfc
@113a 3d16a945
@113b 3c891bd7
@113c 3d10443f
@113d 3cdeed1f
@113e bd2aad28
@113f 3b01c162
@1140 3a8668cc
@1141 3c8c3f1b
@1142 bd050833
@1143 bd06ef9c
@1144 bca3a802
@1145 bcf1cd53
@1146 3d3ac0b3
@1147 baa37714
@1148 3c3236dc
@1149 bde04a67
@114a bdda7b87
@114b bba21a53
@114c bb354d7d
@114d bd635646
@114e 3c1fce94
@114f 3d811730
@1150 3d74eaf6
@1151 3d077e77
@1152 bd5e3b92
@1153 bc92006a
@1154 3c9b2a31
@1155 3c601a9c
@1156 bb9b363e
@1157 3d135a0f
@1158 bd8d012c
@1159 bd37ab45
@115a 3d42295d
@115b bcec6292
@115c baeaa3ac
@115d bd17a081
@115e bcb45f9c
@115f 3d9b2b79
@1160 bd119ace
@1161 bcfaf6ce
@1162 bd204ea5
@1163 bd94c4b0
@1164 bc802dc1
@1165 3d0ec2b6
@1166 3b16b254
@1167 bd5213c6
@1168 bd6d6f40
@1169 3c80c11f
@116a 3cf64aba
@116b bc522f66
@116c bd3e0863
@116d bc8fcd23
@116e 3da3ffc1
@116f 3d37ddf8
@1170 bc926649
@1171 bd34b5a4
@1172 bd2a7b44
@1173 3d26d891
@1174 3d6ab289
@1175 3d85e770
@1176 3b0b5cfa
@1177 3caca8ae
@1178 3c42e4c4
@1179 3cc9ed9d
@117a bcd11ce4
@117b bd48fedc
@117c 3d04e88f
@117d b9dd98d9
@117e 3c0d8c2e
@117f 3aef303d
@1180 3bc9df78
@1181 bc045740
@1182 bccd369a
@1183 bd3bd0d0
@1184 3cf35b65
@1185 3bb672da
@1186 3c33b84b
@1187 3bbcb304
@1188 bd17fcc6
@1189 bd1bcd81
@118a bc649d27
@118b 3ce380bd
@118c bcda8d0e
@118d bd20f3a8
@118e 3c2c19d1
@118f 3d09a0c4
@1190 3d236eaf
@1191 3d2b8066
@1192 3a3b1061
@1193 bd19b669
@1194 bc446471
@1195 bc8ff1aa
@1196 bc42445a
@1197 3c86c591
@1198 bd0dff2b
@1199 3b148a11
@119a 3c822f6c
@119b 3b5b8461
@119c bd2cb50d
@119d 3d0600db
@119e bc8de066
@119f 3d3eda7f
@11a0 3d424311
@11a1 bd14328e
@11a2 3b9a7d82
@11a3 bd36c43a
@11a4 3d0d095a
@11a5 bd45b4b7
@11a6 3cefba4c
@11a7 3c0de8cf
@11a8 bd24f053
@11a9 3d0e8460
@11aa 3d31d787
@11ab 3ccef2ad
@11ac bc93bb77
@11ad 3cd21e2c
@11ae 3c64c113
@11af 3d20eedf
@11b0 bc067918
@11b1 3cd41daf
@11b2 3babbb94
@11b3 bc160de3
@11b4 bd125a46
@11b5 bd497beb
@11b6 bcfc0065
@11b7 bca28f6a
@11b8 bcf216ce
@11b9 bcd8755f
@11ba 3d5825f0
@11bb 3bdaff70
@11bc 3cbea8fc
@11bd bceb6986
@11be 3c12d38c
@11bf bcfa1a6b
@11c0 bc1c69a7
@11c1 3c80bb73
@11c2 ba80eca3
@11c3 bcd80c59
@11c4 bd211b83
@11c5 bceb26d8
@11c6 bcccefde
@11c7 3d265720
@11c8 3d3a1860
@11c9 3c8ec8c2
@11ca bb283b96
@11cb 3b8ae9b9
@11cc bd5aab7c
@11cd bcc0da6d
@11ce 3d15545a
@11cf bb5ef1c0
@11d0 3b107530
@11d1 3d86044e
@11d2 3cbba817
@11d3 bc1f6009
@11d4 bcac14d6
@11d5 3cd0e3cd
@11d6 3cf80c5d
@11d7 bcbd6e21
@11d8 3c7e3f73
@11d9 bd41caa2
@11da bd104011
@11db 3cb45039
@11dc 3be56760
@11dd 3d620631
@11de bd245486
@11df bd28e90a
@11e0 bc245bc1
@11e1 3ce8ab59
@11e2 bd26eb06
@11e3 3d1187ab
@11e4 3d2abf94
@11e5 b910bb0f
@11e6 3c576e7f
@11e7 bd55cbc2
@11e8 3cef9e3f
@11e9 3d72ccfd
@11ea 3d6d6980
@11eb 3d47f735
@11ec bc92a9f1
@11ed 3c7cc6bc
@11ee bd6fa23a
@11ef bc4871bb
@11f0 3ce99fc3
@11f1 3d17b465
@11f2 3d55a2dc
@11f3 3b9ba67d
@11f4 3cd59283
@11f5 bc909e17
@11f6 bcfe4ac0
@11f7 bce9b7a2
@11f8 bc226e7e
@11f9 bc754830
@11fa bc974a07
@11fb 3d0f1a50
@11fc 3d19f0b5
@11fd bd00fff6
@11fe 3ca8e0b1
@11ff 3cd6d279
@1200 3c5197cd
@1201 bc78f144
@1202 bce1a679
@1203 bc8bd23a
@1204 bbd1dbab
@1205 bc94e6a1
@1206 3baf61a3
@1207 bcf34b1b
@1208 bd284486
@1209 3c7d1534
@120a bd12e41d
@120b 3b7a6b67
@120c bc30bd2e
@120d 3d311f04
@120e bd03b898
@120f bcb15003
@1210 bd2ebfc2
@1211 bcb3fd5e
@1212 bd0ecda5
@1213 bc97d1c7
@1214 bda11d57
@1215 bcac6f4e
@1216 3d79330e
@1217 3cd28448
@1218 3c6f7f4e
@1219 bd807827
@121a 3c7cd94d
@121b 3c6dace3
@121c bd6c3de8
@121d baf72426
@121e 3ba04781
@121f babb1026
@1220 bd0bdea2
@1221 bcc6f085
@1222 3bbfc54c
@1223 3c9235f3
@1224 bcea20ef
@1225 bd241532
@1226 bce75d5c
@1227 3d096f9a
@1228 3c4ea5ac
@1229 bcc47112
@122a 3cb9dbff
@122b bcf1e440
@122c bcc0d3a6
@122d 3d8c72b1
@122e bb4f3989
@122f 3cb23867
@1230 3c1e5592
@1231 3cde2b55
@1232 3b4c9a5d
@1233 bd255d97
@1234 3d560f3b
@1235 3d2d5654
@1236 3d030851
@1237 bc769185
@1238 3d0a7c00
@1239 b9e08d93
@123a bd0f2ade
@123b 3d2fe531
@123c bc790403
@123d 3d3f27a6
@123e 3bcd42be
@123f 3cf272fa
@1240 3d47b8d4
@1241 bc7c64d3
@1242 bcf1fa91
@1243 bcc3245e
@1244 bd5f3b84
@1245 3d0d21bb
@1246 3b80592c
@1247 3b91e0db
@1248 bcd1c285
@1249 3c2302d1
@124a 3d23d16a
@124b 3cb7dbbc
@124c bd45498c
@124d 3d35cf44
@124e 3cf3c1b3
@124f 3d339c99
@1250 3d257bfe
@1251 bc0b74c1
@1252 3c8337d6
@1253 bcbff95f
@1254 bd126b2c
@1255 bc16d245
@1256 3d0877a7
@1257 bcee6c2a
@1258 3b00281e
@1259 3cb1a344
@125a 3d2118fd
@125b bd397e9c
@125c 3cb58096
@125d bd72538e
@125e bc4992d1
@125f bd54be3e
@1260 bc6b592d
@1261 3d576411
@1262 3d1bf3c8
@1263 3d564936
@1264 3d0324ea
@1265 bd0de10e
@1266 bafafed6
@1267 bd7bc5c1
@1268 3d415578
@1269 3cee691c
@126a 3c1bd568
@126b bc6c00bf
@126c b94746d8
@126d 3bea154e
@126e 3cf545ed
@126f 3cc0668c
@1270 bc373934
@1271 bd38959a
@1272 3c1283ed
@1273 3c9425b7
@1274 3c1dcdc8
@1275 3d3073e5
@1276 bd2c8095
@1277 bd586dd2
@1278 3db8ddae
@1279 bd571094
@127a 3cbbd70c
@127b bd37eb18
@127c 3d81c933
@127d 3d5862e9
@127e bcfdabbe
@127f 3d6b1a00
@1280 3c951c4a
@1281 3cddb9a2
@1282 3d093577
@1283 bd4371f6
@1284 3c882345
@1285 badc951d
@1286 bd38d76c
@1287 bd45d6be
@1288 bcbc421b
@1289 3d68949a
@128a 3d1613cf
@128b 3c870bbd
@128c bc1aadbf
@128d bc454c90
@128e 3c0e6865
@128f 3ca4d5cc
@1290 bc8a4168
@1291 bcb32f3d
@1292 3caebf7e
@1293 bd136917
@1294 bd42f5c3
@1295 3d55fa82
@1296 3cff6163
@1297 bd07988f
@1298 3c8045fb
@1299 3d664a8e
@129a 3c6333be
@129b 3aa395c1
@129c ba8cf7c4
@129d bc27c8e5
@129e bd1e6acf
@129f 3c1e88db
@12a0 bd43f51c
@12a1 3d13cb23
@12a2 bd5d2f26
@12a3 bd08882b
@12a4 bc419c2c
@12a5 3d39f0f6
@12a6 bd044bc7
@12a7 3bf6639f
@12a8 3b720759
@12a9 bcf21133
@12aa bc8a7a3d
@12ab 3d0bd70c
@12ac 3cd8c212
@12ad 3ce5b43f
@12ae bd4bd103
@12af 3b8c81d1
@12b0 bcb1c27f
@12b1 3cc4a197
@12b2 3d186a11
@12b3 3d17d3fd
@12b4 3cbbb33d
@12b5 3c9395f6
@12b6 3c57356f
@12b7 3cee4a4e
@12b8 3d372cd9
@12b9 3c9856a9
@12ba bd4039d3
@12bb bd21ba33
@12bc bc6d2d97
@12bd 3ce9279f
@12be 3d2df413
@12bf bc0d0ae0
@12c0 3cc65b61
@12c1 3bf8f551
@12c2 bd0519ed
@12c3 3d552930
@12c4 bca2d107
@12c5 3ba7ca5f
@12c6 bcc8dc6e
@12c7 3cef8d5d
@12c8 3c9125b1
@12c9 3d29e9a3
@12ca bd36b280
@12cb 3cf8a893
@12cc 3d78100e
@12cd bd0e08cc
@12ce 3d1ef568
@12cf bc58c1e3
@12d0 bb3dd967
@12d1 3b692274
@12d2 3af26009
@12d3 3bff0cc6
@12d4 3c2970e4
@12d5 bc65cfff
@12d6 3ab1e0e2
@12d7 3ab23110
@12d8 3c0d7a64
@12d9 3cfd8353
@12da bcc3caa9
@12db bccb25f1
@12dc 3c22eab3
@12dd bd3b94a1
@12de 3be1e761
@12df bd1999b1
@12e0 3d09316b
@12e1 3d41692e
@12e2 3d70230e
@12e3 bd7d424d
@12e4 3cefc2cd
@12e5 3c9276af
@12e6 bcb32655
@12e7 bc608d9e
@12e8 3cf9a9b5
@12e9 3c0af504
@12ea 3d02552b
@12eb bcc63802
@12ec bca1c10e
@12ed bccff2c6
@12ee 3b8deba9
@12ef 3cd3bb51
@12f0 3d84c63b
@12f1 3d639fd4
@12f2 bc35e33a
@12f3 3c1fb780
@12f4 bce647fe
@12f5 bcb008ec
@12f6 bc907f02
@12f7 bd0c0700
@12f8 bd0f9cea
@12f9 bd48a752
@12fa bc7ce861
@12fb bc42a405
@12fc bd54b9d0
@12fd bd330c74
@12fe 3d079736
@12ff 3cff51d5
@1300 3bd74a2e
@1301 bae73104
@1302 3dbc9ce6
@1303 3d6f53d4
@1304 bc060950
@1305 bd7da8b3
@1306 bd8f21b6
@1307 bcbb47df
@1308 3bf03995
@1309 bce60a77
@130a bc79e307
@130b bd18807e
@130c bc0be02a
@130d 3d159ceb
@130e 3cc96f92
@130f 3d18bb2e
@1310 3cad09f9
@1311 bd2d6606
@1312 bd3ecb22
@1313 bcb9f3dc
@1314 bc38be17
@1315 3c8a1d19
@1316 bcffbc14
@1317 bd3d9529
@1318 3cd93107
@1319 bcba3831
@131a 3d0f853b
@131b 3ceeab72
@131c 3bab3e31
@131d 3be7f629
@131e 3aa8667b
@131f 3cb960c1
@1320 bcd26704
@1321 bc68c241
@1322 bd0e2323
@1323 3d36feb0
@1324 3d37d707
@1325 3c89b69d
@1326 bc8eee54
@1327 3c72f380
@1328 bd2f8647
@1329 bd41fa3a
@132a 3c681372
@132b bbb8b123
@132c bcc08342
@132d bb457e63
@132e bc205126
@132f bc2f5b63
@1330 3cb029c3
@1331 bd0312fc
@1332 bcd449c0
@1333 bd353730
@1334 3b3ddffd
@1335 bd130b39
@1336 bc836fca
@1337 bd172973
@1338 3d0bfecd
@1339 bbd1f669
@133a 3c8793a2
@133b bc0d7a83
@133c 3cf1a3e0
@133d bc16f76b
@133e bd25a0d5
@133f bc5810d3
@1340 3cb1d31f
@1341 3c1a6d2a
@1342 3b4a9449
@1343 bd33a208
@1344 bc87a56a
@1345 bcc1264e
@1346 bd4279c0
@1347 bc3319e3
@1348 bc9a8bbb
@1349 bd160534
@134a bd4c916e
@134b bd1600d4
@134c bc6788cf
@134d bc73cdf3
@134e bd131810
@134f 3c3d3699
@1350 bcfd2f48
@1351 bd775631
@1352 bca6f556
@1353 bcfa8b97
@1354 bcac4bdb
@1355 3d486430
@1356 3c3f8fde
@1357 3c755d94
@1358 3b857cca
@1359 3cfdefa2
@135a 3cadf97a
@135b 3d118937
@135c 3d7ad7a8
@135d 3d2e1f97
@135e 3b1e8e22
@135f bcca3950
@1360 bd2db6a9
@1361 3c94e420
@1362 3d2a08b6
@1363 3d1e01b9
@1364 bb855afd
@1365 bcc5e648
@1366 bc5819b4
@1367 bbfd231a
@1368 3b1afb6b
@1369 bd6cbc14
@136a 3cc71616
@136b 3cb2672d
@136c bd29ba4c
@136d 3b8f2a81
@136e 3baca8f6
@136f 3c4d846b
@1370 bbd9a94d
@1371 3d5f012b
@1372 bb50b444
@1373 bcc60d3f
@1374 bcb01c68
@1375 3d2ce4a1
@1376 3bf90b90
@1377 bd2aa49f
@1378 bcf981c0
@1379 bccf9b5b
@137a 3d16306f
@137b 3c0a96ef
@137c bcb9fcdc
@137d bb860e21
@137e bb6fe2ec
@137f bd46d66f
@1380 3b4719cb
@1381 bd3bb18e
@1382 3b814bba
@1383 bcee1d40
@1384 3cd36817
@1385 3d3f9990
@1386 bd3c422c
@1387 bd22a559
@1388 3d345364
@1389 3bb3535c
@138a bcfe8564
@138b 3c4247d4
@138c 3cedad38
@138d bcf1177e
@138e 3cf6d7c3
@138f 3cbe3754
@1390 3c2f7c98
@1391 bd08db5c
@1392 bd2c4667
@1393 bd0c2565
@1394 3d4f650a
@1395 3d22119c
@1396 3c409564
@1397 bd0532cf
@1398 bca217e9
@1399 3c969086
@139a 3c81eab1
@139b 3d021eae
@139c bcaf2797
@139d 3d12d8b0
@139e ba961562
@139f bcf70cad
@13a0 3bfe73bc
@13a1 3be8c6ca
@13a2 b88a585c
@13a3 bd9aee50
@13a4 bbbedeba
@13a5 bcabe0ce
@13a6 bd5b45c9
@13a7 bd7a9aed
@13a8 bd415af4
@13a9 bd209a49
@13aa bc553553
@13ab 3d15893c
@13ac baeaa8b1
@13ad bc909b85
@13ae ba00921f
@13af bcb38e8c
@13b0 3d4ccf83
@13b1 bae04698
@13b2 bcaac4f4
@13b3 3cb3df3a
@13b4 bd35a4a3
@13b5 3c4be0a7
@13b6 bc887a07
@13b7 3c8d59d5
@13b8 bd374d72
@13b9 bd0386de
@13ba bc38750f
@13bb bd28dbd1
@13bc bc53a436
@13bd bd39fd90
@13be bd432dfd
@13bf bd020998
@13c0 3d0f19e5
@13c1 3cf13f2f
@13c2 3cbcd438
@13c3 3d29a16d
@13c4 bccb03bd
@13c5 bc82f904
@13c6 3d245f08
@13c7 bd25a390
@13c8 3c579ad3
@13c9 3ce6302c
@13ca 3d08179f
@13cb 3c96738d
@13cc bc30505c
@13cd 3d21bd39
@13ce 3be3749b
@13cf 3d07e28c
@13d0 3d56c61d
@13d1 bc60cfd1
@13d2 bc8bf811
@13d3 3c62d022
@13d4 bcd9987f
@13d5 39f75a11
@13d6 3d47c7f2
@13d7 bd44a13f
@13d8 3d2c721a
@13d9 3bb84da7
@13da 3d1e9bae
@13db 3d21d556
@13dc bd19ea99
@13dd bba49f72
@13de bc1ef698
@13df 3d1cd55e
@13e0 bcb5697d
@13e1 3d417793
@13e2 bd1b8f88
@13e3 3cc3e3be
@13e4 3a36c834
@13e5 3d148a28
@13e6 bd003eae
@13e7 bd43250c
@13e8 3c5ecf52
@13e9 3afc70d9
@13ea 3d066558
@13eb 3cc72ecf
@13ec 3d25fc92
@13ed 3bcf2d70
@13ee bd9984a0
@13ef bd494514
@13f0 bc8bb950
@13f1 3ca09660
@13f2 bc861897
@13f3 bcf1198a
@13f4 3c9f1561
@13f5 3d3e3851
@13f6 3d419888
@13f7 3cebeb13
@13f8 bbebaefa
@13f9 3c41e522
@13fa 3cc5a558
@13fb bcc39f17
@13fc 3c7a2b4f
@13fd 3c02b3a8
@13fe bce836b8
@13ff 3d26bc02
@1400 bcba7436
@1401 3d3b778b
@1402 3c5a331d
@1403 bc5e1618
@1404 bd706b1e
@1405 bcb07b15
@1406 bcdfc2a2
@1407 3c8f796a
@1408 3cc9d7c9
@1409 3d40f474
@140a 3bdcd4c2
@140b 3be31376
@140c 3d3c32d4
@140d bd24bf94
@140e bd244600
@140f bcd6ad2d
@1410 3d302068
@1411 3d0dd745
@1412 bd14f171
@1413 ba3f95df
@1414 bd18973c
@1415 3c83a469
@1416 bcfd0c7b
@1417 bda4b79a
@1418 bd457808
@1419 3ca0b97f
@141a 3c209d95
@141b bd0a5db9
@141c 3cf14a60
@141d bd5db80c
@141e 3ba4acbb
@141f bd4dfe54
@1420 bcefdaba
@1421 bc5aebd9
@1422 3cad4653
@1423 bc8b8a43
@1424 3d464810
@1425 bc908600
@1426 bc686012
@1427 3d367aa2
@1428 bca63799
@1429 3c502b52
@142a bc04efba
@142b bcffc396
@142c bd50d034
@142d 3c862dff
@142e 3d2d898c
@142f 3d391120
@1430 3c308716
@1431 3ceab5a7
@1432 bca29a30
@1433 3c3cc1f3
@1434 bc84d76c
@1435 bca356ea
@1436 bd1a35ad
@1437 3d0c2065
@1438 3cdb413b
@1439 3bcc53ce
@143a 3bbfed33
@143b 3bccdaf7
@143c bcebe832
@143d bc6b2db5
@143e bc7ed068
@143f 3d3a5389
@1440 3d46c833
@1441 3d2def18
@1442 3c3e8f61
@1443 3c4f1b73
@1444 bc695e3d
@1445 bc947373
@1446 3d088547
@1447 bd4f8b46
@1448 bc008b1e
@1449 bcfeb2ae
@144a bb8db838
@144b bd28628c
@144c 3bd27e05
@144d b98e156f
@144e bd0c844e
@144f 3c652cad
@1450 3be01b9d
@1451 3c8ad4ea
@1452 3c7d36ce
@1453 3d78461b
@1454 3c10f9e6
@1455 3b7a4052
@1456 3cba11a7
@1457 3d17cb84
@1458 bc3bc795
@1459 bc4e9fd1
@145a 3d4e319d
@145b 3d1be449
@145c bc4fe121
@145d bc20fa2e
@145e 3b5a58af
@145f 3d13c367
@1460 bbe6ead6
@1461 bbb2e05f
@1462 bcaab2b0
@1463 3c6f5d85
@1464 3d162d78
@1465 3d077501
@1466 bd29b812
@1467 bce0e9fe
@1468 bc9e988d
@1469 3a022555
@146a bdd5b8c4
@146b bce06c64
@146c bcd0f6be
@146d 3d3d281d
@146e 3c4306a3
@146f 3d773d0a
@1470 3b60d2ee
@1471 3d3b1d80
@1472 3d0921ef
@1473 39c82213
@1474 bc5a7bc7
@1475 3d16beea
@1476 3b57a111
@1477 3c4c48df
@1478 3cb3f6ea
@1479 3d310d3b
@147a bc8d849b
@147b bd422c52
@147c bd8dee2a
@147d bc2b81fd
@147e bd85d2e8
@147f bcbea860
@1480 3b8c4dd5
@1481 bd591f72
@1482 bc8322b6
@1483 3b6d931c
@1484 bde0268a
@1485 bdcb7ff3
@1486 3bfd4f1b
@1487 badf2880
@1488 bd08e02d
@1489 3c559730
@148a 3d3eafe9
@148b bd00ee57
@148c 3b29e764
@148d 3b5501e7
@148e 3dc315cc
@148f bc2eb204
@1490 bccb09b4
@1491 3cb2fd53
@1492 3bed29d1
@1493 3da5ff7c
@1494 bcf2a538
@1495 bd8c8c59
@1496 bd3c265b
@1497 3d2c4004
@1498 3cd09696
@1499 bca1e87f
@149a bdb4245d
@149b 3c9b6bde
@149c 3d000e97
@149d 3d0adab0
@149e 3d253fcc
@149f bd3cf1e9
@14a0 b9ac6d5f
@14a1 3cde21cf
@14a2 3bf1b2f0
@14a3 bd18ee35
@14a4 3d39bb02
@14a5 3c9bc9c2
@14a6 bc81617e
@14a7 bcb52f2d
@14a8 3c21c1ce
@14a9 3d0b5eca
@14aa 3d0f0c25
@14ab bce34b8a
@14ac bd1130b3
@14ad 3b9eba16
@14ae 3d4a43f2
@14af bcc8257d
@14b0 3cc2a0ed
@14b1 3cc0cfb7
@14b2 bd28089a
@14b3 bce246cf
@14b4 bc557676
@14b5 bc2511c6
@14b6 3d47eddb
@14b7 bd046b49
@14b8 3cba312e
@14b9 3ca636db
@14ba 3a78b630
@14bb 3ccf8bae
@14bc bd3bfda6
@14bd 3d207a27
@14be bc8cb064
@14bf 3cd9d6b0
@14c0 bc1fdf1a
@14c1 ba86fa6d
@14c2 3d2d271e
@14c3 3b4eaae8
@14c4 bd1154db
@14c5 3cab8f20
@14c6 3cf5068f
@14c7 bcafe48c
@14c8 3ce2c049
@14c9 bc510bba
@14ca 3c87c4d4
@14cb 3d4f7744
@14cc bd0ff4ef
@14cd bd50cc6c
@14ce 3d12eb5b
@14cf bd084a9e
@14d0 bd515092
@14d1 3c5520f0
@14d2 3cc4e2a0
@14d3 bcc3599d
@14d4 bb5afb45
@14d5 3d1b6917
@14d6 3d040c7b
@14d7 3c98baab
@14d8 bc1bdf3e
@14d9 bc27f491
@14da 3c43a0f5
@14db 3d46c91b
@14dc 3d0a1e9a
@14dd bac7f667
@14de bcf3e6f5
@14df bd299318
@14e0 bc1a824f
@14e1 3b3e34f3
@14e2 bc4a3991
@14e3 bd36527f
@14e4 ba96ddd2
@14e5 3be5832b
@14e6 bce41c49
@14e7 bc532758
@14e8 bd2ef1d3
@14e9 3bda0798
@14ea bc93d2da
@14eb 3c3ceff2
@14ec 3c8bec28
@14ed 3a2e1132
@14ee bd3bcdd5
@14ef 3d042b6b
@14f0 bb9663e7
@14f1 bbfccaff
@14f2 3c8b64cc
@14f3 bcef9aad
@14f4 3c8d2633
@14f5 3d31fe1b
@14f6 bd0a01b7
@14f7 3c97c2bc
@14f8 bc927c49
@14f9 bb5814a9
@14fa bd090be8
@14fb 3c810680
@14fc 3d179087
@14fd 3d36455f
@14fe 3cdc1807
@14ff 3c1942c3
@1500 bc15a34e
@1501 bd149275
@1502 bb797d48
@1503 bd1cbc66
@1504 bccb616e
@1505 3d0a9482
@1506 bcb8d89a
@1507 3c4247bd
@1508 3cd368fb
@1509 bd0ba695
@150a 3cf62ac1
@150b 3bb25f82
@150c bd4448e7
@150d bd3baa7a
@150e bad77b05
@150f bd35165f
@1510 bd43ce0e
@1511 bd348ff9
@1512 bc959a7d
@1513 3ca9e147
@1514 3cf993ef
@1515 3ce164dc
@1516 bab0af6d
@1517 bcc5efea
@1518 3b313e18
@1519 bd184369
@151a 3d03be50
@151b bd4084ee
@151c 3c036b5b
@151d bd32f3e9
@151e bbc41e84
@151f 3bd1b05d
@1520 3d09a80d
@1521 bd434e1f
@1522 bd21f3b5
@1523 3b85238f
@1524 3c81f5fa
@1525 bcecd8ec
@1526 3c94b90a
@1527 3cd6a144
@1528 3bdae1f8
@1529 3c96dfe6
@152a 3d405742
@152b bca96c55
@152c 3c7b7970
@152d bd01cdba
@152e bbc905a9
@152f bd11368e
@1530 3cb4a119
@1531 3cd908ba
@1532 3cae9712
@1533 3b9d68c7
@1534 3d154ee8
@1535 3d2538ce
@1536 3c173218
@1537 bd3fefaa
@1538 bd0862bc
@1539 3a8ec934
@153a bd0f0eef
@153b bd0d16ba
@153c bd181872
@153d 3bd694ae
@153e bd4946f8
@153f bca06187
@1540 3d11510e
@1541 bcc16f4d
@1542 bccdbf8d
@1543 bd4966ac
@1544 3c3c52f7
@1545 3d27827f
@1546 3d2c5016
@1547 3d275414
@1548 bcfb7a9b
@1549 3d08c048
@154a 3cdcf54a
@154b 3d109722
@154c bca7451e
@154d bcf4efa9
@154e 3cca6955
@154f 3cf2d1d2
@1550 bcf60b4a
@1551 3d05ed99
@1552 bbf57eea
@1553 bb3139bf
@1554 bcf29383
@1555 3c7c3e70
@1556 bd325d85
@1557 bc3cad2e
@1558 bd18fae5
@1559 bcb8f026
@155a bd3a0f50
@155b 3d3e3897
@155c bc7ca2ec
@155d 3c5f6973
@155e 3ccf70d7
@155f bd485e6c
@1560 bbd159fe
@1561 b97866e7
@1562 bacad710
@1563 380b8330
@1564 bbe22e32
@1565 3d07bb3e
@1566 bc0c1742
@1567 bd3f6354
@1568 bcaea83c
@1569 3cf2e3e0
@156a bab9debc
@156b 3b477ab8
@156c 3d480081
@156d 3c26bac6
@156e bc9dde7b
@156f bc3415b5
@1570 bcebdd12
@1571 3cc210d3
@1572 bca9c3de
@1573 3ce5f52d
@1574 bccadc49
@1575 bcf09500
@1576 bd21fa1a
@1577 3d363ed0
@1578 3d47a989
@1579 bd079296
@157a 3d0e8782
@157b bccfc597
@157c 3b736002
@157d 3d34f9da
@157e bd43e0ad
@157f bd103370
@1580 3c9f5fcf
@1581 bcd4addd
@1582 bb9dac61
@1583 3c8f3794
@1584 bd2d4fe1
@1585 bcc67261
@1586 bcc251e9
@1587 bc0d718e
@1588 bd0c1806
@1589 3d3f0b1e
@158a 3caa8e48
@158b 3d1af9e2
@158c 3c03dfed
@158d 3d0618bd
@158e b9009a9d
@158f 3d252ffc
@1590 3cbeefbf
@1591 bc8d976b
@1592 3c1ddfbb
@1593 3d045cbb
@1594 bd1e66b5
@1595 3b5755ed
@1596 3d2cdf63
@1597 bce3fc28
@1598 3cb94657
@1599 39bfb615
@159a bbb484d2
@159b 3ca856bc
@159c bd1b0424
@159d 3d3153b0
@159e 3ce777ef
@159f bd382703
@15a0 bc956034
@15a1 bb957159
@15a2 3a15749c
@15a3 3d462198
@15a4 3cd531ac
@15a5 3c9e44b0
@15a6 bce9534e
@15a7 bd225f76
@15a8 bd20db41
@15a9 bca35b0e
@15aa bcad0009
@15ab bc66f6d9
@15ac 3d46b279
@15ad 3d39c856
@15ae 3c7d0738
@15af bd25b45b
@15b0 3cba6215
@15b1 3cd1e3f7
@15b2 3cd9b578
@15b3 3b0a9de4
@15b4 bd25f5f3
@15b5 bc36098f
@15b6 bc66f1c0
@15b7 bd096bbd
@15b8 bd03446b
@15b9 bcc5bca9
@15ba bc3274f7
@15bb bc92a66a
@15bc 3be8de4f
@15bd bca8c2d2
@15be 3d0bfb7b
@15bf bd18b52c
@15c0 bcc0393a
@15c1 bd4c4c53
@15c2 3d146928
@15c3 3cab8e03
@15c4 3d0a709d
@15c5 3c34157e
@15c6 bd4b6192
@15c7 bcf50d49
@15c8 bc97eede
@15c9 bbdef6e7
@15ca bced52cc
@15cb bbf8492f
@15cc bd19f6e2
@15cd bcea6658
@15ce bbba9764
@15cf 3bb55841
@15d0 3cd92b75
@15d1 bc36f345
@15d2 3d02a4e4
@15d3 bd17bb72
@15d4 bd1efec0
@15d5 bd12dd0f
@15d6 bd1bbbb5
@15d7 bd1208f4
@15d8 bd05de35
@15d9 bc058540
@15da bd00e34e
@15db bc4ffa94
@15dc 3d108f15
@15dd bd2677a6
@15de bce046c6
@15df 3cf5b219
@15e0 bca1e8bc
@15e1 bd0a81d4
@15e2 3d237348
@15e3 bd44d928
@15e4 3d401671
@15e5 3c993a25
@15e6 bd0fdba9
@15e7 bcc93dcd
@15e8 bd1fd471
@15e9 3cbb1430
@15ea 3d2ac7b5
@15eb 3cefbcf7
@15ec bd073964
@15ed 3be68176
@15ee bcd1fc83
@15ef 3c8e08f4
@15f0 bcdd7fcf
@15f1 bd3fe906
@15f2 3cfe13db
@15f3 3d2536a6
@15f4 bb10fdea
@15f5 3d0af707
@15f6 bd43a0b0
@15f7 bb60275b
@15f8 bce6d01d
@15f9 bc852bc2
@15fa bcc0c6c0
@15fb bcdada8d
@15fc bd0fa34f
@15fd 3d4d54b2
@15fe bccf65d7
@15ff 3d290bcc
@1600 bd0be0be
@1601 3d3172c6
@1602 3d05b1af
@1603 bd26c3fb
@1604 bd34264d
@1605 3d0d8d6f
@1606 3d1ba08e
@1607 bcce75ff
@1608 bd0ea0d8
@1609 3d28f71d
@160a bd034f66
@160b 3bf6a894
@160c 3c56938a
@160d bd2267ae
@160e bd0aa79a
@160f 3d397ae3
@1610 3c0f649d
@1611 3c85e878
@1612 bc5f8628
@1613 bc3f20c4
@1614 bcdf6ec7
@1615 3cf489a2
@1616 bd2e9777
@1617 bc71b4bf
@1618 bc3cf2e0
@1619 bd1534c7
@161a 3c6511c1
@161b bbe1a10d
@161c 3ab7dbbf
@161d bb5dfb62
@161e 3cf2ffc4
@161f bd2639ef
@1620 3d2322d6
@1621 3d0b59c7
@1622 3d131a17
@1623 bbe95ebb
@1624 bc516802
@1625 bd12e793
@1626 bc1a2ecc
@1627 3cf7397d
@1628 bc7cb60c
@1629 3ad8bb29
@162a bcd244d9
@162b bccb064b
@162c 3cd0d3f3
@162d 3d065d29
@162e 3d327518
@162f bc9f3e76
@1630 bd223974
@1631 bcafaa8f
@1632 3d3816d0
@1633 bd0253bc
@1634 3c942980
@1635 bd04c689
@1636 3c8a8b6d
@1637 3c1fa7d5
@1638 bd3f8910
@1639 bd457a5f
@163a 3d4770aa
@163b bc31a6c8
@163c 3caa11db
@163d 3b1ea9da
@163e 3d0a285b
@163f bd2c04e0
@1640 3cd1f793
@1641 3a795f18
@1642 bcb8c718
@1643 bcda5e3d
@1644 3c50efed
@1645 3ccc9840
@1646 393f18ef
@1647 bc4d0903
@1648 3d14ebb2
@1649 bc2eaad5
@164a 3ce705fb
@164b 3d2c43c8
@164c bcf60e41
@164d bd157ee8
@164e 3b1136bf
@164f 3d1b4434
@1650 3a0723af
@1651 3ccc6f13
@1652 bc92b7b1
@1653 3cdc8676
@1654 bd1535de
@1655 bc9d50c3
@1656 3c888d8d
@1657 3cdc749f
@1658 bc95d178
@1659 3d4370ac
@165a 3d0a6386
@165b bd212db5
@165c 3d352901
@165d bb0a092d
@165e 3d33eb22
@165f bb7e8b28
@1660 bc1581cc
@1661 bc9fabcc
@1662 bc5702dd
@1663 bce235c7
@1664 3d47381f
@1665 bc292ae5
@1666 3d3bb09e
@1667 bd4a3e84
@1668 bd3c6387
@1669 bbbb5444
@166a bba938ad
@166b bc3aff09
@166c 3d3e29ea
@166d 3cdad636
@166e 3cb13f32
@166f bc86766b
@1670 bc225dcb
@1671 3c281440
@1672 bc44e29e
@1673 3c39855b
@1674 3d13c6b2
@1675 bcb60795
@1676 bbf97eb6
@1677 bd183e22
@1678 3d651c99
@1679 3cb74e5c
@167a 3c9b372b
@167b 3d22d702
@167c bccfd9ed
@167d 3d0af649
@167e bb97f04e
@167f bcdf8674
@1680 3d8d0604
@1681 bd5fcc52
@1682 bd40cb09
@1683 3d38327d
@1684 3c34d151
@1685 bcb22566
@1686 3cbf7cdb
@1687 3c70bd23
@1688 3bb7c1a0
@1689 bcf9f44e
@168a 3ce8b55f
@168b 3d02c22b
@168c 3cd2f04d
@168d bca9996d
@168e 3d305d9f
@168f 3bbde23d
@1690 3ca61074
@1691 bce1a64a
@1692 3cd847fa
@1693 3c9b755f
@1694 bcedc6db
@1695 3c0df1af
@1696 bd56f28a
@1697 bd20f0cf
@1698 3d058194
@1699 bb18f3fe
@169a 3cafd37a
@169b 3be1d975
@169c bd3a5c53
@169d 3d340e04
@169e 3bd3ee0a
@169f bcebed2e
@16a0 bccfb84c
@16a1 bd2ebfd1
@16a2 bc6b7b09
@16a3 3cff025a
@16a4 3c6c5a7d
@16a5 3cb9efff
@16a6 bc3ed98c
@16a7 3aeb99a9
@16a8 bd10bb7b
@16a9 3d15fea9
@16aa 3d00e9af
@16ab 3d03ac8f
@16ac 3b06115e
@16ad 3d0fd7c9
@16ae 3ae4504d
@16af 3d03079b
@16b0 bd2cb344
@16b1 3c8c54b8
@16b2 bc9a4eac
@16b3 bcfb69b3
@16b4 bc50d91b
@16b5 3d130777
@16b6 bce4929d
@16b7 3d2f9cd0
@16b8 bd56f460
@16b9 3bbafef3
@16ba 3cacda1d
@16bb bd478037
@16bc 3d1eb203
@16bd 3cc4a219
@16be 3b95f360
@16bf 3cdbdbed
@16c0 3b09ea61
@16c1 3d2eeb4e
@16c2 3c6a3922
@16c3 3b17697e
@16c4 bd1863f9
@16c5 bc1c0133
@16c6 bbf5f0d1
@16c7 bcdf8afc
@16c8 3bf00549
@16c9 3d695836
@16ca 3b5ae79a
@16cb 3c2fd843
@16cc 3cb16017
@16cd bc09ee26
@16ce bce3b81f
@16cf bd656f4b
@16d0 3d319c53
@16d1 3b675bfa
@16d2 bcc848ca
@16d3 bc81228c
@16d4 3c9a14e3
@16d5 bc91e720
@16d6 3c8e300b
@16d7 3c33ac4d
@16d8 bceae178
@16d9 bc8ecdc6
@16da 3cf7004b
@16db 3d565572
@16dc 3cca480b
@16dd 3cadd0dd
@16de 3be78edb
@16df bd047638
@16e0 3cc4c541
@16e1 3cb9946a
@16e2 bd19e562
@16e3 3c98f9a1
@16e4 3caba009
@16e5 bd85aba8
@16e6 3ce643d0
@16e7 3d035fb9
@16e8 3c377ba5
@16e9 39f0fe9a
@16ea 3c8a4244
@16eb bcba4ffd
@16ec 3d1096e3
@16ed 3c3a721d
@16ee bc2fc7aa
@16ef ba3d837a
@16f0 bd8442e9
@16f1 bd2f0f8f
@16f2 3d2f5da3
@16f3 bbe216d0
@16f4 3d2ac389
@16f5 3bf81626
@16f6 3cf95ce0
@16f7 bcc0d3eb
@16f8 3c2ed34a
@16f9 bc0b3e39
@16fa 3c8f66f8
@16fb 3c646e64
@16fc 3cfae463
@16fd bc2c0380
@16fe bb42afd8
@16ff 3c99a9e0
@1700 3d3ad466
@1701 bcaf8e02
@1702 3b4849bd
@1703 3cbd74bc
@1704 bd3ca98d
@1705 bd2be1ee
@1706 bc076c8a
@1707 bc164e5d
@1708 3cedff74
@1709 bc20006e
@170a 3c69efc9
@170b bd311ced
@170c 3cabc54b
@170d bcbe9c10
@170e 3cf23294
@170f bd1dd650
@1710 bd28f3de
@1711 bc87ed7d
@1712 bccb3df1
@1713 bcb65ea3
@1714 bc8a08dc
@1715 3d294696
@1716 3c1f8f50
@1717 3d0cdf65
@1718 3bb57855
@1719 bd3bd1a9
@171a 3c598db0
@171b 3d04e9c8
@171c bc994fc2
@171d 3ce9c0b5
@171e bce6d02a
@171f 3d44d70c
@1720 bce7903f
@1721 bcb36677
@1722 3c65ac9a
@1723 3d05f5fd
@1724 3d3eb438
@1725 bd8c0c19
@1726 bd8eafa7
@1727 3c7d076e
@1728 bd0103e3
@1729 bd30b530
@172a 3d4ca665
@172b 3d190b33
@172c 3ca874fe
@172d 3b972e68
@172e bbdb7edf
@172f 3d4c1ff4
@1730 bbc0fbbc
@1731 3b75afb3
@1732 3d9dfce0
@1733 3dad8890
@1734 3cef52fc
@1735 bd4f7e00
@1736 3d4af0b1
@1737 3d3994cf
@1738 3cb4de06
@1739 bced1b89
@173a 3d59834b
@173b bcacd1e1
@173c 3d215f22
@173d bd36beea
@173e 3b1fd24e
@173f bb13e16b
@1740 3bf3c59b
@1741 3cf0fda5
@1742 bc64f1fc
@1743 3d49cb13
@1744 bcba6de0
@1745 bbf90322
@1746 bcbce0c3
@1747 3ca2b927
@1748 bbb96f0a
@1749 bcf98edf
@174a 3cf59ae4
@174b 3d4153af
@174c 3d13031f
@174d 3cba0890
@174e bcbb5850
@174f 3cf68abf
@1750 3d2df988
@1751 bce2fb18
@1752 bb855717
@1753 3cf5ce0d
@1754 3ced50d6
@1755 3c8b4a3d
@1756 3c917572
@1757 3cd1d1ad
@1758 bd25d23a
@1759 bd211d9d
@175a 3caa0758
@175b 3c8bdcf4
@175c 3d492baf
@175d 3c7b87ff
@175e 3d1afe32
@175f 3cc5a0d6
@1760 bd592274
@1761 bd106692
@1762 3bd66833
@1763 bd2ef068
@1764 bd7eed19
@1765 bcd1d2e3
@1766 bc05a53f
@1767 bcb1d623
@1768 3a89f9a2
@1769 3d0d1b31
@176a 3d0b318f
@176b 3afb2bbf
@176c bc83f662
@176d bba985c6
@176e 3d4b16ef
@176f bcd2db83
@1770 3caabdaa
@1771 3d153504
@1772 bbce4042
@1773 3c739199
@1774 3cf0754f
@1775 3c76d331
@1776 bcc33f26
@1777 3cefecf2
@1778 bd65a4e8
@1779 3c83b8db
@177a 3d435549
@177b 3d4ba40e
@177c bd54be56
@177d 3cccc99a
@177e bd201f34
@177f 3c9ec752
@1780 3bcb0a14
@1781 3d544206
@1782 3c0063c5
@1783 38a9dcb9
@1784 3d676df0
@1785 3d4501d6
@1786 3d2bdb18
@1787 bcfbda29
@1788 3cec3a1e
@1789 3b22f90d
@178a bd8c7c33
@178b bd146ee7
@178c bcb32b79
@178d bd4ded23
@178e 3cc95372
@178f bd0b0fcd
@1790 bd1989c6
@1791 bd4cef32
@1792 3cb1fcea
@1793 3d9f83a0
@1794 bd036ff0
@1795 3b2ec2e6
@1796 3d152e42
@1797 3d07a9ad
@1798 ba8f1773
@1799 3cf1f17e
@179a 3d2c7b70
@179b bcdfd60d
@179c 3d396c70
@179d bce59842
@179e 3dca4017
@179f 3da7737e
@17a0 bcd805ac
@17a1 bca52c37
@17a2 ba920dec
@17a3 bd23eeec
@17a4 bd02af9a
@17a5 bc126d1e
@17a6 bd118ec7
@17a7 bcdf3396
@17a8 bcd11424
@17a9 3d0d3969
@17aa 384a3bd8
@17ab bd20cb53
@17ac bc27fb21
@17ad bc992271
@17ae bcc6a10a
@17af bc05215f
@17b0 3c7a0338
@17b1 3d82b706
@17b2 3d18811f
@17b3 bb2da2d6
@17b4 3d0ef517
@17b5 3da45bdc
@17b6 3d47e094
@17b7 bc43a7f3
@17b8 bc6902ef
@17b9 3d6cbc51
@17ba 3cb23ec0
@17bb bd324c68
@17bc 3d3dd648
@17bd 3cd17ce6
@17be bc229d87
@17bf bd3e21fc
@17c0 bd4e38b2
@17c1 3b84f35e
@17c2 bca2b438
@17c3 3c3808c2
@17c4 3c227c27
@17c5 bd13d1ba
@17c6 bbc96100
@17c7 3c30b85b
@17c8 bc8d675e
@17c9 bc28096e
@17ca bc0a832a
@17cb bc3ad3ca
@17cc bd335bda
@17cd 3c4eb065
@17ce bd0d7875
@17cf bb7c1332
@17d0 bd59b1df
@17d1 bd061b54
@17d2 bcb9de73
@17d3 bcfcedc5
@17d4 bb745530
@17d5 bd41c00e
@17d6 3d269de9
@17d7 3c900e1d
@17d8 3d32f4a4
@17d9 bbf6fe4a
@17da 3d0f8b7b
@17db bd5b81a3
@17dc bbf940ae
@17dd bd4511ff
@17de bcaf9e5b
@17df 3cec3752
@17e0 3cff5bbc
@17e1 3d0fa0e6
@17e2 3bea0500
@17e3 3c70f757
@17e4 bc249398
@17e5 bd4d2c84
@17e6 bd18edaa
@17e7 3c727b90
@17e8 bccf8dc5
@17e9 3d217ddf
@17ea 3cb306c5
@17eb bce6d501
@17ec bd33bbb9
@17ed 3cbf32d2
@17ee bcd66e1b
@17ef bc9cfff6
@17f0 3bbd798d
@17f1 3b8dc2e7
@17f2 bc8085ea
@17f3 bd0f6987
@17f4 bc832311
@17f5 3cd098f8
@17f6 bbe411fc
@17f7 3c8996d8
@17f8 bd0f51b6
@17f9 3c6ac3da
@17fa baf3e3cc
@17fb bb969f54
@17fc 3d0298f6
@17fd 3c988f43
@17fe 3b0ee917
@17ff bd1f39eb
@1800 bbde911e
@1801 ba91b82c
@1802 3d0c6c84
@1803 bc37b3e0
@1804 bc763133
@1805 3a98ba22
@1806 3bbc034d
@1807 3c1b1e9f
@1808 3cd96463
@1809 bc6e9dc8
@180a bc621567
@180b bc29e0e4
@180c bc8e024e
@180d bc70eddf
@180e 3c6861ae
@180f 3cd30e16
@1810 bcdab87b
@1811 bc8903e4
@1812 3c6e619e
@1813 39437b9b
@1814 3d429688
@1815 3d179417
@1816 bd65fdfc
@1817 bd1eb525
@1818 3d036cdc
@1819 3cd91438
@181a b9169cc5
@181b bb032361
@181c 3d87ef0f
@181d bd22882d
@181e 3cd83ace
@181f bce84d5e
@1820 ba8744d6
@1821 bc2c4f75
@1822 3d1bb5ae
@1823 3d31c8d3
@1824 3c2514e2
@1825 3d33bfa0
@1826 bd4003d0
@1827 b9373c1f
@1828 3caa98a2
@1829 3ca2ff3d
@182a bd449846
@182b bceb6c40
@182c 3afcf2f2
@182d bc7ec0d9
@182e 3cfeb4bf
@182f bc9930b5
@1830 3d140473
@1831 3c7165b0
@1832 bd1bf2ac
@1833 3d2bb27c
@1834 3d10c4fc
@1835 b9827c36
@1836 bc404545
@1837 bbf5f10e
@1838 bca1047a
@1839 3cbf632d
@183a 3c890cbe
@183b 3ca9744f
@183c bd4c94a0
@183d 3d2f6d04
@183e 3ca499dd
@183f bc29f0a3
@1840 3d11c4e1
@1841 bd30f757
@1842 bcb8a62c
@1843 bbc8318a
@1844 bc90e5dc
@1845 bc992346
@1846 bc0e1fc1
@1847 bd4d6e15
@1848 3acc57d2
@1849 3d00fbbc
@184a 3c225000
@184b bd3a35eb
@184c ba5ae649
@184d 3c7d1d9a
@184e bc19e894
@184f bd360126
@1850 3d1fbcdf
@1851 bbd063a8
@1852 3cc9cd8d
@1853 bd143434
@1854 3c105ca7
@1855 bc2bd42f
@1856 3d1349ec
@1857 bc75d191
@1858 3bb07950
@1859 bd66d42f
@185a 3ba208a8
@185b bd0064a7
@185c bbeb8225
@185d bca49213
@185e 3d41eead
@185f 3b87d1b3
@1860 3d50e686
@1861 3cdc8ff6
@1862 3d2a4e69
@1863 bca9637d
@1864 3d2e4ed0
@1865 3be7747b
@1866 bd372e37
@1867 3cf27002
@1868 bcc69d2f
@1869 397c8ddb
