@0000 0xb8a14396
@0001 0x00000000
@0002 0x00000000
@0003 0x00000000
@0004 0x00000000
@0005 0x00000000
@0006 0x00000000
@0007 0x00000000
@0008 0x00000000
@0009 0x00000000
@000a 0x00000000
@000b 0x00000000
@000c 0x00000000
@000d 0xb4820b16
@000e 0xb5728a84
@000f 0xb4deee6e
@0010 0xb2949ef4
@0011 0x00000000
@0012 0x00000000
@0013 0x00000000
@0014 0x00000000
@0015 0x00000000
@0016 0x00000000
@0017 0x00000000
@0018 0x00000000
@0019 0x00000000
@001a 0x00000000
@001b 0x00000000
@001c 0x00000000
@001d 0x00000000
@001e 0x00000000
@001f 0x00000000
@0020 0x00000000
@0021 0x00000000
@0022 0xb2841b84
@0023 0xb58fb7ef
@0024 0xb6328d30
@0025 0xb6804d39
@0026 0xb6a6bf3b
@0027 0xb6e869e8
@0028 0xb72309b5
@0029 0xb742be0f
@002a 0xb755eece
@002b 0xb7780e6a
@002c 0xb7616a33
@002d 0xb74e83c3
@002e 0xb7139eff
@002f 0xb6d15219
@0030 0xb6a4bf50
@0031 0xb65aee99
@0032 0xb5a209c0
@0033 0xb51ce0ac
@0034 0xb4cb5259
@0035 0x00000000
@0036 0x00000000
@0037 0x00000000
@0038 0x00000000
@0039 0x00000000
@003a 0x00000000
@003b 0xb4041b84
@003c 0xb36f71df
@003d 0xb4ee69a8
@003e 0xb4651fb8
@003f 0xb6514195
@0040 0xb737f00f
@0041 0xb7bcd2f4
@0042 0xb824f0da
@0043 0xb8824c1b
@0044 0xb8c294c7
@0045 0xb915acd8
@0046 0xb94a615a
@0047 0xb97f9c09
@0048 0xb98ec1c7
@0049 0xb9910654
@004a 0xb9840fa5
@004b 0xb95c8a67
@004c 0xb91d25d3
@004d 0xb8b2fdaf
@004e 0xb833f03a
@004f 0xb79a9a93
@0050 0xb6d13112
@0051 0xb63563c7
@0052 0xb519c807
@0053 0x00000000
@0054 0x00000000
@0055 0x00000000
@0056 0x00000000
@0057 0xb49ce0ac
@0058 0xb4e41781
@0059 0xb56b5103
@005a 0xb6c46b69
@005b 0xb791af98
@005c 0xb83ec25b
@005d 0xb8c3d2a9
@005e 0xb931291e
@005f 0xb98e53dd
@0060 0xb9d5b89f
@0061 0xba129075
@0062 0xba422426
@0063 0xba6cfb64
@0064 0xba83cac1
@0065 0xba81e2b4
@0066 0xba68e877
@0067 0xba399a71
@0068 0xba03e9d8
@0069 0xb99f621e
@006a 0xb92a50a1
@006b 0xb8a15b53
@006c 0xb7fd7dac
@006d 0xb7507b6c
@006e 0xb5b7b643
@006f 0xb479c405
@0070 0x00000000
@0071 0x00000000
@0072 0xb39ce0ac
@0073 0xb418bfd0
@0074 0xb58144ec
@0075 0xb6da59fa
@0076 0xb80df1d0
@0077 0xb8abd4b2
@0078 0xb94544aa
@0079 0xb9c3c478
@007a 0xba2b89ff
@007b 0xba87a887
@007c 0xbac4be7e
@007d 0xbb07c8e0
@007e 0xbb30bc64
@007f 0xbb512686
@0080 0xbb62ba3d
@0081 0xbb5e1788
@0082 0xbb436610
@0083 0xbb1bb72c
@0084 0xbae18084
@0085 0xba9173bb
@0086 0xba276dc8
@0087 0xb9acf1cf
@0088 0xb91d3867
@0089 0xb8822d25
@008a 0xb77eb34c
@008b 0xb613b7c4
@008c 0xb47bd473
@008d 0x00000000
@008e 0x00000000
@008f 0xb4ca4a22
@0090 0xb69cf130
@0091 0xb8089522
@0092 0xb8f7a83d
@0093 0xb9956f2e
@0094 0xba12b3cf
@0095 0xba837430
@0096 0xbad69ab7
@0097 0xbb1f5afd
@0098 0xbb5ef955
@0099 0xbb93dcae
@009a 0xbbb9b168
@009b 0xbbd5b582
@009c 0xbbe39407
@009d 0xbbdfb976
@009e 0xbbc98bd3
@009f 0xbba5500c
@00a0 0xbb7787a1
@00a1 0xbb292219
@00a2 0xbad0b240
@00a3 0xba6f87ac
@00a4 0xb9fde102
@00a5 0xb967c8e6
@00a6 0xb882e6eb
@00a7 0xb72b53af
@00a8 0xb4f7b397
@00a9 0x00000000
@00aa 0xb2041b84
@00ab 0xb6258579
@00ac 0xb7929ae9
@00ad 0xb8b9e8c0
@00ae 0xb9863cb7
@00af 0xba17d24e
@00b0 0xba8fe81e
@00b1 0xbaf4f572
@00b2 0xbb3ca6a3
@00b3 0xbb86646b
@00b4 0xbbb33d39
@00b5 0xbbe12357
@00b6 0xbc0634b8
@00b7 0xbc15b29a
@00b8 0xbc1c98b4
@00b9 0xbc19a285
@00ba 0xbc0d70ec
@00bb 0xbbf1d872
@00bc 0xbbbbf426
@00bd 0xbb862aa7
@00be 0xbb2eb3cd
@00bf 0xbacff8ed
@00c0 0xba6233f9
@00c1 0xb9d5c2af
@00c2 0xb911d09f
@00c3 0xb7e523d9
@00c4 0xb657d5f4
@00c5 0xb3c20869
@00c6 0xb5bc9d49
@00c7 0xb7097621
@00c8 0xb84210ab
@00c9 0xb9375e05
@00ca 0xb9f08eba
@00cb 0xba7b5e46
@00cc 0xbae3e573
@00cd 0xbb38c693
@00ce 0xbb89365e
@00cf 0xbbbb4cfc
@00d0 0xbbee0093
@00d1 0xbc0d0d16
@00d2 0xbc1e41e2
@00d3 0xbc2899c6
@00d4 0xbc2c015b
@00d5 0xbc291e32
@00d6 0xbc208e11
@00d7 0xbc0f5a54
@00d8 0xbbeb76fd
@00d9 0xbbaeb834
@00da 0xbb6bc71f
@00db 0xbb0decd9
@00dc 0xba9a8a94
@00dd 0xba104323
@00de 0xb956f471
@00df 0xb82af4bb
@00e0 0xb62eae62
@00e1 0xb4c5210e
@00e2 0xb6a753da
@00e3 0xb7d66ec9
@00e4 0xb8d730d2
@00e5 0xb99a4c23
@00e6 0xba2d0084
@00e7 0xbaaafd0d
@00e8 0xbb169574
@00e9 0xbb6e8af9
@00ea 0xbbada7dc
@00eb 0xbbe5a00a
@00ec 0xbc095e75
@00ed 0xbc172f5f
@00ee 0xbc1ca11a
@00ef 0xbc1ce709
@00f0 0xbc1c16b5
@00f1 0xbc1c49f1
@00f2 0xbc1b672c
@00f3 0xbc13549f
@00f4 0xbbfe0b9d
@00f5 0xbbc2f1c3
@00f6 0xbb85cd55
@00f7 0xbb219940
@00f8 0xbaa878c5
@00f9 0xba16ad52
@00fa 0xb95ea5ab
@00fb 0xb81e9a68
@00fc 0xb60fd8f6
@00fd 0xb37ff54f
@00fe 0xb706b00d
@00ff 0xb82d4106
@0100 0xb90a369d
@0101 0xb9b7b709
@0102 0xba49f9a1
@0103 0xbac78ec3
@0104 0xbb2f2d6d
@0105 0xbb8b614f
@0106 0xbbc76e5d
@0107 0xbbfbbfd7
@0108 0xbc0c049a
@0109 0xbc0c4d66
@010a 0xbc052c4b
@010b 0xbbfd7966
@010c 0xbbfe4dab
@010d 0xbc0557dc
@010e 0xbc0d6f28
@010f 0xbc0cecaa
@0110 0xbbfab590
@0111 0xbbc30536
@0112 0xbb861198
@0113 0xbb215853
@0114 0xbaa01b71
@0115 0xb9febf2b
@0116 0xb92401ed
@0117 0xb7e79f9e
@0118 0xb5ffb341
@0119 0xb1041b84
@011a 0xb70ce999
@011b 0xb82372fb
@011c 0xb901cca5
@011d 0xb9b008a6
@011e 0xba4b5d50
@011f 0xbad18b3f
@0120 0xbb3c4975
@0121 0xbb982246
@0122 0xbbd45874
@0123 0xbbfda0e4
@0124 0xbc0231da
@0125 0xbbee4488
@0126 0xbbd45799
@0127 0xbbcc5618
@0128 0xbbd8dca7
@0129 0xbbf090ae
@012a 0xbc05479e
@012b 0xbc06a88e
@012c 0xbbeef7dc
@012d 0xbbb6ab3a
@012e 0xbb76b1fd
@012f 0xbb12643e
@0130 0xba8bb5b7
@0131 0xb9c1de5b
@0132 0xb8cb6a16
@0133 0xb79579c2
@0134 0xb5a28ddb
@0135 0xb4841b84
@0136 0xb6a45c3b
@0137 0xb7fdc3da
@0138 0xb8cc7986
@0139 0xb995f8f6
@013a 0xba455004
@013b 0xbad7382c
@013c 0xbb4a747b
@013d 0xbba3453b
@013e 0xbbdd6cb8
@013f 0xbbf96357
@0140 0xbbeece34
@0141 0xbbcf5243
@0142 0xbbbbd0fa
@0143 0xbbc33117
@0144 0xbbda599b
@0145 0xbbf7ee2d
@0146 0xbc088a40
@0147 0xbc059776
@0148 0xbbe1f8da
@0149 0xbba55ac9
@014a 0xbb58e0b7
@014b 0xbb0170a0
@014c 0xba80a8b1
@014d 0xb9a45aaf
@014e 0xb84f0e10
@014f 0xb7259e3e
@0150 0xb5462946
@0151 0x00000000
@0152 0xb668385d
@0153 0xb7908239
@0154 0xb891254b
@0155 0xb980a80c
@0156 0xba477dfd
@0157 0xbae88142
@0158 0xbb5dbd73
@0159 0xbbaf13d1
@015a 0xbbe458c1
@015b 0xbbf73d35
@015c 0xbbe6190d
@015d 0xbbc9e68d
@015e 0xbbca95f1
@015f 0xbbe3f10b
@0160 0xbc013e39
@0161 0xbc0f6738
@0162 0xbc14ddc6
@0163 0xbc07cc39
@0164 0xbbd60b66
@0165 0xbb9519c2
@0166 0xbb42be9c
@0167 0xbaf11fac
@0168 0xba81a9ae
@0169 0xb9b0daf0
@016a 0xb815f59c
@016b 0xb6db51ae
@016c 0xb55183a3
@016d 0xb3841b84
@016e 0xb603d976
@016f 0xb713c006
@0170 0xb84d1036
@0171 0xb9723666
@0172 0xba5a2f46
@0173 0xbb017dea
@0174 0xbb70af87
@0175 0xbbb7c97c
@0176 0xbbe76ef6
@0177 0xbbf54aa4
@0178 0xbbe737ae
@0179 0xbbdd4225
@017a 0xbbf78feb
@017b 0xbc0d979a
@017c 0xbc1d5525
@017d 0xbc24f57f
@017e 0xbc1fe6ab
@017f 0xbc091cba
@0180 0xbbcc7034
@0181 0xbb8b6f25
@0182 0xbb3c8bc5
@0183 0xbaf40463
@0184 0xba8b77da
@0185 0xb9d1f8c7
@0186 0xb83cb1ed
@0187 0xb6c5e738
@0188 0xb52ce001
@0189 0xb4694095
@018a 0xb57f7134
@018b 0xb683555a
@018c 0xb81271a0
@018d 0xb979a382
@018e 0xba7b997e
@018f 0xbb10305d
@0190 0xbb7f5ada
@0191 0xbbba520a
@0192 0xbbe41a3f
@0193 0xbbf0f1fc
@0194 0xbbedaf65
@0195 0xbbfa6827
@0196 0xbc13869b
@0197 0xbc26044d
@0198 0xbc31a042
@0199 0xbc2e3627
@019a 0xbc21a6e7
@019b 0xbc06811c
@019c 0xbbc7dc06
@019d 0xbb8d86ed
@019e 0xbb44c702
@019f 0xbb016dfb
@01a0 0xba95f36a
@01a1 0xb9e90cfa
@01a2 0xb884ed07
@01a3 0xb6e93011
@01a4 0xb4210188
@01a5 0xb3b5a5d5
@01a6 0xb4ef71df
@01a7 0xb668fe87
@01a8 0xb81a5044
@01a9 0xb98de045
@01aa 0xba913631
@01ab 0xbb1c7fa0
@01ac 0xbb80d0dd
@01ad 0xbbb4338a
@01ae 0xbbd87a82
@01af 0xbbe7b232
@01b0 0xbbeff838
@01b1 0xbc06326f
@01b2 0xbc1d1ec7
@01b3 0xbc2c8f66
@01b4 0xbc3127b0
@01b5 0xbc271c4d
@01b6 0xbc191bf4
@01b7 0xbbfef110
@01b8 0xbbc4d1f1
@01b9 0xbb92b978
@01ba 0xbb4f77c1
@01bb 0xbb0874f2
@01bc 0xba97d42d
@01bd 0xb9ef232c
@01be 0xb8b15266
@01bf 0xb76540bf
@01c0 0xb5841b84
@01c1 0xb3a52265
@01c2 0xb4f5a329
@01c3 0xb6d049e1
@01c4 0xb83f698e
@01c5 0xb9af9592
@01c6 0xbaa458af
@01c7 0xbb23de83
@01c8 0xbb7b7c66
@01c9 0xbba7a998
@01ca 0xbbc4fdad
@01cb 0xbbd3d7d4
@01cc 0xbbe2cc72
@01cd 0xbc006399
@01ce 0xbc135290
@01cf 0xbc20e9d2
@01d0 0xbc222ebc
@01d1 0xbc195967
@01d2 0xbc0c55be
@01d3 0xbbf0036d
@01d4 0xbbc2af25
@01d5 0xbb95f503
@01d6 0xbb539285
@01d7 0xbb069fcc
@01d8 0xba902b24
@01d9 0xb9e63b49
@01da 0xb8cfa7d8
@01db 0xb77dbb98
@01dc 0xb548bdcf
@01dd 0x00000000
@01de 0xb4f7b397
@01df 0xb71e85c4
@01e0 0xb8951184
@01e1 0xb9e787e1
@01e2 0xbab6df86
@01e3 0xbb285742
@01e4 0xbb72eb0c
@01e5 0xbb996ce2
@01e6 0xbbaf9bb7
@01e7 0xbbbd35f8
@01e8 0xbbcc0d0b
@01e9 0xbbe27124
@01ea 0xbc018476
@01eb 0xbc0f635e
@01ec 0xbc12a922
@01ed 0xbc0da36e
@01ee 0xbc03d9b6
@01ef 0xbbe94242
@01f0 0xbbc28654
@01f1 0xbb957ee7
@01f2 0xbb4e4794
@01f3 0xbafbbfdf
@01f4 0xba81bddf
@01f5 0xb9d4d025
@01f6 0xb8e91c75
@01f7 0xb78ec45c
@01f8 0xb54839b4
@01f9 0xb3d28bda
@01fa 0xb40c5d3c
@01fb 0xb7833454
@01fc 0xb8f86203
@01fd 0xba13f446
@01fe 0xbac9e258
@01ff 0xbb2fffbf
@0200 0xbb739715
@0201 0xbb93ce2a
@0202 0xbba71dbb
@0203 0xbbb5d353
@0204 0xbbc120a5
@0205 0xbbd22f7b
@0206 0xbbf1d5a4
@0207 0xbc07a947
@0208 0xbc0e005a
@0209 0xbc0bed0f
@020a 0xbc041c35
@020b 0xbbec54e7
@020c 0xbbc0eb0a
@020d 0xbb8ef72c
@020e 0xbb3f4dfa
@020f 0xbae3febc
@0210 0xba645256
@0211 0xb9bbfe15
@0212 0xb8d328bb
@0213 0xb751c5b1
@0214 0xb5952310
@0215 0x00000000
@0216 0xb52c5be6
@0217 0xb7d1ead8
@0218 0xb92b4434
@0219 0xba2a943b
@021a 0xbad84095
@021b 0xbb39f3e9
@021c 0xbb804635
@021d 0xbb9c9a92
@021e 0xbbb37ba2
@021f 0xbbc4c28a
@0220 0xbbd10a6a
@0221 0xbbe3ca85
@0222 0xbc009fd4
@0223 0xbc0e7447
@0224 0xbc146f4d
@0225 0xbc11b5a2
@0226 0xbc072b00
@0227 0xbbe8f9a0
@0228 0xbbb55754
@0229 0xbb810c8c
@022a 0xbb25dc44
@022b 0xbabd0ac0
@022c 0xba37ade0
@022d 0xb9916d8a
@022e 0xb8a44ed1
@022f 0xb717f9a7
@0230 0xb50e6daa
@0231 0x00000000
@0232 0xb560fedc
@0233 0xb7ea23a4
@0234 0xb93ee4ee
@0235 0xba2a7166
@0236 0xbacf5670
@0237 0xbb39fb5c
@0238 0xbb863f22
@0239 0xbbab9597
@023a 0xbbcb6adc
@023b 0xbbe4758a
@023c 0xbbf84d32
@023d 0xbc07653f
@023e 0xbc14bf37
@023f 0xbc1e1fcf
@0240 0xbc1e7e23
@0241 0xbc14fb11
@0242 0xbc032a1c
@0243 0xbbd4b6c3
@0244 0xbb9bbcc1
@0245 0xbb5112b8
@0246 0xbafccecc
@0247 0xba8936c9
@0248 0xba0377ac
@0249 0xb9526947
@024a 0xb857fb1c
@024b 0xb6c7317d
@024c 0xb3ce6afe
@024d 0xb3841b84
@024e 0xb58f33d3
@024f 0xb7c40854
@0250 0xb9188dc2
@0251 0xba05c7b4
@0252 0xbaa94f72
@0253 0xbb246e09
@0254 0xbb80bbf2
@0255 0xbbaf8944
@0256 0xbbdaa1ca
@0257 0xbbff2fba
@0258 0xbc0ee167
@0259 0xbc1bfdf4
@025a 0xbc2589dc
@025b 0xbc271027
@025c 0xbc1e253e
@025d 0xbc0b343c
@025e 0xbbe3328f
@025f 0xbba95065
@0260 0xbb687584
@0261 0xbb12106a
@0262 0xbaa6f251
@0263 0xba2e68f9
@0264 0xb9a321b4
@0265 0xb90365de
@0266 0xb7fca2de
@0267 0xb6953393
@0268 0xb3a10188
@0269 0xb37ff54f
@026a 0xb3d6acb6
@026b 0xb76d3828
@026c 0xb8b2af3f
@026d 0xb99f0fcf
@026e 0xba57b7c4
@026f 0xbaea17d6
@0270 0xbb4b0301
@0271 0xbb989839
@0272 0xbbcb0ea6
@0273 0xbbf9e12d
@0274 0xbc0f31d7
@0275 0xbc1b2b72
@0276 0xbc1e8a33
@0277 0xbc18af93
@0278 0xbc083d6c
@0279 0xbbde6884
@027a 0xbba75734
@027b 0xbb673e05
@027c 0xbb131edb
@027d 0xbaaf53e7
@027e 0xba3fffda
@027f 0xb9c524ed
@0280 0xb9306379
@0281 0xb88583b7
@0282 0xb763bcae
@0283 0xb5b03ab4
@0284 0xb4149ef4
@0285 0x00000000
@0286 0x00000000
@0287 0xb68d025e
@0288 0xb803c8f2
@0289 0xb90be793
@028a 0xb9c874ca
@028b 0xba720c79
@028c 0xbaf10939
@028d 0xbb4b50ab
@028e 0xbb94bd20
@028f 0xbbc32334
@0290 0xbbe7dac9
@0291 0xbbfade71
@0292 0xbbf9a976
@0293 0xbbe4d706
@0294 0xbbc03dfd
@0295 0xbb921230
@0296 0xbb4c68d9
@0297 0xbb0329f1
@0298 0xba9f7fa9
@0299 0xba3642d7
@029a 0xb9c06941
@029b 0xb939a8c3
@029c 0xb89f07cf
@029d 0xb7cbef39
@029e 0xb69722fa
@029f 0xb549c606
@02a0 0x00000000
@02a1 0x00000000
@02a2 0x00000000
@02a3 0xb58d2365
@02a4 0xb7197576
@02a5 0xb82f61f7
@02a6 0xb901e882
@02a7 0xb9a9bfe1
@02a8 0xba37b38e
@02a9 0xbaa9fa62
@02aa 0xbb092614
@02ab 0xbb41128c
@02ac 0xbb6cd8fa
@02ad 0xbb8144a2
@02ae 0xbb8039e3
@02af 0xbb66cb7d
@02b0 0xbb3abfe1
@02b1 0xbb0b5b2e
@02b2 0xbac13e0f
@02b3 0xba785fb1
@02b4 0xba17b2f4
@02b5 0xb9a9ec42
@02b6 0xb92f240a
@02b7 0xb89eccfb
@02b8 0xb801ea0f
@02b9 0xb7098ee6
@02ba 0xb5e20713
@02bb 0xb46f71df
@02bc 0x00000000
@02bd 0x00000000
@02be 0x00000000
@02bf 0xb3041b84
@02c0 0xb6060aeb
@02c1 0xb73ca58a
@02c2 0xb81ed434
@02c3 0xb8eb2399
@02c4 0xb9820e2e
@02c5 0xb9fbf2e5
@02c6 0xba4a553a
@02c7 0xba8dcfb1
@02c8 0xbaa64bc4
@02c9 0xbab2d5e3
@02ca 0xbab1ebaa
@02cb 0xbaa098a6
@02cc 0xba852f05
@02cd 0xba53ed36
@02ce 0xba1ce88b
@02cf 0xb9d79cac
@02d0 0xb9875add
@02d1 0xb912f117
@02d2 0xb896061f
@02d3 0xb80ab614
@02d4 0xb7470834
@02d5 0xb62bb6c3
@02d6 0xb4339567
@02d7 0xb456acb6
@02d8 0x00000000
@02d9 0x00000000
@02da 0x00000000
@02db 0x00000000
@02dc 0xb39ce0ac
@02dd 0xb6064cf9
@02de 0xb7381958
@02df 0xb82513f2
@02e0 0xb8b4d97b
@02e1 0xb9387f01
@02e2 0xb98f7faf
@02e3 0xb9c189fb
@02e4 0xb9e75698
@02e5 0xb9fa6f59
@02e6 0xb9f880b8
@02e7 0xb9e18652
@02e8 0xb9b391ca
@02e9 0xb98c8432
@02ea 0xb94dc870
@02eb 0xb90caec5
@02ec 0xb8aeb6a3
@02ed 0xb83bebc4
@02ee 0xb7b29993
@02ef 0xb6fb5058
@02f0 0xb5c839b4
@02f1 0xb1c62946
@02f2 0x00000000
@02f3 0x00000000
@02f4 0x00000000
@02f5 0x00000000
@02f6 0x00000000
@02f7 0x00000000
@02f8 0x00000000
@02f9 0xb4507b6c
@02fa 0xb58c9f4a
@02fb 0xb6007ec3
@02fc 0xb69c9e9f
@02fd 0xb705d961
@02fe 0xb758f6f0
@02ff 0xb7b104fe
@0300 0xb7f10673
@0301 0xb827c561
@0302 0xb8328b20
@0303 0xb85b6e94
@0304 0xb83d0ed0
@0305 0xb80e845f
@0306 0xb7c96712
@0307 0xb78a4cce
@0308 0xb70fe979
@0309 0xb6a88d9b
@030a 0xb6154417
@030b 0xb5ea06be
@030c 0xb477b397
@030d 0x00000000
@030e 0x00000000
@030f 0x00000000
@0310 0xb8c6dfc6
@0311 0x00000000
@0312 0x00000000
@0313 0x00000000
@0314 0x00000000
@0315 0x00000000
@0316 0x00000000
@0317 0x00000000
@0318 0x00000000
@0319 0x00000000
@031a 0x00000000
@031b 0x00000000
@031c 0x00000000
@031d 0xb3616ca4
@031e 0xb447a948
@031f 0xb3a9ba3b
@0320 0xb1624da4
@0321 0x00000000
@0322 0x00000000
@0323 0x00000000
@0324 0x00000000
@0325 0x00000000
@0326 0x00000000
@0327 0x00000000
@0328 0x00000000
@0329 0x00000000
@032a 0x00000000
@032b 0x00000000
@032c 0x00000000
@032d 0x00000000
@032e 0x00000000
@032f 0x00000000
@0330 0x00000000
@0331 0x00000000
@0332 0xb0ed57e7
@0333 0xb4034ec0
@0334 0xb6496564
@0335 0xb909c41c
@0336 0xb903c774
@0337 0xb8ca5fb2
@0338 0xb88ae202
@0339 0xb88ceb87
@033a 0xb81d4bf0
@033b 0x39435832
@033c 0x3944e495
@033d 0xb9b74e86
@033e 0xb8f18ffc
@033f 0xb70115a1
@0340 0xb609cb37
@0341 0xb58b1cac
@0342 0xb50340b7
@0343 0xb41c7681
@0344 0xb3459f35
@0345 0x00000000
@0346 0x00000000
@0347 0x00000000
@0348 0x00000000
@0349 0x00000000
@034a 0x00000000
@034b 0xb26942b8
@034c 0xb1d32e0f
@034d 0xb3c2f90c
@034e 0xb30725f4
@034f 0xb4ffbdc3
@0350 0xb8664560
@0351 0xba165c96
@0352 0xba9430d0
@0353 0xba700926
@0354 0xba804fda
@0355 0xba164271
@0356 0x3a83a365
@0357 0xb97f0784
@0358 0x3ac2c0e8
@0359 0x3a5e2e12
@035a 0xb9e30b98
@035b 0xb9adead0
@035c 0x38639b61
@035d 0xba16f411
@035e 0xb988d6ed
@035f 0xb9042f18
@0360 0xb829a008
@0361 0xb7872617
@0362 0xb71c25da
@0363 0x00000000
@0364 0x00000000
@0365 0x00000000
@0366 0x00000000
@0367 0xb31475a1
@0368 0xb34a7746
@0369 0xb53006ee
@036a 0xb8102fd2
@036b 0xb915f00b
@036c 0xba45b5d9
@036d 0xbad5f1f0
@036e 0xbb76221c
@036f 0xbb9949dc
@0370 0xbbaa9f40
@0371 0xbb16d18e
@0372 0xbaa7da9a
@0373 0xbae6630c
@0374 0xbaeebdee
@0375 0xba8288c0
@0376 0xbb0d1f2d
@0377 0xbb4f1271
@0378 0xbaebc2eb
@0379 0xbb137f7c
@037a 0xbb087188
@037b 0xba82b537
@037c 0xba5bc1fe
@037d 0xba275dde
@037e 0xb97c2a73
@037f 0xb9e1af35
@0380 0x00000000
@0381 0x00000000
@0382 0xb23910a5
@0383 0xb2f159e0
@0384 0xb815ec0e
@0385 0xb966132e
@0386 0xb999c865
@0387 0xba6ef399
@0388 0xbadef65f
@0389 0xb9db4dff
@038a 0xbafba328
@038b 0xbb0e1574
@038c 0xbb9b5eee
@038d 0xbb1b4f05
@038e 0x3a960490
@038f 0xbb078ba3
@0390 0xbb195870
@0391 0xba084081
@0392 0xba69c845
@0393 0xbb09f94e
@0394 0xb9e31830
@0395 0xbada301b
@0396 0xbae43657
@0397 0xba875ba6
@0398 0xbab14aee
@0399 0xbb461c1a
@039a 0xbaf5051e
@039b 0xb96f3d80
@039c 0xb9062f85
@039d 0x00000000
@039e 0x00000000
@039f 0xb75f383b
@03a0 0xb87b69a5
@03a1 0x377793d6
@03a2 0x3a944d6c
@03a3 0x3a304aec
@03a4 0xba18dcbc
@03a5 0xbac3b27d
@03a6 0xbaf2ac71
@03a7 0xba9c588b
@03a8 0xbb51bee6
@03a9 0xbb10c26a
@03aa 0xba22c26a
@03ab 0xbad1ce6a
@03ac 0x3abd0f60
@03ad 0xbb13759e
@03ae 0xbb13b532
@03af 0x3a257128
@03b0 0xbab77d4a
@03b1 0xba5f2482
@03b2 0x3af8606f
@03b3 0x3abefe74
@03b4 0x39bb1c8e
@03b5 0xba8bf2cd
@03b6 0xbb07e6f6
@03b7 0xba1080ba
@03b8 0xb937d74f
@03b9 0x00000000
@03ba 0xb2c93c41
@03bb 0xb902859d
@03bc 0xb93bae0c
@03bd 0xb9a7ea7f
@03be 0xb9f0d972
@03bf 0xba92758f
@03c0 0xbb52e69e
@03c1 0xbb870db8
@03c2 0xbab55e97
@03c3 0xb95e8c85
@03c4 0xbaaab07e
@03c5 0xbb3dea07
@03c6 0xbadcb2a3
@03c7 0xba88c1b8
@03c8 0xbb308475
@03c9 0xba8627d0
@03ca 0xbb15fd3a
@03cb 0x38f6d589
@03cc 0xbac0cb05
@03cd 0x3a6fbe56
@03ce 0xb9c105c2
@03cf 0xbaaa2eff
@03d0 0xbac98e3e
@03d1 0xbb0b0175
@03d2 0xbb025330
@03d3 0xb9bec10e
@03d4 0xb857d540
@03d5 0xb2523025
@03d6 0xb81e1d3c
@03d7 0xb8941d07
@03d8 0xb91ba213
@03d9 0x395aa872
@03da 0xbaea02ef
@03db 0xbb59cd7d
@03dc 0xbb299d4c
@03dd 0xbb8971bc
@03de 0xbb335f2c
@03df 0xbae138dc
@03e0 0xbb007f8d
@03e1 0x3aaa1c51
@03e2 0xbb0e63a0
@03e3 0xb98750b4
@03e4 0xbb18d270
@03e5 0xba6b24ec
@03e6 0xba86de5b
@03e7 0xbaaff581
@03e8 0x3a448397
@03e9 0x3a32f329
@03ea 0xba05bcf6
@03eb 0xb9cca963
@03ec 0xbb1e96f7
@03ed 0xbb5a8176
@03ee 0xbaf72923
@03ef 0xb97db13d
@03f0 0xb9115cb9
@03f1 0xb3558ac9
@03f2 0xb804616f
@03f3 0xb7b4ec7d
@03f4 0xb89f713d
@03f5 0xb92726a7
@03f6 0xbaee08e5
@03f7 0xbb505831
@03f8 0xbadef657
@03f9 0xbb2d8344
@03fa 0xbb49f9ce
@03fb 0xba90af44
@03fc 0xbaf07a0b
@03fd 0x39c60733
@03fe 0xba5b3119
@03ff 0x39873f7c
@0400 0x388e3a28
@0401 0xbb2a0509
@0402 0x3a91214d
@0403 0xb9f2c40c
@0404 0xba1dfe04
@0405 0xbb0e8850
@0406 0xba8ea051
@0407 0xba9510d9
@0408 0xbb987966
@0409 0xbbad93c2
@040a 0xbb0a89d8
@040b 0xb9ba3f4f
@040c 0xb8a6bb47
@040d 0xb20aa27b
@040e 0xb98791c0
@040f 0xb7efcb60
@0410 0xb8e267c4
@0411 0xba046ecd
@0412 0xbb1ce492
@0413 0xbb30e414
@0414 0xba9d0d72
@0415 0xba3940a5
@0416 0xbacb88f5
@0417 0xba6c882f
@0418 0xb87b1385
@0419 0xba6d612d
@041a 0x3a33ee9d
@041b 0x38c99c11
@041c 0x3aa8af27
@041d 0x39604698
@041e 0xb98b8c93
@041f 0xba2065c7
@0420 0xbae71926
@0421 0xba7d9181
@0422 0xb9a6c528
@0423 0xbb093912
@0424 0xbb954358
@0425 0xbb6918c1
@0426 0xbaecf0f2
@0427 0xb9d71074
@0428 0xb9235ebf
@0429 0xb21b4de4
@042a 0xb8051b09
@042b 0xb7d32312
@042c 0xb8ead1b4
@042d 0xba8a70df
@042e 0xbb1e881f
@042f 0xbb3511ac
@0430 0xbadf29b2
@0431 0xb8d321b2
@0432 0xba808edd
@0433 0xba69a32f
@0434 0xba7aa626
@0435 0x39eb59a5
@0436 0x3aa3bfe3
@0437 0x3b39043d
@0438 0x3b7a039a
@0439 0x390951b4
@043a 0x3a2d475d
@043b 0xbaaf5cae
@043c 0xb8ca94c8
@043d 0xbafb3847
@043e 0xbad86454
@043f 0xbb27988f
@0440 0xbb566c09
@0441 0xbb2ea2f8
@0442 0xba950c6a
@0443 0xba05eed1
@0444 0xb730ca3d
@0445 0xb59b4de4
@0446 0x36c3123a
@0447 0xb73a4727
@0448 0xb855b000
@0449 0xba16eac5
@044a 0xbaba81f8
@044b 0xbb1cff97
@044c 0xbac9158d
@044d 0xbb244e0b
@044e 0xbaf407b6
@044f 0xb992be2f
@0450 0x38b33c2b
@0451 0xba68a300
@0452 0x3ab4f147
@0453 0x3af88e2e
@0454 0x3b7476dd
@0455 0x3a74c680
@0456 0xba80fc47
@0457 0xba88ae1f
@0458 0xbac9abda
@0459 0xbaacd6f4
@045a 0xbae4decc
@045b 0xbb010e4f
@045c 0xbaaf7537
@045d 0xba6e910a
@045e 0xb8edd955
@045f 0xb897277a
@0460 0x369ca506
@0461 0x00000000
@0462 0xb688b049
@0463 0xb8f4db9e
@0464 0x380f515c
@0465 0xb98b53ad
@0466 0xba6fb01e
@0467 0x3972a15a
@0468 0xb7f8db0a
@0469 0xbae7a2ba
@046a 0x3a1c1bba
@046b 0xbac79c74
@046c 0xbad1d93d
@046d 0xba703708
@046e 0x3a82adc7
@046f 0x3ba6c8eb
@0470 0x3b019bdb
@0471 0x3a3594be
@0472 0xba21e8ec
@0473 0x3aa581d5
@0474 0xbb427819
@0475 0xbb07b305
@0476 0xbad00578
@0477 0xba8e9a9e
@0478 0xba2ca2ec
@0479 0xb9f7369c
@047a 0xb9b2f459
@047b 0xb96d7172
@047c 0xb4773a66
@047d 0x34fd4282
@047e 0xb6c99e13
@047f 0xb86566ec
@0480 0x378a941e
@0481 0xb88ede69
@0482 0xba147836
@0483 0x39c61274
@0484 0xba3d0f07
@0485 0x3938ca37
@0486 0xba4df09e
@0487 0xbb84a5ee
@0488 0xbada91ca
@0489 0x3901dfd2
@048a 0x39d835b6
@048b 0x3b4a71a3
@048c 0x3ab7d026
@048d 0x3a3db85c
@048e 0x3b6b302f
@048f 0xbaa767d1
@0490 0xbb501144
@0491 0xbaeb66df
@0492 0xbabf6788
@0493 0xba92cfa2
@0494 0xba9061a4
@0495 0xba8483d5
@0496 0xba0402a5
@0497 0xb8e05693
@0498 0xb51e2025
@0499 0xb3a8b145
@049a 0xb686df6c
@049b 0xb70f1757
@049c 0xb752d02a
@049d 0x39cccec9
@049e 0xb9d4cf39
@049f 0xba45dcc7
@04a0 0xbab8a68d
@04a1 0xb928284e
@04a2 0xb88e890d
@04a3 0xbb6f8a28
@04a4 0xbb44444c
@04a5 0xba3291d4
@04a6 0x39abd906
@04a7 0x3ab20168
@04a8 0x3b11d043
@04a9 0x38db8c1b
@04aa 0xb9e5dc22
@04ab 0xbb74c413
@04ac 0xbb1e1baa
@04ad 0xbab77d97
@04ae 0xbb00113f
@04af 0xba87d4d5
@04b0 0xba6914bd
@04b1 0xb93201a9
@04b2 0xb8ae466a
@04b3 0x3831c4c7
@04b4 0xb419498e
@04b5 0xb2f1423b
@04b6 0xb38e6e35
@04b7 0xb60f5a1b
@04b8 0xb7927eb1
@04b9 0xb89d958a
@04ba 0xba86ba68
@04bb 0xbaf1ddad
@04bc 0xba7ba351
@04bd 0x3901adbd
@04be 0xbac0bd5d
@04bf 0xbb547897
@04c0 0x3a188920
@04c1 0x3a5cb57c
@04c2 0x3b1f1490
@04c3 0x3b144d6d
@04c4 0xb8da7cfa
@04c5 0x3af68d41
@04c6 0xbb06d852
@04c7 0xbb5c0bf6
@04c8 0xbb4bbb7d
@04c9 0xbafd0590
@04ca 0xbafb5181
@04cb 0xbab0bd9b
@04cc 0xba870412
@04cd 0xba0ed399
@04ce 0xb95dd1bb
@04cf 0xb842fea9
@04d0 0xb791e478
@04d1 0xb2682fed
@04d2 0x359469dd
@04d3 0xb6616b8b
@04d4 0xb814b3e1
@04d5 0xb8e126be
@04d6 0xba3410b9
@04d7 0xbb05974b
@04d8 0xbaee4c10
@04d9 0xb9e66762
@04da 0x3a745381
@04db 0xbad26c28
@04dc 0xba4a0219
@04dd 0xbabeb8d2
@04de 0xba83f102
@04df 0x3b412c5c
@04e0 0xbb31059d
@04e1 0x3a97252a
@04e2 0xbb7130a0
@04e3 0xbb5ea8ac
@04e4 0xbafb09d7
@04e5 0xbabf2767
@04e6 0xba8d127d
@04e7 0xbaadb15b
@04e8 0xba95e24d
@04e9 0x39e40316
@04ea 0xb9aa5b83
@04eb 0xb98babc3
@04ec 0xb7581d1c
@04ed 0x00000000
@04ee 0x36c14bdc
@04ef 0xb6d8c02a
@04f0 0xb8a7b405
@04f1 0xb99f939f
@04f2 0xba90d0ec
@04f3 0xbb25ca98
@04f4 0xbac37962
@04f5 0x3a8635c8
@04f6 0xba36dc22
@04f7 0xba400fdf
@04f8 0xbac711b7
@04f9 0x3a45f6da
@04fa 0x3b0ec6bf
@04fb 0x3b499b8e
@04fc 0xb9b552a5
@04fd 0xba2fa67d
@04fe 0xbb8a2b9d
@04ff 0xbb02517f
@0500 0x3a25d186
@0501 0xb9cd0a42
@0502 0xb96fca59
@0503 0xb99d47ad
@0504 0xba412d96
@0505 0x3a3eb899
@0506 0xba5d16ab
@0507 0xb9c10d85
@0508 0xb868dec4
@0509 0xb43aac57
@050a 0xb4e36032
@050b 0xb8107a8a
@050c 0xb903861f
@050d 0xba09959b
@050e 0xbb1dcf81
@050f 0xbba8527d
@0510 0xbb1b3daf
@0511 0x3a023806
@0512 0xba1d01a0
@0513 0xbaee72ac
@0514 0xbaafa48e
@0515 0xba92f425
@0516 0x3a30c83a
@0517 0x3a852a84
@0518 0xbab00ef1
@0519 0xbb95f446
@051a 0xba8e0252
@051b 0x3a14c248
@051c 0x3801ae7c
@051d 0x3ae06601
@051e 0xb9bc2631
@051f 0xbb248e2e
@0520 0xbaba9ec6
@0521 0x383b44d7
@0522 0x39a79232
@0523 0xb914ea9f
@0524 0x3947a39c
@0525 0x00000000
@0526 0xb88639b4
@0527 0xb977f761
@0528 0xb9c2caf0
@0529 0xba534ebe
@052a 0xbb8cda41
@052b 0xbb59fc0f
@052c 0xba28a0f3
@052d 0xbae44835
@052e 0x394e58a9
@052f 0xba35ebaf
@0530 0xb8b76f57
@0531 0xbb17dc8c
@0532 0x39e0e956
@0533 0xbb1f2de3
@0534 0x3a69af2b
@0535 0x3ac3b1af
@0536 0xba8a187e
@0537 0x3a7071aa
@0538 0x3a918218
@0539 0x39e96330
@053a 0xba4a8928
@053b 0xbabaf5d0
@053c 0x35d7ff71
@053d 0x3a9b9257
@053e 0x3a1b858c
@053f 0xb987b10d
@0540 0x38bf1ded
@0541 0x00000000
@0542 0xb8f869cb
@0543 0xb9add728
@0544 0xb99e5e36
@0545 0xba24489b
@0546 0xbb661285
@0547 0xbb1cb029
@0548 0xbaf34ad5
@0549 0x39ab9dfc
@054a 0x3a336478
@054b 0x3a518acb
@054c 0x3b12ae0f
@054d 0x3a9b9126
@054e 0x3886bd12
@054f 0x3a4c05ed
@0550 0xbb2b882d
@0551 0x3ab6a71a
@0552 0x3a8935b2
@0553 0x3b466a79
@0554 0x3ac9ca67
@0555 0x39ef8f0a
@0556 0x3a4b7128
@0557 0xba44ca06
@0558 0x39dae86e
@0559 0x3b182bc2
@055a 0x3a4a03dc
@055b 0xb8ec98f9
@055c 0xb3135c77
@055d 0x3636bd21
@055e 0xb8db4f5f
@055f 0xb9cf5402
@0560 0x3a4462d9
@0561 0x3a8c6d91
@0562 0x3af9808f
@0563 0x3a9ea9d5
@0564 0x39c914b0
@0565 0x3ad900d3
@0566 0x391687f5
@0567 0x3ac4bd2e
@0568 0xba186da0
@0569 0x39941310
@056a 0x38e4c6b8
@056b 0x3ae91a5f
@056c 0x3a92f2d1
@056d 0xb9e3dc20
@056e 0xba833b9c
@056f 0x3a4d15c3
@0570 0xba64cfbe
@0571 0x3a949b41
@0572 0x3a849e05
@0573 0xbaebd89c
@0574 0xba531761
@0575 0x3abe0114
@0576 0x3a861a06
@0577 0xb8237a1e
@0578 0xb20ce1e0
@0579 0x36310738
@057a 0xb7e18386
@057b 0xb9adf4e0
@057c 0x38cd887a
@057d 0x3a26dab3
@057e 0x3ba89a44
@057f 0x3b154431
@0580 0xb8f73ca8
@0581 0x3913b345
@0582 0x3889bfca
@0583 0xbaa91a91
@0584 0xbb372293
@0585 0xbb21eec8
@0586 0xbb3b66ec
@0587 0xb9c5fa7c
@0588 0x39cbae46
@0589 0xb9c153a0
@058a 0x3adbf92d
@058b 0x3b467296
@058c 0x3a255167
@058d 0x3aad17b1
@058e 0x3a30c0eb
@058f 0xbb10d46a
@0590 0xba3f4cfd
@0591 0x39c54c78
@0592 0x3a0c6f44
@0593 0x38a28c19
@0594 0xb2820b93
@0595 0x00000000
@0596 0x00000000
@0597 0xb781b7ef
@0598 0xba8b678c
@0599 0xbaced505
@059a 0x3aacd911
@059b 0x3b43a793
@059c 0xb95f4c31
@059d 0xbac70402
@059e 0x3a68703e
@059f 0x39706855
@05a0 0xb918035f
@05a1 0x3b2a2c0c
@05a2 0xba5372f9
@05a3 0xbb1a4092
@05a4 0x3a658749
@05a5 0x3aa2f81f
@05a6 0x3b0a51af
@05a7 0xb9d40ef4
@05a8 0x385d228c
@05a9 0x3995d82a
@05aa 0xbab476f1
@05ab 0xbaf4f28c
@05ac 0xba6056f5
@05ad 0xb7ed8bb5
@05ae 0x38ce0a46
@05af 0x3968aeb7
@05b0 0x00000000
@05b1 0x00000000
@05b2 0x00000000
@05b3 0xb465eb9c
@05b4 0xba367944
@05b5 0xba9f5eda
@05b6 0xbab95711
@05b7 0xba846c87
@05b8 0xba9a0498
@05b9 0xbb3d1cbd
@05ba 0xbab4fb4f
@05bb 0xbb1ba466
@05bc 0xbb73679c
@05bd 0xbb21293c
@05be 0xbb59dec8
@05bf 0xbac2c1d7
@05c0 0xbb28a48d
@05c1 0xbb8c7471
@05c2 0xba9c6b17
@05c3 0xbaa04ae4
@05c4 0xb8e9f8dd
@05c5 0xba06d85b
@05c6 0xba2afbe0
@05c7 0xba04ea7e
@05c8 0xb9010b81
@05c9 0xb7721530
@05ca 0x3888f9f1
@05cb 0x3741774a
@05cc 0x00000000
@05cd 0x00000000
@05ce 0x00000000
@05cf 0xb17dfae8
@05d0 0xb886b6a9
@05d1 0xba3757a0
@05d2 0xba8d1594
@05d3 0xbadb977c
@05d4 0xbb6fdaee
@05d5 0xbb70496c
@05d6 0xbb9adb5d
@05d7 0xbbec9bdf
@05d8 0xbbe0e79c
@05d9 0xbbc6f3ab
@05da 0xbb970889
@05db 0xbb93ace5
@05dc 0xbbdad1c9
@05dd 0xbba65526
@05de 0xbb6a65bd
@05df 0xbb5b746b
@05e0 0xbb181b7c
@05e1 0xba68c9f3
@05e2 0xb8fa7b00
@05e3 0xb82b7767
@05e4 0xb8300568
@05e5 0xb70b13d9
@05e6 0xb469a762
@05e7 0xb48ba7b9
@05e8 0x00000000
@05e9 0x00000000
@05ea 0x00000000
@05eb 0x00000000
@05ec 0xb6a52142
@05ed 0xb8c9ee9e
@05ee 0xb9e6a3a4
@05ef 0xba427d0b
@05f0 0xba28e8d6
@05f1 0xba3eb804
@05f2 0xba97ab10
@05f3 0xbb0c1b4a
@05f4 0xbb205ed7
@05f5 0xbb897cab
@05f6 0xbb886eb1
@05f7 0xbb245467
@05f8 0xbb1b698a
@05f9 0xbaddab58
@05fa 0xba9dc2d1
@05fb 0xbad43518
@05fc 0xba6e33f7
@05fd 0xb98d59c1
@05fe 0xb87285b7
@05ff 0xb765bbba
@0600 0xb66446ed
@0601 0xb038c559
@0602 0x00000000
@0603 0x00000000
@0604 0x00000000
@0605 0x00000000
@0606 0x00000000
@0607 0x00000000
@0608 0x00000000
@0609 0xb566e48a
@060a 0xb6172539
@060b 0xb647175d
@060c 0xb62feb64
@060d 0xb6280af9
@060e 0xb63c9751
@060f 0xb940807a
@0610 0xb96e80a8
@0611 0xb97fee05
@0612 0xb9a89776
@0613 0xb8874998
@0614 0xb85f5a60
@0615 0xb891c129
@0616 0xb95b963e
@0617 0xba0b61d6
@0618 0xb8147c34
@0619 0xb6f26188
@061a 0xb59c9e1b
@061b 0xb51dae2f
@061c 0xb3bf29ee
@061d 0x00000000
@061e 0x00000000
@061f 0x00000000
@0620 0xb956b544
@0621 0x00000000
@0622 0x00000000
@0623 0x00000000
@0624 0x00000000
@0625 0x00000000
@0626 0x00000000
@0627 0x00000000
@0628 0x00000000
@0629 0x00000000
@062a 0x00000000
@062b 0x00000000
@062c 0x00000000
@062d 0xb6ec03dc
@062e 0xb7595d93
@062f 0x3636a2af
@0630 0x33f38393
@0631 0x00000000
@0632 0x00000000
@0633 0x00000000
@0634 0x00000000
@0635 0x00000000
@0636 0x00000000
@0637 0x00000000
@0638 0x00000000
@0639 0x00000000
@063a 0x00000000
@063b 0x00000000
@063c 0x00000000
@063d 0x00000000
@063e 0x00000000
@063f 0x00000000
@0640 0x00000000
@0641 0x00000000
@0642 0xb3c7cf36
@0643 0xb7ceb2db
@0644 0xb88a28b1
@0645 0xb9353091
@0646 0xb9ac319f
@0647 0xb9ba96fb
@0648 0xb9538868
@0649 0xb9b6f599
@064a 0xb9e26757
@064b 0xb9d20c2d
@064c 0xb83280cb
@064d 0x390efb62
@064e 0xb98b410a
@064f 0xb93e89cf
@0650 0xb9ae76ee
@0651 0xb930c046
@0652 0xb7f53884
@0653 0xb774428c
@0654 0xb6fc1e5e
@0655 0x00000000
@0656 0x00000000
@0657 0x00000000
@0658 0x00000000
@0659 0x00000000
@065a 0x00000000
@065b 0xb34b321d
@065c 0xb3c5978c
@065d 0xb79b6b31
@065e 0xb6bc1808
@065f 0xb8011f17
@0660 0xb928af80
@0661 0xb9c712d4
@0662 0xb9de9b4b
@0663 0xba9e6a1f
@0664 0xbaa66984
@0665 0xbaca9a73
@0666 0xbb142409
@0667 0xbb34e7d8
@0668 0xbaf90f28
@0669 0xbafe26ff
@066a 0xbb2bf0fc
@066b 0xbb295160
@066c 0xbaf8bbc2
@066d 0xba7f7fc1
@066e 0xba3351de
@066f 0xb9f94355
@0670 0xb8f4dd28
@0671 0x37448bf8
@0672 0x3793e02d
@0673 0x00000000
@0674 0x00000000
@0675 0x00000000
@0676 0x00000000
@0677 0xb33ebdd1
@0678 0xb50072c8
@0679 0xb74537fe
@067a 0xb8b83098
@067b 0xb920f2c6
@067c 0xb87f827a
@067d 0x39997384
@067e 0x3a8284e2
@067f 0x3a8ffd86
@0680 0x3a2fbf72
@0681 0x39e8dbc0
@0682 0x3a42a229
@0683 0xb9c1e5a0
@0684 0xba75fcdd
@0685 0xb9ebe568
@0686 0xbaa1d2cc
@0687 0xbae61656
@0688 0xbaf04e04
@0689 0xbac79975
@068a 0xbaa1ad9e
@068b 0xba6f65cd
@068c 0xba06e968
@068d 0xb8fb78f1
@068e 0x373a6f42
@068f 0xb61c0c51
@0690 0x00000000
@0691 0x00000000
@0692 0xb539100c
@0693 0xb476106e
@0694 0xb8474258
@0695 0xb95d2358
@0696 0xb9232b1d
@0697 0x38a4bc07
@0698 0x399bffec
@0699 0xb99273cc
@069a 0x3a389ac5
@069b 0x3a144f7b
@069c 0xb7d9663b
@069d 0x39afd5fb
@069e 0xb9bc304a
@069f 0x3a5f1812
@06a0 0x3936175b
@06a1 0x39add5e9
@06a2 0xbac0c7e0
@06a3 0xba5635db
@06a4 0xbaf116fc
@06a5 0xbaa644cf
@06a6 0xbb1008f4
@06a7 0xbb33ddcb
@06a8 0xbb089427
@06a9 0xba905544
@06aa 0xb95d16b3
@06ab 0xb82f409a
@06ac 0xb81d9c94
@06ad 0x00000000
@06ae 0x00000000
@06af 0xb6f359e7
@06b0 0xb73d9b7a
@06b1 0xb8f8bc13
@06b2 0xb9e5c462
@06b3 0xba48d68f
@06b4 0xb8bc2dcf
@06b5 0x39b2a058
@06b6 0xb9c9c236
@06b7 0x39e57a85
@06b8 0x3a61a1a0
@06b9 0x3a406567
@06ba 0x3a147b0b
@06bb 0x3a2b6646
@06bc 0x38fafe10
@06bd 0x3a872da1
@06be 0x3a64c324
@06bf 0x3a3664f4
@06c0 0xb933d6ce
@06c1 0xb95b76ef
@06c2 0xb9bd7652
@06c3 0xbaa838df
@06c4 0xbb11555a
@06c5 0xbafd21db
@06c6 0xba0b3e7e
@06c7 0xb91f9c0c
@06c8 0xb868df80
@06c9 0x00000000
@06ca 0xb1ac435b
@06cb 0xb9025981
@06cc 0xb9c93e27
@06cd 0xba295b12
@06ce 0xba03e9b6
@06cf 0xb977216f
@06d0 0x3a2e1f46
@06d1 0x3a62a5e4
@06d2 0x39c8ef3f
@06d3 0x3989a534
@06d4 0x3a0ab784
@06d5 0x38e7407f
@06d6 0x37bd3f0f
@06d7 0xb99e25df
@06d8 0x3a921f7c
@06d9 0x38c9e234
@06da 0xb8a6ab89
@06db 0x398dba7a
@06dc 0xba80fa2c
@06dd 0xba80e98b
@06de 0x3956e7b0
@06df 0xba320643
@06e0 0xbb1ead49
@06e1 0xbb0af339
@06e2 0xba26a344
@06e3 0xb8b4472f
@06e4 0xb7214820
@06e5 0xb4d8fb44
@06e6 0xb790ebdb
@06e7 0xb84345bb
@06e8 0xb9942e86
@06e9 0xb9af2975
@06ea 0xb8f3ee04
@06eb 0x3a28f3ea
@06ec 0xb9985b17
@06ed 0x3a29e560
@06ee 0xb9f7f66a
@06ef 0xba86c565
@06f0 0x3a049701
@06f1 0xb9687551
@06f2 0x3a8cc1c0
@06f3 0x3a2b3d7e
@06f4 0xba2b5efb
@06f5 0x3a0792d6
@06f6 0xba99372d
@06f7 0xb9c17a5d
@06f8 0xba433f40
@06f9 0xba61075d
@06fa 0x39c97907
@06fb 0x3abf40c9
@06fc 0xbb06e74a
@06fd 0xbb2f3806
@06fe 0xba768b34
@06ff 0xb9523fcc
@0700 0xb7350bd8
@0701 0xb5dc71a9
@0702 0xb890d90a
@0703 0xb9130587
@0704 0xba4bd4eb
@0705 0x3770da2b
@0706 0x3928d2b0
@0707 0xb9c72474
@0708 0xb9a20b81
@0709 0xb9bdacdc
@070a 0x398554d1
@070b 0x3aebe993
@070c 0x3a52b710
@070d 0xba68fb52
@070e 0xb93c49ed
@070f 0xb8710088
@0710 0xb9f85201
@0711 0xba5b73e1
@0712 0xb9827b30
@0713 0xbab00ee4
@0714 0x3aa6106c
@0715 0x39755675
@0716 0xba3e9f3d
@0717 0x398a82cd
@0718 0xba0daca0
@0719 0xbb7333f8
@071a 0xbad90479
@071b 0xb955c025
@071c 0xb70cd25d
@071d 0xb48f1d8f
@071e 0xb8b78f4c
@071f 0xba188c4f
@0720 0xba93fbaf
@0721 0x39e3deaf
@0722 0x3acbb9f3
@0723 0xba2a1336
@0724 0xba077cb8
@0725 0xbabbf5ea
@0726 0x37057d0f
@0727 0xb9e5922c
@0728 0x398356b5
@0729 0x39093fc7
@072a 0xba0ab8a7
@072b 0x3834664f
@072c 0x385b77c6
@072d 0x3782e118
@072e 0xba64f681
@072f 0xb76a4023
@0730 0xba9bf0fc
@0731 0xba745be5
@0732 0xba81b7d2
@0733 0x39302a16
@0734 0xba34b7f5
@0735 0xbb72b969
@0736 0xbaaf8c36
@0737 0xb98ea161
@0738 0xb7b4a935
@0739 0xb1b070d8
@073a 0xb88d1ee0
@073b 0xb9c51c0d
@073c 0xba878707
@073d 0xb97b8b7a
@073e 0x3a2478d7
@073f 0x3aa6b620
@0740 0x38eaa43f
@0741 0x3aab7d2f
@0742 0x3a6f6be9
@0743 0x3951355b
@0744 0x396b3773
@0745 0xba997a5d
@0746 0xb9e3517d
@0747 0xb9c25754
@0748 0xba887798
@0749 0xba9208c3
@074a 0x3a9c19c2
@074b 0x3a2d8e87
@074c 0xba5dd3ec
@074d 0xb9199fd1
@074e 0xb9db82d3
@074f 0xb96f3549
@0750 0xba8e6ce1
@0751 0xbac36c36
@0752 0xba545e91
@0753 0xb986aaa8
@0754 0xb6fb0846
@0755 0xb53070d8
@0756 0xb77f5bc9
@0757 0xb8d3d3e3
@0758 0xbaa9dd2c
@0759 0xba8627c8
@075a 0x3a4e5b3d
@075b 0x377c0dce
@075c 0xbab3f326
@075d 0xbb221b4a
@075e 0xbb59f6c9
@075f 0xbb7a3108
@0760 0xbb153812
@0761 0xbb4424aa
@0762 0xbb4f132c
@0763 0xbb395a15
@0764 0xbad3924c
@0765 0xb68727e3
@0766 0xba4841cb
@0767 0xba587132
@0768 0x398da3fc
@0769 0xb9f6dce9
@076a 0xb9a29f4e
@076b 0xb9b12191
@076c 0xbacb098d
@076d 0xb93ec2a0
@076e 0x3a5212de
@076f 0xb8e6a993
@0770 0xb833df53
@0771 0x00000000
@0772 0xb7235319
@0773 0xb81684f3
@0774 0xbab916c9
@0775 0xbae41c36
@0776 0xbafaf965
@0777 0xbb956a47
@0778 0xbbc14f5a
@0779 0xbb88e803
@077a 0xbb6ede5f
@077b 0xbb3d64ba
@077c 0xbb620dbd
@077d 0xbb45756b
@077e 0xbb06b1b6
@077f 0xbb69081f
@0780 0xbb1411ee
@0781 0xba10ba13
@0782 0xbad9e599
@0783 0xba1c7d41
@0784 0x3aca38c3
@0785 0xb9fb3734
@0786 0x3a1da3c0
@0787 0xbad67713
@0788 0xbb698667
@0789 0xb8239e02
@078a 0x3b1ac3b9
@078b 0x3a2b6472
@078c 0x38011484
@078d 0xb53fd0ca
@078e 0xb719594e
@078f 0xb7c655a8
@0790 0xba98af0d
@0791 0xbb373b90
@0792 0xbb9a877b
@0793 0xbbb629c1
@0794 0xbb829043
@0795 0xbb0a24c8
@0796 0xba8ffe73
@0797 0x39110dcc
@0798 0xba4f2673
@0799 0x399a2fc8
@079a 0xba2eae0b
@079b 0xbadd997e
@079c 0xbab1309e
@079d 0xb9cc9a6a
@079e 0xba23652d
@079f 0xb9aad27b
@07a0 0xba9c0a18
@07a1 0x35a5a178
@07a2 0xb9ca1bf8
@07a3 0xbafafc5e
@07a4 0xbaf7df45
@07a5 0x3a1c76aa
@07a6 0x3b2ddc97
@07a7 0x3a8b9b1c
@07a8 0x39a92951
@07a9 0xb41896db
@07aa 0xb8fe81a4
@07ab 0xb8b6fd25
@07ac 0xba991d3e
@07ad 0xbb0faf63
@07ae 0xbb92a315
@07af 0xbac182bc
@07b0 0x3a3259d7
@07b1 0xba0c7b29
@07b2 0xba443970
@07b3 0xbaa635b8
@07b4 0xb9c75da5
@07b5 0x3a28484b
@07b6 0xb9de9e70
@07b7 0xba1b0d12
@07b8 0xbac7bf5b
@07b9 0x3a51682c
@07ba 0xba0757aa
@07bb 0xb91222b9
@07bc 0xba779625
@07bd 0xba10c24e
@07be 0xba989b9e
@07bf 0xbadc87a1
@07c0 0xbaf34108
@07c1 0x399584dd
@07c2 0x3b017d9f
@07c3 0x3aa9eb67
@07c4 0x3838677c
@07c5 0xb359340f
@07c6 0xb96c95d4
@07c7 0xb993c847
@07c8 0xb9e9b256
@07c9 0xba1a84da
@07ca 0x3a62e03b
@07cb 0x3ae0f3e9
@07cc 0xba2458b4
@07cd 0xb9ad6011
@07ce 0x39ef4ee0
@07cf 0x3951a8d4
@07d0 0x39e88f27
@07d1 0x3964c4f3
@07d2 0xb94d3acc
@07d3 0xba261ac7
@07d4 0xb9b18d5c
@07d5 0x38cdb979
@07d6 0xba9d4429
@07d7 0xba8d60a5
@07d8 0x38501e5b
@07d9 0xbaee25ce
@07da 0xba8962b8
@07db 0xba7f993a
@07dc 0xbad03f67
@07dd 0x3a38b2d0
@07de 0x3b1ebdba
@07df 0x3b08f1ae
@07e0 0x3937c975
@07e1 0xb2c64eb5
@07e2 0xb8f6066f
@07e3 0xb9f76273
@07e4 0xb90a72c3
@07e5 0x3a3a9fe0
@07e6 0x3a931106
@07e7 0x3aba1492
@07e8 0xb7cb11f6
@07e9 0xba61a6d8
@07ea 0x3a0ef12b
@07eb 0x3a18037a
@07ec 0x3a14d61c
@07ed 0x3a84b0e2
@07ee 0x3aac7ca3
@07ef 0xbaa048ba
@07f0 0x39b86811
@07f1 0x3a2bdc19
@07f2 0x3a568770
@07f3 0xb8d86979
@07f4 0x38d1759a
@07f5 0xb9937db4
@07f6 0x3ae75e4a
@07f7 0x39c8ae7c
@07f8 0x39ca1aec
@07f9 0x3a1dd582
@07fa 0x3b6fe103
@07fb 0x3b0d61b1
@07fc 0x385fe99c
@07fd 0x00000000
@07fe 0xb840218b
@07ff 0xb9d7fb74
@0800 0xb9e0147e
@0801 0x3ae31daf
@0802 0x3a880b46
@0803 0x3a797e15
@0804 0x3a35d166
@0805 0x3a66635f
@0806 0x3a0f9a4c
@0807 0x38f2d2ae
@0808 0x398c80ab
@0809 0x3ad07352
@080a 0x39cda715
@080b 0xb9a47939
@080c 0x3ad0f954
@080d 0x39866c37
@080e 0xb8a3a77b
@080f 0x3991db0b
@0810 0xba8b715d
@0811 0x38914949
@0812 0x39f4c9e0
@0813 0x39151b28
@0814 0x3a1e1521
@0815 0x3ae7a085
@0816 0x3b705472
@0817 0x3a98747c
@0818 0x38cd5f6b
@0819 0xb2eee357
@081a 0xb5fb1a5f
@081b 0xba727b5b
@081c 0xbab33f1c
@081d 0x3a9c121b
@081e 0x3ad9688b
@081f 0x3a8e8643
@0820 0x3b0804f2
@0821 0x39decf6e
@0822 0x39bb4078
@0823 0x3acab8ee
@0824 0xb96c479c
@0825 0x3aa66a78
@0826 0x39b93e20
@0827 0x3aadbdda
@0828 0xb9dd785d
@0829 0x39d896f5
@082a 0x39d749fe
@082b 0x3a304783
@082c 0xb9345c01
@082d 0xba7091de
@082e 0xb972f061
@082f 0x3a9a1b1e
@0830 0x3aafe3f9
@0831 0x3b3da5cc
@0832 0x3b305f3b
@0833 0x39d31a4c
@0834 0x38ab651f
@0835 0x00000000
@0836 0xb6aee523
@0837 0xba4b8abf
@0838 0xbafd5979
@0839 0x3a1bf9bf
@083a 0xb974b2fb
@083b 0x3a155ca9
@083c 0x3ab72b6a
@083d 0x3a5840bc
@083e 0x3ae1768e
@083f 0x39aebf91
@0840 0x3a164d05
@0841 0x3a54d935
@0842 0x3a4e031a
@0843 0x3a4fc216
@0844 0x3a960583
@0845 0x39739047
@0846 0x35abec68
@0847 0x39bfbeca
@0848 0xba24b385
@0849 0x3a928fec
@084a 0x3a7e7ec0
@084b 0x3ab04f8f
@084c 0x3a544d40
@084d 0x3ae71dcf
@084e 0x3aca178e
@084f 0x39c70a33
@0850 0x37332816
@0851 0x00000000
@0852 0xb738886d
@0853 0xb9298a09
@0854 0xba5c7cbc
@0855 0x3aa52e4e
@0856 0x3a03fabb
@0857 0x3afa8646
@0858 0x3b12f51f
@0859 0x3aa7ac59
@085a 0x3a8d0f8c
@085b 0x3a1952eb
@085c 0x3afefb16
@085d 0x39824848
@085e 0xba6a54f1
@085f 0xba4f9c46
@0860 0xb949b6a7
@0861 0x3a73ff05
@0862 0xba847bd7
@0863 0x39073ec7
@0864 0x3aae11a4
@0865 0x3a4af2c1
@0866 0x39d91003
@0867 0x39b11fbb
@0868 0x3abc69a6
@0869 0x3afbe6ca
@086a 0x3a5507c6
@086b 0x38f1a625
@086c 0xb2eb985e
@086d 0xb50d7258
@086e 0xb705c15e
@086f 0x3799270a
@0870 0xb94cf72d
@0871 0x3a014608
@0872 0xb970b524
@0873 0x3a21bbc2
@0874 0x3a38a3f6
@0875 0xbaa7e41b
@0876 0x3a915aea
@0877 0x3964434d
@0878 0xb8f2745b
@0879 0xb96e275f
@087a 0xb9c6a87d
@087b 0xba2062bc
@087c 0xbac704bc
@087d 0x3a28c727
@087e 0x3aadc840
@087f 0xb99000c5
@0880 0x3afca2b0
@0881 0x3939e0bf
@0882 0x39e46b6a
@0883 0x3ad4fa01
@0884 0x3b4d046d
@0885 0x3ad6dd4f
@0886 0x3a7f5831
@0887 0x382b9426
@0888 0xb3b20d8b
@0889 0xb50906c6
@088a 0xb4e68d11
@088b 0xb8fb455c
@088c 0x38dade35
@088d 0x3a95dc57
@088e 0xb9e9ae60
@088f 0x3a08a2ad
@0890 0x3ab413ab
@0891 0x3a624134
@0892 0x3acb11ea
@0893 0xb83bbb3c
@0894 0x3a75d448
@0895 0x39f359d2
@0896 0x3a00095d
@0897 0xb9dbc560
@0898 0xbada4964
@0899 0xba3adb65
@089a 0x3896d62c
@089b 0x3ab01db9
@089c 0x3999ff85
@089d 0x3aabfd66
@089e 0x3a491847
@089f 0x3b022438
@08a0 0x3a8d3588
@08a1 0x3a5acc48
@08a2 0x3a45dabc
@08a3 0xb8164cde
@08a4 0xb4245b45
@08a5 0x00000000
@08a6 0x00000000
@08a7 0xb82844cd
@08a8 0xb9942814
@08a9 0x39732aca
@08aa 0xb9ab3a21
@08ab 0x393cd267
@08ac 0xba78d999
@08ad 0xbab5d2de
@08ae 0xba82194a
@08af 0xba42fcf5
@08b0 0xba9fff55
@08b1 0xb9f4943b
@08b2 0xbad2a3e3
@08b3 0xba7584cc
@08b4 0xba91f889
@08b5 0xba84b843
@08b6 0xba30b99d
@08b7 0x3a098573
@08b8 0x3a21b74b
@08b9 0x3a562356
@08ba 0x3acc659b
@08bb 0x3adb0c03
@08bc 0x3a98c8d6
@08bd 0x3a0ef73f
@08be 0x3a3bd696
@08bf 0x36cd6df7
@08c0 0x00000000
@08c1 0x00000000
@08c2 0x00000000
@08c3 0xb800be00
@08c4 0xb9f749a3
@08c5 0xba7dd2b6
@08c6 0xbae35c0f
@08c7 0xbaef9260
@08c8 0xbabebbba
@08c9 0xbab2125f
@08ca 0xbae43bfb
@08cb 0xbaace9c6
@08cc 0xb9f9dc85
@08cd 0xba230354
@08ce 0xb8c8fa6b
@08cf 0x39618b62
@08d0 0xb9db4abe
@08d1 0xbaa6a82b
@08d2 0xb9e01669
@08d3 0xb78ab55e
@08d4 0xb9d99a02
@08d5 0xb888124d
@08d6 0xb66f9ce0
@08d7 0x397f0629
@08d8 0x39dfa889
@08d9 0x3a665456
@08da 0x3a0c5543
@08db 0x380365af
@08dc 0x00000000
@08dd 0x00000000
@08de 0x00000000
@08df 0xb227a765
@08e0 0xb985a22d
@08e1 0xba43df46
@08e2 0xba9685f5
@08e3 0xbabec6ac
@08e4 0xbb22a0dc
@08e5 0xbb51227f
@08e6 0xbb6423c4
@08e7 0xbb704d61
@08e8 0xbb6c7bcd
@08e9 0xbb622bf0
@08ea 0xbb3efd71
@08eb 0xbaff3838
@08ec 0xbaa83a48
@08ed 0xbac3ab5c
@08ee 0xbabd8ee5
@08ef 0xbae7396e
@08f0 0xbafb6a99
@08f1 0xbabcf90a
@08f2 0xbabff6db
@08f3 0xba80ff73
@08f4 0xb999dd0e
@08f5 0xb9123225
@08f6 0x37e9feb1
@08f7 0x380bdbe8
@08f8 0x00000000
@08f9 0x00000000
@08fa 0x00000000
@08fb 0x00000000
@08fc 0xb40d827d
@08fd 0xb7d1ce5c
@08fe 0xb8d2c354
@08ff 0xb9870b47
@0900 0xb9eede02
@0901 0xba24292e
@0902 0xba3808c7
@0903 0xba8788e1
@0904 0xbac5018b
@0905 0xbac1386b
@0906 0xbad2b808
@0907 0xbaca6b36
@0908 0xbab8ddd5
@0909 0xbac29093
@090a 0xba9fd9c7
@090b 0xba6d026a
@090c 0xb9ed68dc
@090d 0xb9d4a743
@090e 0xb9e19a42
@090f 0xb9186aa6
@0910 0xb6517818
@0911 0xb280ebfb
@0912 0x00000000
@0913 0x00000000
@0914 0x00000000
@0915 0x00000000
@0916 0x00000000
@0917 0x00000000
@0918 0x00000000
@0919 0xb3ea3a6c
@091a 0xb4ecab65
@091b 0xb6b9c23e
@091c 0xb7a4e4fd
@091d 0xb75f5d6e
@091e 0xb8311c33
@091f 0xb9067411
@0920 0xb8facc98
@0921 0xb929bc4d
@0922 0xb92e4c44
@0923 0xb95c9ef6
@0924 0xb95bf138
@0925 0xb9366d84
@0926 0xb90e0b23
@0927 0xb8536e05
@0928 0xb7a638fb
@0929 0xb854dc06
@092a 0xb7cab771
@092b 0xb91298d5
@092c 0xb5b06b2b
@092d 0x00000000
@092e 0x00000000
@092f 0x00000000
@0930 0xb9baea56
@0931 0x00000000
@0932 0x00000000
@0933 0x00000000
@0934 0x00000000
@0935 0x00000000
@0936 0x00000000
@0937 0x00000000
@0938 0x00000000
@0939 0x00000000
@093a 0x00000000
@093b 0x00000000
@093c 0x00000000
@093d 0xb4a23778
@093e 0xb56e5714
@093f 0xb4872f97
@0940 0xb2343f74
@0941 0x00000000
@0942 0x00000000
@0943 0x00000000
@0944 0x00000000
@0945 0x00000000
@0946 0x00000000
@0947 0x00000000
@0948 0x00000000
@0949 0x00000000
@094a 0x00000000
@094b 0x00000000
@094c 0x00000000
@094d 0x00000000
@094e 0x00000000
@094f 0x00000000
@0950 0x00000000
@0951 0x00000000
@0952 0xb170f246
@0953 0xb4a36548
@0954 0xb5466c6e
@0955 0xb61dae50
@0956 0xb6632534
@0957 0xb6bf35e3
@0958 0xb6e55889
@0959 0xb6b47084
@095a 0xb696ff21
@095b 0xb88b5507
@095c 0xb8b21d05
@095d 0xb82da754
@095e 0xb7073ff2
@095f 0xb609a4ec
@0960 0xb6c7fcec
@0961 0xb6f2dd95
@0962 0xb5be0857
@0963 0xb4a62b7c
@0964 0xb3b91cc1
@0965 0x00000000
@0966 0x00000000
@0967 0x00000000
@0968 0x00000000
@0969 0x00000000
@096a 0x00000000
@096b 0xb2e8fe40
@096c 0xb25379b5
@096d 0xb3fdef50
@096e 0xb36c14c0
@096f 0xb65c7075
@0970 0xb817abba
@0971 0xb8f57987
@0972 0xb98d1313
@0973 0xb9a03b98
@0974 0xb858be8a
@0975 0xb667f2c3
@0976 0xb8c8119b
@0977 0xb8de65a5
@0978 0xba59f288
@0979 0xba3c5800
@097a 0xba05095b
@097b 0xb9eac53c
@097c 0xba02a4b2
@097d 0xb9a4cfcc
@097e 0xb91e0eae
@097f 0xb89c629f
@0980 0xb81528a8
@0981 0xb56bed81
@0982 0xb423caac
@0983 0x00000000
@0984 0x00000000
@0985 0x00000000
@0986 0x00000000
@0987 0xb5b1ef15
@0988 0xb3c9879b
@0989 0xb800bcfa
@098a 0x39e9f4f2
@098b 0x3888d28c
@098c 0xb99f78d9
@098d 0xba45d610
@098e 0xba735768
@098f 0xbababe60
@0990 0xba669047
@0991 0xb8e31825
@0992 0xba02bf67
@0993 0xb8c67e3b
@0994 0x39904df4
@0995 0x39bee093
@0996 0x3a26cc84
@0997 0x3a0597b7
@0998 0xb9430da5
@0999 0x3a92366e
@099a 0xb8674942
@099b 0xba009d00
@099c 0xb8a3f014
@099d 0xb71c0b9d
@099e 0xb58b4f3c
@099f 0xb4174f5c
@09a0 0x00000000
@09a1 0x00000000
@09a2 0x34b5e43e
@09a3 0xb6a4787a
@09a4 0x3780d5ea
@09a5 0x39523a19
@09a6 0x3a722f5c
@09a7 0x3a31fe9e
@09a8 0x3a77c0b5
@09a9 0x3aee5dc4
@09aa 0x3a981cf3
@09ab 0x3a71d029
@09ac 0x3a28cb0b
@09ad 0x3959047f
@09ae 0x3992ab3e
@09af 0x39ee4b50
@09b0 0x39aa0fe1
@09b1 0x391d80c1
@09b2 0xba588337
@09b3 0x3a48e713
@09b4 0x3926912e
@09b5 0xba952949
@09b6 0xba86f773
@09b7 0xbab1dd56
@09b8 0xbaceee44
@09b9 0xb99aa27a
@09ba 0xb7f53540
@09bb 0xb5cd29ae
@09bc 0xb48c4f40
@09bd 0x00000000
@09be 0x00000000
@09bf 0x35b2773e
@09c0 0x398c7f58
@09c1 0x3a4f9d1d
@09c2 0x3ac379ac
@09c3 0x3abae687
@09c4 0x3a68314e
@09c5 0xb9db929a
@09c6 0xba2d8764
@09c7 0x3a4f66e8
@09c8 0xb9515b95
@09c9 0xb8e7f203
@09ca 0x393f151d
@09cb 0xba455295
@09cc 0xba52fb2c
@09cd 0x3a745c73
@09ce 0xbaf9c19a
@09cf 0xb9d844e2
@09d0 0xb9708675
@09d1 0xba99c4a5
@09d2 0xbb124a75
@09d3 0xbb3f898c
@09d4 0xbb1de302
@09d5 0xba7e079b
@09d6 0xb982ed51
@09d7 0xb7b26203
@09d8 0xb561e2f9
@09d9 0x00000000
@09da 0x3271c32e
@09db 0xb6425460
@09dc 0x3a8f9afb
@09dd 0x3acbb2f1
@09de 0x3a05ac11
@09df 0x3a478802
@09e0 0xba48f012
@09e1 0x3a9f7ab2
@09e2 0x3a56324c
@09e3 0x3ab906ea
@09e4 0x3a6ea20d
@09e5 0xb99ad0ce
@09e6 0x3ab76a3c
@09e7 0x39505f9c
@09e8 0x3980338a
@09e9 0x3a8368f8
@09ea 0xb911ffc9
@09eb 0x3a64a6d8
@09ec 0xbab2a9f1
@09ed 0x397f540d
@09ee 0xb8b6d860
@09ef 0xba8beb99
@09f0 0xbb09956b
@09f1 0xbb07f39e
@09f2 0xba24d5bc
@09f3 0xb86a4f9b
@09f4 0xb5f47339
@09f5 0xb5546954
@09f6 0x3832e103
@09f7 0xba05199e
@09f8 0x39f9ff72
@09f9 0x3ab59551
@09fa 0x3a100664
@09fb 0x39fb5d9d
@09fc 0xb9395fe5
@09fd 0x3a19db2a
@09fe 0x39374952
@09ff 0xba5643a3
@0a00 0xb9e93860
@0a01 0x3a61a476
@0a02 0x38eb231b
@0a03 0x38eed28f
@0a04 0x3a7c3430
@0a05 0xbaab6dd2
@0a06 0xb7021b63
@0a07 0xb9ce0240
@0a08 0x3745f0db
@0a09 0xb9026aa6
@0a0a 0xba99efcd
@0a0b 0xbaa3132f
@0a0c 0xbb58e889
@0a0d 0xbb6c7ad1
@0a0e 0xba8b5a4e
@0a0f 0xb8bc6cd1
@0a10 0xb5aa5013
@0a11 0xb657cd0d
@0a12 0xb9757577
@0a13 0xbaa2b7f7
@0a14 0xba0db658
@0a15 0x3a512b96
@0a16 0x3a5722bd
@0a17 0x3943a18f
@0a18 0xb94ded64
@0a19 0xba2989f3
@0a1a 0xbacb4ef7
@0a1b 0x3a3afa3e
@0a1c 0xba29bea8
@0a1d 0x3a8d8272
@0a1e 0xb9d52667
@0a1f 0xba425543
@0a20 0x3a15a952
@0a21 0x3a200215
@0a22 0x3a90dd25
@0a23 0x3a431387
@0a24 0x3abd1377
@0a25 0x3a1a7372
@0a26 0x3a9b7c48
@0a27 0x38ea3f8d
@0a28 0xbba5b7b3
@0a29 0xbbafbe25
@0a2a 0xbaee079f
@0a2b 0xb9391d56
@0a2c 0xb568ef55
@0a2d 0xb50c19e5
@0a2e 0xb99f8eee
@0a2f 0xba9c98d1
@0a30 0xb98a84cb
@0a31 0x3ac1f4b9
@0a32 0xb9ab7422
@0a33 0xb997e7ad
@0a34 0x39e2bb76
@0a35 0xb8a34603
@0a36 0x39370778
@0a37 0xb9201215
@0a38 0xbb2639d6
@0a39 0xba81aea0
@0a3a 0xba8fd94d
@0a3b 0x39587490
@0a3c 0x3a107d03
@0a3d 0x39aa3d56
@0a3e 0x3a59d86e
@0a3f 0xb96b8a55
@0a40 0x3a5555af
@0a41 0x3aadcebe
@0a42 0x3aad4276
@0a43 0x3acf5c05
@0a44 0xbb6e75fb
@0a45 0xbba5dfbb
@0a46 0xbab82565
@0a47 0xb909973a
@0a48 0xb6eaae40
@0a49 0xb30e2573
@0a4a 0xb99697e7
@0a4b 0xba56acda
@0a4c 0x396e79d7
@0a4d 0x3a812f43
@0a4e 0x39de926e
@0a4f 0x370f306b
@0a50 0x3a408253
@0a51 0xba383f62
@0a52 0xbae619c3
@0a53 0xbb4b7190
@0a54 0xbb532b1f
@0a55 0xbb0b26bc
@0a56 0x3abe9db9
@0a57 0x3a27cba8
@0a58 0x39c4d5c4
@0a59 0x3b052bc0
@0a5a 0x39803353
@0a5b 0x3a1ba32e
@0a5c 0xb9a0e71e
@0a5d 0x3a090c9c
@0a5e 0x3ab9405f
@0a5f 0x3abc1878
@0a60 0xbaffa1b3
@0a61 0xbb1b4da6
@0a62 0xba3f6546
@0a63 0xb8e7229c
@0a64 0xb620e35e
@0a65 0xb68e2573
@0a66 0xb9230e12
@0a67 0xba1443a3
@0a68 0xb8e22fbf
@0a69 0xb97b81ae
@0a6a 0xb9f974be
@0a6b 0xbacb2cc5
@0a6c 0xbb133d29
@0a6d 0xbb6e953d
@0a6e 0xbb399044
@0a6f 0xbaa4efd3
@0a70 0xba674d95
@0a71 0x384498b8
@0a72 0x395fb315
@0a73 0x3a6e00be
@0a74 0x3a999080
@0a75 0xb74b8fb7
@0a76 0x3a44a836
@0a77 0x3aef7b29
@0a78 0x39b0d1b0
@0a79 0x3b005651
@0a7a 0xba1be82d
@0a7b 0xbb008501
@0a7c 0xbaf5265a
@0a7d 0xba8c9fba
@0a7e 0xb9795159
@0a7f 0xb835a7b9
@0a80 0xb4848399
@0a81 0x00000000
@0a82 0xb933dc8f
@0a83 0xba07cd00
@0a84 0xba78883a
@0a85 0xba81e387
@0a86 0xbacdfe03
@0a87 0xbad6cfff
@0a88 0xbae99588
@0a89 0xbb0184f7
@0a8a 0x396d74be
@0a8b 0xb8beca12
@0a8c 0xbb0a7c01
@0a8d 0x3aced0cc
@0a8e 0x38f5828b
@0a8f 0x3a373248
@0a90 0x3ae2276e
@0a91 0x3ab5ca0f
@0a92 0xb98893c1
@0a93 0x3980eea9
@0a94 0xba2d26cd
@0a95 0x3a194f68
@0a96 0xbb6490fc
@0a97 0xbb9c5702
@0a98 0xbb3b9104
@0a99 0xba286b79
@0a9a 0xb653f231
@0a9b 0xb61af383
@0a9c 0xb469f824
@0a9d 0xb5fe671d
@0a9e 0xb92c4e17
@0a9f 0xb9d38687
@0aa0 0xb9cfd818
@0aa1 0xbac3f465
@0aa2 0xbae3395a
@0aa3 0xba5fb9ea
@0aa4 0xbaa834ab
@0aa5 0xba842ca1
@0aa6 0xba06f2bd
@0aa7 0xba600a6a
@0aa8 0xb8c14956
@0aa9 0x3abcde9f
@0aaa 0x3a665b50
@0aab 0xb912bdf5
@0aac 0xbabdabdd
@0aad 0x3b073b4b
@0aae 0xba3360c3
@0aaf 0x3a0cc9c6
@0ab0 0xba70e0bd
@0ab1 0xbb339981
@0ab2 0xbb6ba232
@0ab3 0xbb9b499f
@0ab4 0xbb17853d
@0ab5 0xb9e68984
@0ab6 0xb8a09be8
@0ab7 0xb76ce64c
@0ab8 0xb445652c
@0ab9 0xb847e167
@0aba 0x37bdf49d
@0abb 0xb933a2ab
@0abc 0x38b5218a
@0abd 0xba6ae2d0
@0abe 0xbaabe25c
@0abf 0xbb04d1cf
@0ac0 0xbaea6d54
@0ac1 0x398fe1e6
@0ac2 0xb93ad0c8
@0ac3 0xbaf68a3d
@0ac4 0xba7a297d
@0ac5 0x3b110cba
@0ac6 0xb9d90e5d
@0ac7 0xba4ddcb1
@0ac8 0x39c8e763
@0ac9 0x3a20cdf2
@0aca 0xb9d86a05
@0acb 0x3a20462e
@0acc 0xbb29dc07
@0acd 0xbb00b3b2
@0ace 0x3a244c89
@0acf 0xbaf9e2e1
@0ad0 0xbab4e2db
@0ad1 0xb9912e7d
@0ad2 0xb95b09d1
@0ad3 0xb83677c1
@0ad4 0xb59be8fd
@0ad5 0xb783549b
@0ad6 0x395ad326
@0ad7 0x381d40f2
@0ad8 0x377e6c12
@0ad9 0xb8eb7b1b
@0ada 0xba9598b7
@0adb 0xbab369e6
@0adc 0xbad64ba2
@0add 0xbb18a3f6
@0ade 0xba378474
@0adf 0xba8d2023
@0ae0 0xb92f74c6
@0ae1 0x3aa8b921
@0ae2 0xb9fb182d
@0ae3 0xbaaddb10
@0ae4 0x3aac8dc3
@0ae5 0x3a0773b3
@0ae6 0xbb0f8e55
@0ae7 0xbab3fa9f
@0ae8 0xba108c13
@0ae9 0x3aedeeaa
@0aea 0x3b000968
@0aeb 0x3aefc544
@0aec 0x39c0e6df
@0aed 0x394c4de4
@0aee 0xb9e31784
@0aef 0xb8fe2a53
@0af0 0xb7d6293e
@0af1 0xb49f3345
@0af2 0x39018168
@0af3 0x39dbf70e
@0af4 0x3a8ff306
@0af5 0x3a9194bf
@0af6 0xb924334a
@0af7 0xb9ca745d
@0af8 0xba7f1afa
@0af9 0xbb23d29a
@0afa 0x38b2db20
@0afb 0xb93dceff
@0afc 0xb9a7501f
@0afd 0x3a6885d9
@0afe 0x3a416898
@0aff 0xbb12711b
@0b00 0xba773a77
@0b01 0xbb0b4848
@0b02 0xb9ef1a80
@0b03 0x3adbdd75
@0b04 0x3a4671ce
@0b05 0x3a92380e
@0b06 0x3aab57a1
@0b07 0x3aca18b9
@0b08 0x39debdc6
@0b09 0x39829b4f
@0b0a 0xba8b55aa
@0b0b 0xb9bc67c9
@0b0c 0xb7c74dd6
@0b0d 0x00000000
@0b0e 0x383abbee
@0b0f 0x39fdd1cf
@0b10 0x3b173a72
@0b11 0x3a71716c
@0b12 0xba2004bc
@0b13 0xb98cd856
@0b14 0x3a34cecd
@0b15 0xbad6aa6c
@0b16 0xbb70c267
@0b17 0xbba90f7a
@0b18 0xbb89f8c4
@0b19 0xba8ea062
@0b1a 0xbae81db4
@0b1b 0xbb269e7d
@0b1c 0xbb199cc4
@0b1d 0xba76fdf0
@0b1e 0x3a922015
@0b1f 0x395bee58
@0b20 0x3ad48711
@0b21 0xba534fa4
@0b22 0xb986626b
@0b23 0x3b0112f6
@0b24 0x39c8c42a
@0b25 0xbaf8c675
@0b26 0xbae6f5f2
@0b27 0xb9b86d58
@0b28 0xb762798e
@0b29 0xb641e976
@0b2a 0x365c1751
@0b2b 0x39c9dd26
@0b2c 0x3b3489b0
@0b2d 0x39de0f58
@0b2e 0x391cf3d0
@0b2f 0x39f25076
@0b30 0xb9321104
@0b31 0x3a89cda8
@0b32 0xba6d35af
@0b33 0xbb3ddfea
@0b34 0xbb7fa698
@0b35 0xbb895821
@0b36 0xbb804a72
@0b37 0xbb23c5e4
@0b38 0x3abc31c8
@0b39 0x3ae526a5
@0b3a 0x3a5b3e79
@0b3b 0x3a103fe7
@0b3c 0x3ae40648
@0b3d 0x3853dfb2
@0b3e 0x3af4e6d9
@0b3f 0x3b2c36af
@0b40 0xba2550f5
@0b41 0xbb60092f
@0b42 0xbaf0287e
@0b43 0xb9b1ca41
@0b44 0xb7334a59
@0b45 0x00000000
@0b46 0xb433314e
@0b47 0xb952cf65
@0b48 0x3b280f19
@0b49 0x3accf949
@0b4a 0x3af09ee3
@0b4b 0xba274ac9
@0b4c 0xba2bd148
@0b4d 0xb9c27da0
@0b4e 0xba43f230
@0b4f 0x39b7a27e
@0b50 0xbb045a49
@0b51 0xbaaf48d8
@0b52 0xbad1b35f
@0b53 0xbade29fa
@0b54 0xbaa8a7b6
@0b55 0x3a17e7b0
@0b56 0x3ad9d9d8
@0b57 0x3a484207
@0b58 0x39beacbb
@0b59 0x3a404e1b
@0b5a 0x3a06e607
@0b5b 0xb981e88a
@0b5c 0xba933b90
@0b5d 0xbb502d60
@0b5e 0xbab8a555
@0b5f 0xb95613d1
@0b60 0xb6a7ac63
@0b61 0x00000000
@0b62 0x36237a74
@0b63 0xb7d26db2
@0b64 0x3b075bf8
@0b65 0x3ae5d24d
@0b66 0x3ab8eecb
@0b67 0x3a90934a
@0b68 0x3a1a02c7
@0b69 0x39b72562
@0b6a 0x3a89314a
@0b6b 0xb8cd7667
@0b6c 0xb9734bab
@0b6d 0xba0a3c0a
@0b6e 0xba7e81dc
@0b6f 0xb98487b0
@0b70 0xba9f26ec
@0b71 0xb85e6451
@0b72 0xba19a727
@0b73 0x3a7446b3
@0b74 0xba1203eb
@0b75 0x3a205b95
@0b76 0x38eeb970
@0b77 0xba847c38
@0b78 0xbaa51044
@0b79 0xbb439a33
@0b7a 0xba40f60a
@0b7b 0xb9216a85
@0b7c 0xb417877b
@0b7d 0xb51c94eb
@0b7e 0x3660583f
@0b7f 0x38cd257a
@0b80 0x3a51fe74
@0b81 0x3ac19be5
@0b82 0x3a347155
@0b83 0x3a014fbd
@0b84 0x397123e4
@0b85 0x39a1d04a
@0b86 0xbab05133
@0b87 0xb97ce5fd
@0b88 0xba23d0b7
@0b89 0xba4e5d7b
@0b8a 0x39f1c0f1
@0b8b 0xba7f4576
@0b8c 0xba2b7339
@0b8d 0x3a278e8f
@0b8e 0xba78b420
@0b8f 0x3a3d3982
@0b90 0x3abed859
@0b91 0xb9157ae3
@0b92 0xb92e2870
@0b93 0xb9d0048e
@0b94 0xbb0683fb
@0b95 0xbb28c335
@0b96 0xb9e89595
@0b97 0xb8de6c0d
@0b98 0xb30bae7f
@0b99 0xb517b043
@0b9a 0x3300d818
@0b9b 0x3925eb48
@0b9c 0x3a3e4f34
@0b9d 0x3a85529d
@0b9e 0x38ea089e
@0b9f 0x3a3e8832
@0ba0 0x3a3be5bf
@0ba1 0xba9f0034
@0ba2 0x3a294efb
@0ba3 0xb92002cd
@0ba4 0x39340a30
@0ba5 0xba0af609
@0ba6 0xb9b398e3
@0ba7 0xb9f66e5c
@0ba8 0x39ba388c
@0ba9 0x381bf919
@0baa 0x397b88b8
@0bab 0xba04b0dd
@0bac 0x3a25731f
@0bad 0x39ef69fb
@0bae 0x3950c86c
@0baf 0xba3b562a
@0bb0 0xbad5589d
@0bb1 0xba8cf498
@0bb2 0xb9826417
@0bb3 0xb62bf031
@0bb4 0xb380efd8
@0bb5 0x00000000
@0bb6 0x00000000
@0bb7 0x39511900
@0bb8 0x3a7c9ed4
@0bb9 0x3ae257df
@0bba 0x3b212fe5
@0bbb 0x3b108771
@0bbc 0xb89f43b4
@0bbd 0xb9c1a594
@0bbe 0x3a70860d
@0bbf 0x38af757b
@0bc0 0x3a305afa
@0bc1 0xba8af24e
@0bc2 0x386a4ba8
@0bc3 0xba3d2c44
@0bc4 0xba7716ae
@0bc5 0xbaea0581
@0bc6 0xb899e877
@0bc7 0x3a5a8965
@0bc8 0x39225ae0
@0bc9 0xba2f5c0a
@0bca 0xba32ae30
@0bcb 0xbab7ce76
@0bcc 0xba95eeae
@0bcd 0x388c7260
@0bce 0xb75db3d1
@0bcf 0x3747f5fd
@0bd0 0x00000000
@0bd1 0x00000000
@0bd2 0x00000000
@0bd3 0xb8ad563c
@0bd4 0x3a5edb92
@0bd5 0x3ad4bb97
@0bd6 0x3a8e920d
@0bd7 0x3b267ee1
@0bd8 0x3a9fbe34
@0bd9 0x3a0ffe99
@0bda 0x3a839bd9
@0bdb 0x3a0f5253
@0bdc 0x3a2084ad
@0bdd 0xba566493
@0bde 0x39f0b2a0
@0bdf 0x39eec34d
@0be0 0xb9debdb3
@0be1 0x39b0c812
@0be2 0xb8376d90
@0be3 0xbb250253
@0be4 0xbb0efa26
@0be5 0xbad2ed1e
@0be6 0xba60b4fc
@0be7 0xba15b3a3
@0be8 0xb9836154
@0be9 0xb9087b9a
@0bea 0xb68e2794
@0beb 0xb48caf8a
@0bec 0x00000000
@0bed 0x00000000
@0bee 0x00000000
@0bef 0x35b05a4c
@0bf0 0xb94e3d7f
@0bf1 0xb919096a
@0bf2 0x39a94500
@0bf3 0x3a402ef9
@0bf4 0x3a7844f3
@0bf5 0x3a26865c
@0bf6 0x3a1c7abe
@0bf7 0xb8bf08f4
@0bf8 0x3a503571
@0bf9 0x3a3abcb8
@0bfa 0x37bb4579
@0bfb 0xba1a801a
@0bfc 0xbae0cb50
@0bfd 0xbb06447f
@0bfe 0xbb2a6483
@0bff 0xbaf4cc32
@0c00 0xb9cc1f34
@0c01 0xba8085ae
@0c02 0xba839435
@0c03 0xb986df37
@0c04 0xb86e85dc
@0c05 0xb5d13624
@0c06 0xb3a84509
@0c07 0xb3c92663
@0c08 0x00000000
@0c09 0x00000000
@0c0a 0x00000000
@0c0b 0x00000000
@0c0c 0xb641c352
@0c0d 0xb8251fbd
@0c0e 0xb8ac83e8
@0c0f 0xb93d2584
@0c10 0xba00b401
@0c11 0xba87e702
@0c12 0xbaec9874
@0c13 0xbb033122
@0c14 0xbb222596
@0c15 0xbb757ea6
@0c16 0xbb87ac34
@0c17 0xbb85d465
@0c18 0xbb7b6e44
@0c19 0xbb25f0a9
@0c1a 0xbad5b1dc
@0c1b 0xba9f6ebe
@0c1c 0xba10dd19
@0c1d 0xb9c831eb
@0c1e 0xb9978c91
@0c1f 0xb825d731
@0c20 0xb6938ec6
@0c21 0xb0b60968
@0c22 0x00000000
@0c23 0x00000000
@0c24 0x00000000
@0c25 0x00000000
@0c26 0x00000000
@0c27 0x00000000
@0c28 0x00000000
@0c29 0xb3e2ac52
@0c2a 0xb5017819
@0c2b 0xb6b69322
@0c2c 0xb7b0a4cf
@0c2d 0xb7c2dde9
@0c2e 0xb8c3448b
@0c2f 0xb92a7b1f
@0c30 0xb93afa7b
@0c31 0xb9ab682c
@0c32 0xb9acc2bd
@0c33 0xb9eacc0a
@0c34 0xb9e2fcc0
@0c35 0xb9e7f7ec
@0c36 0xb9b56b12
@0c37 0xb97c4b42
@0c38 0xb91efdb3
@0c39 0xb8809f78
@0c3a 0xb79773a6
@0c3b 0xb6d61511
@0c3c 0xb55059c6
@0c3d 0x00000000
@0c3e 0x00000000
@0c3f 0x00000000
@0c40 0xb937956b
@0c41 0x00000000
@0c42 0x00000000
@0c43 0x00000000
@0c44 0x00000000
@0c45 0x00000000
@0c46 0x00000000
@0c47 0x00000000
@0c48 0x00000000
@0c49 0x00000000
@0c4a 0x00000000
@0c4b 0x00000000
@0c4c 0x00000000
@0c4d 0xb8968b57
@0c4e 0xb93dc53e
@0c4f 0xb7de1edb
@0c50 0xb5941492
@0c51 0x00000000
@0c52 0x00000000
@0c53 0x00000000
@0c54 0x00000000
@0c55 0x00000000
@0c56 0x00000000
@0c57 0x00000000
@0c58 0x00000000
@0c59 0x00000000
@0c5a 0x00000000
@0c5b 0x00000000
@0c5c 0x00000000
@0c5d 0x00000000
@0c5e 0x00000000
@0c5f 0x00000000
@0c60 0x00000000
@0c61 0x00000000
@0c62 0xb7378178
@0c63 0xba348604
@0c64 0xbab70344
@0c65 0xba8509f1
@0c66 0xb9ce7735
@0c67 0xba436b04
@0c68 0xba475793
@0c69 0xba9d7fd4
@0c6a 0xba801233
@0c6b 0xba6f95a8
@0c6c 0xbaa4fa4d
@0c6d 0xbaa3c210
@0c6e 0xba2005c9
@0c6f 0xba29e86a
@0c70 0xba355775
@0c71 0xb99d1984
@0c72 0xb881abaa
@0c73 0xb9389a9b
@0c74 0xb9794827
@0c75 0x00000000
@0c76 0x00000000
@0c77 0x00000000
@0c78 0x00000000
@0c79 0x00000000
@0c7a 0x00000000
@0c7b 0xb4e63f3f
@0c7c 0xb7ec4572
@0c7d 0xb76ab3af
@0c7e 0xb82a36fe
@0c7f 0xba4f1248
@0c80 0xbb05867e
@0c81 0xbb13c629
@0c82 0xbadfbc25
@0c83 0xbb23fb75
@0c84 0xbb278506
@0c85 0xbb59f41c
@0c86 0xbb5382c4
@0c87 0xbb3d0076
@0c88 0xbb566564
@0c89 0xbb697e5b
@0c8a 0xbb288ce2
@0c8b 0xbb208285
@0c8c 0xbacfc502
@0c8d 0xba670784
@0c8e 0xba24af5a
@0c8f 0xb9d4c0f9
@0c90 0xb9b0e534
@0c91 0xb90f34ff
@0c92 0xb71d59cb
@0c93 0x00000000
@0c94 0x00000000
@0c95 0x00000000
@0c96 0x00000000
@0c97 0xb5803a9e
@0c98 0xb8af2177
@0c99 0xb8077e0e
@0c9a 0xb9414fd0
@0c9b 0xbaac9d98
@0c9c 0xbb1102de
@0c9d 0xbb440b75
@0c9e 0xbb77f590
@0c9f 0xbb9d5e32
@0ca0 0xbb93ccde
@0ca1 0xbb9cf526
@0ca2 0xbbcec7cf
@0ca3 0xbba6fe1e
@0ca4 0xbb96fe6d
@0ca5 0xbb88e07a
@0ca6 0xbb886182
@0ca7 0xbb581381
@0ca8 0xbada1972
@0ca9 0xba53ac89
@0caa 0xb976fefe
@0cab 0xb9ca6fce
@0cac 0xb9ec77d2
@0cad 0xb994adce
@0cae 0xb69bfd75
@0caf 0xb6e22795
@0cb0 0x00000000
@0cb1 0x00000000
@0cb2 0xb33cba2e
@0cb3 0xb3a110c2
@0cb4 0xb66aef46
@0cb5 0xb7d87b4a
@0cb6 0x372fbec5
@0cb7 0xbab8f23b
@0cb8 0xbb1283d7
@0cb9 0xbb635e79
@0cba 0xbb436e64
@0cbb 0xbb647a49
@0cbc 0xbb3da13e
@0cbd 0xbb2cfcbd
@0cbe 0xbac48773
@0cbf 0xbafc7107
@0cc0 0xbb0a68f6
@0cc1 0xbaa4d5dd
@0cc2 0xbabf6c76
@0cc3 0xbafc3c74
@0cc4 0xba44b6c0
@0cc5 0xb94f796b
@0cc6 0x3a00ef9e
@0cc7 0x3ab9a0c5
@0cc8 0x3a8bc567
@0cc9 0x39f22461
@0cca 0xb9ca6226
@0ccb 0xb91095f5
@0ccc 0xb7cca12e
@0ccd 0x00000000
@0cce 0x00000000
@0ccf 0xb78ffb12
@0cd0 0xb688f15d
@0cd1 0x3705328c
@0cd2 0x39edf090
@0cd3 0xb8f0988b
@0cd4 0xbaaebcea
@0cd5 0xbaf0ae44
@0cd6 0xba76f62d
@0cd7 0xba64b915
@0cd8 0xba913dae
@0cd9 0xbac3b447
@0cda 0xbb12491b
@0cdb 0xb8935664
@0cdc 0xb941334f
@0cdd 0xb96d7938
@0cde 0x3a88aa2e
@0cdf 0x39d26a21
@0ce0 0x3a0e6b85
@0ce1 0xb9cbd5ed
@0ce2 0xba3f705e
@0ce3 0x39a15aed
@0ce4 0x3aaeb09c
@0ce5 0xba40bf22
@0ce6 0xba813ae1
@0ce7 0xb9fb2c65
@0ce8 0xb705ebfa
@0ce9 0x00000000
@0cea 0xb0df04a6
@0ceb 0xb80165ae
@0cec 0xb91882a4
@0ced 0x39fba2c9
@0cee 0x3abeda3a
@0cef 0x39e342d6
@0cf0 0x38ea6c8c
@0cf1 0x37d4fb79
@0cf2 0xb9e3084b
@0cf3 0xba8b6ea5
@0cf4 0xbaf6cd50
@0cf5 0xb9ff1f44
@0cf6 0xbb35d161
@0cf7 0xbb21e071
@0cf8 0xbb1fe1f2
@0cf9 0xbb37f146
@0cfa 0xba8aee4b
@0cfb 0xbb12477e
@0cfc 0xb9fe15cb
@0cfd 0x3959df5c
@0cfe 0xb9df4bf6
@0cff 0x3a823527
@0d00 0x3b2d2621
@0d01 0xbafee899
@0d02 0xbacf8271
@0d03 0xb997410c
@0d04 0xb84c0487
@0d05 0xb38e47ef
@0d06 0xb6583f2e
@0d07 0xb82c48a7
@0d08 0xb9248411
@0d09 0x38880b45
@0d0a 0x3ad45e82
@0d0b 0x393be0d7
@0d0c 0x395314a9
@0d0d 0xb9a9d62e
@0d0e 0x3a92fefb
@0d0f 0xba5adcec
@0d10 0xb929f6ad
@0d11 0xbb210fe9
@0d12 0xba2ebf58
@0d13 0xbb210f38
@0d14 0xbb5544ef
@0d15 0xbb1c883c
@0d16 0xbaa3640b
@0d17 0xba69f8ed
@0d18 0xb9f1ea22
@0d19 0xb7e88b9c
@0d1a 0x38f27fa1
@0d1b 0x3a63f18c
@0d1c 0x3ac42023
@0d1d 0xbaebcab5
@0d1e 0xba9fc1bd
@0d1f 0xb97e60e2
@0d20 0xb852e683
@0d21 0xb4908d2b
@0d22 0xb81e14d2
@0d23 0x37bd2abc
@0d24 0xb9c5b593
@0d25 0xb6c5d227
@0d26 0x3ab70341
@0d27 0xb81327c2
@0d28 0x39cb5af4
@0d29 0xbb0b4561
@0d2a 0xb964a96d
@0d2b 0xba7c296f
@0d2c 0xb9e278f8
@0d2d 0xbb086cf6
@0d2e 0xba168827
@0d2f 0xbb16ca45
@0d30 0xbabdbaa9
@0d31 0xbb24c1e3
@0d32 0xba2e329c
@0d33 0xba1edfc2
@0d34 0xb9d9318f
@0d35 0xbaa110b0
@0d36 0xb9a02f8b
@0d37 0x3a55d877
@0d38 0xb96bc36e
@0d39 0xba765224
@0d3a 0xb9cfcd92
@0d3b 0xb9d9dd1e
@0d3c 0xb980c5ac
@0d3d 0xb33bb098
@0d3e 0xb89ea6c2
@0d3f 0xb8850cc5
@0d40 0xbaa1f327
@0d41 0xba22edaa
@0d42 0x39e7522f
@0d43 0xba54f258
@0d44 0x398ccba0
@0d45 0xba993815
@0d46 0xba25e6dc
@0d47 0xbadcb86b
@0d48 0xba8dbecc
@0d49 0xbac78cd5
@0d4a 0xbaa8629a
@0d4b 0xbb6fb17a
@0d4c 0xba402271
@0d4d 0xb9d8fefb
@0d4e 0xb9a7ba72
@0d4f 0xba7118a9
@0d50 0xb9c19dcd
@0d51 0xb9ae1bd8
@0d52 0xba09f71b
@0d53 0x3a02c3bc
@0d54 0xb9f846f7
@0d55 0xbb4129da
@0d56 0xbaddc485
@0d57 0xba28e107
@0d58 0xb9339786
@0d59 0xb1a1b3b7
@0d5a 0xb889f721
@0d5b 0xba037790
@0d5c 0xbaefaa0c
@0d5d 0xba76ef07
@0d5e 0xbb07c770
@0d5f 0xbaa6f465
@0d60 0x3a8d1ef6
@0d61 0x39264496
@0d62 0x396c4a20
@0d63 0xb94cb6ca
@0d64 0xba3141e3
@0d65 0x39c8555c
@0d66 0xbae7bbd4
@0d67 0xbb6e8f9d
@0d68 0xba087fd3
@0d69 0xbb3e43e2
@0d6a 0x3a4b3b27
@0d6b 0xb9170642
@0d6c 0xb980ac09
@0d6d 0xb9515ca0
@0d6e 0xba8bd1fa
@0d6f 0x396ddb26
@0d70 0xbaece928
@0d71 0xbb07fd4c
@0d72 0xbadfd96b
@0d73 0xba04a1db
@0d74 0xb83bdb7a
@0d75 0xb521b3b7
@0d76 0xb7f411ac
@0d77 0xba2b014e
@0d78 0xba9e7119
@0d79 0xbb0f2232
@0d7a 0xbae92aac
@0d7b 0xb9610e53
@0d7c 0xba059ab5
@0d7d 0xb9e5d3cd
@0d7e 0x3a8ac292
@0d7f 0x3af85144
@0d80 0xb8cfecc6
@0d81 0x3aeda8de
@0d82 0xbb830607
@0d83 0xbb8c766a
@0d84 0x3a86dfc8
@0d85 0x3ac91411
@0d86 0x39b90776
@0d87 0xba5c9d65
@0d88 0x3ab36ff4
@0d89 0xbaadc8c3
@0d8a 0xb9122470
@0d8b 0xba90be8c
@0d8c 0xbb1e56bb
@0d8d 0xbb364472
@0d8e 0xbae4f46f
@0d8f 0xb931632c
@0d90 0xb7b0a825
@0d91 0x00000000
@0d92 0xb9db5280
@0d93 0xba661560
@0d94 0xbb04020b
@0d95 0xbb47ca87
@0d96 0xbac420e0
@0d97 0xba1baee6
@0d98 0xba36556f
@0d99 0x3a98879c
@0d9a 0xb93d67e2
@0d9b 0x3ab7176b
@0d9c 0x3b1fae2b
@0d9d 0x3b8cc332
@0d9e 0xba5b59d5
@0d9f 0xbb1a6c15
@0da0 0x3b040b63
@0da1 0x3acec308
@0da2 0xb9e5d76b
@0da3 0xb8156432
@0da4 0xba0a898a
@0da5 0xba35a4a5
@0da6 0x3a012a3d
@0da7 0xba894e48
@0da8 0xbb46a3f3
@0da9 0xbac5147a
@0daa 0xba838bb8
@0dab 0xb9cff939
@0dac 0xb8ee3e86
@0dad 0xb3af6d41
@0dae 0xb9d3c41f
@0daf 0xba3ab260
@0db0 0xbacfea72
@0db1 0xbac2155a
@0db2 0x39ad199e
@0db3 0x3a593acf
@0db4 0x3a5f1fb7
@0db5 0x3adf80ba
@0db6 0x3b060f99
@0db7 0x3ad9c084
@0db8 0x3b47adaf
@0db9 0x3aede7dd
@0dba 0xbb1fc5ca
@0dbb 0xbabca38e
@0dbc 0x3a94f701
@0dbd 0xba227ebc
@0dbe 0x3aeb9cde
@0dbf 0xba2aa412
@0dc0 0xba16446b
@0dc1 0x3a876713
@0dc2 0x3aa014e1
@0dc3 0xb92a4d82
@0dc4 0xbabaebf4
@0dc5 0xbb105477
@0dc6 0xb9dbbdb1
@0dc7 0xb97323b2
@0dc8 0xb9f7d6c5
@0dc9 0xb530e8ea
@0dca 0xb9559ba5
@0dcb 0xb9ec2908
@0dcc 0xb9ed9dc7
@0dcd 0x3aff7ada
@0dce 0x3b2c5a23
@0dcf 0x3aa6cf0c
@0dd0 0x3b3a6b9c
@0dd1 0x3a7a32fb
@0dd2 0x3a9ac98e
@0dd3 0x392aa778
@0dd4 0x3b0d45a6
@0dd5 0x3af93790
@0dd6 0xbb04b2c3
@0dd7 0xba795c0a
@0dd8 0x3a7a9c6e
@0dd9 0x3a97964a
@0dda 0x3b37ee8c
@0ddb 0x3a4c9dc7
@0ddc 0x3b3a8c10
@0ddd 0x39c9861b
@0dde 0x3a385124
@0ddf 0x3a0be032
@0de0 0xba9f66c1
@0de1 0xbb0c5ff3
@0de2 0xba79fd5c
@0de3 0xba36552b
@0de4 0xb85c72a7
@0de5 0xb4cd0555
@0de6 0x3504a063
@0de7 0xb8927b77
@0de8 0xb996b536
@0de9 0x3a820b49
@0dea 0x3975fc78
@0deb 0x398f126c
@0dec 0x3a73c3ab
@0ded 0xb994f80a
@0dee 0x3b0bcf97
@0def 0x3998f42e
@0df0 0x3af89d49
@0df1 0x3acc7460
@0df2 0xbb0f2554
@0df3 0x3935d818
@0df4 0x3abd61c9
@0df5 0x3ad97b8e
@0df6 0x3a8b2db0
@0df7 0xba844c73
@0df8 0x3a956239
@0df9 0xb9f038a3
@0dfa 0xba89660f
@0dfb 0x3ac5120d
@0dfc 0x3992764c
@0dfd 0xbb2bd322
@0dfe 0xbad2ed19
@0dff 0xb8fb0a51
@0e00 0xb8da2e35
@0e01 0xb57ec44d
@0e02 0xb4230685
@0e03 0xb94ec761
@0e04 0xbae71725
@0e05 0xbb3e469d
@0e06 0xba774155
@0e07 0xb949865e
@0e08 0x3b06abe3
@0e09 0x3b19f6d3
@0e0a 0x3a993534
@0e0b 0x39567c53
@0e0c 0xb9634b1c
@0e0d 0x3a8c5a37
@0e0e 0x38b08246
@0e0f 0xb91ab991
@0e10 0x3a9e0d69
@0e11 0x3a55d278
@0e12 0x3aa11e9c
@0e13 0x3a403234
@0e14 0x3a4016a9
@0e15 0x3ad2774f
@0e16 0x3a52338f
@0e17 0x39377e06
@0e18 0xba4139e6
@0e19 0xbb101384
@0e1a 0xbb5ded68
@0e1b 0xba9a1489
@0e1c 0xb8743cae
@0e1d 0x00000000
@0e1e 0xb4098169
@0e1f 0xb9b7d472
@0e20 0xbb24557a
@0e21 0xbb1b0ad0
@0e22 0xb60e005c
@0e23 0xba0c6884
@0e24 0x3a573710
@0e25 0x39823759
@0e26 0x3a8d33b1
@0e27 0xba00e5f6
@0e28 0xba84ddfe
@0e29 0x392159ec
@0e2a 0x3ad4ec2b
@0e2b 0x3af67f50
@0e2c 0x3a4fb466
@0e2d 0x3afbe82a
@0e2e 0x3a9551c2
@0e2f 0x3af4cb94
@0e30 0xba972dba
@0e31 0xba6a8230
@0e32 0xb8a62ce6
@0e33 0xbaaf11fa
@0e34 0xbaad9d8d
@0e35 0xbb16af74
@0e36 0xbb370470
@0e37 0xba544cc3
@0e38 0xb893e926
@0e39 0xb61e15b4
@0e3a 0xb3ae4af8
@0e3b 0xb9b85ab4
@0e3c 0xbaf15344
@0e3d 0xbac54187
@0e3e 0x39e65673
@0e3f 0xba50e4e0
@0e40 0xb8717e0d
@0e41 0x3a00060a
@0e42 0x3b02415f
@0e43 0xbb0d7c4a
@0e44 0xbb10dfb2
@0e45 0x3af467b0
@0e46 0x3ae86725
@0e47 0x3af5a89d
@0e48 0xb98f530f
@0e49 0xb8057281
@0e4a 0xbad7590f
@0e4b 0xb9fb3a5f
@0e4c 0x3a7116d3
@0e4d 0x3ac1dd88
@0e4e 0x3aced7db
@0e4f 0xba980fa5
@0e50 0xba832b31
@0e51 0xbac06486
@0e52 0xbaec48c0
@0e53 0xb8ae03c9
@0e54 0xb7848d56
@0e55 0x00000000
@0e56 0xb4efd4c1
@0e57 0xb9119c7f
@0e58 0xb9aebac4
@0e59 0xb968ce2b
@0e5a 0x3ab3c436
@0e5b 0x396f094a
@0e5c 0xbab94ab1
@0e5d 0xbb012271
@0e5e 0xba9aa268
@0e5f 0xbae11a9f
@0e60 0xba4f9c78
@0e61 0xbb2de8ff
@0e62 0xba3bb01e
@0e63 0x3a80829b
@0e64 0xb882bc44
@0e65 0xb947a1fe
@0e66 0xbac4e047
@0e67 0xbaef63ff
@0e68 0xbb0437c7
@0e69 0xbac9d344
@0e6a 0xb985863f
@0e6b 0xbb69f826
@0e6c 0xbb12942b
@0e6d 0xbacd19ba
@0e6e 0xba53f355
@0e6f 0xb811f397
@0e70 0xb482e6b3
@0e71 0x00000000
@0e72 0xb4f5f141
@0e73 0x38a7c3f0
@0e74 0xb8971e0b
@0e75 0xb9be23b6
@0e76 0xb9318091
@0e77 0xb9d02fa7
@0e78 0xbaccced6
@0e79 0xbb3b30dc
@0e7a 0xbb0942e5
@0e7b 0xbb1abdfe
@0e7c 0x3874308a
@0e7d 0xb95e2c47
@0e7e 0xbb3a3749
@0e7f 0xba130ac2
@0e80 0xb9c27b49
@0e81 0x39330347
@0e82 0x399214d3
@0e83 0xb9acba75
@0e84 0xbb0cbd41
@0e85 0xbb0963c6
@0e86 0xba64f091
@0e87 0xbb1af736
@0e88 0xbb06d510
@0e89 0xba775dad
@0e8a 0xb9a66fb5
@0e8b 0xb71a6af1
@0e8c 0xb682927d
@0e8d 0xb30b9227
@0e8e 0xb4cc51e8
@0e8f 0xb7c5c05d
@0e90 0xb996bc3f
@0e91 0xb9f20d28
@0e92 0xb854dfa4
@0e93 0xbb293c07
@0e94 0xbb37e739
@0e95 0xb9a394fc
@0e96 0xba509f2d
@0e97 0xba8c63a4
@0e98 0xba4f567e
@0e99 0xba97d680
@0e9a 0xba5c0f68
@0e9b 0xb9c1e5c3
@0e9c 0x39bae5c7
@0e9d 0xba553bf2
@0e9e 0x3a4b7a7b
@0e9f 0xb9034a59
@0ea0 0x3a17fa61
@0ea1 0x3a66ef16
@0ea2 0x39e405d6
@0ea3 0xb9e57fee
@0ea4 0xba577846
@0ea5 0xba475c41
@0ea6 0xb906e160
@0ea7 0xb70b840a
@0ea8 0xb28929ec
@0ea9 0xb3073595
@0eaa 0xb3282e1d
@0eab 0xb6cbc63c
@0eac 0xb9abe2c8
@0ead 0xba317ef4
@0eae 0xba93e64f
@0eaf 0xbb03e324
@0eb0 0xbaac5a6e
@0eb1 0xba0d5ca5
@0eb2 0xba9eefae
@0eb3 0xba2b21d0
@0eb4 0xba610e90
@0eb5 0xba7492f6
@0eb6 0x38d04cc7
@0eb7 0xbafb994a
@0eb8 0x3588a1c2
@0eb9 0xb9ca47dc
@0eba 0x37577cef
@0ebb 0x39c5633b
@0ebc 0x3ae5d451
@0ebd 0x3a4a0c61
@0ebe 0x3add94bb
@0ebf 0x3a499afc
@0ec0 0xb8bb9ad9
@0ec1 0xba1bfbff
@0ec2 0xb9a1c3d6
@0ec3 0xb5a027df
@0ec4 0xb2fd39b4
@0ec5 0x00000000
@0ec6 0x00000000
@0ec7 0xb6531f67
@0ec8 0xb93e5508
@0ec9 0xb9f13058
@0eca 0xba2f25f8
@0ecb 0xb91b4218
@0ecc 0xb8d5f959
@0ecd 0xb881c21b
@0ece 0xb97f6dac
@0ecf 0xba9b26c8
@0ed0 0xba2f2239
@0ed1 0xbaab8cd7
@0ed2 0xba595423
@0ed3 0xb930aa43
@0ed4 0xba5c584b
@0ed5 0x3a352ce9
@0ed6 0x39dd09c4
@0ed7 0x3a97f0ec
@0ed8 0x38c9ead9
@0ed9 0x3a4aba36
@0eda 0xb7ec4337
@0edb 0xba731c3c
@0edc 0xba533c27
@0edd 0xba1aefa3
@0ede 0xb893e035
@0edf 0xb59be348
@0ee0 0x00000000
@0ee1 0x00000000
@0ee2 0x00000000
@0ee3 0xb579ebc5
@0ee4 0xb7f15fbc
@0ee5 0xb90e266d
@0ee6 0x3929ed2c
@0ee7 0x3a89d9b5
@0ee8 0xb9149e0f
@0ee9 0x38bc59b9
@0eea 0x383f393f
@0eeb 0xb9ba8034
@0eec 0x3a9db591
@0eed 0xb9d1bbcd
@0eee 0xb8fedeb3
@0eef 0xba255fc2
@0ef0 0xbaaf82f0
@0ef1 0x38ee97c4
@0ef2 0xbad443c6
@0ef3 0xba6dc129
@0ef4 0xba96b2ca
@0ef5 0xbb0b2944
@0ef6 0xbaf93d0a
@0ef7 0xbab918aa
@0ef8 0xba6e336d
@0ef9 0xb9ae968e
@0efa 0x38e8b0ca
@0efb 0xb56effe9
@0efc 0x00000000
@0efd 0x00000000
@0efe 0x00000000
@0eff 0xb1e1d669
@0f00 0xb589c2b3
@0f01 0xb83dba38
@0f02 0xb94c9d0d
@0f03 0xb9fd0312
@0f04 0xbaed3071
@0f05 0xbb3d3044
@0f06 0xbb2fda43
@0f07 0xbad0ac5a
@0f08 0xbb4ed1ba
@0f09 0xbb7b6edd
@0f0a 0xbb437f8c
@0f0b 0xbb55ccf6
@0f0c 0xbb1f0629
@0f0d 0xbb87327d
@0f0e 0xbb91f782
@0f0f 0xbb8098d0
@0f10 0xbba8765c
@0f11 0xbb5e855f
@0f12 0xbb31ad83
@0f13 0xba91db9a
@0f14 0xb94c3e96
@0f15 0xb8f1c97f
@0f16 0xb551de0d
@0f17 0xb57ae03f
@0f18 0x00000000
@0f19 0x00000000
@0f1a 0x00000000
@0f1b 0x00000000
@0f1c 0xb5653994
@0f1d 0xb780b8c5
@0f1e 0xb90877be
@0f1f 0xba63bf08
@0f20 0xbae1e1bc
@0f21 0xbb1b67b4
@0f22 0xbb6b1bf5
@0f23 0xbb865dd9
@0f24 0xbb97d3ee
@0f25 0xbb9345da
@0f26 0xbba9f1c4
@0f27 0xbbb70579
@0f28 0xbba4c86d
@0f29 0xbba31b92
@0f2a 0xbb99d20c
@0f2b 0xbb76ea19
@0f2c 0xbb4293f0
@0f2d 0xbb0c48dd
@0f2e 0xbae90c33
@0f2f 0xba693818
@0f30 0xb95b04da
@0f31 0x34f6d2fb
@0f32 0x00000000
@0f33 0x00000000
@0f34 0x00000000
@0f35 0x00000000
@0f36 0x00000000
@0f37 0x00000000
@0f38 0x00000000
@0f39 0xb3af8c00
@0f3a 0xb6b499ba
@0f3b 0xb795109c
@0f3c 0xb93775f3
@0f3d 0xb9ba62cd
@0f3e 0xb9d31645
@0f3f 0xb9f6eb59
@0f40 0xb98fb350
@0f41 0xba10bccb
@0f42 0xb9b614c5
@0f43 0xba69584b
@0f44 0xba0166b9
@0f45 0xb9ad976c
@0f46 0xb9a185ee
@0f47 0xb9b6ad6d
@0f48 0xb99baf5c
@0f49 0xb906607d
@0f4a 0xb9bd5b37
@0f4b 0xb987a193
@0f4c 0xb743672b
@0f4d 0x00000000
@0f4e 0x00000000
@0f4f 0x00000000
@0f50 0xb7ab46b6
@0f51 0x00000000
@0f52 0x00000000
@0f53 0x00000000
@0f54 0x00000000
@0f55 0x00000000
@0f56 0x00000000
@0f57 0x00000000
@0f58 0x00000000
@0f59 0x00000000
@0f5a 0x00000000
@0f5b 0x00000000
@0f5c 0x00000000
@0f5d 0xb595434b
@0f5e 0xb62a28c0
@0f5f 0xb3f015af
@0f60 0xb1a00e74
@0f61 0x00000000
@0f62 0x00000000
@0f63 0x00000000
@0f64 0x00000000
@0f65 0x00000000
@0f66 0x00000000
@0f67 0x00000000
@0f68 0x00000000
@0f69 0x00000000
@0f6a 0x00000000
@0f6b 0x00000000
@0f6c 0x00000000
@0f6d 0x00000000
@0f6e 0x00000000
@0f6f 0x00000000
@0f70 0x00000000
@0f71 0x00000000
@0f72 0xb183b06d
@0f73 0xb59cf599
@0f74 0xb616a963
@0f75 0xb68fa1f1
@0f76 0xb61b7556
@0f77 0xb635ec5c
@0f78 0xb69e08e2
@0f79 0xb7531bf3
@0f7a 0xb7b892f0
@0f7b 0xb7f6234e
@0f7c 0xb80bd59b
@0f7d 0xb809a129
@0f7e 0xb745517a
@0f7f 0xb7126c90
@0f80 0xb78dfbd4
@0f81 0xb78018d9
@0f82 0xb684376c
@0f83 0xb53cc039
@0f84 0xb5112033
@0f85 0x00000000
@0f86 0x00000000
@0f87 0x00000000
@0f88 0x00000000
@0f89 0x00000000
@0f8a 0x00000000
@0f8b 0xb3851afb
@0f8c 0xb2914d92
@0f8d 0xb50440f9
@0f8e 0xb49c7c5d
@0f8f 0xb67d3a71
@0f90 0xb77c151d
@0f91 0xb830936c
@0f92 0xb91baa63
@0f93 0xb9a550a3
@0f94 0xba1fe1ac
@0f95 0xba3e2cb6
@0f96 0xba91acc7
@0f97 0xbac595c2
@0f98 0xbaa3cf5a
@0f99 0xba717b4d
@0f9a 0xba47bec3
@0f9b 0xba57a4c2
@0f9c 0xba279d35
@0f9d 0xba26e542
@0f9e 0xba018e8f
@0f9f 0xb9809df5
@0fa0 0xb7c4a909
@0fa1 0xb823190f
@0fa2 0xb764c9a2
@0fa3 0x00000000
@0fa4 0x00000000
@0fa5 0x00000000
@0fa6 0x00000000
@0fa7 0xb4186fc6
@0fa8 0xb5ccfa4f
@0fa9 0xb68485b8
@0faa 0xb9697d5d
@0fab 0xb924c68e
@0fac 0xb98e1308
@0fad 0xb9d3770c
@0fae 0xba683be7
@0faf 0xba987391
@0fb0 0xbad6ac5c
@0fb1 0xbaa3b04e
@0fb2 0xbad248ab
@0fb3 0xbad15589
@0fb4 0xbaf77146
@0fb5 0xbb0c1571
@0fb6 0xbb073161
@0fb7 0xbaaf989d
@0fb8 0xb9b00227
@0fb9 0xba2b8756
@0fba 0xba080753
@0fbb 0xb9e91ca8
@0fbc 0xba221836
@0fbd 0xb9d3974f
@0fbe 0xb90a7903
@0fbf 0xb719dd1a
@0fc0 0x00000000
@0fc1 0x00000000
@0fc2 0xb5117577
@0fc3 0xb58c3bd0
@0fc4 0xb85c5b4d
@0fc5 0xb98ceb68
@0fc6 0xba8861e7
@0fc7 0xba8715c5
@0fc8 0xba7f32d9
@0fc9 0xbb007914
@0fca 0xbb16a9b5
@0fcb 0xbac9813e
@0fcc 0xba0ba511
@0fcd 0xba41ceaf
@0fce 0xbae4be8f
@0fcf 0xb84634a9
@0fd0 0x3a0f15c2
@0fd1 0x38ecd9e1
@0fd2 0xba91db2e
@0fd3 0x399cb2c2
@0fd4 0xba01f743
@0fd5 0xba7604f2
@0fd6 0x3a0e181a
@0fd7 0x393f219a
@0fd8 0x3a471f18
@0fd9 0x3a2ea6bc
@0fda 0x38a4e3ad
@0fdb 0x3894828e
@0fdc 0xb7e15f07
@0fdd 0x00000000
@0fde 0x00000000
@0fdf 0xb824f13c
@0fe0 0xb9575597
@0fe1 0xba5cdefb
@0fe2 0xbabad279
@0fe3 0xbb0197b7
@0fe4 0xba943dfb
@0fe5 0xba1289db
@0fe6 0xb9b91c2d
@0fe7 0xb7a2ae3c
@0fe8 0x38e42312
@0fe9 0xba0c32c0
@0fea 0xba942e96
@0feb 0xb951e737
@0fec 0xba8bc8d2
@0fed 0xba138cf1
@0fee 0x3a54aa68
@0fef 0x3a0fa8dd
@0ff0 0xba1d5ee7
@0ff1 0x3aba3cf3
@0ff2 0x3a0ec56d
@0ff3 0x3ae383ba
@0ff4 0x3a42e9d1
@0ff5 0x3a31e1c2
@0ff6 0x394a53cb
@0ff7 0x392f12ee
@0ff8 0xb7dff9f3
@0ff9 0x00000000
@0ffa 0xb1c3bac4
@0ffb 0x3782b4ee
@0ffc 0xba0d3b73
@0ffd 0xba861636
@0ffe 0xba93ea5e
@0fff 0xbab84423
@1000 0xb9bfdc46
@1001 0xbac44d92
@1002 0xb8a7164e
@1003 0xba543f46
@1004 0xb9c1af77
@1005 0x39b836a3
@1006 0xba47d4a7
@1007 0x3a7f5d70
@1008 0xba4b99ad
@1009 0xba51d9b5
@100a 0x37592f77
@100b 0x38a81b26
@100c 0x3a75d4a6
@100d 0x3a7b4a6b
@100e 0xba2fc876
@100f 0x3aab1552
@1010 0x3ad95582
@1011 0x3b5114c0
@1012 0x3ae93b08
@1013 0x3a4db7a9
@1014 0x389dd624
@1015 0xb2e6b252
@1016 0xb6c107ff
@1017 0xb8c44d22
@1018 0xba62dfcc
@1019 0xbb1d94e5
@101a 0xbb2c9497
@101b 0xba7b7bc6
@101c 0xb875def8
@101d 0x39aa8613
@101e 0xba5a2aeb
@101f 0x3ac1b48f
@1020 0x3a787d02
@1021 0x3a028f11
@1022 0xba80b04d
@1023 0x3a61b55d
@1024 0xbaa95c90
@1025 0x39092bd2
@1026 0x39b48b27
@1027 0xb9957bbb
@1028 0xb9ee3c3c
@1029 0xb9236096
@102a 0x3a7c8520
@102b 0x3a42e29f
@102c 0x3b0f2b59
@102d 0x3b88b2ff
@102e 0x3b6fe059
@102f 0xb8516345
@1030 0x38daff36
@1031 0xb3ea60be
@1032 0xb73e89b7
@1033 0xb958d7ec
@1034 0xbaa10136
@1035 0xbb556362
@1036 0xbae7fb1a
@1037 0xba4980b3
@1038 0xba2f7fbe
@1039 0x3a5cbc11
@103a 0x37b61fda
@103b 0xb8780e9e
@103c 0x39c37ce7
@103d 0xba0a3c94
@103e 0xba674a07
@103f 0xb9885c5b
@1040 0xbaa10b66
@1041 0xba577867
@1042 0xba001fee
@1043 0x39f2b85a
@1044 0x3a402373
@1045 0x3a8da46a
@1046 0x3ab95d01
@1047 0xb9940a4d
@1048 0x3a89560e
@1049 0x3b7be44e
@104a 0x3b6e96de
@104b 0x3a21baf8
@104c 0xb7fc5294
@104d 0xb298295d
@104e 0xb7f9f5f5
@104f 0xb9428e8e
@1050 0xbaa29a3e
@1051 0xbb2d7f84
@1052 0xb9c7b962
@1053 0x39eba897
@1054 0x399e04d1
@1055 0x39f891b0
@1056 0x3a3b4871
@1057 0x38bfde85
@1058 0x3af8ca96
@1059 0x39983e05
@105a 0xba2d2b58
@105b 0xbaa88efa
@105c 0xbafa51b8
@105d 0xbaef0ad8
@105e 0xba4ee7e5
@105f 0xba618c99
@1060 0xba60a07f
@1061 0xb96203dc
@1062 0x3b004eba
@1063 0x3a75991c
@1064 0x3a55a13b
@1065 0x3bc46058
@1066 0x3bd2e5a8
@1067 0x3ac746af
@1068 0x387832f2
@1069 0xb38effbf
@106a 0xb867211c
@106b 0xb9476c09
@106c 0xba8a99de
@106d 0xbaabed3b
@106e 0xba70a6e9
@106f 0x39a1b6d0
@1070 0x3a553d1a
@1071 0x3abeda0e
@1072 0x3ac5af29
@1073 0x3ac80ecf
@1074 0x3b15d0d9
@1075 0x3ae33e9d
@1076 0x3aacf1e5
@1077 0xb8950a85
@1078 0xba3159a7
@1079 0xbae95b52
@107a 0xbb389022
@107b 0xbaedc716
@107c 0xbb32a5ea
@107d 0xbb2df4bd
@107e 0xb96c96de
@107f 0x3a954744
@1080 0x3b77d0e5
@1081 0x3c0d9ccc
@1082 0x3c33291c
@1083 0x3b341a32
@1084 0x388d83d2
@1085 0xb70effbf
@1086 0xb83b8561
@1087 0xb925e5ec
@1088 0xba7135ec
@1089 0xba6d75a6
@108a 0xba8e877b
@108b 0x3aecae4f
@108c 0x394b772f
@108d 0x3a263431
@108e 0x3a6b7896
@108f 0x3a113f82
@1090 0x3abacb91
@1091 0x3a96d5fd
@1092 0x3abf9ed7
@1093 0xba773a95
@1094 0xba2accf3
@1095 0xb912d47a
@1096 0xba99dd1e
@1097 0xba0da78d
@1098 0xbb0200e0
@1099 0xbbb828a1
@109a 0xbbcf742a
@109b 0xbbc11a86
@109c 0xbb72c3e3
@109d 0x394a7918
@109e 0x3bbecdcb
@109f 0x3ad724d6
@10a0 0x382a039b
@10a1 0x00000000
@10a2 0xb840e9fc
@10a3 0xb8fdc820
@10a4 0xb9be10f4
@10a5 0xb99954c4
@10a6 0xb9b76abe
@10a7 0x3af4e08a
@10a8 0x3a07d793
@10a9 0x393a4fe0
@10aa 0xba347529
@10ab 0x3acb4851
@10ac 0x3a95a2fa
@10ad 0x3a493086
@10ae 0x3af27281
@10af 0xba4beba5
@10b0 0x3a3eef2e
@10b1 0xba891040
@10b2 0xbb31de43
@10b3 0xbafbf7c4
@10b4 0xbaa93ede
@10b5 0xbaf1ec99
@10b6 0xbba14eb5
@10b7 0xbc1694ec
@10b8 0xbc416195
@10b9 0xbc160e69
@10ba 0xb9346558
@10bb 0x3a15ca22
@10bc 0xb73549fe
@10bd 0xb4838dff
@10be 0xb83d06e1
@10bf 0xb8de6ded
@10c0 0xb8762cd8
@10c1 0x3a3909b8
@10c2 0x3a890da5
@10c3 0x3a1f3722
@10c4 0x3a04878f
@10c5 0x3ad9bc87
@10c6 0x38e227b9
@10c7 0xb9fbff00
@10c8 0x3a868ab5
@10c9 0x3ad21f36
@10ca 0x39c8d81b
@10cb 0xbad4377b
@10cc 0xba637428
@10cd 0xbacca490
@10ce 0xbb045a75
@10cf 0xb96aeca5
@10d0 0x39215ca4
@10d1 0x3a80102c
@10d2 0xb557e294
@10d3 0xbb61130f
@10d4 0xbc145ae2
@10d5 0xbbf71f4e
@10d6 0xba8a2519
@10d7 0x3800d68a
@10d8 0xb6cf69eb
@10d9 0x38a1b4b2
@10da 0xb7e83d50
@10db 0xb88a41a8
@10dc 0x396b2120
@10dd 0x3a7f3cb1
@10de 0xb68b296f
@10df 0xba87650d
@10e0 0xba50cc2b
@10e1 0xb9a8bf3f
@10e2 0x3a35d2a4
@10e3 0x3b1b5fbb
@10e4 0xba23e60f
@10e5 0x3ac72aab
@10e6 0x39b5ec4e
@10e7 0xbab6d13e
@10e8 0xb958df74
@10e9 0xba6b0a76
@10ea 0xba6aced2
@10eb 0xba238956
@10ec 0xbaced98a
@10ed 0xba35377e
@10ee 0x39588d6c
@10ef 0x3a86f0f1
@10f0 0xbb52a3fb
@10f1 0xbb47270d
@10f2 0xba813fcb
@10f3 0xb7e06222
@10f4 0xb502a17d
@10f5 0x37c0c742
@10f6 0xb64f4172
@10f7 0xb81e8f40
@10f8 0x3913f1e7
@10f9 0x39485439
@10fa 0xbabd8637
@10fb 0xbac79325
@10fc 0xbadcd695
@10fd 0x392b6e12
@10fe 0x3a9b3a5e
@10ff 0x39b1a2b8
@1100 0x39ef5db6
@1101 0x3ab1eef7
@1102 0xbb006327
@1103 0xbae1cb7f
@1104 0xba5a9986
@1105 0xba6d54a7
@1106 0xbb0aed42
@1107 0x392738ee
@1108 0xb9995200
@1109 0xba3dee82
@110a 0xba84f164
@110b 0xb9f768f9
@110c 0x3a738745
@110d 0xb8c83e44
@110e 0xba71d8dc
@110f 0xb93d53bc
@1110 0xb698bd17
@1111 0xb7594bb2
@1112 0xb61497e2
@1113 0xb881938e
@1114 0x384fa824
@1115 0x3a23c46c
@1116 0xba41ac22
@1117 0xbac8fb83
@1118 0xbb217c66
@1119 0xbabc07b5
@111a 0xba9f13b7
@111b 0xba1d5b3a
@111c 0xb9b20dbe
@111d 0x39b4b4a0
@111e 0xb8dd3a86
@111f 0xbac8cdf0
@1120 0xba86027e
@1121 0xbb0f45fd
@1122 0xba63bed9
@1123 0xba8c59a8
@1124 0xb86ddc8b
@1125 0x3aa61d18
@1126 0xba62cc53
@1127 0xba811da2
@1128 0x3ab11f7d
@1129 0x3a6dae9b
@112a 0xba91d2d0
@112b 0xba045b0e
@112c 0xb5aeb446
@112d 0x00000000
@112e 0xb5e9fa73
@112f 0xb93537e7
@1130 0xb89e474c
@1131 0x39b41b84
@1132 0x38815c35
@1133 0x3b5017a3
@1134 0xbab291fb
@1135 0xbb24e502
@1136 0xbb0925f0
@1137 0xbb2c923b
@1138 0xbb14a32d
@1139 0xbb3a8391
@113a 0xbb445e0d
@113b 0xbb3fac02
@113c 0xbaa94f13
@113d 0x3977f7ab
@113e 0x3a0fbb29
@113f 0x3a5bbf04
@1140 0xba2a4b6d
@1141 0xb91b8fc9
@1142 0x3a2e6182
@1143 0xba7efc89
@1144 0x3ab6211b
@1145 0x3ab9e94f
@1146 0xbaabdce0
@1147 0xba05981a
@1148 0xb7e1e5fa
@1149 0xb515f165
@114a 0xb71c1324
@114b 0xb960edca
@114c 0xb8be38f5
@114d 0x3a8176a7
@114e 0x372d08f5
@114f 0x3b47ce3f
@1150 0x3a71dc73
@1151 0xba91df32
@1152 0xbac46714
@1153 0xbb594a42
@1154 0xbb4d3670
@1155 0xb9acece8
@1156 0x39373455
@1157 0x3a1f31b0
@1158 0x39e1f501
@1159 0x390efa37
@115a 0x3a0d6a2a
@115b 0xb93ebb4e
@115c 0xb8f23a38
@115d 0x3a273669
@115e 0x397efdaa
@115f 0x390747ca
@1160 0x3a30b712
@1161 0x3a55667a
@1162 0xba8ae8f3
@1163 0xba0da0e6
@1164 0xb91332b8
@1165 0x00000000
@1166 0xb7ccbf2c
@1167 0x39519446
@1168 0xb9ad5d3c
@1169 0x3a419d44
@116a 0xba8f3291
@116b 0x3989ea25
@116c 0x3a0794fa
@116d 0x3aa3c845
@116e 0x39c0ce85
@116f 0x3a166063
@1170 0x3aa67fa6
@1171 0x3a802aab
@1172 0x371545a7
@1173 0xb9b4bc69
@1174 0x39d36442
@1175 0xba4778b9
@1176 0xba891b16
@1177 0x39b32d89
@1178 0x3820a712
@1179 0x37bde0a4
@117a 0xb8f3911d
@117b 0x3a16f0e4
@117c 0x39e29e45
@117d 0xb8188b6d
@117e 0xba84e52e
@117f 0xba1b3980
@1180 0xb8b4c95b
@1181 0x00000000
@1182 0xb6c5a07d
@1183 0xb833ac22
@1184 0xba196a7a
@1185 0x39a82a3a
@1186 0x3a14c58c
@1187 0xb98814d9
@1188 0xb9f783c4
@1189 0x3a03544d
@118a 0x39f73425
@118b 0xb910e696
@118c 0x3aeb632d
@118d 0xba228ec0
@118e 0x3a0116f5
@118f 0xba9b3cc7
@1190 0xba53425c
@1191 0x3a2f0e59
@1192 0x391f224c
@1193 0x3a099c4e
@1194 0x39b83c29
@1195 0xb9b363c8
@1196 0xba5a2768
@1197 0x3af5e265
@1198 0x3a781b33
@1199 0xb9857927
@119a 0xba042ff6
@119b 0xb92bfe14
@119c 0x354d0556
@119d 0xb32f997a
@119e 0xb6d656e2
@119f 0xb9a8a577
@11a0 0xba5c8c1e
@11a1 0x388ad001
@11a2 0xb8b67de8
@11a3 0x3a45bbb2
@11a4 0x3a1f2815
@11a5 0x3aa0f1e1
@11a6 0x3aa50715
@11a7 0x3a10fd0f
@11a8 0x3aa7fbfe
@11a9 0xba6ab636
@11aa 0xb89cbd33
@11ab 0x399b16b1
@11ac 0xb968896b
@11ad 0xba0b2082
@11ae 0x3950383f
@11af 0xba4abfe1
@11b0 0x39326349
@11b1 0x3b139a06
@11b2 0x3aef1a79
@11b3 0x3ac751ec
@11b4 0x3ab4a303
@11b5 0xb8d69aa7
@11b6 0xb995a58a
@11b7 0xb801f19c
@11b8 0xb33d713a
@11b9 0xb32a1cae
@11ba 0xb59f4444
@11bb 0xb9813306
@11bc 0xba509c6c
@11bd 0x394ce4b2
@11be 0x38247323
@11bf 0xb9c18e52
@11c0 0xb9d5dbbe
@11c1 0xba335170
@11c2 0xb9cdec50
@11c3 0xba5431b4
@11c4 0x3a6262b0
@11c5 0x3ab7447a
@11c6 0x389f9736
@11c7 0x3a2e5e0c
@11c8 0xba1566cc
@11c9 0x3aa63978
@11ca 0xba762cf6
@11cb 0x3ac48b58
@11cc 0x3a658d03
@11cd 0x3a2ba92f
@11ce 0x3723f110
@11cf 0x3ab54193
@11d0 0x3aa5c420
@11d1 0xb6483e0f
@11d2 0xb8fdac18
@11d3 0xb47902aa
@11d4 0xb3aedeac
@11d5 0x00000000
@11d6 0x00000000
@11d7 0xb84a1dd7
@11d8 0xb910777a
@11d9 0x39e14e0d
@11da 0x3aa1a336
@11db 0x3a6206d9
@11dc 0xba9e9f66
@11dd 0x39a2a11d
@11de 0x39c4416d
@11df 0x3a110ef4
@11e0 0x38eab865
@11e1 0x3a6662d2
@11e2 0xb9c27533
@11e3 0x3a7541c1
@11e4 0xb90137ef
@11e5 0x396ce95b
@11e6 0xba455b3f
@11e7 0xbaf8796c
@11e8 0xb9ddfeaf
@11e9 0x392b4607
@11ea 0xb8d0e53e
@11eb 0x3a3e19b1
@11ec 0x3a66ffe1
@11ed 0x39ac6287
@11ee 0xb80e6515
@11ef 0xb5cf4191
@11f0 0x00000000
@11f1 0x00000000
@11f2 0x00000000
@11f3 0xb78afae3
@11f4 0x37c6ee97
@11f5 0xb980161d
@11f6 0xb9d0c2f1
@11f7 0xba03808a
@11f8 0xb8ac339d
@11f9 0xb909d1e4
@11fa 0x3ab2f5f8
@11fb 0xb851fa34
@11fc 0xb96e535f
@11fd 0x397ffd97
@11fe 0x39d6adce
@11ff 0x3a13882b
@1200 0xb90c2eca
@1201 0xba2611fd
@1202 0x3a2b3b5d
@1203 0x3a2752cd
@1204 0x399de68f
@1205 0xb933ac9b
@1206 0xba48c0ab
@1207 0x39797506
@1208 0x398d64d8
@1209 0x39ba526a
@120a 0xb8da8598
@120b 0xb705d873
@120c 0x00000000
@120d 0x00000000
@120e 0x00000000
@120f 0xb3d01a9d
@1210 0x38dd22c9
@1211 0x3900b162
@1212 0xb9a200a1
@1213 0xba163d80
@1214 0xba503220
@1215 0xba03a997
@1216 0xb91394bb
@1217 0xb98dbce9
@1218 0x396462f7
@1219 0x3974c6fe
@121a 0xb6edf420
@121b 0xba6196cd
@121c 0x38b3c6c7
@121d 0xb9860ec1
@121e 0x3929f7f0
@121f 0xb9bdece4
@1220 0xba476f65
@1221 0xba8ad6ff
@1222 0xba8c8863
@1223 0xb9046a36
@1224 0x39ce8fa2
@1225 0x39d878d3
@1226 0xb40ddc78
@1227 0xb42994cb
@1228 0x00000000
@1229 0x00000000
@122a 0x00000000
@122b 0x00000000
@122c 0xb414a316
@122d 0xb603643c
@122e 0xb8290fc5
@122f 0xb98be2ae
@1230 0xba1a976a
@1231 0xba889c04
@1232 0xba9360fa
@1233 0xba97f06b
@1234 0xba55e68b
@1235 0xba8354f6
@1236 0xbab6725b
@1237 0xbac92d75
@1238 0xba989371
@1239 0xba7f8655
@123a 0xbab591bf
@123b 0xbaa87406
@123c 0xba1e4b5d
@123d 0xb9c6f6c1
@123e 0xba12a33a
@123f 0xb960fe15
@1240 0xb6a3a315
@1241 0xb164524d
@1242 0x00000000
@1243 0x00000000
@1244 0x00000000
@1245 0x00000000
@1246 0x00000000
@1247 0x00000000
@1248 0x00000000
@1249 0xb40882d9
@124a 0xb629012c
@124b 0xb6c23c95
@124c 0xb81f329a
@124d 0xb87b475c
@124e 0xb80ab4fa
@124f 0xb8a402e7
@1250 0xb8f26413
@1251 0xb983dd17
@1252 0xb9bb055a
@1253 0xba0b4f74
@1254 0xb9f75362
@1255 0xb9bd790e
@1256 0xb99224c0
@1257 0xb9a56622
@1258 0xb9610746
@1259 0xb9235169
@125a 0xb977b2bb
@125b 0xb90d294a
@125c 0xb648fa58
@125d 0x00000000
@125e 0x00000000
@125f 0x00000000
@1260 0xb9b213b1
@1261 0x00000000
@1262 0x00000000
@1263 0x00000000
@1264 0x00000000
@1265 0x00000000
@1266 0x00000000
@1267 0x00000000
@1268 0x00000000
@1269 0x00000000
@126a 0x00000000
@126b 0x00000000
@126c 0x00000000
@126d 0x37e826ab
@126e 0x38682b6f
@126f 0xb6c3d0ee
@1270 0xb4828b49
@1271 0x00000000
@1272 0x00000000
@1273 0x00000000
@1274 0x00000000
@1275 0x00000000
@1276 0x00000000
@1277 0x00000000
@1278 0x00000000
@1279 0x00000000
@127a 0x00000000
@127b 0x00000000
@127c 0x00000000
@127d 0x00000000
@127e 0x00000000
@127f 0x00000000
@1280 0x00000000
@1281 0x00000000
@1282 0x3440c86d
@1283 0x37d339b5
@1284 0x38947b37
@1285 0x398e08d1
@1286 0x39909223
@1287 0x3954cf19
@1288 0x3863eef3
@1289 0xb909eb9e
@128a 0x39583ad8
@128b 0xb9b3d63b
@128c 0xba570001
@128d 0xba87073e
@128e 0xb9143d29
@128f 0x38ebc643
@1290 0x39a0a124
@1291 0x397d68f8
@1292 0x390df333
@1293 0x378e5ad3
@1294 0x36eb897f
@1295 0x00000000
@1296 0x00000000
@1297 0x00000000
@1298 0x00000000
@1299 0x00000000
@129a 0x00000000
@129b 0x3554e2ff
@129c 0xb4928b56
@129d 0x368ef8d7
@129e 0x3621026c
@129f 0xb8010491
@12a0 0x39386c36
@12a1 0x3a837ba3
@12a2 0x3b14ada8
@12a3 0x3b1cd083
@12a4 0x3918cf9c
@12a5 0x39a8b130
@12a6 0x3af34348
@12a7 0x3a387b8f
@12a8 0xba0366f5
@12a9 0x38a641bb
@12aa 0x3aa41930
@12ab 0x3b07bb30
@12ac 0x3b06ff05
@12ad 0x3acc39c2
@12ae 0x3af1de5c
@12af 0x3a7b4907
@12b0 0x3a34c139
@12b1 0xb96a9781
@12b2 0xb9edb377
@12b3 0x00000000
@12b4 0x00000000
@12b5 0x00000000
@12b6 0x00000000
@12b7 0x35e84e9f
@12b8 0x38da450f
@12b9 0x398ebfb3
@12ba 0x398d27b5
@12bb 0x38ac5560
@12bc 0x390966a6
@12bd 0x3a3f8015
@12be 0xba287fcf
@12bf 0xb9a6328f
@12c0 0xb7af23be
@12c1 0xbab039a5
@12c2 0x3939b31a
@12c3 0xb9e6c46f
@12c4 0x39a1916e
@12c5 0x3a2a650e
@12c6 0xba021cfd
@12c7 0x39f585e3
@12c8 0xb967abaa
@12c9 0x39ae2f29
@12ca 0x3a1ca895
@12cb 0x3955d801
@12cc 0x39767c19
@12cd 0x3a7f2b6d
@12ce 0xb9ca4cb1
@12cf 0x39b41feb
@12d0 0x00000000
@12d1 0x00000000
@12d2 0xb30249e7
@12d3 0xb3ebeda5
@12d4 0x38d712bb
@12d5 0x39cbaa71
@12d6 0x3881a5c7
@12d7 0xba70c41b
@12d8 0xb9671e97
@12d9 0xb7ec0474
@12da 0xbb2af215
@12db 0xba18d499
@12dc 0xbb0febd0
@12dd 0xbb346ed3
@12de 0xbb092fd8
@12df 0xbaf849c7
@12e0 0xbb2d05ec
@12e1 0xba818b06
@12e2 0xba719838
@12e3 0xbabf984c
@12e4 0xba1037b6
@12e5 0xb9e2c278
@12e6 0xba92e1f4
@12e7 0xb9970e5d
@12e8 0xb7b197ac
@12e9 0xbb063b73
@12ea 0xb9ebcc4b
@12eb 0x389f148c
@12ec 0x394a4186
@12ed 0x00000000
@12ee 0x00000000
@12ef 0x3588f751
@12f0 0xb8ae1009
@12f1 0x3a85ee72
@12f2 0xb9cb3c8c
@12f3 0xba9cbe0e
@12f4 0xbae79e66
@12f5 0x3a385faf
@12f6 0xbadca49a
@12f7 0x3ab0080b
@12f8 0xbb3eed49
@12f9 0x3a03e623
@12fa 0xbb33190c
@12fb 0xb9cdad49
@12fc 0xb9b90059
@12fd 0xba5ec895
@12fe 0xbaa440d7
@12ff 0x3a9bd014
@1300 0x3a1baada
@1301 0x3aa8b343
@1302 0x3a313229
@1303 0xb9ace610
@1304 0x3a70136f
@1305 0xba5f91b0
@1306 0xbac791f2
@1307 0x39be2cde
@1308 0x39947f9c
@1309 0x00000000
@130a 0xb1589aa2
@130b 0x363a099b
@130c 0xba12c78d
@130d 0x3906254b
@130e 0xba2ebdf6
@130f 0xba8c6678
@1310 0xba9afc40
@1311 0xb9e67f7d
@1312 0x395d1a7a
@1313 0xbad786d0
@1314 0xba64a884
@1315 0xbaeea531
@1316 0xba155b28
@1317 0xbacb046b
@1318 0xbb32783c
@1319 0xbaf5f75e
@131a 0xba29ec0e
@131b 0xbb195b86
@131c 0xbaaf487f
@131d 0xba8fff56
@131e 0x398b9219
@131f 0xba32d434
@1320 0xba33df88
@1321 0xbb097bdb
@1322 0xbaa1f201
@1323 0x37f24fe5
@1324 0x399f36d9
@1325 0xb322d44f
@1326 0xb521842d
@1327 0xb6b41191
@1328 0xbada3cec
@1329 0xba631235
@132a 0xba4c9f17
@132b 0xbb03efab
@132c 0xb9ce9f8d
@132d 0xba4057b3
@132e 0xbaa2ac26
@132f 0xba1a8ac6
@1330 0x39dc39c9
@1331 0xbac58aa1
@1332 0xbaf094d8
@1333 0xba9b875d
@1334 0x39b67b3b
@1335 0xbb0e6770
@1336 0xbb103495
@1337 0xbb06c4ce
@1338 0xbac4a7af
@1339 0xba88191a
@133a 0xba878584
@133b 0xba615429
@133c 0xbafe35f8
@133d 0xbaa68f24
@133e 0xba9866e5
@133f 0xb80d4096
@1340 0x3854b235
@1341 0xb4256d7c
@1342 0xb6155453
@1343 0xb88e7479
@1344 0xbaa8b1ba
@1345 0xba722b30
@1346 0xba6ae423
@1347 0xba9fe324
@1348 0xba47f69a
@1349 0xbaf79064
@134a 0xbab0512b
@134b 0xbac4fd16
@134c 0xba5fe1fe
@134d 0xb96c3ddc
@134e 0xba868f69
@134f 0xbb20a94c
@1350 0xbafbf827
@1351 0xba7b4167
@1352 0xbacf5980
@1353 0xbb74a9dc
@1354 0xbb9fead3
@1355 0xbbb3cb42
@1356 0xbb3c6306
@1357 0xbb7e3f55
@1358 0xbbbbc28c
@1359 0xbba8a78c
@135a 0xbb40bf4b
@135b 0xba78c440
@135c 0xb9ad839a
@135d 0xb2d6cbcf
@135e 0xb6cdbb85
@135f 0xb8f25309
@1360 0xbacb8797
@1361 0xba36ca45
@1362 0xba577882
@1363 0xb9c29b85
@1364 0x39b4215d
@1365 0x3879509f
@1366 0xba047a17
@1367 0xbacf25e4
@1368 0xba8d7168
@1369 0xba4f35f8
@136a 0xbabdc8a8
@136b 0xbaa4f764
@136c 0xbb016c27
@136d 0xbb141a8d
@136e 0xbb5ac7ae
@136f 0xbb424f10
@1370 0xbb05784e
@1371 0xbac5b78c
@1372 0xbad9542c
@1373 0xba9ec2ce
@1374 0xbb279d1b
@1375 0xbba68a77
@1376 0xbb80cea9
@1377 0xbb06c1e6
@1378 0xb9439209
@1379 0xb0b6e2b4
@137a 0xb6a92938
@137b 0xb9c47afa
@137c 0xbae0593b
@137d 0xba49a37e
@137e 0x399de7ac
@137f 0xba59ec51
@1380 0xb9871aef
@1381 0x3a9313b8
@1382 0xba70e51b
@1383 0xb9fb0b6f
@1384 0xba86ee14
@1385 0xbb04e3a7
@1386 0x3a035250
@1387 0xbb17bb28
@1388 0xba65ec82
@1389 0xbb3ce86a
@138a 0xbb08a718
@138b 0xbb0ba136
@138c 0xbb2de9d3
@138d 0x37900b6f
@138e 0xbb04d0da
@138f 0xbb09674d
@1390 0xba3ac1b2
@1391 0xbb247e9e
@1392 0xbb8c5377
@1393 0xbb054e77
@1394 0xb9cb234c
@1395 0xb436e2b4
@1396 0xb62d1543
@1397 0xb7ac7fe1
@1398 0xbabcf156
@1399 0xba407668
@139a 0x3a32e94a
@139b 0xb91248ab
@139c 0xba7ddd73
@139d 0x38c98bed
@139e 0x39d106f9
@139f 0xb9128772
@13a0 0xba92038f
@13a1 0xb8c67295
@13a2 0x3a54457a
@13a3 0xba9856a2
@13a4 0xbb2c8375
@13a5 0xba689f59
@13a6 0xbb03edce
@13a7 0xba5a039b
@13a8 0xba60d812
@13a9 0xba9162f4
@13aa 0xba8df426
@13ab 0xbad4aba1
@13ac 0x3b21ab1c
@13ad 0xb90b5c87
@13ae 0xbb86fb4d
@13af 0xbb1af462
@13b0 0xb9868c32
@13b1 0x00000000
@13b2 0xb71adfce
@13b3 0xb839ea18
@13b4 0xbaf8c6a8
@13b5 0xbb22d1bd
@13b6 0xbae03fc0
@13b7 0x3a56e7cb
@13b8 0xba9b6a0d
@13b9 0x3a012710
@13ba 0x3a935015
@13bb 0xba844501
@13bc 0x3a9e53ff
@13bd 0x3aaaaeb1
@13be 0x3a0f1dc2
@13bf 0xbaacb4cf
@13c0 0xba591187
@13c1 0xb9ee9464
@13c2 0x3a1f24cb
@13c3 0x392d8e55
@13c4 0xbadad02a
@13c5 0xba9faabb
@13c6 0x3ae3ebcc
@13c7 0x3a222272
@13c8 0x3b5b5eb8
@13c9 0x3a1a4759
@13ca 0xbb84f1a5
@13cb 0xbb1e3ae4
@13cc 0xb92c7b7d
@13cd 0xb54ff956
@13ce 0xb7b83258
@13cf 0xb7a603d0
@13d0 0xbaae85fb
@13d1 0xbb3aca08
@13d2 0xba137ee3
@13d3 0x3b607166
@13d4 0x39fa3c4b
@13d5 0xba28b028
@13d6 0x3a80cf23
@13d7 0x3ae9cdab
@13d8 0x39cfd237
@13d9 0x3a69eaf6
@13da 0xb9f0d003
@13db 0xbac41474
@13dc 0x3abe1329
@13dd 0xba3252a9
@13de 0xbae4aea2
@13df 0x39a87672
@13e0 0xb9518b0d
@13e1 0xb683b116
@13e2 0x3ad67f6d
@13e3 0xb89c3ab1
@13e4 0x3b653ef8
@13e5 0xb9fa754b
@13e6 0xbb97d058
@13e7 0xbb1da49b
@13e8 0xba37c38a
@13e9 0xb6d07a7a
@13ea 0xb5a80aec
@13eb 0xb6877d41
@13ec 0xb990194c
@13ed 0xbb1f959a
@13ee 0xb9261a1f
@13ef 0x3b450877
@13f0 0x3abe2286
@13f1 0x3abc7048
@13f2 0x3984f735
@13f3 0x3a9b5c72
@13f4 0x3b041a99
@13f5 0x39ead50c
@13f6 0xba6c9050
@13f7 0xb84c7f1d
@13f8 0x3a0a9610
@13f9 0x3a990e3c
@13fa 0xbad1c92a
@13fb 0xb99c3739
@13fc 0xb9be780e
@13fd 0xb9dc0983
@13fe 0xb8bf4f1c
@13ff 0x3a80da42
@1400 0x3ad3d303
@1401 0xba9863a3
@1402 0xbabcf3d0
@1403 0xbb1aaeec
@1404 0xb8a67ab8
@1405 0xb6090ab4
@1406 0xb460eef1
@1407 0xb686d476
@1408 0xba065dbe
@1409 0xbb320192
@140a 0xbb341999
@140b 0xba01abcc
@140c 0x3b2253b3
@140d 0x3a0cd115
@140e 0x3a701f43
@140f 0x39efaa79
@1410 0x3a0216dd
@1411 0x3aec35b0
@1412 0xba5ecf83
@1413 0x3a222e16
@1414 0x39880951
@1415 0xb9f712ad
@1416 0xba0937be
@1417 0xba423e41
@1418 0xbacd61bc
@1419 0x3b179f30
@141a 0x3aa7eb74
@141b 0x3a4a3522
@141c 0xba81b4bf
@141d 0xbb0a31e7
@141e 0xba708ede
@141f 0xbb3d7a6e
@1420 0xb90450d7
@1421 0xb33cc0b2
@1422 0xb4cad7cd
@1423 0xb7619755
@1424 0xba117441
@1425 0xbb3ce3aa
@1426 0xbb0a18d4
@1427 0x39a18b72
@1428 0x3a4a2064
@1429 0xba29c504
@142a 0x3a944feb
@142b 0x39d8249d
@142c 0x3afe3cf5
@142d 0xbaa72fce
@142e 0xbaa33bf8
@142f 0xba17c24e
@1430 0x39f0c864
@1431 0x38fd55da
@1432 0xbad33426
@1433 0x39e774c4
@1434 0x3a8f66bc
@1435 0xbac111d9
@1436 0xb928285d
@1437 0x3a982625
@1438 0xba134818
@1439 0xbaa52362
@143a 0xbb1be2e5
@143b 0xbb3b8197
@143c 0xb99ba510
@143d 0x00000000
@143e 0xb53bd799
@143f 0xb7eabeff
@1440 0xba3bc8d5
@1441 0xbb7f6b1e
@1442 0xb9d01683
@1443 0xb946e900
@1444 0x3988fc1a
@1445 0x3a9a4ae1
@1446 0x3a2bb876
@1447 0x3b65f8db
@1448 0x3b2013e0
@1449 0x39fa0f53
@144a 0x3a8c5bbf
@144b 0x39f038f8
@144c 0xbb11c169
@144d 0xbaba77b4
@144e 0x39116917
@144f 0x39b5c91d
@1450 0x390cf95d
@1451 0x39c544fc
@1452 0xb939a9eb
@1453 0xb95dc374
@1454 0x3ab3e04d
@1455 0xba9c57fe
@1456 0xbb373733
@1457 0xbaee049f
@1458 0xb92f09ff
@1459 0xb32fbfda
@145a 0xb3e73f0a
@145b 0xb7e53d21
@145c 0xba86de70
@145d 0xbb479c37
@145e 0xbab48a05
@145f 0xba03f439
@1460 0x3af2fd89
@1461 0x3ab147cc
@1462 0x3aaed571
@1463 0x39ce2f72
@1464 0xb91a6daf
@1465 0x3b11c7f3
@1466 0xb9ae8f8d
@1467 0xb95d8794
@1468 0x3a121691
@1469 0x3af0ec82
@146a 0xb8f3d3c3
@146b 0x397b9d52
@146c 0x3b04a823
@146d 0xba8290e1
@146e 0x38a1a591
@146f 0xbaaa98bc
@1470 0x3a98f00a
@1471 0xbb5d6556
@1472 0xbb0eeec2
@1473 0xbabef7e0
@1474 0xb9aae17a
@1475 0x00000000
@1476 0xb4928d6b
@1477 0xb7bd89a6
@1478 0xba37b79a
@1479 0xbac6e69f
@147a 0xb8a07582
@147b 0xbaafa4ef
@147c 0xba5d96e3
@147d 0xb9c03470
@147e 0x3ae52776
@147f 0x3aef197c
@1480 0x3b88a210
@1481 0x3b35d3eb
@1482 0xb85f16de
@1483 0x39c5d53d
@1484 0x3a84284c
@1485 0x3aca4131
@1486 0x3a7498c2
@1487 0x3a066e12
@1488 0x3a8af564
@1489 0x39774ddf
@148a 0x3a802cf9
@148b 0xb86e31de
@148c 0xba978641
@148d 0xbb47b847
@148e 0xbb4c428b
@148f 0xbadd2939
@1490 0xb9510503
@1491 0x00000000
@1492 0xb4ddd215
@1493 0xb7a82e15
@1494 0xba221f3f
@1495 0xbaa29112
@1496 0xba19128a
@1497 0x38d519c3
@1498 0x3a39c428
@1499 0xb943ce6d
@149a 0x3a3f3add
@149b 0x3b03dc6a
@149c 0x3a5ca849
@149d 0x3a7be26a
@149e 0x39cb33f9
@149f 0x3b56a4c5
@14a0 0x3a9075a2
@14a1 0x39675844
@14a2 0x3948ac07
@14a3 0x38ab622b
@14a4 0xba6ad7f3
@14a5 0x39bfcb37
@14a6 0x3b04710e
@14a7 0xba33f7c9
@14a8 0xbafecf0a
@14a9 0xbb3f499e
@14aa 0xba949e9c
@14ab 0xb97edf1f
@14ac 0xb33048d5
@14ad 0xb356a0da
@14ae 0xb5bf9dda
@14af 0xb825127e
@14b0 0xb9e877a6
@14b1 0xbad5b5a9
@14b2 0xbafdfdac
@14b3 0xbb36ee80
@14b4 0x3850d6ac
@14b5 0x3ada956b
@14b6 0xb990c21b
@14b7 0xb97f1e8c
@14b8 0x39d341b0
@14b9 0x3b865127
@14ba 0x3aad50ef
@14bb 0x3a525bd5
@14bc 0x3a92010c
@14bd 0x3a5221ce
@14be 0x3aab6503
@14bf 0x3b30c06c
@14c0 0xba7ee6f8
@14c1 0xba984dad
@14c2 0xba7b8d2d
@14c3 0xba8f8dca
@14c4 0xbb344b5c
@14c5 0xbad6d7c7
@14c6 0xba1d6fc3
@14c7 0xb79055a8
@14c8 0xb310e40d
@14c9 0xb34febd3
@14ca 0xb35803c2
@14cb 0xb7009b40
@14cc 0xb91ac462
@14cd 0xba297da1
@14ce 0xbab60aad
@14cf 0xbb3b71d6
@14d0 0xb9cd7df1
@14d1 0x3962ee95
@14d2 0xb832fedb
@14d3 0x3b0a2ba0
@14d4 0xba6b6605
@14d5 0x37df2bcd
@14d6 0x3aae3432
@14d7 0xba33c54f
@14d8 0x3ad0c7a5
@14d9 0xb96a8c68
@14da 0x3a2636af
@14db 0xbaaa938a
@14dc 0xb9d021fc
@14dd 0x3ad9e575
@14de 0x3a36b44b
@14df 0xbae04ad9
@14e0 0xbb27822e
@14e1 0xbac186f8
@14e2 0xb9e47262
@14e3 0x369933f8
@14e4 0xb385bed0
@14e5 0x00000000
@14e6 0x00000000
@14e7 0xb5f3b605
@14e8 0xb78d38d0
@14e9 0xb8bc3252
@14ea 0xb9c00d9c
@14eb 0xbab01efd
@14ec 0xbb355b8d
@14ed 0xbb2b24fc
@14ee 0xbafcb1c0
@14ef 0xbae06f23
@14f0 0xbb131b0d
@14f1 0xbaaa1510
@14f2 0xb9b07263
@14f3 0xbaa99b75
@14f4 0xba3ef160
@14f5 0xba80028f
@14f6 0xbb130f49
@14f7 0xb9806298
@14f8 0xba50a5aa
@14f9 0xba3d2c63
@14fa 0xbacd32f2
@14fb 0xbaaa2848
@14fc 0xba703f5f
@14fd 0xba383a56
@14fe 0xb9075e75
@14ff 0xb61a6667
@1500 0x00000000
@1501 0x00000000
@1502 0x00000000
@1503 0xb4f9b8c3
@1504 0xb68d8e39
@1505 0xb7bef0ae
@1506 0xb898b3ff
@1507 0xb9a12941
@1508 0xba61d0aa
@1509 0xbad4e97b
@150a 0xbb1f9525
@150b 0xbb5552f6
@150c 0xbb7b0ad2
@150d 0xbb8f1765
@150e 0xbb9cc5f6
@150f 0xbbad297a
@1510 0xbb961d4d
@1511 0xbb50a506
@1512 0xbb4436d6
@1513 0xbb1b765f
@1514 0xbb174dbd
@1515 0xbac91c47
@1516 0xba969314
@1517 0xb9dfc7b5
@1518 0xb94fb5bd
@1519 0xb8565a92
@151a 0xb773f2bc
@151b 0xb51de2ff
@151c 0x00000000
@151d 0x00000000
@151e 0x00000000
@151f 0xb25900fa
@1520 0xb5c6e83a
@1521 0xb75181d2
@1522 0xb7ac16de
@1523 0xb8716912
@1524 0xb8f429db
@1525 0xb9a6ad1a
@1526 0xb9f9a0bd
@1527 0xba1e7e5a
@1528 0xba536e7b
@1529 0xba862dea
@152a 0xbaafbb1d
@152b 0xbab9ae36
@152c 0xbacd6876
@152d 0xbac68e9e
@152e 0xba863611
@152f 0xba6b18cb
@1530 0xba2d1f61
@1531 0xb9d37425
@1532 0xb9b4629a
@1533 0xb8ef6bd3
@1534 0xb822f024
@1535 0xb706bc0a
@1536 0xb496ced4
@1537 0xb4b446b1
@1538 0x00000000
@1539 0x00000000
@153a 0x00000000
@153b 0x00000000
@153c 0xb39dadcb
@153d 0xb5978095
@153e 0xb6a2b9fd
@153f 0xb78d3fbe
@1540 0xb81b08ac
@1541 0xb8b119bf
@1542 0xb90ee2cb
@1543 0xb95b69c5
@1544 0xb9899400
@1545 0xb98ad08a
@1546 0xb99c8811
@1547 0xb9ae9811
@1548 0xb9ae32e1
@1549 0xb996c4e3
@154a 0xb9859eab
@154b 0xb95b4054
@154c 0xb951d663
@154d 0xb944d3fa
@154e 0xb98efb13
@154f 0xb8b36a67
@1550 0xb680f16c
@1551 0xb2aaf031
@1552 0x00000000
@1553 0x00000000
@1554 0x00000000
@1555 0x00000000
@1556 0x00000000
@1557 0x00000000
@1558 0x00000000
@1559 0xb3ae7c13
@155a 0xb4ef8c13
@155b 0xb55c6be1
@155c 0xb6088d42
@155d 0xb66bb0fe
@155e 0xb6bf699d
@155f 0xb72a98d0
@1560 0xb75b6fc1
@1561 0xb7a4ed69
@1562 0xb7b3707d
@1563 0xb8527ea0
@1564 0xb856d38d
@1565 0xb7aab282
@1566 0xb79fb869
@1567 0xb783e66f
@1568 0xb6bea211
@1569 0xb720e461
@156a 0xb8f50eac
@156b 0xb89ece95
@156c 0xb4f96fc9
@156d 0x00000000
@156e 0x00000000
@156f 0x00000000
@1570 0xb8b05da3
@1571 0x00000000
@1572 0x00000000
@1573 0x00000000
@1574 0x00000000
@1575 0x00000000
@1576 0x00000000
@1577 0x00000000
@1578 0x00000000
@1579 0x00000000
@157a 0x00000000
@157b 0x00000000
@157c 0x00000000
@157d 0xb3b9d11c
@157e 0xb4b4c4a0
@157f 0xb42fef04
@1580 0xb1ea9405
@1581 0x00000000
@1582 0x00000000
@1583 0x00000000
@1584 0x00000000
@1585 0x00000000
@1586 0x00000000
@1587 0x00000000
@1588 0x00000000
@1589 0x00000000
@158a 0x00000000
@158b 0x00000000
@158c 0x00000000
@158d 0x00000000
@158e 0x00000000
@158f 0x00000000
@1590 0x00000000
@1591 0x00000000
@1592 0xb3e92cf9
@1593 0xb6a21287
@1594 0xb73715dd
@1595 0xb7ba1796
@1596 0xb7b2ad59
@1597 0xb786e476
@1598 0xb8f98e2a
@1599 0xb95fda10
@159a 0xb8dd6c7c
@159b 0xb7deef2f
@159c 0xb7cb7d2a
@159d 0xb8049372
@159e 0xb7424a9c
@159f 0xb6006716
@15a0 0xb68dca0d
@15a1 0xb63114e4
@15a2 0xb49eed7a
@15a3 0xb61c3523
@15a4 0xb6532b79
@15a5 0x00000000
@15a6 0x00000000
@15a7 0x00000000
@15a8 0x00000000
@15a9 0x00000000
@15aa 0x00000000
@15ab 0xb2e57a6f
@15ac 0xb6952b2d
@15ad 0xb5e1c86f
@15ae 0xb4eb3ecb
@15af 0xb6dfdde6
@15b0 0xb7bcfd68
@15b1 0xb848957b
@15b2 0xb8a52183
@15b3 0xb92144cf
@15b4 0xb954499d
@15b5 0xb9b0c27f
@15b6 0xb9943106
@15b7 0xb9455261
@15b8 0xb9472e6e
@15b9 0xb946dbd8
@15ba 0xb8e2b0b6
@15bb 0xb88f6f71
@15bc 0xb844a66e
@15bd 0xb7ce3e02
@15be 0xb760b17c
@15bf 0xb70d26e3
@15c0 0xb6969031
@15c1 0xb5a6fb46
@15c2 0xb4069f2a
@15c3 0x00000000
@15c4 0x00000000
@15c5 0x00000000
@15c6 0x00000000
@15c7 0xb3884dcc
@15c8 0xb7590102
@15c9 0xb713133a
@15ca 0xb757d8b0
@15cb 0xb7f48027
@15cc 0xb8d59915
@15cd 0xb9394ffa
@15ce 0xba128ece
@15cf 0xba4f97f1
@15d0 0xba774e11
@15d1 0xba8b4953
@15d2 0xba86772b
@15d3 0xba213c42
@15d4 0xba4d9f73
@15d5 0xba37863a
@15d6 0xb9fc8290
@15d7 0xba05986f
@15d8 0xb9817dfe
@15d9 0xb8efc1bd
@15da 0xb873d170
@15db 0xb804ff6b
@15dc 0xb7b98c2a
@15dd 0xb715d575
@15de 0xb558c5ae
@15df 0xb35f58a8
@15e0 0x00000000
@15e1 0x00000000
@15e2 0xb28a9852
@15e3 0xb3052674
@15e4 0xb4b241c6
@15e5 0xb82d4ab8
@15e6 0xb8ff63cd
@15e7 0xb962e60a
@15e8 0xba0135af
@15e9 0xba676a96
@15ea 0xbac34102
@15eb 0xbafc8797
@15ec 0xbb01caff
@15ed 0xbb0e19e3
@15ee 0xbb21f702
@15ef 0xbb1eb8c5
@15f0 0xbb39ebad
@15f1 0xbb456267
@15f2 0xbb420acd
@15f3 0xbb30591d
@15f4 0xbafc16b6
@15f5 0xbaa6e670
@15f6 0xb933d3c7
@15f7 0xba12c106
@15f8 0xb9ca77bf
@15f9 0xb8e67ece
@15fa 0xb7c227e1
@15fb 0xb6541682
@15fc 0xb499eb4d
@15fd 0x00000000
@15fe 0x00000000
@15ff 0xb6beab39
@1600 0xb6e69767
@1601 0xb9313825
@1602 0xb9063447
@1603 0xba6a6bcd
@1604 0xb98787d7
@1605 0xb9cbb6b6
@1606 0xba115977
@1607 0xbad801fb
@1608 0xbb112ebf
@1609 0xbb172a4a
@160a 0xba8fa746
@160b 0xb96b596e
@160c 0xbaa33e99
@160d 0xbb089c1b
@160e 0xbbb6f4ca
@160f 0xbbaeddf3
@1610 0xbbbeea96
@1611 0xbb9a4dbb
@1612 0xbb405102
@1613 0xbb2a4fd7
@1614 0xbad9a449
@1615 0xba16196c
@1616 0xb9551cd3
@1617 0xb8eab627
@1618 0xb6e901f8
@1619 0x00000000
@161a 0xb11426b9
@161b 0x396f931b
@161c 0x3988aa90
@161d 0x38835d64
@161e 0xb97a9969
@161f 0x3a2ca1ba
@1620 0x3aa6d6ff
@1621 0x3b003bd5
@1622 0xb75be51a
@1623 0x3ac8a3a0
@1624 0x3b1446b8
@1625 0x3b0be77a
@1626 0xba8a176d
@1627 0xb9e1a4c0
@1628 0xba636087
@1629 0x392c1a1c
@162a 0x3a4b21f1
@162b 0xb9cf9095
@162c 0x39962e17
@162d 0xba80ce41
@162e 0x39dbe514
@162f 0xba4449e5
@1630 0xbb218b52
@1631 0xbabba0c3
@1632 0xba7502fd
@1633 0xb9c8a3a0
@1634 0xb8a3fb31
@1635 0x3487acc1
@1636 0x386a8fe0
@1637 0x39eb20a9
@1638 0x3a90772b
@1639 0x39a8bbd0
@163a 0xba300a06
@163b 0x3a1848fd
@163c 0x3ae63be4
@163d 0xb9bf86e5
@163e 0x3a3c6830
@163f 0x3a523aee
@1640 0x3ac77b98
@1641 0x3ae18e2e
@1642 0xb89dd2e1
@1643 0xbad5bd46
@1644 0xb9da4d1e
@1645 0x39105b75
@1646 0x3aa4df3e
@1647 0x3a857d96
@1648 0xb983331f
@1649 0x3acd7054
@164a 0x3ae761dd
@164b 0x3a6dd217
@164c 0xb91250f9
@164d 0xbad5914f
@164e 0xbb0634c7
@164f 0xba3924b2
@1650 0xb8464ec5
@1651 0x3589d700
@1652 0x3a136a10
@1653 0x3a87f477
@1654 0x3ab268b1
@1655 0x3996ca6a
@1656 0x39d8d79b
@1657 0x3abf07e0
@1658 0x3b28d538
@1659 0x3abab82c
@165a 0x3a802362
@165b 0xb938d9a2
@165c 0x3aa7de74
@165d 0x3b242539
@165e 0xb819f354
@165f 0x3a3bc6e9
@1660 0x3af67053
@1661 0xba0c91a2
@1662 0x3a61f142
@1663 0x3a1282c6
@1664 0x3a9ad4f6
@1665 0x3a92f65e
@1666 0xba9700af
@1667 0x3a88b7a2
@1668 0x3a5176a0
@1669 0xbac8fa8f
@166a 0xbb0f2fc8
@166b 0xba6ddc48
@166c 0xb89fb069
@166d 0x3432f9ad
@166e 0x3a4c7049
@166f 0x3a86e5d4
@1670 0x3b046e0d
@1671 0x3a814463
@1672 0x3a89831e
@1673 0x3aa3446f
@1674 0x39c13c31
@1675 0x3b1184b5
@1676 0x3b21e66b
@1677 0xba8f6b8e
@1678 0xb9cc7af5
@1679 0x3b4eb51c
@167a 0x386f15eb
@167b 0x3ab73bdf
@167c 0x3842cc29
@167d 0x3ac497bb
@167e 0x3b4638bc
@167f 0x3a775f9b
@1680 0x3a483931
@1681 0xba5514c8
@1682 0x3a7c3db0
@1683 0x3ab5050d
@1684 0x3a4d13a3
@1685 0xbac01cb2
@1686 0xbae93491
@1687 0xb99926f7
@1688 0x39ef5a2f
@1689 0x3301b4b5
@168a 0x3a3dfba4
@168b 0x3aaebab6
@168c 0x3a9b3a05
@168d 0x3ab1153a
@168e 0x3ae2e6f4
@168f 0x3a2ebb7d
@1690 0xba8f1458
@1691 0xbaade4a0
@1692 0xb8d7d7b5
@1693 0x3a63572a
@1694 0xba18449b
@1695 0xba4b46b5
@1696 0x3b88fd18
@1697 0x3ac46b68
@1698 0x3b0a6e21
@1699 0x3b51bb81
@169a 0x3a23a412
@169b 0x39a5402d
@169c 0x3a893020
@169d 0x3a90ab65
@169e 0x3ad9e8ab
@169f 0x3a8e2d00
@16a0 0x3a4a5491
@16a1 0xbaa9bd5a
@16a2 0xba5fe305
@16a3 0xb99c938a
@16a4 0x38e6c5a8
@16a5 0x3681b4b5
@16a6 0x39df49b4
@16a7 0x3ada9a72
@16a8 0x3b1e3064
@16a9 0x3ac3c2c0
@16aa 0x3819fd92
@16ab 0xb9adad80
@16ac 0x3a4ba189
@16ad 0xbb11979e
@16ae 0x396a3083
@16af 0x3aaa3683
@16b0 0x39a48c25
@16b1 0xbab53458
@16b2 0x3ae7494d
@16b3 0x3a4148f5
@16b4 0x3aca6e1d
@16b5 0x3a63f4ac
@16b6 0x3a666b40
@16b7 0x3b140b17
@16b8 0x3aa5130f
@16b9 0x3a8566ff
@16ba 0x3a42802b
@16bb 0x39b8f11a
@16bc 0xbaec4d97
@16bd 0xbaf7612a
@16be 0xba69a4cf
@16bf 0xb9ada7f3
@16c0 0xb80220e2
@16c1 0x00000000
@16c2 0x3a22fde1
@16c3 0x3b0097e2
@16c4 0x3b5c4b47
@16c5 0x3b3e24fa
@16c6 0xb9e0de04
@16c7 0xbab57ca6
@16c8 0x3b10ee2d
@16c9 0x3aeb6f0b
@16ca 0xb983c983
@16cb 0xbb359132
@16cc 0x391ef8b4
@16cd 0xbad4c51f
@16ce 0xbb53b710
@16cf 0xbb4f9786
@16d0 0x3ab14ef5
@16d1 0x3adf215d
@16d2 0x3b1a998b
@16d3 0x3b107939
@16d4 0xb9d1415e
@16d5 0xba171ac7
@16d6 0xba37d2d7
@16d7 0x3a93be84
@16d8 0xbb818097
@16d9 0xbb159f1a
@16da 0xba1d1105
@16db 0xb935d300
@16dc 0xb540cf0f
@16dd 0xb59f026b
@16de 0x3a31b8e9
@16df 0x3a943f74
@16e0 0x3aebb7e6
@16e1 0x3aee424e
@16e2 0x39bdf030
@16e3 0x3919cf66
@16e4 0xba2678a5
@16e5 0xbb0df5e3
@16e6 0xbaac9ef1
@16e7 0xba040043
@16e8 0xba2c9070
@16e9 0xbb727f83
@16ea 0xbb995ef5
@16eb 0xbaf5019c
@16ec 0xba0fb40c
@16ed 0xba6cef85
@16ee 0xba4e4289
@16ef 0xbb149656
@16f0 0xbb011f8d
@16f1 0x399b7a48
@16f2 0x38f72425
@16f3 0xb7ef2a62
@16f4 0xbaefd46c
@16f5 0xba0b341b
@16f6 0xb8e2a68b
@16f7 0xb9acadb8
@16f8 0xb613cb32
@16f9 0xb4866fbb
