@0000 0xb4a6a477
@0001 0x3517f455
@0002 0x353b5d6c
@0003 0xb5bbefe3
@0004 0x354afbd9
@0005 0x351d3829
@0006 0xb5c35535
@0007 0x3600b0b3
@0008 0x345a333a
@0009 0x358c0307
@000a 0x3425feb7
@000b 0x348ffc87
@000c 0x358e0a14
@000d 0x3589076e
@000e 0x35e41f0f
@000f 0x346c5f30
@0010 0xb5ae4d4b
@0011 0x3543b28a
@0012 0xb45dc7b9
@0013 0x350ef645
@0014 0x3455edb8
@0015 0xb52ac73e
@0016 0x360e5a44
@0017 0xb615de32
@0018 0x33a65d0c
@0019 0xb4b47450
@001a 0xb4b06a54
@001b 0xb58767ba
@001c 0x34ec6d6d
@001d 0xb494792d
@001e 0xb50f4baa
@001f 0x35491986
@0020 0xb5de69b2
@0021 0x35f6bbe2
@0022 0xb4bd6ef9
@0023 0xb4ccf77d
@0024 0xb42a0093
@0025 0xb3295fdf
@0026 0x34264b95
@0027 0x353af426
@0028 0x345975fe
@0029 0xb48f9d9b
@002a 0x355c83bb
@002b 0x34128624
@002c 0xb5c6b696
@002d 0xb5640d2a
@002e 0x35b40941
@002f 0xb5ad11c6
@0030 0xb5741a32
@0031 0x35057bdb
@0032 0xb51c1571
@0033 0xb5c7c0ff
@0034 0xb5ba4ffc
@0035 0xb5b44475
@0036 0x35d61a72
@0037 0x36376d68
@0038 0xb5882308
@0039 0xb61e2f75
@003a 0xb58b768b
@003b 0xb516d18c
@003c 0xb5e6d1c5
@003d 0x353230d4
@003e 0x34c5f76b
@003f 0x35a7347e
@0040 0xb5b2d4d0
@0041 0x3622a01a
@0042 0x3421da1b
@0043 0x3479c574
@0044 0xb50704de
@0045 0x34e094d2
@0046 0x35efc8b2
@0047 0xb536fc57
@0048 0x35dd065e
@0049 0xb41bacbb
@004a 0xb55e8796
@004b 0xb4f23b6d
@004c 0x34570578
@004d 0xb3ccdcd4
@004e 0xb5fb1332
@004f 0x3513d152
@0050 0xb52bdd01
@0051 0xb5d4cdb5
@0052 0x35a10767
@0053 0xb5302de8
@0054 0x34915149
@0055 0x359321bf
@0056 0xb4e2647f
@0057 0xb5102267
@0058 0x35758bb7
@0059 0xb59d4b17
@005a 0xb401f5a4
@005b 0x35b38a2f
@005c 0x34f8a609
@005d 0x3495ba6d
@005e 0xb5466066
@005f 0xb49e7cdd
@0060 0xb3525fe6
@0061 0xb3aa92a9
@0062 0xb5f78ce9
@0063 0x3439c581
@0064 0x34e94284
@0065 0x344d9b9b
@0066 0xb5b40b49
@0067 0x34cc343d
@0068 0xb58694ce
@0069 0xb5985fcf
@006a 0xb50d2ba4
@006b 0xb4edab95
@006c 0x357478db
@006d 0xb1013199
@006e 0xb5a183cb
@006f 0x355c781d
@0070 0xb4e718ae
@0071 0x35642d89
@0072 0xb58d4c50
@0073 0x3540dc19
@0074 0xb518d096
@0075 0xb5c9bd52
@0076 0xb38a4374
@0077 0xb3304fc6
@0078 0xb59d79eb
@0079 0x353e12b4
@007a 0xb622127b
@007b 0xb51c00bd
@007c 0xb58c4a84
@007d 0x358cbcb0
@007e 0xb43ffdd6
@007f 0x34e6c7e3
@0080 0x348b56ac
@0081 0xb5c7d9e0
@0082 0xb5b68981
@0083 0x35d97c02
@0084 0xb2ffd247
@0085 0xb433148a
@0086 0x35546575
@0087 0xb51c5f15
@0088 0xb57ecc97
@0089 0x3579b4e9
@008a 0xb5539ad2
@008b 0x35a2b4cf
@008c 0x35a149cf
@008d 0xb52d1432
@008e 0xb5349276
@008f 0x3428169e
@0090 0xb543f7af
@0091 0x358d379b
@0092 0x35524196
@0093 0x35c59076
@0094 0x350e8fea
@0095 0xb3742a52
@0096 0x3521e829
@0097 0x3409f8c0
@0098 0xb62f4261
@0099 0x3445a69b
@009a 0xb55daed5
@009b 0x34b8d73c
@009c 0xb343092d
@009d 0x364b952d
@009e 0x3458b9c9
@009f 0xb5578b1c
@00a0 0x3404b7bc
@00a1 0x358bc5ed
@00a2 0x357d1a72
@00a3 0x3503efd2
@00a4 0xb4f330d0
@00a5 0x35b5245a
@00a6 0xb4f91103
@00a7 0xb5b3e1a6
@00a8 0x35873e8f
@00a9 0xb50deee3
@00aa 0xb4901710
@00ab 0x35db6256
@00ac 0x33f8c684
@00ad 0xb4acd6a2
@00ae 0x3626c995
@00af 0xb4260b28
@00b0 0x348ee98c
@00b1 0xb5daa9b9
@00b2 0x35743699
@00b3 0xb3675ffa
@00b4 0xb6020cc3
@00b5 0x351bd466
@00b6 0x34014622
@00b7 0xb44ed927
@00b8 0x360d54b1
@00b9 0x355bb01d
@00ba 0x34184d7e
@00bb 0xb52c8260
@00bc 0x353aad6d
@00bd 0x359ed17c
@00be 0xb49b6377
@00bf 0xb505de27
@00c0 0x349148bb
@00c1 0x355e938b
@00c2 0x356e8c2d
@00c3 0x357440fd
@00c4 0xb4c165f8
@00c5 0xb506093a
@00c6 0xb5828ba5
@00c7 0x3296eedb
@00c8 0x35049516
@00c9 0xb5b0051d
@00ca 0x358b4337
@00cb 0xb54e75a7
@00cc 0x357b956b
@00cd 0xb5bc96a3
@00ce 0x338f1651
@00cf 0xb57ca70f
@00d0 0xb46c87e3
@00d1 0xb5fadbae
@00d2 0x356d7961
@00d3 0x33a61a15
@00d4 0xb5335697
@00d5 0x358a63a5
@00d6 0xb537c9d8
@00d7 0x357687d1
@00d8 0x35813fd9
@00d9 0xb54e6262
@00da 0x34fd87b0
@00db 0x35cd811b
@00dc 0x360f19a4
@00dd 0xb58db25e
@00de 0xb5977686
@00df 0xb4f342e6
@00e0 0xb3a34b31
@00e1 0xb3ea4baa
@00e2 0xb38e66e8
@00e3 0xb55a70db
@00e4 0x3592531c
@00e5 0x35d861e6
@00e6 0x351cae1a
@00e7 0xb48d1954
@00e8 0xb5be15cb
@00e9 0x359b880f
@00ea 0x356906d2
@00eb 0x35b2c524
@00ec 0x343703f6
@00ed 0xb5dffacd
@00ee 0x3461345f
@00ef 0x34b662e1
@00f0 0x359598ec
@00f1 0xb59da8f6
@00f2 0xb521bfce
@00f3 0xb4e4b4cb
@00f4 0xb50f04fa
@00f5 0x35db225c
@00f6 0xb459dfa6
@00f7 0xb373968b
@00f8 0xb5b74ba6
@00f9 0xb586ff9a
@00fa 0xb43927e3
@00fb 0xb53ebf18
@00fc 0x36163df3
@00fd 0x350b7c7d
@00fe 0xb499c37d
@00ff 0xb3bee1a9
@0100 0x348e21c6
@0101 0xb5a96a77
@0102 0x349204db
@0103 0x35e80c95
@0104 0x3399bb8b
@0105 0xb52c8d58
@0106 0x35b12c0e
@0107 0x3599eb7f
@0108 0x351c42bb
@0109 0x34b0fb9c
@010a 0x34b3e08b
@010b 0xb3cb0c2e
@010c 0x358c26c5
@010d 0xb513ba8e
@010e 0xb6107c8d
@010f 0xb56a0807
@0110 0x3545ebe1
@0111 0xb4fc7f3b
@0112 0x359b0990
@0113 0xb4947157
@0114 0x3503cfcf
@0115 0xb596da3a
@0116 0xb4927c6d
@0117 0xb4b9ce0b
@0118 0x34d2be97
@0119 0x3596b57a
@011a 0xb511a56e
@011b 0xb50f8371
@011c 0x35fb5e29
@011d 0xb4dc7b6f
@011e 0xb4fe8296
@011f 0xb4b7e2c7
@0120 0xb4b46914
@0121 0x3630520b
@0122 0x34c5da7c
@0123 0xb5c989a5
@0124 0x3525d55e
@0125 0xb4ce37b6
@0126 0x34c9e6eb
@0127 0x33bd03b4
@0128 0xb3e3ee39
@0129 0xb566567f
@012a 0xb41c6d5d
@012b 0x35368418
@012c 0x3506f9a7
@012d 0x35d24177
@012e 0x3526efab
@012f 0x35e9fa71
@0130 0x3536d26b
@0131 0xb4d52384
@0132 0xb4528bca
@0133 0xb5c20f2a
@0134 0xb48dab5c
@0135 0xb59a4059
@0136 0xb5dc162e
@0137 0x3502b60a
@0138 0x338b2035
@0139 0x35cb4c78
@013a 0xb3d9de1d
@013b 0xb615198c
@013c 0xb5a8fac5
@013d 0xb530e629
@013e 0x34d19ccb
@013f 0xb5a1b907
@0140 0x34ca6fce
@0141 0xb5024411
@0142 0x35be10e6
@0143 0x35e893a1
@0144 0xb4636066
@0145 0xb5d18b43
@0146 0x3366ad43
@0147 0xb525f1e5
@0148 0xb588dcf2
@0149 0xb57a13f7
@014a 0x34874805
@014b 0xb576fd66
@014c 0xb523324b
@014d 0xb5a87ff2
@014e 0x364029cd
@014f 0xb575e890
@0150 0x354e367e
@0151 0xb4858a3f
@0152 0x350212f9
@0153 0xb574bf36
@0154 0xb4af33d8
@0155 0x3502759f
@0156 0x34b2e1b5
@0157 0xb394c804
@0158 0xb3e92d17
@0159 0xb5299663
@015a 0x3390e2f3
@015b 0x33f6560a
@015c 0x359b1777
@015d 0xb522b92a
@015e 0xb5a1884c
@015f 0xb5c5485a
@0160 0xb577ea44
@0161 0x3509b244
@0162 0x351b172c
@0163 0x353a03e1
@0164 0x358c9da3
@0165 0x3574b14b
@0166 0x353705ab
@0167 0x35f6110e
@0168 0x34c2b2a4
@0169 0xb502627d
@016a 0x3379a59a
@016b 0x35959ac4
@016c 0x35c247c0
@016d 0x35b413fd
@016e 0xb508456c
@016f 0x3516228b
@0170 0xb58b1ab0
@0171 0xb5fb97c7
@0172 0x351da43c
@0173 0xb582ea1a
@0174 0xb34ea558
@0175 0xb57db78a
@0176 0xb56f0018
@0177 0xb499ac37
@0178 0x357ae142
@0179 0x356a972b
@017a 0xb57ff8f9
@017b 0x3573ac8d
@017c 0xb5da97bc
@017d 0x34dc78bf
@017e 0x35a00a94
@017f 0x31e3cc67
@0180 0xb497d4db
@0181 0x350047f0
@0182 0xb46676ea
@0183 0xb606b740
@0184 0x34995e7f
@0185 0x353cec96
@0186 0xb4abdfde
@0187 0xb54c6933
@0188 0x3496811f
@0189 0xb4b6047e
@018a 0xb4dcdb5d
@018b 0xb5617e6f
@018c 0xb63753f6
@018d 0x3597bb6b
@018e 0xb3af03ac
@018f 0xb6154a02
@0190 0xb53ef26f
@0191 0xb57573b4
@0192 0x3570e2a8
@0193 0x358d8516
@0194 0x3555e684
@0195 0x3584b5d0
@0196 0xb4f29726
@0197 0xb4931ec9
@0198 0xb595fb6d
@0199 0xb530a7d9
@019a 0xb5893c75
@019b 0x35fbe737
@019c 0xb3a8368c
@019d 0xb41a58a6
@019e 0x3535f4f4
@019f 0x3483807e
@01a0 0xb489861f
@01a1 0xb507a67d
@01a2 0xb633fd28
@01a3 0xb4876fbc
@01a4 0xb5e4b7c3
@01a5 0x3588cb1a
@01a6 0x3501f11d
@01a7 0xb5e9d9c5
@01a8 0x3594201f
@01a9 0xb4923343
@01aa 0xb56d0c4f
@01ab 0xb5cb8cbc
@01ac 0xb5513fdb
@01ad 0xb5ad186b
@01ae 0xb553d726
@01af 0xb5cd08da
@01b0 0x351e2f71
@01b1 0xb5a1feb8
@01b2 0x3462c4c7
@01b3 0x34dab59e
@01b4 0xb507e170
@01b5 0x353fffe5
@01b6 0xb43b049b
@01b7 0xb48e2ea6
@01b8 0xb5ff6c65
@01b9 0x35022205
@01ba 0xb3ad55f9
@01bb 0xb50f9776
@01bc 0x34f0597b
@01bd 0x34126aa4
@01be 0x35a0e3f7
@01bf 0xb5c0a873
@01c0 0x35d33df7
@01c1 0x34826c97
@01c2 0x353b236c
@01c3 0x340357da
@01c4 0xb4a1c091
@01c5 0x35adc9ed
@01c6 0xb548691b
@01c7 0xb531ec5b
@01c8 0xb59001f9
@01c9 0xb59afa10
@01ca 0x34f15d5c
@01cb 0xb585d1df
@01cc 0x35d56fc7
@01cd 0x34452e34
@01ce 0x33f602dd
@01cf 0xb5c89d24
@01d0 0xb5ac69ac
@01d1 0xb4a0d133
@01d2 0xb49bfc8e
@01d3 0x337372c8
@01d4 0x3598f924
@01d5 0x34e4b446
@01d6 0xb58fc76c
@01d7 0xb5a2e143
@01d8 0xb5753349
@01d9 0x34ada902
@01da 0xb5106ef9
@01db 0xb4c632e9
@01dc 0x358ae2be
@01dd 0xb57755c4
@01de 0xb3b73367
@01df 0x35998347
@01e0 0x36439ca3
@01e1 0x35384dd7
@01e2 0xb56663d1
@01e3 0xb5bf512c
@01e4 0x34ccbb73
@01e5 0x33b74972
@01e6 0x362aba53
@01e7 0x34f467f3
@01e8 0xb548434a
@01e9 0x35d1a2a8
@01ea 0xb612396e
@01eb 0xb5b8498b
@01ec 0x35c02c95
@01ed 0xb577852c
@01ee 0xb61f1ad3
@01ef 0x34f007f3
@01f0 0x3530cc0e
@01f1 0xb480f545
@01f2 0x36141cff
@01f3 0xb5ab08e9
@01f4 0xb5b4872f
@01f5 0x33f1830d
@01f6 0x3561a1e8
@01f7 0x3494dcbb
@01f8 0x35665910
@01f9 0x35416b28
@01fa 0x35d25a9e
@01fb 0xb4e39ccf
@01fc 0x327ca17a
@01fd 0x34bc8994
@01fe 0x342a7450
@01ff 0x356baae5
@0200 0x351f4d35
@0201 0xb5d4d659
@0202 0x351b8534
@0203 0xb5188422
@0204 0xb55f50cd
@0205 0xb4e2b6ea
@0206 0x35590f21
@0207 0xb576d518
@0208 0xb4a82f4e
@0209 0x35896317
@020a 0x35080410
@020b 0xb5f247ac
@020c 0x34e6b9b8
@020d 0xb4df1aea
@020e 0x347b3696
@020f 0xb4122634
@0210 0xb4b67e75
@0211 0x3441c68c
@0212 0x35ac640e
@0213 0x3601c085
@0214 0x356c532c
@0215 0xb58fbb3c
@0216 0xb44a0af0
@0217 0x353f6799
@0218 0x34806244
@0219 0x35537df2
@021a 0x34afd364
@021b 0xb5aea7d5
@021c 0x35182448
@021d 0xb555ad3e
@021e 0xb42a29b4
@021f 0xb5e3f2a4
@0220 0xb513880e
@0221 0xb2f1fe06
@0222 0x350011a1
@0223 0xb631a2a3
@0224 0xb6332e2b
@0225 0xb5ee8879
@0226 0x35abce98
@0227 0xb5088100
@0228 0x338ac84b
@0229 0xb56dcac2
@022a 0x3598f955
@022b 0xb457ece6
@022c 0x35c3d2f9
@022d 0xb571dda9
@022e 0xb4bd0113
@022f 0x33a8bb3b
@0230 0xb41a0dd5
@0231 0xb4e4d3ad
@0232 0xb52e42f4
@0233 0x35b2886a
@0234 0x35a60d2e
@0235 0x358bfba0
@0236 0xb4a8e2ad
@0237 0xb5c31d6e
@0238 0x3501f098
@0239 0x35239ef4
@023a 0x35305523
@023b 0x32c7b424
@023c 0xb42c4d2a
@023d 0xb5c07b11
@023e 0xb431e2bb
@023f 0xb3f9633f
@0240 0xb51ae231
@0241 0xb4e5301d
@0242 0x3521c70b
@0243 0xb33f5a62
@0244 0x35383a84
@0245 0x35c2a6be
@0246 0x355a624d
@0247 0x363187bf
@0248 0xb31b1b69
@0249 0xb56dceb1
@024a 0x36014ac5
@024b 0xb307a1aa
@024c 0xb554d856
@024d 0xb51307fd
@024e 0x34e74060
@024f 0xb44d88ed
@0250 0xb5682dcf
@0251 0xb5c6fedd
@0252 0x34f8e877
@0253 0xb5e4754c
@0254 0xb20b156e
@0255 0x350ff854
@0256 0x35dd38b8
@0257 0xb5ccbea8
@0258 0x3550a56c
@0259 0x3588585b
@025a 0xb4a05725
@025b 0x35a68159
@025c 0xb558cb36
@025d 0x3606577c
@025e 0xb61a20dc
@025f 0xb4e0b1cf
@0260 0xb5e11518
@0261 0xb5cd953c
@0262 0x344ddfda
@0263 0x352bd027
@0264 0xb58b6bc7
@0265 0x35981959
@0266 0xb5563107
@0267 0x351c1c9f
@0268 0x349e42b8
@0269 0xb57b9838
@026a 0xb487a20b
@026b 0x3592d1e2
@026c 0xb5f1d69e
@026d 0xb42c4e0f
@026e 0x35195479
@026f 0x34adc9f5
@0270 0xb4361dae
@0271 0xb3fbd6a7
@0272 0x354c2e82
@0273 0x350c3dda
@0274 0x34f5e07a
@0275 0xb595be0e
@0276 0xb3d8252d
@0277 0xb4882a90
@0278 0xb58690e8
@0279 0xb53467e1
@027a 0x351c9fea
@027b 0xb458d22d
@027c 0x3575d38d
@027d 0xb5104bea
@027e 0x354cb103
@027f 0x351364a0
@0280 0x3423151a
@0281 0x3594663c
@0282 0xb5ffe665
@0283 0x358830e4
@0284 0x35d5f51d
@0285 0xb52683e7
@0286 0x348ff337
@0287 0x3522abd6
@0288 0x348dfb5f
@0289 0x3466cef4
@028a 0xb5a356d5
@028b 0x35c49114
@028c 0xb572ad44
@028d 0x34829fc1
@028e 0xb5bf6f30
@028f 0xb4427eb5
@0290 0x34457b21
@0291 0x3570467b
@0292 0xb52ed08a
@0293 0xb5c76d76
@0294 0x3490e070
@0295 0xb4e8ab37
@0296 0xb466fc23
@0297 0xb51a8bb0
@0298 0xb4da49a7
@0299 0xb51d3ad5
@029a 0xb57597a8
@029b 0x35e55dc3
@029c 0x3552d29a
@029d 0xb57abce9
@029e 0xb620eb77
@029f 0xb501b73f
@02a0 0x35cbae6d
@02a1 0x3517e2f5
@02a2 0x359b1b21
@02a3 0x36203a75
@02a4 0x356b1f3a
@02a5 0x34cbcdee
@02a6 0x353631aa
@02a7 0xb513b502
@02a8 0xb5367872
@02a9 0xb53424c9
@02aa 0x35b4597f
@02ab 0x3500a1ca
@02ac 0x35ad928b
@02ad 0xb5244ac3
@02ae 0xb5a0721a
@02af 0x349baa63
@02b0 0x349956c4
@02b1 0x3580afbe
@02b2 0xb5fea998
@02b3 0xb52403e9
@02b4 0x35dc9dab
@02b5 0x35bc0504
@02b6 0xb4d0cc25
@02b7 0xb5e53578
@02b8 0xb26fcac8
@02b9 0xb59d677b
@02ba 0x35ad1770
@02bb 0xb599aa22
@02bc 0xb5c50532
@02bd 0x3586dea2
@02be 0x35835aa1
@02bf 0xb436ef43
@02c0 0xb615e67b
@02c1 0x35495b14
@02c2 0x33c2389a
@02c3 0xb58a6de3
@02c4 0xb5724c44
@02c5 0x348af4ef
@02c6 0x35627c1d
@02c7 0x3559ac84
@02c8 0xb448af2d
@02c9 0xb59b561e
@02ca 0x348e68a3
@02cb 0xb589f90c
@02cc 0xb4d11587
@02cd 0xb3432117
@02ce 0xb5e01a04
@02cf 0xb4bbabc1
@02d0 0x359ebf04
@02d1 0x351164fe
@02d2 0x353c8bea
@02d3 0xb5554121
@02d4 0x338b406e
@02d5 0xb5a1b8cf
@02d6 0xb5af6d5f
@02d7 0x339ecb73
@02d8 0x353b8bb3
@02d9 0x348dd873
@02da 0x35c334f4
@02db 0xb4935fe7
@02dc 0xb3a36bbc
@02dd 0xb53af95a
@02de 0xb579859d
@02df 0x358963b6
@02e0 0xb5490823
@02e1 0xb3b13be1
@02e2 0xb452b1d2
@02e3 0xb3e8ab47
@02e4 0x35d47353
@02e5 0x355978c3
@02e6 0x3307b851
@02e7 0x35f9e018
@02e8 0x353fe2ad
@02e9 0xb60569ce
@02ea 0xb5d6ce9d
@02eb 0xb422a023
@02ec 0xb534f020
@02ed 0xb231e85f
@02ee 0xb55e7187
@02ef 0x34432e04
@02f0 0xb4fa6c76
@02f1 0xb54a0803
@02f2 0xb5b0bbd7
@02f3 0x3593be0e
@02f4 0x346260d2
@02f5 0xb4aadb5a
@02f6 0xb5a70962
@02f7 0xb48a54df
@02f8 0xb57738a3
@02f9 0x3552650d
@02fa 0x348de16d
@02fb 0x35383aa8
@02fc 0xb553ec08
@02fd 0xb5573679
@02fe 0xb4e064cf
@02ff 0x34086cba
@0300 0xb5277d36
@0301 0x337125d1
@0302 0x342634c1
@0303 0x34d5faee
@0304 0x3571c91b
@0305 0xb3170e90
@0306 0xb5983410
@0307 0x353c99c9
@0308 0xb49b2eb4
@0309 0xb4fdd93d
@030a 0xb4a1e9d6
@030b 0x35be3aa7
@030c 0xb4537590
@030d 0xb44fef99
@030e 0xb58d6215
@030f 0x35b533b3
@0310 0xb313702e
@0311 0x35ac7bc8
@0312 0xb4b13099
@0313 0xb3bdd33a
@0314 0xb52a504d
@0315 0xb58eec16
@0316 0xb566d20e
@0317 0x34a10f78
@0318 0x35b8181e
@0319 0x359a48ea
@031a 0xb4278a16
@031b 0xb2a6bc67
@031c 0xb53c2785
@031d 0x35744ff6
@031e 0x33b52015
@031f 0x35dfa2db
@0320 0xb49c1e3b
@0321 0xb5870389
@0322 0xb4d1391a
@0323 0xb5441729
@0324 0xb3fa8b2c
@0325 0xb5c48311
@0326 0x34063550
@0327 0x3594a06c
@0328 0x3530e5ba
@0329 0xb4ecab27
@032a 0x346158f2
@032b 0xb45381e0
@032c 0xb3f98f1d
@032d 0xb50574c4
@032e 0x3289d34f
@032f 0xb594fa2e
@0330 0x35119778
@0331 0x3591363c
@0332 0xb19a2431
@0333 0x34ca6688
@0334 0x362cd2b8
@0335 0xb5ad9ba1
@0336 0x35dbcd81
@0337 0xb54fcb44
@0338 0x34e02047
@0339 0x33da9d9c
@033a 0x3528b0ab
@033b 0xb511896f
@033c 0xb5b19a50
@033d 0xb53b7110
@033e 0x36230ea8
@033f 0xb5200d81
@0340 0x359ffe65
@0341 0xb31b453f
@0342 0x353c0493
@0343 0xb50ebcc8
@0344 0xb52d22aa
@0345 0xb5c28b81
@0346 0x3532e331
@0347 0x35436d63
@0348 0x352194cb
@0349 0xb32382d1
@034a 0x35b63880
@034b 0xb5232253
@034c 0xb3867130
@034d 0xb5314d43
@034e 0xb4e5638d
@034f 0xb60a4c43
@0350 0xb5cf0091
@0351 0xb3b3c9b6
@0352 0x34199b2c
@0353 0xb5a3e67b
@0354 0x3516e6ae
@0355 0xb555abf4
@0356 0x34be0ec2
@0357 0x35eeb7b9
@0358 0xb5765e41
@0359 0x35bd2fa4
@035a 0xb4b6587a
@035b 0xb145a1f9
@035c 0xb59878a2
@035d 0x3593f9cf
@035e 0x358c721d
@035f 0xb5ce1fdf
@0360 0x34831de1
@0361 0x3565e1c8
@0362 0xb617f020
@0363 0x337f645c
@0364 0xb504d714
@0365 0x350776c6
@0366 0x341f4a81
@0367 0x34444c6e
@0368 0x358f1489
@0369 0x35f967c1
@036a 0x33d2765e
@036b 0xb588dde8
@036c 0x355b95af
@036d 0x340c9e98
@036e 0xb58111ac
@036f 0xb506cb0c
@0370 0x34a74c26
@0371 0x35cf2218
@0372 0xb618349d
@0373 0xb5a2da3a
@0374 0xb59ca6b3
@0375 0xb5368af6
@0376 0x35819bf8
@0377 0xb57e640b
@0378 0x35b0e8f0
@0379 0x332639f8
@037a 0x35c872c4
@037b 0xb55f34af
@037c 0xb4a1164f
@037d 0xb586c7ac
@037e 0x343907c9
@037f 0x35d1b2cc
@0380 0x34cf1d2e
@0381 0x35d5f303
@0382 0x360dd9d0
@0383 0xb513f1c2
@0384 0x35229207
@0385 0x35550cf8
@0386 0xb58350c6
@0387 0xb4567b09
@0388 0xb4abaa31
@0389 0xb51fbab0
@038a 0xb498bbb9
@038b 0xb25d967b
@038c 0x34b3ed38
@038d 0xb532b788
@038e 0x35033323
@038f 0xb4454ab3
@0390 0xb54fbbbe
@0391 0xb56e1b8c
@0392 0xb5a2446a
@0393 0x35150273
@0394 0x35b96c8c
@0395 0xb505a32e
@0396 0x34d6fbf1
@0397 0x34ce1394
@0398 0x35fb4c62
@0399 0xb4bafee1
@039a 0x353d4a26
@039b 0x35e08e10
@039c 0x3515f537
@039d 0xb645c891
@039e 0xb560d2f6
@039f 0x34da4bfe
@03a0 0xb5667ae5
@03a1 0xb4c2353b
@03a2 0x3592fc00
@03a3 0xb43e169c
@03a4 0xb4cb31eb
@03a5 0x349f60b7
@03a6 0xb54438b8
@03a7 0xb4b77e16
@03a8 0xb5fe2c7d
@03a9 0x35ec0a61
@03aa 0xb44ed1f7
@03ab 0xb4bc3a89
@03ac 0xb5a93736
@03ad 0xb529e45a
@03ae 0x34b62988
@03af 0xb54b71c3
@03b0 0xb528363f
@03b1 0x3567ef0e
@03b2 0x34b92b2d
@03b3 0x353b1c34
@03b4 0x3438eae5
@03b5 0xb5c1f498
@03b6 0xb30e0068
@03b7 0xb54ccaf9
@03b8 0xb60d2f56
@03b9 0xb408bd2c
@03ba 0x353b105c
@03bb 0xb5332a9b
@03bc 0xb5e8de3f
@03bd 0x3586636f
@03be 0xb5a0b7a3
@03bf 0xb5b8416b
@03c0 0x348eb8a0
@03c1 0x35818d87
@03c2 0xb5e846ec
@03c3 0xb51e5ac6
@03c4 0xb50f5db2
@03c5 0x359ecc7e
@03c6 0xb501dc4d
@03c7 0xb34031f1
@03c8 0xb5af1167
@03c9 0x354cce20
@03ca 0xb3a634f2
@03cb 0xb1b7aa6d
@03cc 0x35c072cd
@03cd 0x35bea973
@03ce 0xb4b1f51d
@03cf 0xb557de06
@03d0 0x3663b6c2
@03d1 0xb5da2adb
@03d2 0x354dec43
@03d3 0x3401c389
@03d4 0x34e53ff6
@03d5 0xb50b8eec
@03d6 0x34cb6ae1
@03d7 0x34b8838e
@03d8 0x35e0d532
@03d9 0xb3ac1c52
@03da 0xb60875d9
@03db 0x34e1cbfb
@03dc 0xb598d9bf
@03dd 0x3403efe5
@03de 0xb61b5bd9
@03df 0xb5d049a7
@03e0 0xb5c6dcdf
@03e1 0x3507a732
@03e2 0xb5f46085
@03e3 0x356925ff
@03e4 0x35a21e4d
@03e5 0x339c5c2d
@03e6 0xb544373a
@03e7 0x34e52213
@03e8 0x351483b9
@03e9 0x34be6289
@03ea 0xb4abcd34
@03eb 0x352b38ec
@03ec 0x35cdd9b8
@03ed 0x34045a4b
@03ee 0x359ffe27
@03ef 0x35141d59
@03f0 0x361cddce
@03f1 0xb5c8277c
@03f2 0xb4c3942c
@03f3 0xb56ef2cc
@03f4 0x34ab4bd1
@03f5 0x35193929
@03f6 0xb609f380
@03f7 0x35aa7fda
@03f8 0xb58397e3
@03f9 0x3476a36b
@03fa 0x343a8b93
@03fb 0xb4df3ef8
@03fc 0xb29f1ea6
@03fd 0xb5141bca
@03fe 0xb60d5ef1
@03ff 0xb24f91a5
@0400 0x35aa9f81
@0401 0x3606bfee
@0402 0x35a84e74
@0403 0xb4f0e8de
@0404 0xb37f51d4
@0405 0x356030fd
@0406 0xb58aa94e
@0407 0xb5143853
@0408 0x359688ec
@0409 0x353b50ae
@040a 0xb4f08b36
@040b 0xb5acf3a8
@040c 0xb3aa4a91
@040d 0xb5c737a3
@040e 0x34cafec6
@040f 0xb509cd99
@0410 0x34804a44
@0411 0xb5b5cd2d
@0412 0x35e5a318
@0413 0x355d457d
@0414 0x3606f43b
@0415 0x3459a1cb
@0416 0x360088d8
@0417 0xb4df5b46
@0418 0xb471970e
@0419 0x34b8f142
@041a 0xb5ee9728
@041b 0xb533b7bc
@041c 0x34d6c1c5
@041d 0xb4420615
@041e 0xb57b56db
@041f 0xb4959ed6
@0420 0xb52944e7
@0421 0xb5a3f0ad
@0422 0xb59cb29f
@0423 0xb34475f1
@0424 0x34000898
@0425 0xb525fe21
@0426 0x34d39918
@0427 0xb523429f
@0428 0x34344d62
@0429 0x3453d18e
@042a 0x35a21d25
@042b 0xb4e66853
@042c 0xb4f1004b
@042d 0x34cfd214
@042e 0x33c51114
@042f 0x33816777
@0430 0xb56e8ed3
@0431 0xb5d5b27d
@0432 0xb443a5d2
@0433 0x3606fb76
@0434 0x36109aa0
@0435 0xb5d810ee
@0436 0x359d55e0
@0437 0xb61255f5
@0438 0xb474ef07
@0439 0xb601e28f
@043a 0x35ad0cf4
@043b 0x3574d16c
@043c 0x3405658a
@043d 0xb5ca8b96
@043e 0x35eff5c2
@043f 0x35e92fac
@0440 0xb520da0f
@0441 0xb669014e
@0442 0x35111d1b
@0443 0x3521d82d
@0444 0xb57f19b9
@0445 0xb38f6b59
@0446 0xb5249d31
@0447 0x33fbeed0
@0448 0x35e56675
@0449 0x35c0573c
@044a 0xb5aec3a6
@044b 0x34c841e8
@044c 0x3393d077
@044d 0xb59111cd
@044e 0xb5150372
@044f 0xb4e90f96
@0450 0xb4e50396
@0451 0x355357a1
@0452 0xb584775b
@0453 0xb4a95baa
@0454 0x354f35e4
@0455 0x35ad55c8
@0456 0x341a2358
@0457 0x34eb3941
@0458 0xb52dd32d
@0459 0xb4c477e3
@045a 0xb3f61e61
@045b 0xb5aa9055
@045c 0xb4cf1f3b
@045d 0x35c3f481
@045e 0xb520bfa3
@045f 0x34177f1c
@0460 0xb5ddf0ba
@0461 0x352b1335
@0462 0x3591fc8e
@0463 0xb5afbd3c
@0464 0xb56bd60c
@0465 0xb29519b2
@0466 0x34c9ea68
@0467 0x35546b48
@0468 0xb4f39b4a
@0469 0x34b8151d
@046a 0x34979f6f
@046b 0xb536a12c
@046c 0xb47b0544
@046d 0xb5f059d6
@046e 0x351d219f
@046f 0xb466b0b8
@0470 0xb5319a27
@0471 0xb4252839
@0472 0x36096cce
@0473 0xb509d5c4
@0474 0xb52d7fae
@0475 0xb22a6013
@0476 0xb44cbe8a
@0477 0xb43a752c
@0478 0xb5b26312
@0479 0x3522dd0a
@047a 0xb54df1af
@047b 0xb5fdd53a
@047c 0xb5f54dd2
@047d 0x34a7443a
@047e 0x349c8620
@047f 0xb534ba05
@0480 0xb56b01f6
@0481 0xb54aec7d
@0482 0x350b0180
@0483 0xb4c98d2f
@0484 0xb4974fb8
@0485 0x354fcc33
@0486 0x34b5dbf5
@0487 0xb5d6d8d9
@0488 0xb59128b8
@0489 0xb50198de
@048a 0x343d5911
@048b 0x35b92241
@048c 0xb56b91ca
@048d 0xb503e037
@048e 0x3506e5a9
@048f 0xb2c48465
@0490 0xb43ab57d
@0491 0x334f12bc
@0492 0x358d9ca2
@0493 0x359712cc
@0494 0xb5fd1fd5
@0495 0x3556343a
@0496 0x33cac5d4
@0497 0x359ed655
@0498 0xb599ebe0
@0499 0x34191da0
@049a 0xb5b1120b
@049b 0xb59b6449
@049c 0x35bd117f
@049d 0xb5287725
@049e 0x3534ecaa
@049f 0xb6040c16
@04a0 0x35334cfa
@04a1 0x35ee7704
@04a2 0x35f0b197
@04a3 0xb2deeb14
@04a4 0xb5604557
@04a5 0xb53529f8
@04a6 0x3609cafe
@04a7 0x35ee15bc
@04a8 0xb5bcf965
@04a9 0xb4d18073
@04aa 0xb571d180
@04ab 0xb5868a08
@04ac 0x35a32d77
@04ad 0xb4b23c0d
@04ae 0x34b07c44
@04af 0xb468ef35
@04b0 0x34df4539
@04b1 0xb36545c7
@04b2 0x34c0f404
@04b3 0xb3e7441a
@04b4 0xb52ed4a6
@04b5 0x35203709
@04b6 0x358bf2b8
@04b7 0x33c0a3f0
@04b8 0x3604afbc
@04b9 0x35677331
@04ba 0xb562ba17
@04bb 0x33311a6d
@04bc 0xb5971fe6
@04bd 0x348ed2a6
@04be 0xb2ea4da8
@04bf 0xb50efa4c
@04c0 0x35462212
@04c1 0x352215d1
@04c2 0x35f4d926
@04c3 0xb557b0a2
@04c4 0x344384fc
@04c5 0x33542735
@04c6 0xb5569c0c
@04c7 0xb5627071
@04c8 0x36127ef1
@04c9 0x343e99a5
@04ca 0x35769d1d
@04cb 0xb4bdb7a7
@04cc 0x344de64e
@04cd 0x34352eb8
@04ce 0x32ae8e85
@04cf 0xb4b7134c
@04d0 0xb5b08c18
@04d1 0x3528985e
@04d2 0x32adf776
@04d3 0x353d74db
@04d4 0xb54bf933
@04d5 0x35669213
@04d6 0x33ca7bda
@04d7 0x33be31da
@04d8 0x348a8904
@04d9 0x3464166a
@04da 0xb487d8ee
@04db 0x35e088e5
@04dc 0xb62dac75
@04dd 0xb2b5129f
@04de 0xb57833ac
@04df 0x343a1df7
@04e0 0x358e4970
@04e1 0x3486154c
@04e2 0x35d7a900
@04e3 0xb5ed1790
@04e4 0x35fa407f
@04e5 0x358b528b
@04e6 0xb4ca832a
@04e7 0xb5611569
@04e8 0x35862a48
@04e9 0xb559ac28
@04ea 0xb615c6fa
@04eb 0x3524c11d
@04ec 0x340e372c
@04ed 0xb59dfa6d
@04ee 0xb42d3d9b
@04ef 0xb5654e42
@04f0 0x34ca1b76
@04f1 0xb4317d10
@04f2 0xb4e8c34f
@04f3 0x35127343
@04f4 0xb498e4e3
@04f5 0xb53ca304
@04f6 0xb4b83382
@04f7 0xb04c611e
@04f8 0xb5faaf50
@04f9 0xb4ef011e
@04fa 0x3418a21c
@04fb 0xb5221c66
@04fc 0x34e4f177
@04fd 0x34338dfc
@04fe 0xb5a0de45
@04ff 0xb5d4eb2d
@0500 0xb5366a2b
@0501 0xb3f48020
@0502 0xb6017ebf
@0503 0x34b170d3
@0504 0xb59597b6
@0505 0xb4829282
@0506 0x36180255
@0507 0x35b0c2fc
@0508 0x34aac3b0
@0509 0x34af5bd0
@050a 0xb623c114
@050b 0xb567da17
@050c 0x3612ea89
@050d 0x359d3d44
@050e 0x3356e25a
@050f 0x35b523db
@0510 0x3593dbc7
@0511 0xb4e0e0e1
@0512 0xb50ebb67
@0513 0xb586f4a9
@0514 0xb4a229ec
@0515 0x352a2aef
@0516 0xb5487ce9
@0517 0x352a4ef9
@0518 0xb5481753
@0519 0xb5b719d8
@051a 0xb5ac59a0
@051b 0x32fb3636
@051c 0x36026dd6
@051d 0xb20d74c9
@051e 0xb4f7af43
@051f 0x3593a815
@0520 0xb5620ede
@0521 0x34ef6dc3
@0522 0xb6091555
@0523 0xb5bf5a7f
@0524 0x33a7b30a
@0525 0x32361793
@0526 0x343aa4a1
@0527 0x35cf1434
@0528 0xb5dc3960
@0529 0x3532f9f1
@052a 0xb586078a
@052b 0xb5a7b72f
@052c 0x34f55722
@052d 0xb56f2889
@052e 0xb53df9f8
@052f 0x32ac1737
@0530 0xb5953db6
@0531 0xb524587f
@0532 0xb402c895
@0533 0xb50f019c
@0534 0xb4e7898b
@0535 0x35844fcd
@0536 0x35c28ff0
@0537 0x35df5cab
@0538 0x35b0f34d
@0539 0xb5353f98
@053a 0xb53fce50
@053b 0xb53aa6c2
@053c 0x35093965
@053d 0xb4d6035c
@053e 0xb5697977
@053f 0x3288d18f
@0540 0xb4e129ec
@0541 0xb5b7baf1
@0542 0x3402d13a
@0543 0x34b66c02
@0544 0xb510f374
@0545 0x3421681f
@0546 0x33c74de2
@0547 0x31361296
@0548 0x3567537a
@0549 0xb534d017
@054a 0x34a07345
@054b 0x34baa0bf
@054c 0xb5d84726
@054d 0xb541ac37
@054e 0x3552f911
@054f 0x3596c19b
@0550 0x35755070
@0551 0xb531ca1c
@0552 0xb5307de9
@0553 0xb5fc7487
@0554 0x35fa6adb
@0555 0x359acdcd
@0556 0xb4ff7606
@0557 0xb49f9721
@0558 0xb533b3a9
@0559 0xb524faef
@055a 0xb4c699e3
@055b 0x3564209b
@055c 0x360e97e7
@055d 0x34041fb2
@055e 0xb4e856c0
@055f 0x3500df71
@0560 0x35b09c04
@0561 0x3491c502
@0562 0xb5912e96
@0563 0xb51d406c
@0564 0xb2122bcb
@0565 0x357ba71e
@0566 0x34e882b0
@0567 0xb5cab84a
@0568 0x35e1b1c4
@0569 0x35cd8435
@056a 0xb46123d7
@056b 0x34d3d73c
@056c 0x3528be53
@056d 0xb5263545
@056e 0x35005bb1
@056f 0xb52172f9
@0570 0x34a9a311
@0571 0xb4ddcbfd
@0572 0xb4d7cfe0
@0573 0xb5366481
@0574 0xb4f797be
@0575 0xb5926ca6
@0576 0x35962506
@0577 0xb58fb4ba
@0578 0xb597f177
@0579 0x330b75fe
@057a 0x363645c0
@057b 0x356ce944
@057c 0xb50546b8
@057d 0x35a6ed62
@057e 0x33b4cc3d
@057f 0xb596a539
@0580 0x35a36cce
@0581 0x3404ae88
@0582 0x35ee81bb
@0583 0xb5a77ab7
@0584 0xb5c2a44a
@0585 0xb5af0ffe
@0586 0xb59c585c
@0587 0x3606588e
@0588 0xb6055140
@0589 0xb4c4470f
@058a 0x34bceacd
@058b 0x35414d35
@058c 0x340a519f
@058d 0x356e53aa
@058e 0x349659c5
@058f 0xb5d8c83c
@0590 0x35d50971
@0591 0x357d5a83
@0592 0x3395590f
@0593 0x353e2e1d
@0594 0xb5c0e0b1
@0595 0x351890a1
@0596 0x34d9cfe2
@0597 0xb60aee82
@0598 0xb5f77198
@0599 0x35f56190
@059a 0x33e48e7c
@059b 0xb52d2925
@059c 0xb29fad00
@059d 0x3610290d
@059e 0xb4144073
@059f 0xb5b1a089
@05a0 0xb53d95b9
@05a1 0xb4f9f4d6
@05a2 0x35d981c0
@05a3 0xb3b14c93
@05a4 0xb4882697
@05a5 0x34556a19
@05a6 0xb43e22c9
@05a7 0x351ac151
@05a8 0x3549b5d1
@05a9 0xb57794ca
@05aa 0x35b70135
@05ab 0xb590590b
@05ac 0xb4dc64dd
@05ad 0x359ba525
@05ae 0xb4aa63a5
@05af 0x33f060f8
@05b0 0xb485cc3f
@05b1 0xb411a207
@05b2 0xb48054e6
@05b3 0x331a1c16
@05b4 0xb2596988
@05b5 0x3587e465
@05b6 0x34ce9587
@05b7 0xb5cb024b
@05b8 0xb46b8c76
@05b9 0x358aaf8e
@05ba 0xb6225842
@05bb 0xb54201b3
@05bc 0x3498acc5
@05bd 0xb407b3f6
@05be 0x34a45ed1
@05bf 0x354e2629
@05c0 0xb58e9d68
@05c1 0x359b4dfb
@05c2 0xb59c49c0
@05c3 0x35f08c8a
@05c4 0x35797d43
@05c5 0xb3cf84a7
@05c6 0xb3c8da82
@05c7 0xb4f315b2
@05c8 0x3582fa6d
@05c9 0x350957bf
@05ca 0xb5dfe52a
@05cb 0x35507732
@05cc 0xb30dcf8e
@05cd 0x358f55a2
@05ce 0x359847fc
@05cf 0x34856f07
@05d0 0xb5715817
@05d1 0x35e4f8ef
@05d2 0x350c0bbc
@05d3 0x3560b8b0
@05d4 0x356dc703
@05d5 0x364647bc
@05d6 0x34c20981
@05d7 0xb30254f8
@05d8 0xb5a8d288
@05d9 0x3526c894
@05da 0x33eac46e
@05db 0xb61003ae
@05dc 0xb59df273
@05dd 0x3498579e
@05de 0xb53a47e7
@05df 0x34943882
@05e0 0xb543b0c8
@05e1 0x35886f59
@05e2 0xb58bd8e1
@05e3 0xb59e0ff6
@05e4 0xb0f94b3e
@05e5 0x34729227
@05e6 0x32260774
@05e7 0xb0e7de05
@05e8 0xb53f914f
@05e9 0xb5bad497
@05ea 0xb49e6c15
@05eb 0xb52af668
@05ec 0x341b2463
@05ed 0x358132d5
@05ee 0xb4b5afe8
@05ef 0xb50d2543
@05f0 0xb52d7453
@05f1 0x34bf91e3
@05f2 0xb3c219a8
@05f3 0xb5252936
@05f4 0xb586b3ab
@05f5 0x352ff15a
@05f6 0xb5a0ebf5
@05f7 0xb5396148
@05f8 0x35b36d91
@05f9 0x35e19470
@05fa 0x35627e0b
@05fb 0xb4ef048e
@05fc 0x350e3bbd
@05fd 0xb53ea014
@05fe 0xb448aeba
@05ff 0x356247bf
@0600 0x3410bc7b
@0601 0xb5999787
@0602 0xb4b662d0
@0603 0xb53c773b
@0604 0xb57467fa
@0605 0xb4f27894
@0606 0xb5aaa65c
@0607 0xb573e87c
@0608 0xb18eb02b
@0609 0xb53dbd51
@060a 0xb57d7997
@060b 0x3595417b
@060c 0xb4b24417
@060d 0x35324d33
@060e 0xb5241b2d
@060f 0x34434042
@0610 0x3595bd3b
@0611 0x3495571e
@0612 0xb21409b7
@0613 0x34606b1b
@0614 0xb56b3364
@0615 0xb51378f6
@0616 0x35f73d48
@0617 0xb4aa731c
@0618 0x34d352f9
@0619 0xb4fdbaed
@061a 0x34e9212f
@061b 0x34c30dcf
@061c 0xb58a3b8c
@061d 0x3517cc6c
@061e 0x35df6856
@061f 0xb58490dc
@0620 0x343c8b1c
@0621 0xb5fa8a4a
@0622 0xb54eeabf
@0623 0xb47e5935
@0624 0x3595ffa5
@0625 0x3592f914
@0626 0xb5b722bc
@0627 0x34a65c32
@0628 0xb551fe96
@0629 0xb62b2dc3
@062a 0x35be2589
@062b 0x34e0ca19
@062c 0x3598ba1b
@062d 0x350ac4d4
@062e 0x3586f306
@062f 0x335c2ca1
@0630 0x34094688
@0631 0xb43ebe10
@0632 0xb474b74d
@0633 0x34994a84
@0634 0xb577ede6
@0635 0xb4674033
@0636 0xb191d589
@0637 0x353e6723
@0638 0x358f82d3
@0639 0x35825f35
@063a 0xb5a06b4f
@063b 0xb5479a98
@063c 0x32c4dd77
@063d 0x3580d559
@063e 0x33e0401c
@063f 0x353f24df
@0640 0x357e9495
@0641 0xb527f0c7
@0642 0x35f8596d
@0643 0xb5848ce5
@0644 0x340672ef
@0645 0x35607eb6
@0646 0xb5fdcaf8
@0647 0xb5529a22
@0648 0x361db18e
@0649 0xb4355029
@064a 0xb4f86ce4
@064b 0x3341aa66
@064c 0x33fe3193
@064d 0xb5a46dcd
@064e 0xb604dcf0
@064f 0x35c9bcad
@0650 0xb54dd404
@0651 0x3242e31a
@0652 0xb57bf764
@0653 0x3525860d
@0654 0x3556b1bd
@0655 0x35e874c1
@0656 0x351dc857
@0657 0x3465084a
@0658 0x358b1dd0
@0659 0x34422fa5
@065a 0xb5c95f68
@065b 0xb50fb0eb
@065c 0xb4d899c4
@065d 0x34bf82f1
@065e 0xb4c988bf
@065f 0xb61fcfea
@0660 0x35401c1a
@0661 0xb40eaeef
@0662 0xb4832958
@0663 0x359f7d67
@0664 0x3574e04b
@0665 0x3384648e
@0666 0xb617c7c0
@0667 0xb4a406a4
@0668 0x3521a704
@0669 0xb5441753
@066a 0xb5514a3e
@066b 0xb6085b25
@066c 0xb202e402
@066d 0x35e8b162
@066e 0xb54bad92
@066f 0xb425046c
@0670 0xb4c6d60c
@0671 0xb487e870
@0672 0xb5949404
@0673 0xb4dec490
@0674 0x358dc97d
@0675 0x34ff2760
@0676 0xb51ef2a7
@0677 0xb5e13c21
@0678 0x34c10a2f
@0679 0xb5410121
@067a 0xb5e86397
@067b 0xb5dfa122
@067c 0x36048fc1
@067d 0x35bc0a21
@067e 0xb5b7e8fe
@067f 0x3626fee5
@0680 0x34b0942f
@0681 0x34fc4015
@0682 0xb5cab579
@0683 0x35014e01
@0684 0x357df9f3
@0685 0x3509b46c
@0686 0xb45e4953
@0687 0x3447bb11
@0688 0x3578069b
@0689 0x34bf580a
@068a 0x34c712f4
@068b 0xb4aa6b51
@068c 0x3572abcb
@068d 0x33db8598
@068e 0x34d59134
@068f 0xb22672b1
@0690 0xb5012be1
@0691 0xb4a97ee2
@0692 0xb5af42aa
@0693 0xb55e66a8
@0694 0x34e4dd87
@0695 0x35b76afa
@0696 0xb5cab40f
@0697 0xb586acd6
@0698 0xb5796079
@0699 0x359b2a7f
@069a 0x3534f28a
@069b 0xb55d3f32
@069c 0x3490faed
@069d 0xb5e24e75
@069e 0x35a12a24
@069f 0xb5eed869
@06a0 0x352c0493
@06a1 0xb52c8054
@06a2 0x3600752e
@06a3 0xae49c0e9
@06a4 0x345fda3f
@06a5 0xb0d54334
@06a6 0xb576f69e
@06a7 0x351e2636
@06a8 0xb48e8011
@06a9 0xb559ce69
@06aa 0xb63def52
@06ab 0x35437ce5
@06ac 0xb46458c4
@06ad 0x359d3b71
@06ae 0xb549ec0a
@06af 0x36451a6b
@06b0 0x354b92f8
@06b1 0x35b537bd
@06b2 0xb437d254
@06b3 0x355e52e0
@06b4 0x35968708
@06b5 0xb5ecbd61
@06b6 0x35d60f50
@06b7 0xb592054b
@06b8 0xb4be42d4
@06b9 0x347f806c
@06ba 0xb3d35d9e
@06bb 0x33ffa485
@06bc 0xb4b3dcad
@06bd 0xb52c44cf
@06be 0xb5126463
@06bf 0xb564f939
@06c0 0xb55b8280
@06c1 0xb3a81688
@06c2 0xb31f05e1
@06c3 0x35235870
@06c4 0x3531c4f2
@06c5 0x345ce9f2
@06c6 0x35bf757f
@06c7 0xb514f143
@06c8 0x3562fc1b
@06c9 0xb490227f
@06ca 0x35bf9917
@06cb 0xb60fbd86
@06cc 0x33b3dd43
@06cd 0xb4072d38
@06ce 0x351b1a83
@06cf 0x3458dc02
@06d0 0xb4f4d651
@06d1 0xb2c46ad3
@06d2 0x35754f01
@06d3 0x355aedc5
@06d4 0x35cb9e25
@06d5 0x35b75524
@06d6 0xb4c1b250
@06d7 0xb555dbdb
@06d8 0xb59870d4
@06d9 0xb407dceb
@06da 0xb539e39d
@06db 0x35d8b59a
@06dc 0x354e1154
@06dd 0xb58084a9
@06de 0xb4814419
@06df 0x3535e836
@06e0 0xb54b254d
@06e1 0xb51b804e
@06e2 0x35af3744
@06e3 0xb56994da
@06e4 0x34d10ffc
@06e5 0xb606feb2
@06e6 0xb5040f16
@06e7 0x36311076
@06e8 0xb5fd4663
@06e9 0x3556cc6c
@06ea 0xb4d4a780
@06eb 0x34c356e5
@06ec 0xb5143687
@06ed 0xb59a4d97
@06ee 0xb3997f96
@06ef 0x34ab4ce2
@06f0 0xb552d666
@06f1 0x34ae769f
@06f2 0xb5294527
@06f3 0x35c24233
@06f4 0xb63a229a
@06f5 0x35562e2b
@06f6 0x352bca60
@06f7 0x35aa9259
@06f8 0xb2533731
@06f9 0xb5e2db75
@06fa 0x34fdb056
@06fb 0xb5761f11
@06fc 0x35a61968
@06fd 0xb42a1496
@06fe 0xb57fe399
@06ff 0x3545d255
@0700 0x35b061ab
@0701 0xb5259735
@0702 0x35277022
@0703 0x35580f55
@0704 0xb609bf36
@0705 0xb49a23a6
@0706 0x34812fd9
@0707 0xb373b00c
@0708 0xb338fae4
@0709 0xb4373f79
@070a 0x34912541
@070b 0x34bf350a
@070c 0x35347e8f
@070d 0xb58fe98e
@070e 0x34af8a4e
@070f 0x34f4fc64
@0710 0x3447b61c
@0711 0x35a20ed7
@0712 0x3603618a
@0713 0xb60125f4
@0714 0xb437cc58
@0715 0xb3d79aac
@0716 0x345cea84
@0717 0xb5c26b43
@0718 0xb5856c0b
@0719 0xb5200bae
@071a 0xb59e654e
@071b 0x35aba0e6
@071c 0xb44d96fb
@071d 0x360921cc
@071e 0x34be395e
@071f 0x3619adcd
@0720 0x350121a3
@0721 0xb5861d8e
@0722 0x35a2cbed
@0723 0xb41d27fc
@0724 0xb6087b5a
@0725 0xb536feb7
@0726 0x3450ceba
@0727 0x34b46fd7
@0728 0x35aa2b05
@0729 0x35bd4086
@072a 0xb5a5ca43
@072b 0x355a6a6a
@072c 0xb50c9a9e
@072d 0x351678b8
@072e 0xb49d153a
@072f 0xb59f596c
@0730 0x35dbaf2a
@0731 0xb5bf2c78
@0732 0x340d2130
@0733 0xb5182006
@0734 0x34c81f96
@0735 0x34689ef7
@0736 0xb5230ed4
@0737 0xb587685f
@0738 0x35552478
@0739 0x3524dcca
@073a 0x3403e441
@073b 0xb556f3da
@073c 0xb4300885
@073d 0x351d9208
@073e 0x358266fa
@073f 0x35893ec8
@0740 0x345e723f
@0741 0x35b098fa
@0742 0x34c2a430
@0743 0xb5948bdd
@0744 0xb3d05ac9
@0745 0x36166975
@0746 0xb4622818
@0747 0x36096d70
@0748 0xb5416b44
@0749 0x34318bf2
@074a 0xb598075f
@074b 0xb5a124be
@074c 0xb3c5cc0a
@074d 0xb49b8517
@074e 0xb5d415c1
@074f 0x357bf1d2
@0750 0x35dd4f4c
@0751 0x3547df2b
@0752 0x34330beb
@0753 0x352665df
@0754 0x3486c09d
@0755 0x360e5b0e
@0756 0xb46334d6
@0757 0xb4686a4a
@0758 0xb5edcbb2
@0759 0x355a799c
@075a 0x34e3302a
@075b 0xb593fa26
@075c 0x344d675b
@075d 0xb57832d8
@075e 0x332a0242
@075f 0x356bb9fc
@0760 0x34e091ea
@0761 0xb3d10990
@0762 0xb50da4b5
@0763 0x35ae01ad
@0764 0x35aba097
@0765 0xb5d0f85c
@0766 0xb5f3a40d
@0767 0x350f57ee
@0768 0x356654ba
@0769 0xb4b433fe
@076a 0x35b391d2
@076b 0xb32754be
@076c 0x3390fa04
@076d 0xb5457320
@076e 0x35cb8ca5
@076f 0xb5a6c31c
@0770 0x3526c50a
@0771 0x35ca7f3b
@0772 0x35ab5936
@0773 0x355daf35
@0774 0xb4cb7550
@0775 0x35d71596
@0776 0xb585ea1d
@0777 0x35813e85
@0778 0x33eb1493
@0779 0x35832265
@077a 0x35052e2f
@077b 0xb5be4d03
@077c 0x33a80ef9
@077d 0x35a4bd7d
@077e 0x3504e333
@077f 0xb50c47bb
@0780 0xb4cee827
@0781 0xb49d9f96
@0782 0xb5329593
@0783 0x332cc342
@0784 0xb4446348
@0785 0x35695257
@0786 0xb54a67b5
@0787 0x345e7249
@0788 0x35558664
@0789 0x35b50e52
@078a 0xb5508ee1
@078b 0x354d68f1
@078c 0xb5520277
@078d 0xb2012ddf
@078e 0x362bf64a
@078f 0xb58328be
@0790 0xb5c706e3
@0791 0x35184e8d
@0792 0xb592712f
@0793 0x33f37102
@0794 0xb628f0a9
@0795 0x34d99437
@0796 0x3555994f
@0797 0x35448777
@0798 0xb587c0d1
@0799 0xb3b36d54
@079a 0xb5358da2
@079b 0x35ba8bb1
@079c 0x34c8589b
@079d 0x355d2169
@079e 0xb5e11f84
@079f 0xb5b1780b
@07a0 0x34863fcc
@07a1 0x34af1bdb
@07a2 0xb3c5e4ba
@07a3 0xb55685f5
@07a4 0xb28d14ad
@07a5 0x353930b0
@07a6 0x355e87f4
@07a7 0xb5b52cff
@07a8 0xb47439d4
@07a9 0x350c2b7f
@07aa 0xb527c3fe
@07ab 0x34b020cf
@07ac 0xb549763c
@07ad 0x36137c0e
@07ae 0x34830b23
@07af 0x3413a70c
@07b0 0x3607874c
@07b1 0x349912fb
@07b2 0xb4ba844f
@07b3 0xb602e957
@07b4 0x34f9c2d1
@07b5 0xb53533c2
@07b6 0x34b83776
@07b7 0x34aa0903
@07b8 0xb4de03f6
@07b9 0x354fbc8d
@07ba 0xb4dc362d
@07bb 0xb4fa7366
@07bc 0xb59ed910
@07bd 0xb5c7df29
@07be 0x354d305f
@07bf 0xb5158218
@07c0 0x35b40b57
@07c1 0xb486879b
@07c2 0xb591ec83
@07c3 0x360c544e
@07c4 0x348a3ee6
@07c5 0x35bd8ffa
@07c6 0x357b65ec
@07c7 0xb5974564
@07c8 0xb4422bb1
@07c9 0xb5911c46
@07ca 0x35b5c4c7
@07cb 0xb54ca0f0
@07cc 0x35dd551f
@07cd 0x3562d690
@07ce 0x3502a32c
@07cf 0x35870aeb
@07d0 0x359e012e
@07d1 0x34f2680c
@07d2 0xb549f6bb
@07d3 0xb5185e21
@07d4 0x35657137
@07d5 0xb53f8c74
@07d6 0x36600a2b
@07d7 0xb4de25cb
@07d8 0xb629f62a
@07d9 0xb5ded0c8
@07da 0xb54d9073
@07db 0xb57243d1
@07dc 0xb4f21006
@07dd 0xb320dcb2
@07de 0xb5937901
@07df 0xb4eeb010
@07e0 0xb4937c90
@07e1 0xb45aa655
@07e2 0x35567361
@07e3 0xb5242c2d
@07e4 0xb55adab0
@07e5 0x350a092c
@07e6 0x34af77d7
@07e7 0x321f839e
@07e8 0x35a4bbae
@07e9 0x360729ad
@07ea 0xb510ec4c
@07eb 0xb5a3950c
@07ec 0xb596f3b4
@07ed 0x3592deac
@07ee 0xb54a3b11
@07ef 0x35670b42
@07f0 0x34f6f35e
@07f1 0x3520141b
@07f2 0xb547c310
@07f3 0x351618ca
@07f4 0x34c7bcc4
@07f5 0x34b2e8e0
@07f6 0x33245779
@07f7 0xb4916ae1
@07f8 0xb4ad48af
@07f9 0xb58d6790
@07fa 0x344f29c1
@07fb 0xb57bd4e3
@07fc 0xb5abbc5b
@07fd 0x34ed9aee
@07fe 0xb5c7a55c
@07ff 0x34ec2c9e
@0800 0x34741deb
@0801 0x33df3da7
@0802 0x339820cb
@0803 0xb483a819
@0804 0x357605f4
@0805 0xb51a1297
@0806 0xb240192d
@0807 0xb5db3c0f
@0808 0xb5efce7a
@0809 0x34cf9b31
@080a 0x35b2aba6
@080b 0xb31f49e9
@080c 0x34a50ba9
@080d 0xb42fee0f
@080e 0xb49ed321
@080f 0xb4c9dbe3
@0810 0xb50ccb14
@0811 0xb47284e3
@0812 0xb5cec2f2
@0813 0xb5a75e27
@0814 0xb4d0de58
@0815 0x3350218f
@0816 0x35be6ea4
@0817 0xb5badecc
@0818 0x352ecd2b
@0819 0x355d4ba9
@081a 0x3585b303
@081b 0xb590ef17
@081c 0xb48a3cc1
@081d 0xb5872a40
@081e 0xb30da82e
@081f 0x33fffa2b
@0820 0x3605cb26
@0821 0xb5ae8325
@0822 0xb5b9dbea
@0823 0x358895e6
@0824 0x34e82086
@0825 0x34a4e08e
@0826 0xb3950369
@0827 0x34bdf5fe
@0828 0x358a8e75
@0829 0xb5768542
@082a 0xb3eb6772
@082b 0xb5587860
@082c 0x35553ecd
@082d 0x3605c2c5
@082e 0x34913424
@082f 0xb513ab08
@0830 0x358dcde1
@0831 0xb63b70a1
@0832 0xb48b8821
@0833 0xb3d82fd4
@0834 0xb56c9262
@0835 0x3531cfe7
@0836 0xb4d31141
@0837 0xb5bfb8ce
@0838 0xb5c26324
@0839 0x3436b4c9
@083a 0x35c20e3c
@083b 0x351c797e
@083c 0xb4b691a6
@083d 0xb4ba7141
@083e 0xb487272c
@083f 0x35165dd9
@0840 0xb48eb7d4
@0841 0x3524aad3
@0842 0xb4cd75b0
@0843 0xb50de690
@0844 0x350093c0
@0845 0x34893834
@0846 0xb4ce1653
@0847 0x35857061
@0848 0x348e09f4
@0849 0xb4f44d6d
@084a 0xb490fb6b
@084b 0x361336cb
@084c 0x3482a782
@084d 0xb4a887fe
@084e 0x3605e160
@084f 0xb55d7bd1
@0850 0x353f8191
@0851 0xb47a35b5
@0852 0x32bd63d5
@0853 0xb5101180
@0854 0xb499803c
@0855 0xb5741582
@0856 0x3428cb6f
@0857 0xb5a70889
@0858 0x350c8f6c
@0859 0xb350301a
@085a 0xb5b12405
@085b 0x35cefcd3
@085c 0xb5e15a25
@085d 0x348298fe
@085e 0xb54d6125
@085f 0x3561250e
@0860 0xb4bbeef1
@0861 0xb4b72c9a
@0862 0x3547b565
@0863 0x330c9b32
@0864 0x358acc92
@0865 0xb583c17b
@0866 0x35862762
@0867 0xb2a56f9a
@0868 0xb3a9219f
@0869 0xb529d0d9
@086a 0x35c7aa0b
@086b 0xb5b5211b
@086c 0xb4294abb
@086d 0xb34036ae
@086e 0xb62b80bd
@086f 0x356880ea
@0870 0x34ff0fef
@0871 0xb5b93b00
@0872 0xb4f1ab9c
@0873 0xb5b20a5e
@0874 0xb4f9f8be
@0875 0x35216301
@0876 0x345098f1
@0877 0x330a298b
@0878 0xb4fdb544
@0879 0xb26a0f8a
@087a 0x32b8150c
@087b 0xb5e881be
@087c 0x357cec04
@087d 0x35335bd3
@087e 0xb50e99e3
@087f 0x3582eb34
@0880 0xb4f480b2
@0881 0xb4c94cda
@0882 0x3581f1d6
@0883 0x3478d6ad
@0884 0x359c5816
@0885 0x3468bae7
@0886 0x34b722ea
@0887 0x35a5a3ce
@0888 0xb54ab423
@0889 0xb58e5124
@088a 0x356b7427
@088b 0x340d0324
@088c 0xb52c24d6
@088d 0xb570f9d9
@088e 0xb5ff4752
@088f 0x35371eba
@0890 0x35cde020
@0891 0xb3de36ec
@0892 0x347a6142
@0893 0x359bddb3
@0894 0x35a9ec04
@0895 0xb584322b
@0896 0xb55bc2dc
@0897 0x34c88d4a
@0898 0xb5abffb9
@0899 0x35dab9e2
@089a 0x35093534
@089b 0xb5f3fc9a
@089c 0xb5faf015
@089d 0x36222db4
@089e 0x34a02712
@089f 0xb5708295
@08a0 0x3390b703
@08a1 0xb60e27b6
@08a2 0x350dd25d
@08a3 0x35a8489b
@08a4 0x350086b0
@08a5 0xb232fedc
@08a6 0x3546bfcd
@08a7 0x34f6c56d
@08a8 0xb5ea897b
@08a9 0xb52e02b8
@08aa 0xb516da99
@08ab 0x3604578b
@08ac 0xb63f8bbc
@08ad 0x34e2e9b7
@08ae 0x356c2b1e
@08af 0xb52662f7
@08b0 0x346b561c
@08b1 0xb4f02b20
@08b2 0xb58aa8b1
@08b3 0xb5d9611b
@08b4 0x35bcf5e7
@08b5 0x3552c2d1
@08b6 0xb4cc666e
@08b7 0x357a9d47
@08b8 0xb55129e3
@08b9 0x34d14273
@08ba 0xb5bc971b
@08bb 0xb62d8eeb
@08bc 0xb54c9215
@08bd 0xb4ff8457
@08be 0xb5000ea5
@08bf 0xb3995ea0
@08c0 0xb4976ee8
@08c1 0xb5aaf612
@08c2 0xb5701b3f
@08c3 0xb53ff88a
@08c4 0x353c7907
@08c5 0x3424ae50
@08c6 0xb3338839
@08c7 0x3478261a
@08c8 0x35fe80a6
@08c9 0x351b5336
@08ca 0xb513df04
@08cb 0xb40582fa
@08cc 0xb5ed58bf
@08cd 0x35060500
@08ce 0x36120185
@08cf 0x357c3516
@08d0 0xb4fbb074
@08d1 0x33b19866
@08d2 0x351d375a
@08d3 0xb5177782
@08d4 0xb5091943
@08d5 0xb633ce17
@08d6 0xb53b4400
@08d7 0x35d9c6ec
@08d8 0xb600488d
@08d9 0x34d3819b
@08da 0x34d58ce7
@08db 0xb4e86ceb
@08dc 0x35a1afd4
@08dd 0xb4cd2f14
@08de 0x3553d8a2
@08df 0xb53f86bf
@08e0 0x35f37ade
@08e1 0x35e35b35
@08e2 0x3583ca25
@08e3 0x34bc90a3
@08e4 0xb55e130b
@08e5 0xb2d8416b
@08e6 0xb58f5df5
@08e7 0x351ff6da
@08e8 0x34b97982
@08e9 0x3512ca13
@08ea 0x359c2476
@08eb 0x3522452f
@08ec 0x3516d02d
@08ed 0xb4fbfff3
@08ee 0xb5e31781
@08ef 0x35c8b2ff
@08f0 0x35cf1522
@08f1 0xb6032db9
@08f2 0xb4f93e92
@08f3 0x36039d1a
@08f4 0xb4281dbf
@08f5 0xb508c5bd
@08f6 0x3651af16
@08f7 0x34aa41b5
@08f8 0x354cfc3e
@08f9 0xb5c035cb
@08fa 0x32775434
@08fb 0xb493ebc0
@08fc 0x3537e1f8
@08fd 0xb5eff2ed
@08fe 0xb4d19d09
@08ff 0x3505b71d
@0900 0xb3bc2f45
@0901 0x351b5925
@0902 0xb5aaea6c
@0903 0x348971ee
@0904 0xb57644fe
@0905 0x35465a01
@0906 0x35cef9d2
@0907 0x353caa36
@0908 0xb5878085
@0909 0xb550da07
@090a 0x35bd5bc3
@090b 0x341cfaf6
@090c 0xb509ce45
@090d 0xb49df8b3
@090e 0x3335d28c
@090f 0xb5e8674a
@0910 0x35294669
@0911 0xb5aac810
@0912 0x34f453ed
@0913 0x352d2b77
@0914 0xb5592c88
@0915 0x35ab7177
@0916 0x35c3215d
@0917 0x33d080e8
@0918 0x35453137
@0919 0x3568ec05
@091a 0x34327097
@091b 0x34f31190
@091c 0xb5698ea7
@091d 0x353da100
@091e 0x360f8d73
@091f 0xb5d56ee4
@0920 0x35b4e15b
@0921 0x336db0be
@0922 0x35492ea2
@0923 0x342278d5
@0924 0x358b05c6
@0925 0xb56507ea
@0926 0xb3322559
@0927 0xb4fa9d4a
@0928 0xb5d76191
@0929 0xb36b2b96
@092a 0xb5d1f382
@092b 0x343a9e10
@092c 0xb4ed5dbd
@092d 0xb5eea3dd
@092e 0x3515f86a
@092f 0x348f9b82
@0930 0xb61908a8
@0931 0xb3061e1c
@0932 0xb504c248
@0933 0xb51fe364
@0934 0x35b39bab
@0935 0x3485b4e5
@0936 0xb1eba432
@0937 0xb584f5b6
@0938 0x3592041c
@0939 0xb60ead58
@093a 0x35a548bb
@093b 0xb5959f20
@093c 0xb486ed58
@093d 0xb59b2af8
@093e 0x34e84d16
@093f 0x3505ba44
@0940 0x36024a1b
@0941 0x3416ab0d
@0942 0xb5c66cd2
@0943 0xb512628b
@0944 0xb2b4a874
@0945 0x35a67f34
@0946 0x3593a09d
@0947 0xb55c6d5d
@0948 0x3497e4e3
@0949 0xb5ac7faa
@094a 0x3572ed2b
@094b 0xb52ee769
@094c 0xb58e004f
@094d 0x34cacf1a
@094e 0x3552b08d
@094f 0xb4fc83fb
@0950 0x32085c3b
@0951 0xb49a9e13
@0952 0xb3f54d15
@0953 0xb5ce4fbc
@0954 0xb594f1cf
@0955 0x360aaffa
@0956 0xb4b9234a
@0957 0x35cd368d
@0958 0x348dc9e1
@0959 0x358fa724
@095a 0xb5c47b26
@095b 0x34a63e2b
@095c 0x3534a1ea
@095d 0xb50f956f
@095e 0x356cfe30
@095f 0xb531a92b
@0960 0x355e4395
@0961 0x34c77b16
@0962 0x35ea1507
@0963 0x34ea2705
@0964 0x352260e0
@0965 0x355952bb
@0966 0x342a0971
@0967 0x350c0226
@0968 0xb58444ef
@0969 0x3519ad44
@096a 0xb505059f
@096b 0x3533d318
@096c 0xb5369911
@096d 0x352a0b09
@096e 0x34eb18c7
@096f 0xb4973e8f
@0970 0x34ce9368
@0971 0xb588ca89
@0972 0xb5a2582b
@0973 0xb53cb96b
@0974 0x353e88a0
@0975 0x354e3712
@0976 0x35baedcb
@0977 0x34499df6
@0978 0x33841319
@0979 0x3617135c
@097a 0xb486d100
@097b 0x34bdefbd
@097c 0x3599a425
@097d 0xb5a4c4d6
@097e 0x348e40f7
@097f 0x32a24e5f
@0980 0x354836e1
@0981 0x355212d4
@0982 0xb50ef546
@0983 0xb5bde300
@0984 0xb541bd33
@0985 0x3453e894
@0986 0x35444927
@0987 0xb5ecc678
@0988 0xb4248f39
@0989 0x349a4ebc
@098a 0xb563232c
@098b 0x35c4de98
@098c 0x33506f1b
@098d 0xb59d238b
@098e 0x35b1cbd9
@098f 0xb5f1f83b
@0990 0x34c9dd94
@0991 0xb49fdc0d
@0992 0xb5f5bee9
@0993 0xb5b73927
@0994 0xb5280f2c
@0995 0xb4336070
@0996 0x330522db
@0997 0x35ca6624
@0998 0xb5889794
@0999 0xb52953c6
@099a 0x3563623d
@099b 0xb500a6d1
@099c 0xb63543dd
@099d 0x33eb81f0
@099e 0xb499189e
@099f 0xb4361271
@09a0 0x35df467b
@09a1 0xb325e1aa
@09a2 0x3574f901
@09a3 0xb4a4a8f0
@09a4 0x34162b28
@09a5 0xb5aae902
@09a6 0xb3f723ec
@09a7 0x35ceddff
@09a8 0xb508bca0
@09a9 0xb52d4a90
@09aa 0xb596f1db
@09ab 0xb53a8ef6
@09ac 0xb5b104e6
@09ad 0x35a3720a
@09ae 0xb46e2228
@09af 0x3613b0cd
@09b0 0xb5e10337
@09b1 0x34ba1c0f
@09b2 0x34e16c0b
@09b3 0x35c73b72
@09b4 0xb5337e8c
@09b5 0x3427c668
@09b6 0xb531b312
@09b7 0x36076f03
@09b8 0xb5067706
@09b9 0xb5928857
@09ba 0x35be5085
@09bb 0xb5b171b1
@09bc 0x350275f9
@09bd 0xb48dc24b
@09be 0x3561ebc7
@09bf 0x35daf5a2
@09c0 0xb57eeaac
@09c1 0xb5998dc7
@09c2 0x339c1180
@09c3 0xb5b7ec41
@09c4 0xb4f3bd46
@09c5 0xb62de4fe
@09c6 0x32ecde96
@09c7 0xb543717b
@09c8 0xb59a7b1b
@09c9 0x3480d8c2
@09ca 0x34f26a02
@09cb 0xb4d5ed43
@09cc 0xb5822b2a
@09cd 0xb51163b0
@09ce 0xb5892a26
@09cf 0xb507b066
@09d0 0x34de571d
@09d1 0xb505eb4f
@09d2 0xb4b55b02
@09d3 0x35c92571
@09d4 0xb5fdb8fd
@09d5 0xb5784564
@09d6 0xb441e7e1
@09d7 0x353058ab
@09d8 0xb5a10df9
@09d9 0xb5c4ed48
@09da 0xb59004f5
@09db 0x34b8a5b1
@09dc 0x35878c62
@09dd 0xb39838a1
@09de 0x340f626b
@09df 0xb53af02b
@09e0 0xb60113f4
@09e1 0x3567e453
@09e2 0x350cac31
@09e3 0xb4d4d453
@09e4 0x35a3bea0
@09e5 0x35c25c05
@09e6 0x335f4117
@09e7 0x345e3fac
@09e8 0x33fa3bec
@09e9 0xb616919e
@09ea 0xb5264205
@09eb 0x35f0089c
@09ec 0x356a38e3
@09ed 0xb5c094ed
@09ee 0x3523571d
@09ef 0x3418e9d8
@09f0 0xb517b3de
@09f1 0x3558d98b
@09f2 0xb4ef7254
@09f3 0x32b32b42
@09f4 0xb589b43e
@09f5 0x34432c81
@09f6 0x358274f9
@09f7 0xb4734e2b
@09f8 0xb47ec6c8
@09f9 0x361ded6b
@09fa 0xb403a0e9
@09fb 0x35e4b83f
@09fc 0x35110dbe
@09fd 0xb4c15420
@09fe 0xb4ba91f2
@09ff 0x35abc437
@0a00 0x359c2a90
@0a01 0x36388941
@0a02 0xb51f841f
@0a03 0xb576a5fb
@0a04 0x3462c339
@0a05 0xb32cc737
@0a06 0x33a998e6
@0a07 0x357b8152
@0a08 0x3308fa6f
@0a09 0xb4bfa568
@0a0a 0xb2c9e977
@0a0b 0xb5948b25
@0a0c 0xb5c80272
@0a0d 0xb5b59111
@0a0e 0xb33dc944
@0a0f 0xb34e911d
@0a10 0xb61d793b
@0a11 0xb54a5ec2
@0a12 0x357c7c1b
@0a13 0x3589d73d
@0a14 0x35b65451
@0a15 0xb4f68d60
@0a16 0x35995167
@0a17 0x3501c86e
@0a18 0x34bfff89
@0a19 0xb63d37fa
@0a1a 0x35080934
@0a1b 0xb50f0c49
@0a1c 0x35e594eb
@0a1d 0xb5a8fbcd
@0a1e 0xb5afe5b8
@0a1f 0x3498e034
@0a20 0x35cf81d0
@0a21 0x34e9d58c
@0a22 0xb58acfa4
@0a23 0x33af75f3
@0a24 0x35e7462e
@0a25 0xb3cce33b
@0a26 0xb612872b
@0a27 0xb5fa9ab6
@0a28 0xb5e4a00b
@0a29 0x34bba2c3
@0a2a 0x34f7fd17
@0a2b 0xb563ba75
@0a2c 0xb600632d
@0a2d 0xb4a010fc
@0a2e 0xb428abfc
@0a2f 0x344d27c0
@0a30 0xb65286b7
@0a31 0x33b37a75
@0a32 0xb557848f
@0a33 0xb6334668
@0a34 0xb6241306
@0a35 0xb40740c7
@0a36 0x35ae52ce
@0a37 0xb469e541
@0a38 0xb512dc27
@0a39 0xb465d775
@0a3a 0x353680e7
@0a3b 0xb5658f05
@0a3c 0x35efff3a
@0a3d 0xb50b97c7
@0a3e 0x3580c396
@0a3f 0xb137b8ba
@0a40 0xb4c523c8
@0a41 0x350f5de8
@0a42 0xb525b865
@0a43 0x35413232
@0a44 0xb41c41a1
@0a45 0xb614f485
@0a46 0xb58a3437
@0a47 0x35017dc5
@0a48 0xb601bc9d
@0a49 0xb5640e9a
@0a4a 0xb5cbf78c
@0a4b 0x332eff5b
@0a4c 0x34be2665
@0a4d 0xb5b80469
@0a4e 0xb28fba82
@0a4f 0x3580b149
@0a50 0xb50dda6f
@0a51 0xb59fdbd5
@0a52 0xb50a4f00
@0a53 0x35a5a7ae
@0a54 0xb49333b0
@0a55 0x34c697c7
@0a56 0x358263ec
@0a57 0xb468e3b3
@0a58 0x35b7bde4
@0a59 0x358611bb
@0a5a 0xb528f1d2
@0a5b 0xb52edbad
@0a5c 0x355ef695
@0a5d 0xb5809d09
@0a5e 0xb5324be2
@0a5f 0x338acd44
@0a60 0x364f1737
@0a61 0x358f232d
@0a62 0xb49b94ee
@0a63 0xb529ce17
@0a64 0xb363ccad
@0a65 0x3590f322
@0a66 0x3501126b
@0a67 0xb4d4f166
@0a68 0xb49949c1
@0a69 0xb53d58a9
@0a6a 0x355045e9
@0a6b 0x35e9ebd0
@0a6c 0xb50a0a39
@0a6d 0x35cc9b75
@0a6e 0x341f23c8
@0a6f 0xb3c8ce98
@0a70 0x351a4714
@0a71 0xb4a63bf2
@0a72 0x35e1c83e
@0a73 0x3593223f
@0a74 0xb5dc2341
@0a75 0x3586068e
@0a76 0x352c3d53
@0a77 0x358d487d
@0a78 0x350cf57a
@0a79 0xb613312b
@0a7a 0xb3f0bbdd
@0a7b 0xb58287dd
@0a7c 0xb4b69fa8
@0a7d 0x350f48f0
@0a7e 0xb591c2b3
@0a7f 0x35eeb012
@0a80 0x338cf42d
@0a81 0xb5072dba
@0a82 0xb544bb27
@0a83 0xb0be4186
@0a84 0x3546b466
@0a85 0xb44a3ac9
@0a86 0x35904e65
@0a87 0xb588fbf9
@0a88 0x35210527
@0a89 0xb5cd7d81
@0a8a 0x344fe973
@0a8b 0xb443eea5
@0a8c 0x35ca973d
@0a8d 0x3484a265
@0a8e 0xb4af485a
@0a8f 0x34eb893d
@0a90 0x35b1d745
@0a91 0x34e76fd6
@0a92 0x35790a26
@0a93 0xb2ef43ec
@0a94 0xb3b92a0a
@0a95 0x3424aae4
@0a96 0x34d41eb4
@0a97 0x337c186e
@0a98 0x35390110
@0a99 0x35c066c3
@0a9a 0xb5928859
@0a9b 0xb5c2b4e7
@0a9c 0xb3d8d3b1
@0a9d 0x34a9557d
@0a9e 0x3489312b
@0a9f 0xb545ae0d
@0aa0 0x3569bf9a
@0aa1 0xb5e35465
@0aa2 0xb483325b
@0aa3 0xb4f357e7
@0aa4 0x355ee4af
@0aa5 0x36231a91
@0aa6 0x365f184a
@0aa7 0xb5938df7
@0aa8 0xb5069683
@0aa9 0xb521b670
@0aaa 0xb450937f
@0aab 0x35f01181
@0aac 0x35dbd2ff
@0aad 0xb534f701
@0aae 0x35002e25
@0aaf 0x33563738
@0ab0 0x3526a261
@0ab1 0x361b66f6
@0ab2 0xb605ea0f
@0ab3 0xb5816ea9
@0ab4 0xb38c249f
@0ab5 0x3578b23c
@0ab6 0x351e2c1c
@0ab7 0xb4c3b566
@0ab8 0x34e5d3e6
@0ab9 0xb5c1c70f
@0aba 0x35c8f9e2
@0abb 0xb45d5091
@0abc 0xb5d24384
@0abd 0x35c5264e
@0abe 0x350ffa4c
@0abf 0xb5e2f9a0
@0ac0 0x34437864
@0ac1 0x354b6920
@0ac2 0x34e59b15
@0ac3 0xb5e84f25
@0ac4 0x34572cd9
@0ac5 0x344023f2
@0ac6 0xb5856771
@0ac7 0xb5e36afb
@0ac8 0xb3998506
@0ac9 0xb5e788db
@0aca 0x35c6fa97
@0acb 0xb605aedf
@0acc 0x3613a372
@0acd 0xb36889a2
@0ace 0xb308935d
@0acf 0x349ed467
@0ad0 0x359819bc
@0ad1 0x35947bba
@0ad2 0x34d99955
@0ad3 0xb51557a6
@0ad4 0x352ea7e1
@0ad5 0xb60a7959
@0ad6 0x350427b3
@0ad7 0xb5e6c201
@0ad8 0x34d6897b
@0ad9 0xb5971949
@0ada 0xb5a29b34
@0adb 0xb5e92e3d
@0adc 0xb549cd6e
@0add 0xb5236ec5
@0ade 0x34939e1c
@0adf 0x362c85e9
@0ae0 0x34642161
@0ae1 0xb63a5738
@0ae2 0x34dbf4ec
@0ae3 0xb61bae57
@0ae4 0xb44199b2
@0ae5 0xb60d0faa
@0ae6 0xb4920d71
@0ae7 0x35ecc925
@0ae8 0x3520c3bb
@0ae9 0xb5462759
@0aea 0xb53d1c9f
@0aeb 0x35ababad
@0aec 0x33cf2eaa
@0aed 0xb4adfcf5
@0aee 0xb5e430d2
@0aef 0x35dbcdf8
@0af0 0xb541e755
@0af1 0x353db639
@0af2 0x34d87bf6
@0af3 0x3576a668
@0af4 0xb5010d8d
@0af5 0xb5d0d1c3
@0af6 0xb6043ce1
@0af7 0x35bc7d34
@0af8 0x35d8e4b4
@0af9 0xb4f0449d
@0afa 0x359e62d2
@0afb 0xb423cb78
@0afc 0xb2b3617c
@0afd 0x356d4c36
@0afe 0xb49f3ef8
@0aff 0xb5553c85
@0b00 0x34a704c7
@0b01 0xb3500ff4
@0b02 0x360dc1d1
@0b03 0x34395fc1
@0b04 0xb49056fb
@0b05 0xb5499dc5
@0b06 0x35b13d6a
@0b07 0x35d18ad5
@0b08 0x34d45f82
@0b09 0x3500af82
@0b0a 0xb585c870
@0b0b 0x35d2dff7
@0b0c 0xb461c407
@0b0d 0xb54adc56
@0b0e 0xb1b7161e
@0b0f 0xb5cb7b9d
@0b10 0xb4ebf499
@0b11 0x34b98448
@0b12 0x34da675f
@0b13 0xb2335488
@0b14 0x35b27ae8
@0b15 0xb28460ea
@0b16 0xb3a4b782
@0b17 0xb59465ec
@0b18 0xb55263ec
@0b19 0x353b530c
@0b1a 0xb5806777
@0b1b 0xb5907645
@0b1c 0x353feb5c
@0b1d 0xb3fdce37
@0b1e 0xb5e6a2f4
@0b1f 0xb5352ad1
@0b20 0x35047ab2
@0b21 0x357243ca
@0b22 0x35214da6
@0b23 0x35f00204
@0b24 0xb57c5a91
@0b25 0x35a563a6
@0b26 0xb52d25c7
@0b27 0x3591107b
@0b28 0xb558ee66
@0b29 0x350d9c57
@0b2a 0x355e441b
@0b2b 0xb52b1d44
@0b2c 0xb58212c1
@0b2d 0x34ed6d78
@0b2e 0xb3d8d863
@0b2f 0xb5ddd337
@0b30 0xb276a8d7
@0b31 0xb577bb43
@0b32 0xb5a39f52
@0b33 0xb4a365ba
@0b34 0xb50406fd
@0b35 0x353c0f8a
@0b36 0xb496c41e
@0b37 0xb5a52f2d
@0b38 0xb5a80bcb
@0b39 0x33199f8f
@0b3a 0x35f1a3b3
@0b3b 0x35a192e4
@0b3c 0x359b22f5
@0b3d 0xb3acbdde
@0b3e 0xb3d6304c
@0b3f 0x341c5d62
@0b40 0x3505659a
@0b41 0xb43ec3aa
@0b42 0xb50487b4
@0b43 0x356adc39
@0b44 0x35c0305e
@0b45 0x3541f4f4
@0b46 0xb5893ef3
@0b47 0xb52f3d54
@0b48 0x35a47b26
@0b49 0xb61d72fd
@0b4a 0xb53fc1c6
@0b4b 0x35cdbea7
@0b4c 0x352a9378
@0b4d 0xb5d4334e
@0b4e 0xb50fab73
@0b4f 0xb50943ba
@0b50 0xb557691c
@0b51 0xb5285bdf
@0b52 0xb4d0350d
@0b53 0x35dab3a0
@0b54 0xb4547fd4
@0b55 0x34f5e29b
@0b56 0xb50282da
@0b57 0xb42e0201
@0b58 0xb49e3197
@0b59 0xb5cef7de
@0b5a 0x353afd3e
@0b5b 0x357f34a1
@0b5c 0x35080c27
@0b5d 0x3533e028
@0b5e 0xb56f4aee
@0b5f 0xb4915bd3
@0b60 0xb5031058
@0b61 0xb3a6c3ae
@0b62 0xb5167b0d
@0b63 0x34f842d5
@0b64 0x34d37ef9
@0b65 0x3508bec7
@0b66 0x33822d9d
@0b67 0x34cf2397
@0b68 0xb5ac63f2
@0b69 0xb5271187
@0b6a 0xb55fced8
@0b6b 0xb5321ca0
@0b6c 0x35c2681f
@0b6d 0x3587f36e
@0b6e 0x34e04b77
@0b6f 0xb50ae620
@0b70 0xb5276138
@0b71 0xb5683ec1
@0b72 0xb3404cb1
@0b73 0x358fd644
@0b74 0xb5b49d32
@0b75 0x340f84a6
@0b76 0x33c0e9c1
@0b77 0xb53422c1
@0b78 0xb5ca4be3
@0b79 0x35b922ac
@0b7a 0x3540cc14
@0b7b 0x359ba22e
@0b7c 0xb4b5b55d
@0b7d 0xb5415c62
@0b7e 0xb57b43f7
@0b7f 0xb54eb2d1
@0b80 0xb59dd25d
@0b81 0xb53401bc
@0b82 0xb5ee9670
@0b83 0x3522cc54
@0b84 0xb55246d9
@0b85 0xb5d1ea85
@0b86 0x34dc3c17
@0b87 0x359ea4a9
@0b88 0xb4945fa1
@0b89 0x35220d67
@0b8a 0xb35071af
@0b8b 0x357cbbbc
@0b8c 0xb5eb8766
@0b8d 0x3534660b
@0b8e 0xb55abbc7
@0b8f 0xb50429fa
@0b90 0xb4833f53
@0b91 0xb5c2be10
@0b92 0xb517f623
@0b93 0xb583a292
@0b94 0x351fe8d4
@0b95 0xb4af98e6
@0b96 0x3464da11
@0b97 0xb5f6d2f6
@0b98 0xb618d744
@0b99 0xb49004fe
@0b9a 0xb5630bac
@0b9b 0xb54dd94d
@0b9c 0xb580b28f
@0b9d 0x358f6137
@0b9e 0xb52736c1
@0b9f 0x35c01a6b
@0ba0 0xb232a3ff
@0ba1 0x351e1fa4
@0ba2 0x346beee7
@0ba3 0xb49122ce
@0ba4 0x358cfd23
@0ba5 0x3541e892
@0ba6 0xb4a6f92a
@0ba7 0xb428c350
@0ba8 0xb54757fd
@0ba9 0xb53cd5c4
@0baa 0xb4fb3717
@0bab 0x3492d436
@0bac 0x35a42dd3
@0bad 0x33cd47ce
@0bae 0x34e50f58
@0baf 0xb3e7da8b
@0bb0 0x32d04a08
@0bb1 0x359c5a2d
@0bb2 0xb57ce633
@0bb3 0xb640fc49
@0bb4 0x35ffb584
@0bb5 0xb548b7aa
@0bb6 0xb408eec4
@0bb7 0xb5b95d62
@0bb8 0xb5b72ea6
@0bb9 0xb5ba2392
@0bba 0xb4c7ce4d
@0bbb 0x3595d0e7
@0bbc 0x35caf8c7
@0bbd 0x34a8bc52
@0bbe 0xb58e395e
@0bbf 0xb56176e3
@0bc0 0x35dda444
@0bc1 0xb50d115d
@0bc2 0xb57c0a5b
@0bc3 0x35272658
@0bc4 0x35a64d0b
@0bc5 0x343a9196
@0bc6 0x35fb2e7e
@0bc7 0x34cc1c20
@0bc8 0xb3fc7299
@0bc9 0x35d2f2df
@0bca 0xb5b9ef3b
@0bcb 0xb5ad3b34
@0bcc 0x34ff29b1
@0bcd 0xb5846f8d
@0bce 0x352c7e6b
@0bcf 0x34c31554
@0bd0 0x361e18dd
@0bd1 0xb6145a52
@0bd2 0xb4b17c0c
@0bd3 0x348c1ddc
@0bd4 0xb42c58c6
@0bd5 0xb3c92562
@0bd6 0x3610d3e2
@0bd7 0xb59c2690
@0bd8 0x35fb2c0f
@0bd9 0xb59b6580
@0bda 0x349252ed
@0bdb 0x35ce7245
@0bdc 0x3571470a
@0bdd 0x3554a87b
@0bde 0x35ab74b1
@0bdf 0x353c5165
@0be0 0xb58b10ea
@0be1 0x35011896
@0be2 0xb4c29baa
@0be3 0xb35ed636
@0be4 0x351fe015
@0be5 0x3536320c
@0be6 0xb60476fb
@0be7 0x35d11a3f
@0be8 0xb51c6b26
@0be9 0x354c74cf
@0bea 0xb3f82bd8
@0beb 0xb50180e4
@0bec 0x35bb4dbe
@0bed 0x35026555
@0bee 0x34ea9d2e
@0bef 0x35dd2ce4
@0bf0 0x3584a596
@0bf1 0x34bf82f2
@0bf2 0xb3ed447f
@0bf3 0xb44280e1
@0bf4 0xb4424cc9
@0bf5 0x357f02c3
@0bf6 0xb5fe7f05
@0bf7 0x35a61fed
@0bf8 0xb520693e
@0bf9 0x34ce9543
@0bfa 0xb4aa1d2b
@0bfb 0xb50e29b2
@0bfc 0xb4ec6f0d
@0bfd 0xb5b43705
@0bfe 0xb4cfc598
@0bff 0x35033963
@0c00 0xb4605895
@0c01 0x33e1a7d1
@0c02 0x35d02012
@0c03 0xb4908ce7
@0c04 0x359e1d92
@0c05 0xb49e65ef
@0c06 0xb4eb0814
@0c07 0xb59fa667
@0c08 0x35d51082
@0c09 0xb4c9b439
@0c0a 0x35fc8e6e
@0c0b 0xb60367af
@0c0c 0xb5dd3c78
@0c0d 0xb441c536
@0c0e 0x340a8575
@0c0f 0x35e23818
@0c10 0xb2832081
@0c11 0xb44c3997
@0c12 0x35bb7dac
@0c13 0xb3898748
@0c14 0xb457f10d
@0c15 0xb5a18a8e
@0c16 0xb5b8db65
@0c17 0xb5573d30
@0c18 0xb4471247
@0c19 0xb478d485
@0c1a 0x35d8ad53
@0c1b 0xb0b7639d
@0c1c 0x36057f12
@0c1d 0xb5930726
@0c1e 0xb48e4459
@0c1f 0xb5557c8d
@0c20 0x35795b61
@0c21 0xb57a1584
@0c22 0x33545405
@0c23 0xb59ceea8
@0c24 0x34abb559
@0c25 0xb53364c2
@0c26 0xb4556ef9
@0c27 0xb5b3541f
@0c28 0x353c7cf0
@0c29 0x34407329
@0c2a 0x34f1ea99
@0c2b 0x353d04dc
@0c2c 0x350c6ceb
@0c2d 0xb5048ae4
@0c2e 0xb4b27714
@0c2f 0x33067641
@0c30 0xb4c23b53
@0c31 0x33d32f3d
@0c32 0xb517fa56
@0c33 0x348a4db0
@0c34 0xb62b1415
@0c35 0x326e72f5
@0c36 0x359d799e
@0c37 0x3563f7dd
@0c38 0xb4cecd21
@0c39 0x35176cb7
@0c3a 0xb5c42750
@0c3b 0x3586490d
@0c3c 0x3513994c
@0c3d 0x353f3e7a
@0c3e 0x35380b24
@0c3f 0xb60661c6
@0c40 0x350740f6
@0c41 0x35a6dfd0
@0c42 0x3654c000
@0c43 0xb2e24888
@0c44 0x34560f10
@0c45 0xb4af9d71
@0c46 0x33fc0eac
@0c47 0xb5b8d73f
@0c48 0x3597c057
@0c49 0x35fb5879
@0c4a 0x356f6843
@0c4b 0x34961954
@0c4c 0x35457719
@0c4d 0xb4daa392
@0c4e 0x34fd45e8
@0c4f 0xb2f3d0e5
@0c50 0x35a15e23
@0c51 0x34ae6ce1
@0c52 0xb48e46a3
@0c53 0x3536bd32
@0c54 0x34983fc7
@0c55 0x3554e879
@0c56 0x34d19dce
@0c57 0xb5e953cd
@0c58 0x35ce2c94
@0c59 0x35b38abf
@0c5a 0xb427e05c
@0c5b 0x341134f5
@0c5c 0x35527e39
@0c5d 0xb39f46a8
@0c5e 0xb57c5c63
@0c5f 0xb5719925
@0c60 0x33e1b7a3
@0c61 0xb55f22e8
@0c62 0xb576c352
@0c63 0x357cac61
@0c64 0x350c4649
@0c65 0x3559e35f
@0c66 0x340db6b3
@0c67 0x34677a8d
@0c68 0xb5e6e80c
@0c69 0x357159ba
@0c6a 0x35578dec
@0c6b 0xb4ef0870
@0c6c 0xb54ef626
@0c6d 0x320e6541
@0c6e 0x340b0e93
@0c6f 0xb4c9d1c9
@0c70 0xb62a1dc0
@0c71 0x343fc593
@0c72 0x34e786a3
@0c73 0xb6079a85
@0c74 0x35a28584
@0c75 0x3564ed0b
@0c76 0x34c8c589
@0c77 0xb501b7d4
@0c78 0xb5619d13
@0c79 0x35ce4486
@0c7a 0xb526e248
@0c7b 0xb4b36724
@0c7c 0xb58507ed
@0c7d 0x34f4e2d4
@0c7e 0x356ee162
@0c7f 0x349b6251
@0c80 0xb1b3fa86
@0c81 0xb44dd767
@0c82 0xb4b08cc0
@0c83 0xb2b8b82b
@0c84 0xb57334ad
@0c85 0xb5c40704
@0c86 0xb522d6bb
@0c87 0xb56a72e7
@0c88 0xb601e38f
@0c89 0x358379cd
@0c8a 0xb5b31e8f
@0c8b 0xb4d0bf37
@0c8c 0xb3f3aaa7
@0c8d 0x34e42e21
@0c8e 0x35a9ae95
@0c8f 0xb592becb
@0c90 0x346cd0fe
@0c91 0x349f8976
@0c92 0xb4461a84
@0c93 0x3556a47e
@0c94 0x354170ac
@0c95 0x35e67988
@0c96 0xb582b2fd
@0c97 0xb5f8d0bd
@0c98 0xb48b089f
@0c99 0x32fa9a0c
@0c9a 0x33337c5a
@0c9b 0xafea7a45
@0c9c 0xb5a70336
@0c9d 0x352612de
@0c9e 0x3517b65d
@0c9f 0xb4ce8c39
@0ca0 0xb4a234d8
@0ca1 0x33fff9b3
@0ca2 0xb2639ce4
@0ca3 0xb526979b
@0ca4 0xb563cf2f
@0ca5 0xb549f9f1
@0ca6 0xb49ac01f
@0ca7 0xb4cccd7e
@0ca8 0x35345e88
@0ca9 0xb5bf0050
@0caa 0x3580ab39
@0cab 0x35740798
@0cac 0x338fdf18
@0cad 0x3504be8d
@0cae 0xb4baa4e4
@0caf 0x350897c3
@0cb0 0xb558454b
@0cb1 0x34ab08a0
@0cb2 0xb5809d63
@0cb3 0xb5ac0eb7
@0cb4 0xb5aa65e9
@0cb5 0xb50f972b
@0cb6 0xb5a21b34
@0cb7 0x35d15653
@0cb8 0xb4a3d50d
@0cb9 0xb50f3e4f
@0cba 0x33627723
@0cbb 0x34b205a7
@0cbc 0xb580df79
@0cbd 0xb5203b7f
@0cbe 0xb5607647
@0cbf 0xb5d46e2c
@0cc0 0x35cc6ee6
@0cc1 0xb5108c87
@0cc2 0xb441ecbf
@0cc3 0xb57d80ef
@0cc4 0x355f00c6
@0cc5 0xb4dd0a56
@0cc6 0x3577143c
@0cc7 0x362f2432
@0cc8 0xb41562ab
@0cc9 0xb584b729
@0cca 0xb5b9d488
@0ccb 0x3590387a
@0ccc 0xb5dbae4b
@0ccd 0x34eb0f05
@0cce 0xb52a3d36
@0ccf 0xb5627104
@0cd0 0x34b3e941
@0cd1 0x334f0ffb
@0cd2 0xb4908f05
@0cd3 0x34b5d7b8
@0cd4 0x3566b8b9
@0cd5 0x3528ac8f
@0cd6 0x34f374cf
@0cd7 0xb5f0f3ee
@0cd8 0xb4ff3397
@0cd9 0xb4c66368
@0cda 0xb4c6a515
@0cdb 0xb3f4b4b3
@0cdc 0xb3ae414c
@0cdd 0xb4a0a6b1
@0cde 0x3424cc26
@0cdf 0xb4396ff3
@0ce0 0xb4a5a8c5
@0ce1 0xb463ec51
@0ce2 0x35f976e3
@0ce3 0x33e91b7f
@0ce4 0x34fe7390
@0ce5 0x349a4544
@0ce6 0xb4a95b16
@0ce7 0xb4cadbb6
@0ce8 0x35176028
@0ce9 0x34a16805
@0cea 0x3429b770
@0ceb 0x360296ae
@0cec 0xb32ea48d
@0ced 0xb54b00fe
@0cee 0xb2fac2b5
@0cef 0x3558edfe
@0cf0 0xb585a709
@0cf1 0xb5c2f0dc
@0cf2 0x339fd173
@0cf3 0x35a68518
@0cf4 0x34a4815d
@0cf5 0x351291a6
@0cf6 0xb5d2f548
@0cf7 0xb3c368a8
@0cf8 0xb4c76355
@0cf9 0xb591d338
@0cfa 0xb42f7fbe
@0cfb 0xb40b3c83
@0cfc 0x33a8129d
@0cfd 0xb4447e69
@0cfe 0x3619f1cf
@0cff 0x35360062
@0d00 0xb5e08ff9
@0d01 0x333afcb4
@0d02 0x3597d78c
@0d03 0xb5c04805
@0d04 0xb4693f8a
@0d05 0x363d67a5
@0d06 0xb56f34ae
@0d07 0xb5604fde
@0d08 0xb59bb521
@0d09 0x355ccc28
@0d0a 0x3436196e
@0d0b 0x35028133
@0d0c 0xb49d9cf5
@0d0d 0x351c9e34
@0d0e 0x3567a94b
@0d0f 0x349f3ffe
@0d10 0xb296bd42
@0d11 0xb591fdb6
@0d12 0xb3bf3c6a
@0d13 0x358c848d
@0d14 0x359cf680
@0d15 0x3554ac62
@0d16 0xb29664e3
@0d17 0xb540b057
@0d18 0x36044829
@0d19 0x35121f73
@0d1a 0xb5788d7c
@0d1b 0x3529d4c8
@0d1c 0x357973da
@0d1d 0x352d483d
@0d1e 0xb5c90364
@0d1f 0x350b5c3e
@0d20 0x353dec66
@0d21 0x35292913
@0d22 0x3618f750
@0d23 0x3515e381
@0d24 0x363a4813
@0d25 0x358df84a
@0d26 0x359f9d53
@0d27 0xb6009475
@0d28 0x35e540c6
@0d29 0x360cd863
@0d2a 0xb56f6603
@0d2b 0xb4fa7799
@0d2c 0x353232b0
@0d2d 0x35456cd4
@0d2e 0x34a00bc8
@0d2f 0xb5368c11
@0d30 0xb5b6b940
@0d31 0xb5974b30
@0d32 0x33be6f93
@0d33 0x34c75d79
@0d34 0xb5fce28b
@0d35 0x329ad4c6
@0d36 0x358c5724
@0d37 0xb50537a3
@0d38 0xb5957b21
@0d39 0x35df94fc
@0d3a 0xb4ac92c5
@0d3b 0x360240a4
@0d3c 0x33ed4b73
@0d3d 0xb57e7ce8
@0d3e 0x33428cd8
@0d3f 0x336745e3
@0d40 0x3571e4c9
@0d41 0x35869207
@0d42 0xb588f065
@0d43 0xb5c2587e
@0d44 0xb58509fc
@0d45 0xb59afa08
@0d46 0x3301289f
@0d47 0xb5048776
@0d48 0x35541488
@0d49 0xb4fc7a4e
@0d4a 0xb547bc94
@0d4b 0xb42abeb7
@0d4c 0xb53b69a6
@0d4d 0xb391c1da
@0d4e 0xb55e0bdd
@0d4f 0xb5613124
@0d50 0xb4a64813
@0d51 0x35975ac9
@0d52 0xb57d622a
@0d53 0xb5d87f99
@0d54 0xb59af5f7
@0d55 0x35cfd778
@0d56 0x35c66461
@0d57 0xb4ba61c1
@0d58 0x34b5c265
@0d59 0xb540dc84
@0d5a 0xb4d0046f
@0d5b 0x35c42635
@0d5c 0x34b9a799
@0d5d 0xb4f26b15
@0d5e 0xb55c4945
@0d5f 0xb5d0128c
@0d60 0xb48b7caf
@0d61 0xb426b854
@0d62 0x3538dc3d
@0d63 0xb607b0c0
@0d64 0x35704714
@0d65 0x34c1c5fc
@0d66 0x340ab9d6
@0d67 0xb5c692fa
@0d68 0xb5eee8d0
@0d69 0xb5ecf986
@0d6a 0x3501b002
@0d6b 0xb572b397
@0d6c 0xb5a774d7
@0d6d 0x340e0319
@0d6e 0xb4783e71
@0d6f 0x34528697
@0d70 0x35c7e0b4
@0d71 0x360c1c07
@0d72 0xb6170ce0
@0d73 0x35c24fde
@0d74 0xb168a70d
@0d75 0xb50513e6
@0d76 0x35a23cd0
@0d77 0x35375471
@0d78 0x35797882
@0d79 0xb53fb176
@0d7a 0x354e5fea
@0d7b 0x320c98d9
@0d7c 0x34f287df
@0d7d 0xb5c53eb6
@0d7e 0x34e0165d
@0d7f 0x348786eb
@0d80 0xb4c96e94
@0d81 0xb5d8fa32
@0d82 0xb503447c
@0d83 0x35bd0604
@0d84 0x36184aec
@0d85 0x3431b3cf
@0d86 0xb50f75a0
@0d87 0xb583c28e
@0d88 0x340a9236
@0d89 0x34ec0c23
@0d8a 0xb5036679
@0d8b 0x34a8bf9b
@0d8c 0x34f1c287
@0d8d 0x35a2b662
@0d8e 0xb3aa955f
@0d8f 0x36593ff9
@0d90 0xb4b5f129
@0d91 0x35cffe81
@0d92 0x35b08ff5
@0d93 0xb461ba11
@0d94 0x3560025a
@0d95 0xb52f3fa7
@0d96 0x34ee5dc7
@0d97 0xb59adad6
@0d98 0xb59b1a03
@0d99 0xb546d1d2
@0d9a 0xb581523a
@0d9b 0x342a94ce
@0d9c 0x3596edad
@0d9d 0xb3d7fd7f
@0d9e 0xb5864411
@0d9f 0x3577b2fb
@0da0 0xb2918428
@0da1 0x34af6bf4
@0da2 0xb5b10264
@0da3 0x34f78e4b
@0da4 0xb5da55e4
@0da5 0xb4d3f176
@0da6 0xb4eabe38
@0da7 0xb503acb4
@0da8 0x349f43db
@0da9 0x3530260b
@0daa 0xb4913a37
@0dab 0xb53e670b
@0dac 0x35270bb7
@0dad 0xb5f09294
@0dae 0xb4c9cd8b
@0daf 0xb4d05d2c
@0db0 0xb40af354
@0db1 0x348defcd
@0db2 0xb5e97c9f
@0db3 0x346eb367
@0db4 0xb4bb818f
@0db5 0xb5740a88
@0db6 0x344bad0d
@0db7 0xb58b662c
@0db8 0xb4a4a510
@0db9 0x35c4067a
@0dba 0xb4ead69b
@0dbb 0x35791aa3
@0dbc 0xb5e6c861
@0dbd 0x33cef964
@0dbe 0x35d929ab
@0dbf 0xb4d63529
@0dc0 0x34fcceda
@0dc1 0x35c90179
@0dc2 0x345b8492
@0dc3 0x35e71a04
@0dc4 0xb46d94bc
@0dc5 0xb59fbf56
@0dc6 0xb56f9afb
@0dc7 0x3521210e
@0dc8 0x35729c0f
@0dc9 0x3607f99d
@0dca 0x3593817e
@0dcb 0xb3800388
@0dcc 0xb4e54c04
@0dcd 0xb3986545
@0dce 0xb554c79b
@0dcf 0x35337c13
@0dd0 0xb38ab5d0
@0dd1 0xb3f53376
@0dd2 0x35aa74b6
@0dd3 0xb5bb2e5d
@0dd4 0xb467dcf3
@0dd5 0xb4264e5e
@0dd6 0x3491bd4c
@0dd7 0x35360cb1
@0dd8 0xb61f2059
@0dd9 0x3519ceae
@0dda 0xb5481f4d
@0ddb 0x35112670
@0ddc 0x3524dd96
@0ddd 0x3439379d
@0dde 0xb51c172e
@0ddf 0x35037459
@0de0 0xb480b257
@0de1 0xb5a3bf11
@0de2 0x35968808
@0de3 0x3491d871
@0de4 0xb59a8b4b
@0de5 0xb571bd3c
@0de6 0x35c37fa7
@0de7 0xb5d02b1d
@0de8 0x3343315a
@0de9 0xb4bfe1e7
@0dea 0x358d5140
@0deb 0xb60c312b
@0dec 0xb55316bb
@0ded 0x3594e463
@0dee 0x343d214a
@0def 0x34c7f9b7
@0df0 0xb47bd4b5
@0df1 0x34510b83
@0df2 0xb582f481
@0df3 0x3582ac4c
@0df4 0x35412f30
@0df5 0x35312bdd
@0df6 0x36040653
@0df7 0xb5861352
@0df8 0xb5e37370
@0df9 0x3562d79e
@0dfa 0x35309c95
@0dfb 0xb5761dcd
@0dfc 0xb2694f87
@0dfd 0x359b04ae
@0dfe 0xb4edeac3
@0dff 0xb610b826
@0e00 0xb359de21
@0e01 0x34fc5cae
@0e02 0xb49c020d
@0e03 0xb47d6317
@0e04 0xb56da5f1
@0e05 0x349db09c
@0e06 0xb563b0cd
@0e07 0xb5bfde84
@0e08 0x350b796a
@0e09 0x357897b9
@0e0a 0x35c51a4b
@0e0b 0x355c36a8
@0e0c 0x35981c77
@0e0d 0x30b350c6
@0e0e 0x35c6c1b7
@0e0f 0xb6567098
@0e10 0xb4a46f9a
@0e11 0xb1da70fa
@0e12 0x36061a25
@0e13 0x3612228e
@0e14 0x3503ed42
@0e15 0x35c0243e
@0e16 0xb41efe22
@0e17 0x35811c01
@0e18 0xb4c38edb
@0e19 0x34cb17b6
@0e1a 0x353c2ec8
@0e1b 0xb55683fa
@0e1c 0x353560e1
@0e1d 0x35d11446
@0e1e 0x346d1b14
@0e1f 0xb591b26f
@0e20 0x35e75030
@0e21 0x35b96f94
@0e22 0x35c8ed41
@0e23 0xb3ebba5c
@0e24 0xb5bbef58
@0e25 0x354dfd8c
@0e26 0x3519c93d
@0e27 0xb49d6c93
@0e28 0x352673d5
@0e29 0x337ce85f
@0e2a 0xb5868601
@0e2b 0xb53d1f86
@0e2c 0xb4bd9c4b
@0e2d 0xb5770338
@0e2e 0x3571a385
@0e2f 0x3570e36e
@0e30 0xb58d9b68
@0e31 0x34eba336
@0e32 0x34735765
@0e33 0x34eee633
@0e34 0xb55e81fd
@0e35 0xb607592f
@0e36 0x35d715bd
@0e37 0xb51f735c
@0e38 0xb41cf57e
@0e39 0xb57840f0
@0e3a 0x348b8a5d
@0e3b 0xb4ef16ab
@0e3c 0xb5201ee0
@0e3d 0xb48b3447
@0e3e 0xb497bda0
@0e3f 0x359d41f9
@0e40 0xb51dfa58
@0e41 0xb50c4037
@0e42 0xb568d2f6
@0e43 0xb577a959
@0e44 0xb5171d9f
@0e45 0xb52a48ff
@0e46 0x34a3ea6f
@0e47 0xb4d265ae
@0e48 0xb49d5e68
@0e49 0x357995e6
@0e4a 0xb3cb6317
@0e4b 0xb5a51a8c
@0e4c 0xb5991fee
@0e4d 0xb51d8034
@0e4e 0x3594eac6
@0e4f 0x3589eafb
@0e50 0x360646bf
@0e51 0xb5ad2d39
@0e52 0xb47061eb
@0e53 0x35971578
@0e54 0xb593f27e
@0e55 0xb5a394bb
@0e56 0xb4a11c90
@0e57 0xb5b822fd
@0e58 0xb53a2d25
@0e59 0xb4ff0dc6
@0e5a 0x359c571e
@0e5b 0x33b6a72d
@0e5c 0x34ece3d1
@0e5d 0x3389bb22
@0e5e 0xb3753eee
@0e5f 0xb5faa971
@0e60 0xb56d622f
@0e61 0xb4f08fc6
@0e62 0xb50acdcd
@0e63 0x35369211
@0e64 0xb60217aa
@0e65 0x35f93da4
@0e66 0xb5c22883
@0e67 0xb4926bdc
@0e68 0xb4b9ecac
@0e69 0x35daa0aa
@0e6a 0xb3a00e49
@0e6b 0xb4a58833
@0e6c 0x354b7dc6
@0e6d 0x3454dec9
@0e6e 0x35e099af
@0e6f 0xb5251bff
@0e70 0x35863875
@0e71 0x34cfb897
@0e72 0xb42671a7
@0e73 0xb2876e7f
@0e74 0x34e3c4ea
@0e75 0x35c32d30
@0e76 0x352e3091
@0e77 0x356d2ada
@0e78 0x3572141a
@0e79 0xb5e062ba
@0e7a 0xb5466022
@0e7b 0xb5c76de7
@0e7c 0xb5b9834a
@0e7d 0x35944942
@0e7e 0x3595a47c
@0e7f 0x3458240c
@0e80 0x3587f723
@0e81 0x3597b4e3
@0e82 0xb57844ba
@0e83 0xb42ddcb1
@0e84 0x3545665a
@0e85 0xb50a57db
@0e86 0x34bd4f07
@0e87 0xb4c43331
@0e88 0xb5806655
@0e89 0x34fea5ea
@0e8a 0x3528837d
@0e8b 0x35e0b7d1
@0e8c 0xb611eae4
@0e8d 0xb4b3cb3b
@0e8e 0xb545d0e2
@0e8f 0xb4bba057
@0e90 0xb534779b
@0e91 0xb587302a
@0e92 0xb594a703
@0e93 0xb5e4a181
@0e94 0xb516d736
@0e95 0x360db62f
@0e96 0xb50da3d6
@0e97 0x34c3adc1
@0e98 0x35aa67b0
@0e99 0x357a2dc5
@0e9a 0xb553efae
@0e9b 0xb574a8de
@0e9c 0xb5dce3f0
@0e9d 0xb5928c2a
@0e9e 0x34a3a3e0
@0e9f 0xb5919496
@0ea0 0x35a5e9a9
@0ea1 0x345b30a6
@0ea2 0xb4c961e9
@0ea3 0xb534e4e3
@0ea4 0xb58b0197
@0ea5 0x3588761d
@0ea6 0xb549b800
@0ea7 0x35511410
@0ea8 0xb6335b49
@0ea9 0x35f0460b
@0eaa 0xb4b507a1
@0eab 0xb51f80bb
@0eac 0x3592b2b4
@0ead 0xb5304512
@0eae 0x3595cd01
@0eaf 0xb57cfadb
@0eb0 0x3518bed7
@0eb1 0x362752ee
@0eb2 0x35278f5f
@0eb3 0xb5c4525b
@0eb4 0xb535f3e7
@0eb5 0xb4d71008
@0eb6 0xb5109a60
@0eb7 0x361ac2ec
@0eb8 0x352ee58f
@0eb9 0x3580956e
@0eba 0xb5a397e3
@0ebb 0x34a75e1b
@0ebc 0x35a5a28d
@0ebd 0xb5bc3165
@0ebe 0xb49e261f
@0ebf 0xb2c752eb
@0ec0 0xb5c0c984
@0ec1 0xb5544228
@0ec2 0x3560c81b
@0ec3 0x35c01278
@0ec4 0xb56abe9f
@0ec5 0xb498384a
@0ec6 0xb5efc7b0
@0ec7 0x35adffd6
@0ec8 0xb4efd86e
@0ec9 0x3566f9d2
@0eca 0x35a9cf00
@0ecb 0x355313eb
@0ecc 0x34aa48b4
@0ecd 0xb569ffc2
@0ece 0x35910a7d
@0ecf 0xb4c1e6b8
@0ed0 0xb5580700
@0ed1 0x35f18941
@0ed2 0xb583f69d
@0ed3 0xb55eadce
@0ed4 0x3499505f
@0ed5 0xb456e6e6
@0ed6 0x352abf81
@0ed7 0x3589d912
@0ed8 0xb59c418a
@0ed9 0x3506e656
@0eda 0xb5354316
@0edb 0xb31f2af1
@0edc 0x3576a488
@0edd 0xb4ecc35e
@0ede 0x35401f7f
@0edf 0x354aa02f
@0ee0 0x35055b91
@0ee1 0x351270d9
@0ee2 0xb5e9008c
@0ee3 0x3544796a
@0ee4 0xb602e585
@0ee5 0xb5946d0b
@0ee6 0xb433e149
@0ee7 0x353502d4
@0ee8 0xb481b961
@0ee9 0x35ea251e
@0eea 0xb53e7a1e
@0eeb 0x35645302
@0eec 0x36004041
@0eed 0x34e615dc
@0eee 0xb4df4786
@0eef 0xb5d48261
@0ef0 0xb429c5b6
@0ef1 0x355d842c
@0ef2 0xb584fe5c
@0ef3 0xb4fdda32
@0ef4 0xb5783f3b
@0ef5 0xb412187d
@0ef6 0xb5a0f2a3
@0ef7 0x3620e466
@0ef8 0xb4b0fe77
@0ef9 0x3609d610
@0efa 0x3529ec10
@0efb 0xb4e94849
@0efc 0xb5afd109
@0efd 0xb5515292
@0efe 0x35825010
@0eff 0xb48122e3
@0f00 0xb58dfbd6
@0f01 0x3439d8a5
@0f02 0x3590dc62
@0f03 0x34fd7884
@0f04 0xb4a64bf0
@0f05 0x3584f6c3
@0f06 0xb5bcc444
@0f07 0x343c721d
@0f08 0xb5912f3d
@0f09 0x35b20036
@0f0a 0x35dd7c98
@0f0b 0x356d857e
@0f0c 0x356481c7
@0f0d 0x355f27d7
@0f0e 0xb400561c
@0f0f 0x35e573a8
@0f10 0xb3c75824
@0f11 0xb5e67d95
@0f12 0x3520276d
@0f13 0xb38754c7
@0f14 0x361dc8e8
@0f15 0x3622057f
@0f16 0x36171f33
@0f17 0x3589df5b
@0f18 0xb39abbc2
@0f19 0x340280c9
@0f1a 0xb59aaed6
@0f1b 0xb5b82085
@0f1c 0x3463f66b
@0f1d 0x35b58cc3
@0f1e 0xb43baf9f
@0f1f 0xb5562519
@0f20 0x34e99b04
@0f21 0x33da4a83
@0f22 0x350f0c97
@0f23 0xb5ae9a9a
@0f24 0x34b683da
@0f25 0x35baabf5
@0f26 0xb4358082
@0f27 0xb5ccdd49
@0f28 0xb530b7fa
@0f29 0x348adf78
@0f2a 0x3598e365
@0f2b 0x344808f6
@0f2c 0xb4c10cf3
@0f2d 0x33c7c969
@0f2e 0xb502a5ad
@0f2f 0x3606c707
@0f30 0xb4a05512
@0f31 0x349bba8d
@0f32 0xb5e7b5c8
@0f33 0x34bdd8dc
@0f34 0xb558d0e3
@0f35 0xb598d8bd
@0f36 0xb56e41c3
@0f37 0x3531eb55
@0f38 0x3546610e
@0f39 0xb5ed8c80
@0f3a 0xb495a83d
@0f3b 0x34ce006d
@0f3c 0xb5586ee5
@0f3d 0x338ba3eb
@0f3e 0xb4e3f932
@0f3f 0xb561ed26
@0f40 0xb50d0aab
@0f41 0x35af3bfe
@0f42 0xb5dcf03a
@0f43 0x3509da8d
@0f44 0x356b8fdb
@0f45 0x359713b8
@0f46 0xb3877522
@0f47 0xb4e85e25
@0f48 0x357f6535
@0f49 0xb4bd84d1
@0f4a 0x34cba985
@0f4b 0xb55091f3
@0f4c 0x3370ac12
@0f4d 0xb54eab84
@0f4e 0x3596e490
@0f4f 0x34606ae1
@0f50 0x3516391e
@0f51 0x35b7bac9
@0f52 0x33265a42
@0f53 0x336a67cd
@0f54 0x33901991
@0f55 0xb5694bd5
@0f56 0x35611b2a
@0f57 0xb576b606
@0f58 0x35f045ad
@0f59 0x330c70fe
@0f5a 0xb604a2ca
@0f5b 0x3541e5a8
@0f5c 0x336eb233
@0f5d 0x3351a453
@0f5e 0x35f232c6
@0f5f 0xb3a20e81
@0f60 0x355607c6
@0f61 0x3526631a
@0f62 0x359dbb04
@0f63 0x32b4c35d
@0f64 0x34c70fd5
@0f65 0xb4fbf6f7
@0f66 0x34d57c0d
@0f67 0x35813ade
@0f68 0xb551c422
@0f69 0x352be3e4
@0f6a 0x34a4d0d0
@0f6b 0x3527caa7
@0f6c 0x35d5d00f
@0f6d 0xb307cd98
@0f6e 0xb51cf3e4
@0f6f 0x3375eea6
@0f70 0x3466d607
@0f71 0x351f93c6
@0f72 0xb58a1444
@0f73 0xb5399bbe
@0f74 0xb5127193
@0f75 0x33051665
@0f76 0x36393aa6
@0f77 0xb433548e
@0f78 0x34db5caa
@0f79 0xb427d9db
@0f7a 0x34d2d3a2
@0f7b 0xb5c67a69
@0f7c 0x338788ea
@0f7d 0xb38211c7
@0f7e 0xb51f4e51
@0f7f 0x34812f22
@0f80 0xb601295f
@0f81 0xb358a432
@0f82 0x35997893
@0f83 0x35e69564
@0f84 0xb541bdd9
@0f85 0x354c669c
@0f86 0xb60007bd
@0f87 0x34713b71
@0f88 0xb39967f5
@0f89 0x34c8686a
@0f8a 0x33ba7aec
@0f8b 0x33bb19c8
@0f8c 0xb4e80ec8
@0f8d 0xb55a73bf
@0f8e 0x3602d857
@0f8f 0x345cf3bb
@0f90 0xb42116de
@0f91 0xb41a0ad4
@0f92 0xb4699a77
@0f93 0xb5c60890
@0f94 0x34a66dcb
@0f95 0xb5899cc5
@0f96 0x345287fa
@0f97 0x35854587
@0f98 0x34b45f57
@0f99 0x34e15cd3
@0f9a 0xb3b855cf
@0f9b 0xb57ae77e
@0f9c 0x33d8a1dd
@0f9d 0x35a8b843
@0f9e 0x351d86b6
@0f9f 0x35f741af
@0fa0 0xb4c67cc2
@0fa1 0x35c5bfd7
@0fa2 0xb115bab4
@0fa3 0xb50d2059
@0fa4 0xb508491d
@0fa5 0x356ac403
@0fa6 0x35101a8f
@0fa7 0xb52708b0
@0fa8 0xb57e6cb8
@0fa9 0x34771354
@0faa 0xb4d3e1d4
@0fab 0x358a5363
@0fac 0xb568ca48
@0fad 0xb551753d
@0fae 0x34b4aa7b
@0faf 0xb5f1be6d
@0fb0 0x350eef4f
@0fb1 0xb5e0492f
@0fb2 0xb4c3c20d
@0fb3 0x3578470c
@0fb4 0xb583c741
@0fb5 0xb5026568
@0fb6 0x34996f5e
@0fb7 0x3653a3aa
@0fb8 0x359a4857
@0fb9 0x350a6266
@0fba 0xb44c7b5b
@0fbb 0xb3bf4696
@0fbc 0x35494768
@0fbd 0x350c0623
@0fbe 0xb54d45f0
@0fbf 0xb45b7489
@0fc0 0x33f773fc
@0fc1 0x355ce1a0
@0fc2 0x35930233
@0fc3 0xb4f7544d
@0fc4 0xb5b03172
@0fc5 0xb5c20e85
@0fc6 0xb459f9cc
@0fc7 0x32fa9d7f
@0fc8 0xb59adae5
@0fc9 0xb5b753ff
@0fca 0x351d6fd3
@0fcb 0xb2c63142
@0fcc 0x340bb4ca
@0fcd 0x34f55887
@0fce 0xb5246ce2
@0fcf 0xb4c6ed0a
@0fd0 0xb4b21ed4
@0fd1 0x34e912e3
@0fd2 0x3500e394
@0fd3 0x341bb064
@0fd4 0x35979650
@0fd5 0x35820cf9
@0fd6 0x351ff127
@0fd7 0xb5084368
@0fd8 0x363e8e32
@0fd9 0x35b37557
@0fda 0xb5512062
@0fdb 0xb5868f8a
@0fdc 0xb40a493f
@0fdd 0x354165a7
@0fde 0xb60a97c6
@0fdf 0xb435fd58
@0fe0 0xb409ea54
@0fe1 0x353de8f4
@0fe2 0xb2b9650d
@0fe3 0x360f8fb5
@0fe4 0x34ad9d22
@0fe5 0x353836f2
@0fe6 0xb32c675c
@0fe7 0xb515db8d
@0fe8 0xb553f89d
@0fe9 0xb41b6607
@0fea 0xb5300fc8
@0feb 0x354078dc
@0fec 0xb584c5fe
@0fed 0x33990508
@0fee 0xb53d3ef0
@0fef 0xb49fdf49
@0ff0 0xb5b6b5d2
@0ff1 0x35337ae3
@0ff2 0xb599b41d
@0ff3 0xb5a9e81c
@0ff4 0x3432c10d
@0ff5 0x34934554
@0ff6 0x355dc085
@0ff7 0xb43b8b1f
@0ff8 0x34d9ca57
@0ff9 0xb5964a74
@0ffa 0xb5832c81
@0ffb 0x348a9fca
@0ffc 0x35fa9b77
@0ffd 0xb605ad06
@0ffe 0x34d2c61d
@0fff 0x337b0e2a
@1000 0x35d706ec
@1001 0xb586f605
@1002 0x35621c04
@1003 0x350b0da5
@1004 0x3587fdce
@1005 0x35e6cba5
@1006 0x362197bd
@1007 0x35979966
@1008 0xb4f8d77a
@1009 0x349d2d99
@100a 0xb5209796
@100b 0xb4a39206
@100c 0x35820f5e
@100d 0x3566499d
@100e 0xb4f74893
@100f 0x33d44f8d
@1010 0x34555d12
@1011 0x357aec6e
@1012 0x35b3e1c1
@1013 0x34dec085
@1014 0x34dcfe18
@1015 0x34a73d72
@1016 0x34c7cce2
@1017 0xb60314e1
@1018 0x33aa7612
@1019 0x35193d71
@101a 0xb57cfcc1
@101b 0x35d8d6b3
@101c 0xb585a81f
@101d 0x356a61d5
@101e 0x359c59fe
@101f 0xb5d87a26
@1020 0xb556dc1e
@1021 0xb4a335e3
@1022 0xb550eb31
@1023 0x349ae4af
@1024 0xb582981e
@1025 0x354da3f9
@1026 0x363b1d0d
@1027 0x359ea6f3
@1028 0x3459f9a6
@1029 0xb58580e5
@102a 0x349cf445
@102b 0xb5841fa6
@102c 0xb525f70a
@102d 0xb582089d
@102e 0xb59d125a
@102f 0xb52c0937
@1030 0x356ca019
@1031 0x35e6533a
@1032 0x35faa305
@1033 0xb6059ba1
@1034 0x355744d4
@1035 0xb4ea6669
@1036 0xb58bfc78
@1037 0x350650ef
@1038 0xb4da36f3
@1039 0xb581d75b
@103a 0xb615842d
@103b 0xb39d181b
@103c 0xb5cd5937
@103d 0x34f445fa
@103e 0x3591054c
@103f 0xb4aec3f5
@1040 0x345a7be9
@1041 0x332b6b56
@1042 0xb43dee57
@1043 0x35b0ce36
@1044 0xb34a6973
@1045 0xb533df99
@1046 0xb4d956e2
@1047 0x358d7809
@1048 0x3451e4a3
@1049 0xb50155ba
@104a 0x35fa5aad
@104b 0xb5beb93b
@104c 0xb58cde38
@104d 0x34efa7bf
@104e 0xb5203434
@104f 0xb319c963
@1050 0xb5e90a68
@1051 0xb5345661
@1052 0x359c0c03
@1053 0x35a3c259
@1054 0xb54049fe
@1055 0x35b107c8
@1056 0xb509440d
@1057 0xb58cc108
@1058 0x35e0b409
@1059 0xb530f107
@105a 0xb4f60db8
@105b 0x355b9f20
@105c 0xb594e6d1
@105d 0xb5359529
@105e 0x356f427d
@105f 0xb50b39d5
@1060 0xb5b687cd
@1061 0xb5451a25
@1062 0x3559a9da
@1063 0x34a591d7
@1064 0x352fa7f8
@1065 0x35a39681
@1066 0x35475ad8
@1067 0xb39e2ad3
@1068 0x356db5f5
@1069 0x348fd8e0
@106a 0xb54e2114
@106b 0xb5ab87c7
@106c 0xb59d85a9
@106d 0x35825415
@106e 0xb59cda6a
@106f 0x3521b5eb
@1070 0xb2c228f7
@1071 0x351f1799
@1072 0x352f860d
@1073 0xb3a134d8
@1074 0x3512dbd4
@1075 0xb3be4757
@1076 0x3436fb38
@1077 0x354c47d9
@1078 0x351335d1
@1079 0xb41a764b
@107a 0x3490a189
@107b 0x351bab50
@107c 0x35145221
@107d 0xb44ade67
@107e 0x36371f81
@107f 0x35902af8
@1080 0x3530707c
@1081 0xb5097161
@1082 0x30f54ad3
@1083 0x35cb92c9
@1084 0x339efee4
@1085 0x34fb8f56
@1086 0x35a20b64
@1087 0xb558f9ba
@1088 0xb4e66984
@1089 0x35ac9117
@108a 0xb422b95f
@108b 0xb5446d3e
@108c 0xb594e3c1
@108d 0xb5aa343e
@108e 0x35212cc5
@108f 0xb558674e
@1090 0x341f27be
@1091 0x34ff37b2
@1092 0x34fdb526
@1093 0x3572b5a3
@1094 0xb5bbe60f
@1095 0xb5955acb
@1096 0xb551ad2d
@1097 0xb57a62c8
@1098 0xb5809859
@1099 0x3489ca17
@109a 0xb40009ec
@109b 0x35cf3140
@109c 0xb5cadedb
@109d 0x35f2f727
@109e 0xb51b3b79
@109f 0xb5baf052
@10a0 0xb48fbab4
@10a1 0x341670cf
@10a2 0x354d7869
@10a3 0xb5de631d
@10a4 0xb3c1212b
@10a5 0x35a0d2eb
@10a6 0xb580c895
@10a7 0x34772d4f
@10a8 0x35b957c2
@10a9 0x356333ac
@10aa 0x35a0872d
@10ab 0x3548fa3c
@10ac 0xb309ef45
@10ad 0x34975a4a
@10ae 0x35593041
@10af 0xb5c93854
@10b0 0x3560aabd
@10b1 0x35170871
@10b2 0x3515e120
@10b3 0xb5bef8f9
@10b4 0xb59ec2cb
@10b5 0x358ea3af
@10b6 0xb52a109a
@10b7 0xb574b910
@10b8 0xb2bb4821
@10b9 0x34b6ed8d
@10ba 0xb5638db6
@10bb 0xb614b060
@10bc 0xb54b8c4b
@10bd 0xb56f2acd
@10be 0x355976b4
@10bf 0xb4715131
@10c0 0x3550c91b
@10c1 0x34a64d0e
@10c2 0xb563c9cf
@10c3 0xb62215bd
@10c4 0x34882890
@10c5 0x3585f2d6
@10c6 0x359fc11a
@10c7 0x34bd8902
@10c8 0x33ef6332
@10c9 0x341c78ad
@10ca 0xb5c04295
@10cb 0xb4996a86
@10cc 0xb58c9203
@10cd 0xb44288c9
@10ce 0x35a6c643
@10cf 0x34a96da8
@10d0 0x360e947b
@10d1 0x35260e29
@10d2 0x35e2c252
@10d3 0xb3a97f96
@10d4 0xb60212b3
@10d5 0xb4a02dfd
@10d6 0xb37be8fc
@10d7 0xb4040abd
@10d8 0xb59d8897
@10d9 0x35c5bc1a
@10da 0xb4be2e2d
@10db 0xb4b47853
@10dc 0xb5ba7c23
@10dd 0x345b3ab9
@10de 0xb4c2dccf
@10df 0x355177a6
@10e0 0x34f5f598
@10e1 0x35319f6d
@10e2 0xb5ba4b19
@10e3 0xb43d9463
@10e4 0x35b0a57e
@10e5 0x33b61074
@10e6 0xb578da7f
@10e7 0xb4bc7710
@10e8 0x3554453f
@10e9 0xb5f28961
@10ea 0x34af182e
@10eb 0x3511b930
@10ec 0x3570ea66
@10ed 0x3384d44d
@10ee 0xb573deca
@10ef 0xb5945844
@10f0 0xb5be7e7a
@10f1 0xb4fec50f
@10f2 0x33d04321
@10f3 0x3522bbb4
@10f4 0x332c8c57
@10f5 0xb4adf75d
@10f6 0xb6123a43
@10f7 0xb5f9c933
@10f8 0x34058853
@10f9 0x33bd862b
@10fa 0xb38e10bb
@10fb 0x35f14e33
@10fc 0xb3fac6b5
@10fd 0xb478d9cc
@10fe 0x350b5285
@10ff 0x35c65728
@1100 0xb5df39aa
@1101 0x34ae3105
@1102 0x353247a2
@1103 0xb4f6bdfd
@1104 0x359c2cb6
@1105 0xb57adeb5
@1106 0x359f7af5
@1107 0x35a4c21f
@1108 0xb58bac08
@1109 0x349c44cd
@110a 0xb600689b
@110b 0x34a6ee1e
@110c 0xb54b463e
@110d 0x34e54364
@110e 0x351e3fff
@110f 0x352cdcc1
@1110 0xb56d7d61
@1111 0x34afd7b7
@1112 0xb5a19c91
@1113 0x3514ad13
@1114 0x35b03619
@1115 0xb488466f
@1116 0xb5212616
@1117 0xb4b33b85
@1118 0x356de266
@1119 0xb5aec1bc
@111a 0x356c3100
@111b 0xb57aeb0d
@111c 0xb5ce143d
@111d 0x35ca801c
@111e 0xb4950082
@111f 0xb3861848
@1120 0x361c56c0
@1121 0x353557ed
@1122 0xb60ebf11
@1123 0x3433e1a7
@1124 0xb485c052
@1125 0xb3aa3c2a
@1126 0x34fe891b
@1127 0xb539f595
@1128 0xb59145c9
@1129 0xb5f5833c
@112a 0xb49cfaa9
@112b 0xb5409a55
@112c 0x349d91e8
@112d 0xb326eb27
@112e 0xb5f133a3
@112f 0x34d0c6cc
@1130 0xb51558aa
@1131 0xb48f0444
@1132 0x34ad240e
@1133 0x35442f99
@1134 0xb60ca666
@1135 0x3591de55
@1136 0x35786fb7
@1137 0x35b7587b
@1138 0xb441be05
@1139 0xb581a633
@113a 0xb58c90fc
@113b 0xb5760454
@113c 0xb4f986e6
@113d 0xb538d27f
@113e 0x35897caf
@113f 0x3508fcec
@1140 0x352656c1
@1141 0xb4c15640
@1142 0xb52aa3c2
@1143 0x35b8b33b
@1144 0xb3da1454
@1145 0xb48cabbb
@1146 0x342f653c
@1147 0xb43650d4
@1148 0xb56611d3
@1149 0x35f626ed
@114a 0xb518da3f
@114b 0xb2ba13a7
@114c 0x34dd4c7a
@114d 0x34a72569
@114e 0xb590d662
@114f 0xb5a43cae
@1150 0x356e9537
@1151 0x35627a3f
@1152 0x3515c424
@1153 0xb5df6b04
@1154 0xb51edfa9
@1155 0x3521ad9f
@1156 0x35488604
@1157 0xb5e6ae4c
@1158 0x34334272
@1159 0xb56ad065
@115a 0xb57324cd
@115b 0x3536d141
@115c 0x343eaf9a
@115d 0x3564b5ce
@115e 0x354d089c
@115f 0x35210d44
@1160 0x34ee29f4
@1161 0xb4c89daf
@1162 0x359eafe1
@1163 0xb5fbf6a0
@1164 0xb5c2f318
@1165 0xb555b003
@1166 0xb5215195
@1167 0xb4eb695c
@1168 0x35145fdc
@1169 0xb57cc04f
@116a 0x35e05d48
@116b 0x355eca84
@116c 0x34f87774
@116d 0xb491b8b4
@116e 0x35bf08aa
@116f 0x35dd68eb
@1170 0x3478c57a
@1171 0xb5002da2
@1172 0xb5890d6e
@1173 0xb5c66c3e
@1174 0x3589b7a3
@1175 0x33204a04
@1176 0xb116208e
@1177 0x35b426ff
@1178 0x352c0704
@1179 0xb437e100
@117a 0x35a68216
@117b 0xb3414b89
@117c 0xb596ed89
@117d 0xb52c097f
@117e 0xb5bdd906
@117f 0xb4aba2bb
@1180 0x34b50fce
@1181 0xb58a843f
@1182 0x34a7cfd7
@1183 0xb5275b22
@1184 0x35006006
@1185 0xb59ea1d9
@1186 0x35540c50
@1187 0x35d58eb9
@1188 0xb50a54c6
@1189 0xb45fc721
@118a 0xb4c3f73d
@118b 0xb4d8cddc
@118c 0x3492bf8f
@118d 0x35da7b4c
@118e 0xb601cbf3
@118f 0xb61f1fb7
@1190 0xb4ca8047
@1191 0x343ec4bf
@1192 0x3530ba7f
@1193 0x34f63f97
@1194 0xb6002d38
@1195 0xb50436a7
@1196 0xb537ecb0
@1197 0x34b89efe
@1198 0xb61a7a23
@1199 0x358e498b
@119a 0xb59e5a8e
@119b 0xb3bfa1d7
@119c 0xb4978d43
@119d 0x34fa3821
@119e 0xb5734abb
@119f 0xb5d9032a
@11a0 0xb5965fba
@11a1 0x33547ca0
@11a2 0xb5a0bb35
@11a3 0x35bfe79c
@11a4 0xb4a3e43d
@11a5 0x35cd7ebd
@11a6 0x33dcb8a1
@11a7 0xb54c9c27
@11a8 0xb5febce2
@11a9 0x355e5abe
@11aa 0x3495323c
@11ab 0x33d1c3e6
@11ac 0xb574b2bf
@11ad 0xb575d950
@11ae 0xb5554de3
@11af 0xb4e5b92a
@11b0 0xb61844d4
@11b1 0xb3fe1e7d
@11b2 0x33911473
@11b3 0xb557f2b1
@11b4 0x350abfc6
@11b5 0x356e2913
@11b6 0xb3b58841
@11b7 0xb3cc46e7
@11b8 0xb32e3895
@11b9 0x34e30ad3
@11ba 0xb54cf7e7
@11bb 0xb61e5882
@11bc 0x34bf55cd
@11bd 0xb5949ade
@11be 0xb44e0561
@11bf 0x34c6cf11
@11c0 0xb59f32d9
@11c1 0x35578ab2
@11c2 0x34d5bdda
@11c3 0x3566536c
@11c4 0xb4686306
@11c5 0x34f21a13
@11c6 0xb5346641
@11c7 0x35dd2a1e
@11c8 0x35a081f9
@11c9 0xb599f82e
@11ca 0x35d57982
@11cb 0x34207613
@11cc 0x34f70687
@11cd 0x355f33dc
@11ce 0x34414a4d
@11cf 0x3541fefb
@11d0 0xb487a05b
@11d1 0x3643daf6
@11d2 0xb3a9369f
@11d3 0x358b4b68
@11d4 0x34955a91
@11d5 0x33e04f02
@11d6 0x3484df9b
@11d7 0xb518668c
@11d8 0x35db1247
@11d9 0xb58d8e85
@11da 0x34385b4a
@11db 0x350e4233
@11dc 0x3445cf1f
@11dd 0xb49f14ea
@11de 0x352733d2
@11df 0xb38be947
@11e0 0xb4449236
@11e1 0x354d6578
@11e2 0xb59be215
@11e3 0xb5fe31c4
@11e4 0x33f9d331
@11e5 0xb3ebac0a
@11e6 0xb5b0c240
@11e7 0xb5049956
@11e8 0x3547d2a1
@11e9 0xb533e4e4
@11ea 0x350cb1d6
@11eb 0x35b79f6c
@11ec 0xb4857430
@11ed 0x34d7de1e
@11ee 0x3424bd53
@11ef 0x350f14e1
@11f0 0x33a4a2f5
@11f1 0x359d3e1c
@11f2 0x34900b4f
@11f3 0xb4ff40ee
@11f4 0xb599b87d
@11f5 0xb5038210
@11f6 0xb58c7fff
@11f7 0xb4aa264c
@11f8 0x34490dc6
@11f9 0x32c21236
@11fa 0xb5bb0afb
@11fb 0xb43642bf
@11fc 0xb5423d71
@11fd 0xb37482f2
@11fe 0xb52865b3
@11ff 0x33aac079
@1200 0x351e0ddb
@1201 0xb51b8d87
@1202 0x360ecdbb
@1203 0xb54c32ad
@1204 0xb5e3227a
@1205 0xb603ee42
@1206 0x3249b4b9
@1207 0x3544e6bc
@1208 0xb5c2a0e3
@1209 0x358e4db0
@120a 0x3589d67e
@120b 0x352ae2de
@120c 0x352accdf
@120d 0xb59dd76c
@120e 0xb59a4789
@120f 0x3610235c
@1210 0x34ce1a9d
@1211 0xb4fc9ce3
@1212 0x351af8bd
@1213 0x351b439d
@1214 0x35222084
@1215 0xb3de6c73
@1216 0xb4acf1ec
@1217 0x357e3501
@1218 0x35815ada
@1219 0xb59bcf75
@121a 0xb570bf1d
@121b 0xb1262262
@121c 0x344782e3
@121d 0xb3ff3774
@121e 0xb432ef8d
@121f 0x359c4d94
@1220 0x34935a76
@1221 0x3469aaae
@1222 0xb6191e8b
@1223 0xb5db96fd
@1224 0x35bd8a63
@1225 0xb57c56f4
@1226 0x35488255
@1227 0xb4c235fd
@1228 0x36217307
@1229 0xb568f923
@122a 0x34ef0123
@122b 0x33c15607
@122c 0x359881c2
@122d 0xb37c6cfd
@122e 0x35ca50e2
@122f 0x3613d983
@1230 0x355ebd47
@1231 0xb132243e
@1232 0x34c32265
@1233 0x340c0770
@1234 0x35475d13
@1235 0x35aa1890
@1236 0xb5aebbcb
@1237 0xb59d6605
@1238 0x348dab3c
@1239 0x3533bc6b
@123a 0xb5a59810
@123b 0x340f18d7
@123c 0x357d56d7
@123d 0x3308b441
@123e 0x34d7d132
@123f 0x3436011b
@1240 0xb4ec9908
@1241 0x34ed586f
@1242 0x3560aeb0
@1243 0x355f2ad0
@1244 0xb5e26db8
@1245 0x348b95d2
@1246 0xb5e21a14
@1247 0xb4983a94
@1248 0xb4325411
@1249 0x35b67788
@124a 0x3620e76f
@124b 0xb4731268
@124c 0x34e137d3
@124d 0x33c30db8
@124e 0x3403ade7
@124f 0xb5a7a1b8
@1250 0xb4827557
@1251 0x34f3644e
@1252 0x34b1d154
@1253 0x355be2c5
@1254 0x35525178
@1255 0xb48df98f
@1256 0xb512b34a
@1257 0xb4c81032
@1258 0xb605eb4d
@1259 0x3606baf2
@125a 0xb4a0f2b0
@125b 0x34df3883
@125c 0xb54ba672
@125d 0xb576be65
@125e 0x35ba0a5e
@125f 0xb391c21b
@1260 0xb3a0fadd
@1261 0xb5905334
@1262 0xb5d317a1
@1263 0xb53e1e76
@1264 0xb4df4c9e
@1265 0x3515ab56
@1266 0xb53517ec
@1267 0xb5843a17
@1268 0xb5026dc2
@1269 0xb441260b
@126a 0xb45dc7e7
@126b 0x3589570e
@126c 0xb529fa15
@126d 0xb52f2ded
@126e 0xb5b234b1
@126f 0xb5b1ae62
@1270 0x353f3168
@1271 0xb5f67cf4
@1272 0xb58ae7b0
@1273 0x352c6461
@1274 0x34b92399
@1275 0x34b04bf2
@1276 0x3489631b
@1277 0x3588ce0a
@1278 0xb44d5ed8
@1279 0x33cd8130
@127a 0xb63f7e7f
@127b 0xb527f450
@127c 0xb52194c1
@127d 0x352ba7f7
@127e 0x358d9d4e
@127f 0x365a1dca
@1280 0xb583c0db
@1281 0x352ee57b
@1282 0x34182ac1
@1283 0x34e66d9f
@1284 0xb5e9ace3
@1285 0x3589b9c1
@1286 0x358d78c6
@1287 0x359622d8
@1288 0xb58567e0
@1289 0xb448e1d6
@128a 0x35612681
@128b 0xb41f721f
@128c 0x353a9e9a
@128d 0xb493fd87
@128e 0xb33c6069
@128f 0x35818a0d
@1290 0xb2a858d1
@1291 0xb66e2dd8
@1292 0xb5a88400
@1293 0x33ac683c
@1294 0x34c4bf7e
@1295 0xb4749b4f
@1296 0xb4e7e074
@1297 0xb5ad052f
@1298 0x35a6a278
@1299 0x33ca7e4c
@129a 0x351a207d
@129b 0x35f941fc
@129c 0xb5f4cbf4
@129d 0x358142a7
@129e 0xb51927c2
@129f 0x331f38a7
@12a0 0xb5ae83fc
@12a1 0x35110502
@12a2 0x33938298
@12a3 0x35b1dc7e
@12a4 0x35853c17
@12a5 0x357a7f9c
@12a6 0xb580a0c7
@12a7 0x34ceb4b6
@12a8 0xb5119ce1
@12a9 0x34b294ab
@12aa 0xb4f641df
@12ab 0xb487e3b1
@12ac 0x35058af1
@12ad 0x344306ee
@12ae 0x35d0938a
@12af 0xb5cc8cf4
@12b0 0x353aa5ad
@12b1 0xb59f2d89
@12b2 0xb4865410
@12b3 0x35d7ed5e
@12b4 0xb5bd629c
@12b5 0xb509792f
@12b6 0xb57da979
@12b7 0xb6025d17
@12b8 0x34ff3352
@12b9 0x32cbcaff
@12ba 0xb1b4e3e9
@12bb 0xb5445dfa
@12bc 0xb403cd5e
@12bd 0x33fda008
@12be 0xb566495b
@12bf 0x354be472
@12c0 0xb56fa5d9
@12c1 0x3597645c
@12c2 0xb6099163
@12c3 0xb5994497
@12c4 0x351c3528
@12c5 0x35838c20
@12c6 0xb5565610
@12c7 0xb524afc3
@12c8 0xb58bad97
@12c9 0x34eecc55
@12ca 0xb54bc6a9
@12cb 0xb5f6c26a
@12cc 0xb4395651
@12cd 0xb54764b0
@12ce 0x35e2be79
@12cf 0xb516b874
@12d0 0xb5c90e84
@12d1 0x349dbef3
@12d2 0xb55ecbe7
@12d3 0x355f5d1f
@12d4 0x35da7922
@12d5 0x32a843fa
@12d6 0x3451afe4
@12d7 0xb550d263
@12d8 0xb4f86bbb
@12d9 0xb420a36c
@12da 0x35f0ca46
@12db 0xb424aab9
@12dc 0x353ebbe3
@12dd 0x32bc7238
@12de 0xb558f216
@12df 0xb50b2c3c
@12e0 0xb410b9c6
@12e1 0x3402bcbd
@12e2 0x361bc98f
@12e3 0xb610638c
@12e4 0xb43dd04b
@12e5 0xb512a415
@12e6 0x357171b7
@12e7 0xb527b1bf
@12e8 0xb5750051
@12e9 0xb548f184
@12ea 0xb4bbd656
@12eb 0xb6298081
@12ec 0xb548958d
@12ed 0xb56c826b
@12ee 0x351814a8
@12ef 0x35b2e177
@12f0 0x3599471c
@12f1 0x355985c7
@12f2 0xb5e8e3b9
@12f3 0xb466efea
@12f4 0x35719cea
@12f5 0x3477dd92
@12f6 0xb4dcac06
@12f7 0xb561de69
@12f8 0xb5d31a81
@12f9 0xb49c19b8
@12fa 0xb5a72819
@12fb 0x35355958
@12fc 0xb4fe5379
@12fd 0x348c86dc
@12fe 0x3506cc86
@12ff 0xb59f3079
@1300 0xb59d5d29
@1301 0xb53658b7
@1302 0x34f51acc
@1303 0xb5ba86e0
@1304 0x33699279
@1305 0xb514a269
@1306 0x357a7828
@1307 0x3585ce15
@1308 0xb641de87
@1309 0x34696177
@130a 0x35b81e02
@130b 0x351093d4
@130c 0xb61b1b2c
@130d 0x35a36201
@130e 0x34f510c5
@130f 0xb50c2281
@1310 0xb5627d6e
@1311 0xb5ed767f
@1312 0xb5456ba1
@1313 0xb3db1e3f
@1314 0xb50b7bca
@1315 0x3621b76a
@1316 0x34cd02a0
@1317 0xb42a2de1
@1318 0xb43c49a4
@1319 0x3534cf7d
@131a 0x3569064f
@131b 0xb593b8b7
@131c 0xb5b021cb
@131d 0x3377bf20
@131e 0xb5b24c39
@131f 0x3594fc12
@1320 0xb5176be6
@1321 0xb4f257ec
@1322 0xb503cd2e
@1323 0xb63d3190
@1324 0x344b3e1c
@1325 0xb5864788
@1326 0x3611671b
@1327 0x35dd3cf0
@1328 0x34e36331
@1329 0x3521e250
@132a 0xb5655712
@132b 0x35a270a1
@132c 0xb4419013
@132d 0xb4829d8f
@132e 0x35923bcb
@132f 0x3563e2c4
@1330 0xb574e59b
@1331 0x34ba988b
@1332 0xb4bb8f00
@1333 0x3229ba65
@1334 0x35979aa1
@1335 0xb5381df1
@1336 0x3529363a
@1337 0xb59bd2f7
@1338 0x338c328f
@1339 0x351f2d8e
@133a 0xb48eb9a2
@133b 0xb5657646
@133c 0x35a37cca
@133d 0x34cb240d
@133e 0xb6335117
@133f 0xb5952a2c
@1340 0x3544a68a
@1341 0x350b0cdb
@1342 0xb42ae8b9
@1343 0xb4cb9c0a
@1344 0x359892e5
@1345 0x354b3cb0
@1346 0x349781bb
@1347 0xb46052c8
@1348 0xb54a4ae9
@1349 0x360a9ed9
@134a 0xb3e6adbd
@134b 0x34492593
@134c 0xb627cefb
@134d 0xb4230a91
@134e 0x3632cb10
@134f 0x34010028
@1350 0xb4cbdc6d
@1351 0x34f45e36
@1352 0x362d4351
@1353 0x34079f95
@1354 0x35b80b85
@1355 0xb40bfdde
@1356 0x3407cad3
@1357 0x353fdea6
@1358 0x352c7ece
@1359 0x35768810
@135a 0xb4f063ea
@135b 0x358ebcb2
@135c 0xb2694fab
@135d 0xb5794155
@135e 0x35bbdb38
@135f 0xb54f4926
@1360 0xb5c7a486
@1361 0xb4461960
@1362 0x35e20dbf
@1363 0x34a95a47
@1364 0xb5472089
@1365 0xb46134e2
@1366 0xb274ec7c
@1367 0xb5a243fe
@1368 0x35083cd1
@1369 0x353fc613
@136a 0xb5ba3d1b
@136b 0x3575507d
@136c 0xb54460e9
@136d 0x350f22d8
@136e 0xb591ce57
@136f 0x33eb52ba
@1370 0xb59aab0a
@1371 0x3398befd
@1372 0xb3df7da2
@1373 0x34f10e28
@1374 0x348f2e91
@1375 0xb571c86b
@1376 0x358d687b
@1377 0xb5a7f1b7
@1378 0x359b3104
@1379 0x3613af2d
@137a 0x34cde7b2
@137b 0xb4a0d8d4
@137c 0xb5a21ace
@137d 0x358bf346
@137e 0x358ffc7c
@137f 0xb4bca68d
@1380 0xb4e5bfcb
@1381 0x35119892
@1382 0xb583d1a8
@1383 0x359b7410
@1384 0xb6005cfa
@1385 0xb3678905
@1386 0xb5acb68b
@1387 0xb5551095
@1388 0x35531b48
@1389 0x350e1949
@138a 0xb4d91581
@138b 0x35ad1092
@138c 0xb5a8d371
@138d 0x33fdd04c
@138e 0x352082a9
@138f 0xb4a7ad14
@1390 0xb510160c
@1391 0x358f86d1
@1392 0x34bbaf60
@1393 0x35b5dccf
@1394 0xb5c33706
@1395 0x35e9be59
@1396 0x341836b0
@1397 0x356fd51c
@1398 0xb204fe6a
@1399 0x353e73b2
@139a 0xb57e8919
@139b 0xb56999a3
@139c 0x3480fda0
@139d 0x35c968d3
@139e 0x3453bc85
@139f 0x356a65e9
@13a0 0x357bc3e2
@13a1 0xb47c18ca
@13a2 0x35a068ac
@13a3 0xb4f594d1
@13a4 0x35e86380
@13a5 0xb577c206
@13a6 0xb4dc5e33
@13a7 0xb4c4ac65
@13a8 0x32c1361f
@13a9 0x33a98eda
@13aa 0x3641089d
@13ab 0xb5cf11d8
@13ac 0x35b223d4
@13ad 0xb41ba74c
@13ae 0xb5ba184f
@13af 0x34afe0c7
@13b0 0xb5aa34e0
@13b1 0xb46418da
@13b2 0xb4d8ae86
@13b3 0x33e4e3f2
@13b4 0x3520d68e
@13b5 0x33fe173e
@13b6 0x3521de47
@13b7 0xb58363bf
@13b8 0xb642f68f
@13b9 0xb5796863
@13ba 0xb5a86509
@13bb 0xb510770b
@13bc 0x35579f07
@13bd 0x35a22e13
@13be 0xb3d6f5c3
@13bf 0x34b1224e
@13c0 0xb5365fc9
@13c1 0xb495719b
@13c2 0xb5b9eda1
@13c3 0x34a09daa
@13c4 0x343f86e2
@13c5 0xb532023e
@13c6 0x34a32712
@13c7 0xb46bb94d
@13c8 0x35beb0b4
@13c9 0xb4ed7aa3
@13ca 0xb4e8bb9f
@13cb 0xb60bb55e
@13cc 0xb4dad097
@13cd 0x340c78f6
@13ce 0xb4eddb9a
@13cf 0x34255b20
@13d0 0x35fc8c40
@13d1 0x3512e0c6
@13d2 0xb5a3d29b
@13d3 0x341dcdc4
@13d4 0xb5fb0e6a
@13d5 0x362314fb
@13d6 0x359c1d0b
@13d7 0x356c584e
@13d8 0x349cbadc
@13d9 0xb39d46c8
@13da 0x345ba74a
@13db 0x35b0eef5
@13dc 0x3591eca4
@13dd 0x34ab1f40
@13de 0x349adad8
@13df 0x3536f917
@13e0 0x3556072d
@13e1 0x33418517
@13e2 0x3549eb61
@13e3 0x34b60f71
@13e4 0x357838bf
@13e5 0x35c852e2
@13e6 0x352ca2de
@13e7 0x35c8d0d1
@13e8 0x3597fe2f
@13e9 0x351558a7
@13ea 0x34ba941f
@13eb 0x349f1abc
@13ec 0x358ca839
@13ed 0x3541f151
@13ee 0x358d4fe6
@13ef 0x34682fe2
@13f0 0x34a4fd05
@13f1 0x3384ada0
@13f2 0xb5ca80ea
@13f3 0xb5110b14
@13f4 0xb48d88bf
@13f5 0xb505d7cf
@13f6 0x3564d7d7
@13f7 0xb3bbe4ed
@13f8 0x33e0230f
@13f9 0xb5c8035e
@13fa 0x35a7d0a9
@13fb 0xb57f909a
@13fc 0x346298f5
@13fd 0xb5ae9c21
@13fe 0xb495d523
@13ff 0xb5abf419
@1400 0xb5315145
@1401 0xb3b21735
@1402 0xb5ebc3f1
@1403 0xb4cd2fd3
@1404 0xb4ffc2e2
@1405 0xb333b11a
@1406 0xb54ae078
@1407 0x349a09ba
@1408 0xb5309e03
@1409 0x35b679ae
@140a 0x34fd7ba7
@140b 0x354c9f36
@140c 0x34ec2653
@140d 0x358aff2c
@140e 0xb580e131
@140f 0x3591db03
@1410 0x3489c9b8
@1411 0x343bf6ba
@1412 0xb432b12b
@1413 0xb4cd81d2
@1414 0x35f6bc91
@1415 0xb3f83df5
@1416 0x3356da16
@1417 0xb5a417b7
@1418 0xb487dbba
@1419 0x35bd4b12
@141a 0xb55d3566
@141b 0x358e8184
@141c 0xb44eb776
@141d 0xb3fe5983
@141e 0xb5a77868
@141f 0x34f4c874
@1420 0x34b30058
@1421 0x35688fe8
@1422 0x341d118f
@1423 0xb1c20788
@1424 0xb3c1b8e3
@1425 0x35a7c975
@1426 0x35b8537b
@1427 0x360453bc
@1428 0x35b4560d
@1429 0xb4ac4019
@142a 0x34a58303
@142b 0xb57b1d1c
@142c 0x34c6e1a8
@142d 0xb58304f2
@142e 0x33a5bfc8
@142f 0x358a95a2
@1430 0xb586d89b
@1431 0xb43ff59a
@1432 0x3502f70f
@1433 0x34972789
@1434 0x3529feaa
@1435 0x353faac5
@1436 0xb593f0dd
@1437 0xb5af7f9c
@1438 0xb192150a
@1439 0x34b12a65
@143a 0x348030e0
@143b 0xb5982793
@143c 0xb569911a
@143d 0xb4f4a01e
@143e 0xb4a66987
@143f 0x356a890a
@1440 0xb58a48c6
@1441 0xb47a953c
@1442 0x348dddfa
@1443 0xb5f22128
@1444 0xb54d1c88
@1445 0x35ee65b4
@1446 0x35b665dc
@1447 0x35a3352d
@1448 0x3607d754
@1449 0x35569d1e
@144a 0xb5c3a671
@144b 0xb583640f
@144c 0x359fd0ea
@144d 0x34fabd0d
@144e 0xb557cff3
@144f 0xb55bb2dd
@1450 0xb5b3d6e4
@1451 0xb30a3c85
@1452 0x347f46ac
@1453 0xb56a12b8
@1454 0x35a7ba1b
@1455 0x353c0335
@1456 0xb6258f0a
@1457 0x34f8e586
@1458 0xb55a6981
@1459 0x3580e68d
@145a 0x34d69008
@145b 0x354846bc
@145c 0x34ca617d
@145d 0x35af0c8b
@145e 0xb4b16a82
@145f 0x34690707
@1460 0xb4fe8ce7
@1461 0x35915b8e
@1462 0x353c720e
@1463 0x344d537e
@1464 0xb5b2266b
@1465 0xb6043f87
@1466 0x35f59443
@1467 0xb41b64f0
@1468 0xb3537d49
@1469 0xb161a715
@146a 0x3620fe23
@146b 0xb600fff3
@146c 0xb5f67479
@146d 0xb51a1933
@146e 0xb424fcee
@146f 0xb4ac77c9
@1470 0xb5b4d853
@1471 0xb60c3646
@1472 0x35130344
@1473 0x3410176e
@1474 0xb5b8e99f
@1475 0xb5b9e9c0
@1476 0xb521f1de
@1477 0xb50a3033
@1478 0x349f782a
@1479 0x34afd8c3
@147a 0x35f78630
@147b 0x35d1f713
@147c 0xb580e235
@147d 0x34e10574
@147e 0x35a76779
@147f 0x33b9fc2b
@1480 0xb574a134
@1481 0xb50be0d5
@1482 0xb5f52a37
@1483 0xb4ed7a06
@1484 0xb607a6a4
@1485 0xb6250e19
@1486 0xb42afd34
@1487 0xb5a90f5f
@1488 0xb4f0adcc
@1489 0xb54e5695
@148a 0x33927e18
@148b 0x3419260b
@148c 0xb4b93731
@148d 0x3526493c
@148e 0xb5a49faf
@148f 0xb5b92ebf
@1490 0xb55475e9
@1491 0x35cbb3b5
@1492 0x360039ff
@1493 0x354a5f49
@1494 0xb58ee70a
@1495 0xb49a74b0
@1496 0x349a7ba3
@1497 0xb3dcdd33
@1498 0xb5402783
@1499 0x35211217
@149a 0xb301071e
@149b 0xb450c5ac
@149c 0x3509654b
@149d 0xb40f962c
@149e 0xb57d9f2c
@149f 0x35e9e282
@14a0 0xb58e36b9
@14a1 0xb4bfe84c
@14a2 0x34c6ff64
@14a3 0x34939c94
@14a4 0x34b47c39
@14a5 0xb5f086b9
@14a6 0xb559b6b1
@14a7 0xb34e125a
@14a8 0xb629a241
@14a9 0xb59862ea
@14aa 0x34c03282
@14ab 0x35a2ac92
@14ac 0x353922dc
@14ad 0x353b59d9
@14ae 0x334ae6cd
@14af 0x3568f162
@14b0 0xb614b5e8
@14b1 0xb5b8a6a3
@14b2 0x35d93677
@14b3 0xb5d0dfa9
@14b4 0x3514cdea
@14b5 0x351a3120
@14b6 0x34de1e84
@14b7 0x35503f7e
@14b8 0xb59a639d
@14b9 0xb559f38b
@14ba 0xb539c170
@14bb 0xb5c9838c
@14bc 0xb5a36b23
@14bd 0x3500bb90
@14be 0xb602260e
@14bf 0xb5107c31
@14c0 0xb598dcb1
@14c1 0xb39b6069
@14c2 0xb4a8f32d
@14c3 0x358baaf2
@14c4 0xb618def3
@14c5 0x33086f83
@14c6 0xb460f25f
@14c7 0xb5b33839
@14c8 0xb5223357
@14c9 0xb29c8101
@14ca 0xb6051e61
@14cb 0xb43a882b
@14cc 0xb39721c0
@14cd 0xb55be89d
@14ce 0x35d8be90
@14cf 0xb5cc7100
@14d0 0xb5b12adb
@14d1 0xb5874baa
@14d2 0xb320d644
@14d3 0xb55be2d1
@14d4 0x358ebf24
@14d5 0x343d8ed1
@14d6 0x3614163a
@14d7 0xb49948b6
@14d8 0xb4b7ab3c
@14d9 0x360b87e4
@14da 0xb54fd919
@14db 0xb343a418
@14dc 0xb34b0b25
@14dd 0xb3c27e70
@14de 0x351b6ff8
@14df 0xb4d45e5a
@14e0 0xb49309de
@14e1 0x355aebe3
@14e2 0xb4507811
@14e3 0x347f9253
@14e4 0xb4aa4c19
@14e5 0xb60e9016
@14e6 0x35cb8944
@14e7 0xb60ea068
@14e8 0x361de3b3
@14e9 0xb42cde26
@14ea 0xb51d5b49
@14eb 0xb490631d
@14ec 0xb4c7d4da
@14ed 0x3596b38a
@14ee 0x35c02307
@14ef 0x330bbbd7
@14f0 0x35b7efc3
@14f1 0xb55f4968
@14f2 0xb5f7d2c3
@14f3 0xb54e2525
@14f4 0x35ffd14c
@14f5 0x35066d6f
@14f6 0xb34997a9
@14f7 0x35123c82
@14f8 0xb47bcd2a
@14f9 0xb4aa0ed6
@14fa 0xb568c76f
@14fb 0xb525005e
@14fc 0x34fabe77
@14fd 0x34748e35
@14fe 0x35625cac
@14ff 0x35a9e2f2
@1500 0xb516dfc1
@1501 0x348952fb
@1502 0x358c7378
@1503 0xb594dc66
@1504 0xb5e8ac47
@1505 0xb5de4930
@1506 0xb5117af1
@1507 0x352e0855
@1508 0x347cba09
@1509 0xb57b6b3f
@150a 0x358a00a1
@150b 0x3594d452
@150c 0x357d8594
@150d 0x3518f900
@150e 0x34b81ada
@150f 0xb56ffe47
@1510 0xb5a5a046
@1511 0x349acbc9
@1512 0x35dc94cb
@1513 0x354b2078
@1514 0x35ad3ffd
@1515 0x34c3a5d1
@1516 0x35f37e8f
@1517 0x34defa40
@1518 0xb5496fad
@1519 0xb48450fb
@151a 0xb43869f8
@151b 0xb537ee8d
@151c 0xb5fb041c
@151d 0x341534e4
@151e 0xb525af5a
@151f 0x341d6efe
@1520 0x356c3ad8
@1521 0xb5c5f0ad
@1522 0xb4c114bf
@1523 0xb5ac5e78
@1524 0x34c15ff2
@1525 0x34a66954
@1526 0xb4fffb93
@1527 0xb5724caf
@1528 0x34333fe6
@1529 0x35b0a2b6
@152a 0xb224bf40
@152b 0x35213ed8
@152c 0x357150ce
@152d 0x3585b30d
@152e 0xb4d3fb17
@152f 0xb4d61975
@1530 0x359b7968
@1531 0xb52746eb
@1532 0x35575432
@1533 0x35e77ab2
@1534 0xb3c1d62e
@1535 0xb5509a65
@1536 0x3606a2a4
@1537 0x34858f74
@1538 0xb5952427
@1539 0x34376435
@153a 0x34e3854b
@153b 0xb5afa5c3
@153c 0x34a9a386
@153d 0xb49d62f0
@153e 0x308beb9d
@153f 0x35a5f699
@1540 0xb555b9f2
@1541 0xb480fbcc
@1542 0xb1386164
@1543 0xb62e90b9
@1544 0x33547255
@1545 0x350cedae
@1546 0x3502ac5f
@1547 0xb45b8683
@1548 0x34a3a378
@1549 0xb5b5e8bb
@154a 0x348876cc
@154b 0xb59c96de
@154c 0xb5118733
@154d 0xb4a0e960
@154e 0xb4c54b31
@154f 0xb53f2219
@1550 0xb56049df
@1551 0x34d52143
@1552 0x3591b6af
@1553 0x3548e850
@1554 0x34fb32b4
@1555 0x3412c7b8
@1556 0x3567f009
@1557 0x34eeebc7
@1558 0xb5b7559f
@1559 0x3496dd3a
@155a 0xb4e7bc3f
@155b 0x3588e92b
@155c 0x3524dfe6
@155d 0x34a54d7d
@155e 0x33ec68b8
@155f 0x35704d65
@1560 0xb5767c4d
@1561 0x355c6d87
@1562 0x356a16c2
@1563 0xb3719589
@1564 0xb4528829
@1565 0xb586436d
@1566 0xb3c32754
@1567 0xb5014497
@1568 0x33964dfb
@1569 0xb4874860
@156a 0xb4f7b704
@156b 0x3532ac4f
@156c 0x342d42b1
@156d 0x3480d6c7
@156e 0xb4b9f9c5
@156f 0xb5af6d56
@1570 0x358210e1
@1571 0xb2875ff9
@1572 0x35ae480a
@1573 0x3389e92a
@1574 0x341d985b
@1575 0xb44a2858
@1576 0x35679582
@1577 0xb3a01744
@1578 0xb583e177
@1579 0x351df706
@157a 0xb53f9608
@157b 0xb540af11
@157c 0x34091185
@157d 0x3502e557
@157e 0x351a577d
@157f 0xb5f4b8fe
@1580 0x35ac26fc
@1581 0xb57256cb
@1582 0xb4171e03
@1583 0x357f456e
@1584 0x35462da2
@1585 0x35e23032
@1586 0xb5b0dc31
@1587 0xb58c42a2
@1588 0xb5356d91
@1589 0xb55582a1
@158a 0x35b00124
@158b 0x35043b32
@158c 0x338afd70
@158d 0x347004d9
@158e 0xb4944eb6
@158f 0x35e42836
@1590 0xb5d47c6a
@1591 0xb49beb2a
@1592 0x353d5e9b
@1593 0xb5513959
@1594 0xb44eec5b
@1595 0xb542466a
@1596 0x354a006b
@1597 0xb56b9712
@1598 0x34b8f081
@1599 0xb4d8ca6f
@159a 0xb58e977a
@159b 0xb583929f
@159c 0x359692e4
@159d 0x34c7f6c1
@159e 0xb6119d90
@159f 0x33138370
@15a0 0x353ac345
@15a1 0x355a2185
@15a2 0xb595bc2f
@15a3 0x352f1220
@15a4 0x358922b1
@15a5 0xb5a5a9c9
@15a6 0x34186677
@15a7 0x34c06ba9
@15a8 0xb5d8825a
@15a9 0xb54626cf
@15aa 0xb3143842
@15ab 0x3318b706
@15ac 0xb5775200
@15ad 0x35226b92
@15ae 0xb59a444a
@15af 0x355a1461
@15b0 0x35014dd6
@15b1 0xb4eb6d28
@15b2 0xb5d66735
@15b3 0xb5802781
@15b4 0x3502d972
@15b5 0xb61c3c9e
@15b6 0x356f06bb
@15b7 0x34e46581
@15b8 0xb46cb53d
@15b9 0xb5e6e8bb
@15ba 0x35757d82
@15bb 0xb49406ae
@15bc 0xb3b93814
@15bd 0xb5e88d7a
@15be 0x34ba4536
@15bf 0xb3e13f1b
@15c0 0xb546cd40
@15c1 0xb43f4efb
@15c2 0xb52022bd
@15c3 0x35891981
@15c4 0xb348e047
@15c5 0xb2821c90
@15c6 0xb50dc3c3
@15c7 0x35196f09
@15c8 0x35c5c9cb
@15c9 0xb54e3305
@15ca 0x3580e1e5
@15cb 0xb6034599
@15cc 0x34fd350e
@15cd 0x3535faf4
@15ce 0xb5783a4e
@15cf 0xb4e05eee
@15d0 0xb5dcbf67
@15d1 0x35755928
@15d2 0xb4dead24
@15d3 0x35b757b0
@15d4 0xb482a8cc
@15d5 0xb5832712
@15d6 0x35ad3934
@15d7 0x33e7d83a
@15d8 0xb59334dc
@15d9 0xb46ca76d
@15da 0x34868c08
@15db 0x357967e5
@15dc 0x358ba5d4
@15dd 0xb50e20f2
@15de 0x3487f9a9
@15df 0x35284474
@15e0 0x35c4c346
@15e1 0x361a8e0e
@15e2 0xb4ca0d56
@15e3 0xb4b5d37c
@15e4 0x34686c90
@15e5 0xb55ce31a
@15e6 0xb55cc958
@15e7 0x34ff93c5
@15e8 0x34df259a
@15e9 0xb6514a0a
@15ea 0x355a1e25
@15eb 0x3502be62
@15ec 0xb3be18de
@15ed 0x3628c255
@15ee 0x34d20d96
@15ef 0x33c1f8ee
@15f0 0x33c88d92
@15f1 0x332b92c3
@15f2 0xb51e0bf2
@15f3 0xb4bf2c8b
@15f4 0x33decfd6
@15f5 0x3494ac81
@15f6 0xb486e5f6
@15f7 0xb4836ca9
@15f8 0x350aefe9
@15f9 0xb59fdf27
@15fa 0x338a3bd9
@15fb 0x360e9f13
@15fc 0xb4952b07
@15fd 0xb5635f9c
@15fe 0xb5cff8dc
@15ff 0x32623785
@1600 0xb52d8f46
@1601 0xb5adf3b9
@1602 0xb5bcbd84
@1603 0xb565399e
@1604 0xb52a4e2b
@1605 0xb5c97ba4
@1606 0x361dcb14
@1607 0xb5a494fd
@1608 0xb538d56c
@1609 0x34966dae
@160a 0x360ac6e5
@160b 0x352aaf5c
@160c 0x35ed7727
@160d 0x358acf98
@160e 0x356f1430
@160f 0xb4888bb6
@1610 0xb5bc2919
@1611 0x3517f492
@1612 0x35ca1af1
@1613 0xb4ce1060
@1614 0xb54b9154
@1615 0x3495cf5e
@1616 0x35c5de87
@1617 0x355c5126
@1618 0xb5caa146
@1619 0xb3c1c2ad
@161a 0x3534732e
@161b 0x35a392cc
@161c 0x340663f7
@161d 0x34dfd7b0
@161e 0x3408c5bb
@161f 0x35cd48e8
@1620 0xb5075143
@1621 0x35b23a54
@1622 0x34b57063
@1623 0xb5dd0bcf
@1624 0xb5fdc4df
@1625 0xb5432e74
@1626 0xb2eda5b9
@1627 0x361fbe3f
@1628 0xb3ce357c
@1629 0xb574c636
@162a 0xb535bab4
@162b 0x3432ab3b
@162c 0xb427835f
@162d 0x35583b9a
@162e 0x36093ce0
@162f 0x34d99710
@1630 0xb48ea70e
@1631 0x34a1c01a
@1632 0xb464fa58
@1633 0x362ea347
@1634 0x34a6dc88
@1635 0xb2b5525c
@1636 0x35ed614d
@1637 0x34d91c64
@1638 0xb5b59a3b
@1639 0xb4e81a98
@163a 0x36153afb
@163b 0x35475ddb
@163c 0xb59b951a
@163d 0xb55d7e2b
@163e 0xb459772e
@163f 0xb4c7745c
@1640 0xb55149ce
@1641 0x35a204e9
@1642 0x351344dd
@1643 0x31e8440e
@1644 0xb48e01d2
@1645 0xb5683cf9
@1646 0xb520a9a7
@1647 0xb614fd7e
@1648 0xb49db391
@1649 0x36008c91
@164a 0xb5acb4f4
@164b 0xb3c3e0e4
@164c 0x3490c9b7
@164d 0x346a10dc
@164e 0x358acda8
@164f 0xb5f52632
@1650 0x357f8ed5
@1651 0xb4af33c9
@1652 0xb5ebcdc1
@1653 0x35059d0d
@1654 0x350803b3
@1655 0x34e1ba0c
@1656 0x35b1ba38
@1657 0x351c1fcc
@1658 0x343c6a18
@1659 0x35573df4
@165a 0xb5d2b8d5
@165b 0xb52893cd
@165c 0x35215e24
@165d 0x361d4486
@165e 0xb514cf08
@165f 0xb404c92d
@1660 0x34f7822e
@1661 0xb605c2a0
@1662 0x3599b158
@1663 0xb4bb8fc9
@1664 0xb4885e8e
@1665 0x351382b6
@1666 0x358ebbca
@1667 0x33012b05
@1668 0x3439aedb
@1669 0x33a90d02
@166a 0x339fa693
@166b 0x34ad9f45
@166c 0x34807ccb
@166d 0x343e4605
@166e 0xb3acf663
@166f 0xb3cefc95
@1670 0x351f0f3e
@1671 0x34990958
@1672 0xb49ada3d
@1673 0x33cdeb2b
@1674 0x35be552f
@1675 0x359dece3
@1676 0x348234b9
@1677 0xb464fa6b
@1678 0x34575c20
@1679 0x33f4686b
@167a 0xb4b93b1e
@167b 0xb5dee0e8
@167c 0x35225548
@167d 0xb4e31e03
@167e 0xb52aabe9
@167f 0x35a427a5
@1680 0x361b91b7
@1681 0x35b2504d
@1682 0x33357079
@1683 0xb5364484
@1684 0x34fdb43b
@1685 0xb58ae94f
@1686 0xb4316a7c
@1687 0x355308fc
@1688 0xb581f9c3
@1689 0x34794379
@168a 0x350a6a24
@168b 0x351776bc
@168c 0xb50cdfef
@168d 0x358f7036
@168e 0x3517cb4f
@168f 0x336dafd2
@1690 0x35342174
@1691 0x3392bfa4
@1692 0x357be248
@1693 0x34ffc308
@1694 0xb4df33dd
@1695 0x35712f12
@1696 0x35296cc8
@1697 0xb584f068
@1698 0x36388147
@1699 0x35f4a537
@169a 0xb511784f
@169b 0xb52e9531
@169c 0xb6193434
@169d 0x342230f3
@169e 0x3530f9a8
@169f 0xb4c307e3
@16a0 0x35148943
@16a1 0xb51ab0ef
@16a2 0xb5eee8a7
@16a3 0x354bbdc4
@16a4 0xb560d449
@16a5 0xb5f489b1
@16a6 0xb5262c91
@16a7 0xb59706bb
@16a8 0xb322db1a
@16a9 0xb4943f16
@16aa 0x357aa010
@16ab 0xb2e08abc
@16ac 0x35058025
@16ad 0x357f7866
@16ae 0xb3ad1523
@16af 0x351cdcf6
@16b0 0xb3d6410a
@16b1 0xb431f418
@16b2 0x35de79b1
@16b3 0x351ae70c
@16b4 0x359558f4
@16b5 0xb5806a4d
@16b6 0x353593aa
@16b7 0x35a54b62
@16b8 0xb584900e
@16b9 0x349effe2
@16ba 0xb50ba540
@16bb 0x3514ff0e
@16bc 0x342c54ff
@16bd 0xb5b3044e
@16be 0xb4b45548
@16bf 0x35969f31
@16c0 0xb4b6d8e2
@16c1 0xb5b19b16
@16c2 0x3359903d
@16c3 0xb5bcfd7d
@16c4 0x3422b8dd
@16c5 0x35fce57a
@16c6 0x3504845b
@16c7 0x3450b295
@16c8 0x346153b9
@16c9 0xb4837958
@16ca 0xb534a4b2
@16cb 0xb5860611
@16cc 0x36060959
@16cd 0xb50b35fb
@16ce 0x3252a9af
@16cf 0x361b5ced
@16d0 0x33e67627
@16d1 0x35707b63
@16d2 0x35ae2188
@16d3 0x34c989fd
@16d4 0xb4d09155
@16d5 0xb56bf52a
@16d6 0xb63283b4
@16d7 0xb53664b4
@16d8 0xb50966b3
@16d9 0x352fca46
@16da 0xb5baa523
@16db 0x340b3dce
@16dc 0x350b2681
@16dd 0xb4303194
@16de 0x354da24f
@16df 0xb5ff7365
@16e0 0xb4c44796
@16e1 0xb585272f
@16e2 0x356674dd
@16e3 0xb4c18aa6
@16e4 0xaefff28e
@16e5 0x33989b65
@16e6 0xb55c1de7
@16e7 0x35742e05
@16e8 0xb4dfcf1f
@16e9 0x35d020a8
@16ea 0x35cf80e1
@16eb 0xb4a7f2f5
@16ec 0x35327b51
@16ed 0xb446f693
@16ee 0x348a5202
@16ef 0xb5d59881
@16f0 0xb45a360f
@16f1 0x347a17f8
@16f2 0x35785365
@16f3 0xb57d1db3
@16f4 0x3565f325
@16f5 0xb4fdf05f
@16f6 0x353f35b9
@16f7 0x334056e7
@16f8 0xb5e5f741
@16f9 0x357c0886
