@0000 bcdd80a3
@0001 bc9cf25a
@0002 bcf472c8
@0003 3d02064b
@0004 bd1242d8
@0005 3c8d8df2
@0006 3c5afc50
@0007 bcfc1191
@0008 bc141738
@0009 3cd688ae
@000a bc499040
@000b 3cb95b22
@000c bc572d06
@000d 3af45cc0
@000e 3c283544
@000f 3c7f0928
@0010 b94a4200
@0011 bb8fb3c8
@0012 3ce1769e
@0013 bbc61f78
@0014 3c166348
@0015 3cc6e20a
@0016 3bfec170
@0017 3bc61530
@0018 3ce2eb2a
@0019 3cc4154c
@001a bcc9cb4e
@001b 3c498168
@001c bd0db4dc
@001d bbff9180
@001e 3cac43c7
@001f ba9b6067
@0020 3ca6acef
@0021 3b4e84e3
@0022 3d11cc4c
@0023 3c815eb7
@0024 bb51befa
@0025 bc477b17
@0026 bacb473b
@0027 babccbbe
@0028 bcd6205f
@0029 3cb29cae
@002a 3cf6a2e8
@002b 392c35d3
@002c bd1ed21f
@002d bcbe22f8
@002e bccffeea
@002f bc9e68ad
@0030 3bf6ef67
@0031 3c99a895
@0032 3ce7d34b
@0033 bcf43b87
@0034 3bf3c98a
@0035 3ca1fb3d
@0036 bc1ef39f
@0037 3d083b91
@0038 bc8aabea
@0039 3c78fb57
@003a 3d0ed0d9
@003b 3aebc642
@003c 3cd4fdb8
@003d bc9d0db1
@003e 3cd1d5e3
@003f bcb69faa
@0040 3ce2ed9e
@0041 3c9bd059
@0042 3cbf98e7
@0043 3c6724fa
@0044 3c61fcdf
@0045 3c894497
@0046 3cd85eed
@0047 bd119837
@0048 bc357b31
@0049 3b835c94
@004a bd32c9af
@004b bd393fff
@004c bc90c9f7
@004d bc18cc37
@004e 3941d921
@004f bc5ee114
@0050 3ccb95b6
@0051 bcf3bb1e
@0052 3c8c5b59
@0053 3c26e194
@0054 3bdf65c8
@0055 3cbf6816
@0056 bd03e911
@0057 3c45d461
@0058 bcd75f82
@0059 bc81f333
@005a 3cc5b153
@005b bc314c67
@005c 3c58cb99
@005d 3d5de472
@005e 3d0d2cf4
@005f 3d14cea9
@0060 bc029bc1
@0061 3ceea309
@0062 bcd659d4
@0063 bc1e6855
@0064 bca8a4ef
@0065 bd04b8f7
@0066 bdcf348f
@0067 bd8acfc0
@0068 bd3ed4e4
@0069 bdbb3f7e
@006a bda49dcd
@006b bd707c44
@006c bc1673c3
@006d bc1225b0
@006e bc288a1c
@006f bb8471c0
@0070 3cbaf3ed
@0071 3cf82b86
@0072 3d02df01
@0073 3d0b87b8
@0074 3cd2572e
@0075 3c760f69
@0076 3d4d524e
@0077 bc01f2a8
@0078 3cd67e53
@0079 3d7c29ce
@007a 3bf4654d
@007b 3cc5d9a0
@007c 3c6e976d
@007d bc7efd0b
@007e bcc11ac8
@007f bb8d0f6b
@0080 bdb5035c
@0081 bdd59716
@0082 bd4c82ad
@0083 bdcea686
@0084 bd937c6f
@0085 bdd1dc7f
@0086 bdd7cf91
@0087 bd29c170
@0088 bd86663d
@0089 bca26d47
@008a 3c0ad13b
@008b bc0135c0
@008c 3c636c79
@008d b9c6adbc
@008e 3d11fcfd
@008f bcae06ce
@0090 3cf56adc
@0091 3d40e875
@0092 3ccc2fc5
@0093 3a900f74
@0094 3ce7c319
@0095 3cbcf5f1
@0096 bc37656a
@0097 3d4fd7fe
@0098 3d10c952
@0099 3d419e64
@009a 3c0b0de9
@009b 3d2d74dc
@009c bd0fde65
@009d bc8c858f
@009e bd7cf4c8
@009f bdd01a33
@00a0 bd764a65
@00a1 bda0a900
@00a2 bda9542a
@00a3 bd3ed338
@00a4 bd43f704
@00a5 bd84615e
@00a6 3b8630df
@00a7 bbabc69c
@00a8 3c4ebf21
@00a9 3cdb2c7a
@00aa 3b8dd8c8
@00ab bc2213cb
@00ac 3c417434
@00ad 3c8e50a4
@00ae 3c84affc
@00af 3ca10c39
@00b0 3cd32f6f
@00b1 3cc8078e
@00b2 3c154d90
@00b3 3c86462c
@00b4 3d457821
@00b5 3d3b9814
@00b6 3d8afce2
@00b7 3c7efe08
@00b8 3d156100
@00b9 bd0045a2
@00ba bcb391e4
@00bb bd9da260
@00bc bd949da6
@00bd bdb98540
@00be bd7d2c8d
@00bf bd81e020
@00c0 bd87fccd
@00c1 bd22863b
@00c2 bc11eed3
@00c3 bcdb52b6
@00c4 3c7638bf
@00c5 bb608df5
@00c6 3bf50b3a
@00c7 3d19bcd4
@00c8 3c730710
@00c9 3d201d25
@00ca 3d46d589
@00cb 3d83a548
@00cc bc587c03
@00cd 3d3ab8cd
@00ce 3d1fba76
@00cf 3a821fc3
@00d0 3c9df8c8
@00d1 3d33c801
@00d2 3d43b51c
@00d3 3daf07d3
@00d4 3dc837db
@00d5 3b659181
@00d6 bd1d8033
@00d7 bd90b932
@00d8 bdc2be13
@00d9 bd4ef49e
@00da bdf51710
@00db bdc18927
@00dc bd7d903a
@00dd bd6b5a53
@00de 3b47f3cc
@00df 3b99d7bf
@00e0 3c94b1cc
@00e1 3d0b1d73
@00e2 bcbb7447
@00e3 3cc4e1a5
@00e4 bc7af1ff
@00e5 3bd2010a
@00e6 3d07ae2f
@00e7 3cab92b5
@00e8 3be1f6ce
@00e9 bb8f399a
@00ea 3c6162ff
@00eb 3d246b4d
@00ec 3c8a1c3f
@00ed bafadd0c
@00ee 3d8a5003
@00ef 3dce3d2d
@00f0 3da3c739
@00f1 3d3e154c
@00f2 bcbdc4a2
@00f3 bdaf5454
@00f4 bdecb191
@00f5 bdfb1cab
@00f6 be1566b5
@00f7 be0600a2
@00f8 bdd49d0d
@00f9 bd89e955
@00fa bccba1c3
@00fb 3cc4ac1a
@00fc 3c9c12c7
@00fd 3cc7f436
@00fe 3cca667c
@00ff bb6e1ef7
@0100 3b53b581
@0101 3cf78e97
@0102 bc9a626b
@0103 bc3fcbe9
@0104 3d11df74
@0105 bc8f707c
@0106 bcc68e59
@0107 bb254714
@0108 bad27d74
@0109 3c7efbc0
@010a 3d8f66df
@010b 3dc17595
@010c 3de75d16
@010d 3b9320d5
@010e bdaba4b0
@010f bdac32ff
@0110 bdb804d2
@0111 be1ab9e1
@0112 bdfc0204
@0113 bdcc4385
@0114 bdb9114d
@0115 bd02e41d
@0116 3cb6c9fd
@0117 bc792512
@0118 bd06f0d2
@0119 3cce4480
@011a bc0a7653
@011b 3c9c21fb
@011c 3cc97cf8
@011d 3c217430
@011e 3d273138
@011f 3d1a6bde
@0120 3bc01e36
@0121 3cf857c2
@0122 3c377426
@0123 bcae5ff1
@0124 3bd6f41e
@0125 3d025f70
@0126 3db19d3b
@0127 3de3c9e0
@0128 3dd63d1a
@0129 3dbace61
@012a bd2de8dc
@012b bd916969
@012c bd99f7dd
@012d bd891ac9
@012e bd5d5797
@012f bd102eeb
@0130 bd95cd89
@0131 bd6d5c4e
@0132 3ccfa0d6
@0133 3b548950
@0134 bd0b0b7e
@0135 bc00c391
@0136 bc42ffbd
@0137 3c954c2d
@0138 38d40269
@0139 bb53d387
@013a 3c3e7869
@013b bce7e4db
@013c 3c7f606a
@013d 3b97269c
@013e 3b83ade9
@013f bc7c01dd
@0140 3d0b3de8
@0141 3d81398b
@0142 3dd5ea67
@0143 3e47b902
@0144 3e034189
@0145 3d8afd74
@0146 bc7886bd
@0147 bc7d2eec
@0148 bda348fc
@0149 bd46cd04
@014a bbd92de2
@014b 3c320c9d
@014c 3bad36a9
@014d bbbf0da9
@014e 3cf8fb4b
@014f 39cdb180
@0150 3bea6740
@0151 bd055efd
@0152 bcafe21b
@0153 3c691834
@0154 bcafa86a
@0155 3cc105c1
@0156 bcae450a
@0157 3c7a70f0
@0158 bd669b2f
@0159 bd4f8f83
@015a bd478984
@015b bccfaa3d
@015c 3c3b37bc
@015d 3dc86a34
@015e 3e0ff5cd
@015f 3e158c08
@0160 3e0791a7
@0161 3d1e0d40
@0162 3cb994bb
@0163 bd0de4ae
@0164 bd168f70
@0165 bd5cd9ea
@0166 bd391959
@0167 bcfa9e42
@0168 3ccde682
@0169 3caa3405
@016a bcc57153
@016b bce4eb5e
@016c 3c5cd978
@016d bc806d98
@016e bd142294
@016f 3b9b6f3d
@0170 bca71ddc
@0171 bcd4d30c
@0172 bcbb25a9
@0173 bce601a8
@0174 bc95be0a
@0175 bce9bb67
@0176 bc8ef5df
@0177 bca8e70e
@0178 3c47d786
@0179 3d582872
@017a 3e145388
@017b 3dc6b48e
@017c 3dfbbb15
@017d 3c08ded2
@017e bd8b961e
@017f bd8dea63
@0180 bd5dd395
@0181 bdae6410
@0182 bd8d9032
@0183 bc27ad63
@0184 bc56388f
@0185 bc72bb5f
@0186 bc78eb13
@0187 3c4c24b4
@0188 3c044110
@0189 3c2d9729
@018a 3c9f2ba3
@018b bd61cc7f
@018c bc3ccb01
@018d bd25c8c6
@018e bb050508
@018f bcefdaed
@0190 bd6b08b7
@0191 3c059079
@0192 bb63a39b
@0193 3cf755ac
@0194 3971df78
@0195 3d8c722c
@0196 3ddafcef
@0197 3db192a7
@0198 3d185914
@0199 bcbceced
@019a bd6db4bf
@019b bdb509d6
@019c bd7a8ade
@019d bdb76d46
@019e bd109cd0
@019f bd81b1d7
@01a0 3ca99296
@01a1 bc18780e
@01a2 bc1c2422
@01a3 ba70f3c0
@01a4 3d08a1f5
@01a5 bd0c7635
@01a6 bd5ea354
@01a7 bd89d291
@01a8 bd82fd63
@01a9 bcf3f66a
@01aa ba6f4817
@01ab 3cdbf754
@01ac 3c5fc504
@01ad 3cc8c565
@01ae bb465162
@01af 3cc13d9b
@01b0 3c7a75b2
@01b1 3d113e42
@01b2 3d839db5
@01b3 3d81be49
@01b4 bc27edbb
@01b5 bda293f1
@01b6 bdd89eb8
@01b7 bdec48bb
@01b8 bdcd6d31
@01b9 bdb0a33f
@01ba bd6bda8e
@01bb bd956891
@01bc 392fa408
@01bd 3cff513e
@01be 3c727ac6
@01bf 3c9cb5b2
@01c0 3ccdb49b
@01c1 bc91040c
@01c2 bd7b51f1
@01c3 bd987cca
@01c4 bd5e9130
@01c5 bc02a893
@01c6 3d5c5bd2
@01c7 3d12ec7b
@01c8 3d0c233f
@01c9 3d85b539
@01ca 3cccd208
@01cb 3d9ee9e8
@01cc 3d95d13e
@01cd 3d6ff7d8
@01ce 3d0d665b
@01cf 3cbd011c
@01d0 bd9393cd
@01d1 bdcd75db
@01d2 be324996
@01d3 be2b3bc8
@01d4 be02505c
@01d5 bd89151b
@01d6 bdae7385
@01d7 bd9e87c1
@01d8 bd5d6a2f
@01d9 bc11553b
@01da 3c6148cd
@01db bce5f423
@01dc 3c65311a
@01dd bc2a59bd
@01de bdd83931
@01df bdd43cec
@01e0 bd3fc1c6
@01e1 3d3f776f
@01e2 3d4d7daf
@01e3 3d0e5b19
@01e4 3d8f25c0
@01e5 3d88601b
@01e6 3d598fe6
@01e7 3d49d1dd
@01e8 3d9bd94b
@01e9 3c2ccef3
@01ea bc59ff5f
@01eb bd337d2d
@01ec bdec4bfe
@01ed be236e94
@01ee be273ee2
@01ef bdfd7e26
@01f0 bdb47750
@01f1 bd8d0662
@01f2 bc7d3a20
@01f3 bc9f1349
@01f4 bd42955f
@01f5 bc8c8356
@01f6 3cc467c7
@01f7 3c2c0ec4
@01f8 bb0d2bb7
@01f9 3c59546a
@01fa bdbb8a6d
@01fb bde0ecce
@01fc bcb7e249
@01fd 3d14952a
@01fe 3d358644
@01ff 3d9429c3
@0200 3da142a3
@0201 3d196b33
@0202 3c44b39a
@0203 3d5ef6d3
@0204 babdb8ed
@0205 3d3778f1
@0206 bc98ac37
@0207 bdc50f20
@0208 bdf19739
@0209 bdd9a884
@020a bda69564
@020b bd973940
@020c bd945d9a
@020d bd4a3337
@020e bd527409
@020f bd2bdc06
@0210 3b11d3fe
@0211 bc94fb07
@0212 3c0a7fce
@0213 3c4bc230
@0214 3c91ada3
@0215 bcdd99db
@0216 bd75cf5f
@0217 bd3de786
@0218 bc06cdf8
@0219 3d509394
@021a 3d1b30b2
@021b 3d856279
@021c 3cdd6b1e
@021d 3d102035
@021e 3b5b1be7
@021f 3c863863
@0220 3b823e28
@0221 bcaa1a38
@0222 3c0f5a8d
@0223 bd88e3e4
@0224 bdc28bb8
@0225 bdc13aec
@0226 bd940b64
@0227 bd81898a
@0228 bd81532d
@0229 bcb5ddb4
@022a bb434193
@022b bc81a40f
@022c bc145f47
@022d bd0dd20b
@022e bd013ca3
@022f 3c575b81
@0230 bc57f54a
@0231 bc6068fe
@0232 bd2c0223
@0233 bcedeaea
@0234 bd12aed1
@0235 3ce01265
@0236 3d8ed6e1
@0237 3d01338c
@0238 3d284aed
@0239 3cbf1f48
@023a bd714827
@023b bcdf37d2
@023c 3b750b9b
@023d 3b96a463
@023e 3d07b9cf
@023f bcaaf54b
@0240 3cdf928c
@0241 bb85355d
@0242 bd242c99
@0243 bab4c7c2
@0244 3b2d79de
@0245 bd8274b7
@0246 bcaadff0
@0247 bd5592d9
@0248 3c772c49
@0249 3d091611
@024a 3c24a7e9
@024b bd079c87
@024c 3ba3cf6d
@024d 3cb042f3
@024e bc91c71e
@024f bc4588df
@0250 bbdac650
@0251 3cbb7030
@0252 3d505a55
@0253 3d634e1d
@0254 3ca3e1a8
@0255 bcedf99d
@0256 3c934854
@0257 bc2fe7f8
@0258 3b8c211b
@0259 3c815a6b
@025a 3d232028
@025b 3b972ab3
@025c 3ba919fb
@025d 3cf0ce46
@025e 3cb34eeb
@025f 3c2baa9f
@0260 bcc4b2ec
@0261 bcf64913
@0262 bd778bfe
@0263 bc99bfa4
@0264 bce8271c
@0265 bd11cdd9
@0266 bc88feeb
@0267 3c814050
@0268 bcde8922
@0269 bd145351
@026a 3c68964a
@026b bc3a4ba2
@026c bbe5506b
@026d 3cb23812
@026e bcb7c1d1
@026f 3d1f60e5
@0270 3d136ff2
@0271 3d093e74
@0272 3ccc04e3
@0273 3c6567c0
@0274 3d23c3bc
@0275 3c0f0169
@0276 3d5ead7d
@0277 3d87881c
@0278 3c0bf88e
@0279 3ce1e587
@027a ba95d772
@027b bd56f753
@027c bc234537
@027d bc04d049
@027e bca9366c
@027f 3a9f9beb
@0280 3cf4a4a4
@0281 3ccc8fe7
@0282 3b982da9
@0283 bcc74625
@0284 bce25790
@0285 bc8b23ef
@0286 bd0fd4db
@0287 3b3acf55
@0288 3c4a6f38
@0289 bc629931
@028a bc7a611c
@028b bc4d190c
@028c 3c7134a3
@028d 3ce741ba
@028e 3ca122ad
@028f 3d1c644a
@0290 3d8e15c8
@0291 3da04416
@0292 3d80ff02
@0293 3d51b04c
@0294 3d48f3ea
@0295 3b225fb6
@0296 3c2cc7be
@0297 bc842520
@0298 bd0bb687
@0299 bd78d37c
@029a 3c3aa5c7
@029b bd1b154f
@029c bc0f808b
@029d 3cc92058
@029e bc6d14fe
@029f 3b57c7b0
@02a0 ba8f3b20
@02a1 bd01dd7e
@02a2 ba4a0d1a
@02a3 bbcd0917
@02a4 3c768e23
@02a5 bc39e191
@02a6 3cb734e0
@02a7 3abfd506
@02a8 39e7e107
@02a9 3d17b51a
@02aa 3d2d2e65
@02ab 3d2f092b
@02ac 3d7fc44e
@02ad 3d1d1d82
@02ae bc414c33
@02af bc6f1a7d
@02b0 3d4c4479
@02b1 3c6bbfbc
@02b2 bcd9088f
@02b3 ba557f8c
@02b4 3b89e9ac
@02b5 3b47d55f
@02b6 bc9bcd4b
@02b7 3d0e621b
@02b8 bca1075d
@02b9 bcfccfbb
@02ba 3c2b046b
@02bb 3cdcd922
@02bc 3cb9a906
@02bd bc9799e3
@02be 3c142c1c
@02bf bc5d7e99
@02c0 3cf6dbd7
@02c1 bc623a29
@02c2 3b1a6d40
@02c3 3ca2ac75
@02c4 3b35b40d
@02c5 3c261954
@02c6 3ccb8830
@02c7 3badbe73
@02c8 bc2900bd
@02c9 bc024f59
@02ca bc1832a4
@02cb bbd703f6
@02cc 3d1b1e8b
@02cd 3cfbf431
@02ce bc89529e
@02cf bc951c99
@02d0 bd05cb2f
@02d1 bba3e31b
@02d2 3cf707d9
@02d3 bafc1d7e
@02d4 bcb2e90c
@02d5 bc700046
@02d6 bceb6011
@02d7 3ad34dc0
@02d8 3cc34ae0
@02d9 bcb73d28
@02da 3d022292
@02db bc2399f6
@02dc 3c640193
@02dd bcc65e1f
@02de 3a477071
@02df bca3aac5
@02e0 bc9c5763
@02e1 bc884ed5
@02e2 bc7b37fe
@02e3 bd1243ff
@02e4 3ca86ec3
@02e5 bc29e207
@02e6 3b6b43f6
@02e7 3ce6449d
@02e8 bcb032fd
@02e9 3c87da8b
@02ea bd16257c
@02eb bc369b2b
@02ec 3b975c3d
@02ed 3d0571ed
@02ee 3a8011ab
@02ef bc6d49ef
@02f0 bcdeaa3f
@02f1 3d0b6589
@02f2 bc91ed5a
@02f3 3cb683c0
@02f4 bbe9e014
@02f5 bc566d3c
@02f6 bcb128a8
@02f7 3cedf40e
@02f8 bc98b813
@02f9 3baa8048
@02fa 3c413e98
@02fb bb8c2fb8
@02fc bcd9bb00
@02fd 3ccbbece
@02fe 3cc16b76
@02ff bb1b54d0
@0300 3bddca80
@0301 3c6db9d4
@0302 3cbdc6b2
@0303 bcd0d890
@0304 bd02f5ee
@0305 3cf73dd6
@0306 3c80bad2
@0307 3bae1cc8
@0308 3b414610
@0309 3c1322b0
@030a bcd86b88
@030b ba9f32e0
@030c bbfa7870
@030d 3c633164
@030e 3cc33378
@030f 3cf94b1a
@0310 bd0c8eb7
@0311 bcc0b330
@0312 bb90c0a8
@0313 bcf52898
@0314 bcbe8545
@0315 3ccf1bb0
@0316 bd06800b
@0317 3bfbdee8
@0318 bc8a53d3
@0319 3c2fba48
@031a bd0a7783
@031b 3a9853a0
@031c bb262090
@031d 3d0ed12f
@031e 3ae01b20
@031f 3ce8458e
@0320 3cff7ace
@0321 bc1fd458
@0322 3a73bbc0
@0323 bc4ab9d2
@0324 3d02f1e3
@0325 3d015457
@0326 3ce4457e
@0327 bcfc556a
@0328 3cfb7b0a
@0329 bcbb597a
@032a bc233fc6
@032b bc771fa6
@032c bc63d26a
@032d bcbc3055
@032e bcf11f94
@032f 3cc81b3e
@0330 bcde7d34
@0331 bb0d1da0
@0332 3d00d7a6
@0333 bc90d179
@0334 3ce4bac2
@0335 3c93936d
@0336 3b7ff9c9
@0337 3cf90773
@0338 bc326fa4
@0339 bc573b4a
@033a 3cef8236
@033b 3ba66e95
@033c 3bef3456
@033d 3c33b24b
@033e bb8dd5da
@033f bd0331ab
@0340 bc6b9347
@0341 bc951902
@0342 3d06a565
@0343 3c44b7ec
@0344 bcbe5e9b
@0345 bc0f1400
@0346 bcf92d20
@0347 3c0e8168
@0348 bac6f4a0
@0349 3cdd65c9
@034a bd0ba31d
@034b 3cbd77e0
@034c bbb6ae61
@034d 3ca9f3a0
@034e 3c7d32eb
@034f bd4d937a
@0350 bc47034b
@0351 bd357768
@0352 bcd97b33
@0353 3cab875f
@0354 bc92bbf3
@0355 bd032b24
@0356 bcc3db79
@0357 bc8bc1f9
@0358 bc6c377b
@0359 3c7fd7a8
@035a 3d099936
@035b 3b44c1e1
@035c 3d15e590
@035d 3c9dfb4b
@035e 3d085ae3
@035f 3ccf2cd0
@0360 bc949ab6
@0361 bce4582e
@0362 3c8ec62f
@0363 3ce3c61e
@0364 3cc6a322
@0365 3bdaa95f
@0366 bd1ee985
@0367 bcac3865
@0368 bd3d23ee
@0369 bce5c803
@036a 388f5d49
@036b bce52ad0
@036c bd5ba892
@036d bd56ebd4
@036e 3c781db7
@036f 3c2557d7
@0370 bcdb9254
@0371 bc3ea333
@0372 3b58b9f8
@0373 3d2d0a54
@0374 3d6f3586
@0375 3c40db57
@0376 3ca8aee0
@0377 3d670f7e
@0378 3d505175
@0379 3d4bb4c4
@037a 3d870277
@037b 3d66d148
@037c 3ce0bba5
@037d 3c581178
@037e 3adb6701
@037f 3c24121c
@0380 bb8f6be4
@0381 bc8f3def
@0382 3951e095
@0383 bd362472
@0384 bd37329b
@0385 3c998b1e
@0386 bca0cd32
@0387 bc707a3c
@0388 bd3ea69f
@0389 bd2ef834
@038a 3c0297dd
@038b bd29fffc
@038c 3c6b7892
@038d bcdc7569
@038e 3cd3ae3e
@038f 3cc1b07b
@0390 3cadfba0
@0391 3d2d161b
@0392 3cde7b7f
@0393 3d35347a
@0394 3d6fea32
@0395 3d0f4b32
@0396 3c45007c
@0397 3c859eda
@0398 3cce49a6
@0399 3d831ef4
@039a bab25a51
@039b 3b407ee0
@039c bcddca6b
@039d bbcc2a9b
@039e bd00f0e1
@039f bd3a2601
@03a0 3c5bf75c
@03a1 bccb4ce5
@03a2 bca2b4fb
@03a3 3cb9eaab
@03a4 bc943258
@03a5 bcb7830a
@03a6 bd585a02
@03a7 3a3efcea
@03a8 bd6785f6
@03a9 bd2974c1
@03aa 3c69d51d
@03ab 3d71f17f
@03ac 3c8df196
@03ad 3d3f4254
@03ae 3d0eecb9
@03af 3d938a11
@03b0 3d8a7882
@03b1 3d8a1ee3
@03b2 3d4b9106
@03b3 bc4072e2
@03b4 3d8b2206
@03b5 3d9829f4
@03b6 bc5fc8c5
@03b7 3bbf8d80
@03b8 bd0c62a6
@03b9 3a857c6a
@03ba 3c1d0f0f
@03bb bbad5cd4
@03bc 3bbee0ff
@03bd 3bbb5381
@03be bb4cf6df
@03bf bc422c58
@03c0 3c4fe4c7
@03c1 bd0c2d10
@03c2 bb9481f3
@03c3 bc99fb19
@03c4 bc8ae604
@03c5 3b9ac292
@03c6 bb991149
@03c7 3bd8ec4c
@03c8 3c8ba0fc
@03c9 3d77d31b
@03ca 3ce8b25b
@03cb 3ce89791
@03cc 3d98ed6a
@03cd 3d9ea600
@03ce 3d41ab06
@03cf 3c7fef2b
@03d0 3d1ea2df
@03d1 3d4f2e50
@03d2 3c801b86
@03d3 ba5d4013
@03d4 3c69fe66
@03d5 bd0bf6e7
@03d6 bbef90ae
@03d7 3d42b113
@03d8 3d92deb7
@03d9 3d72d70e
@03da 3d14c8e7
@03db 3c0f02f6
@03dc bbec24e8
@03dd 3c94c49a
@03de bb97980c
@03df 3c0d0bc3
@03e0 bba96971
@03e1 3cda8d12
@03e2 3c4bea48
@03e3 3c6545f6
@03e4 3d4367fb
@03e5 3d87b01f
@03e6 3d2e43a2
@03e7 3d74bbbc
@03e8 3d608ed3
@03e9 3d9d4dc7
@03ea 3d4db4eb
@03eb 3db0e751
@03ec 3d860863
@03ed 3d29574c
@03ee 3d09f383
@03ef bc9e9a0c
@03f0 3cb811ae
@03f1 3b48062e
@03f2 3d1feb4a
@03f3 3d90cc04
@03f4 3d866f02
@03f5 3ce94d8a
@03f6 3d2d46a2
@03f7 3d2b8161
@03f8 3ce0a0c3
@03f9 3d198842
@03fa 3ab824e2
@03fb 3cccee66
@03fc 3bc2e1ec
@03fd 3c8ab800
@03fe 3d40da75
@03ff bca6a0a8
@0400 bbeb54e4
@0401 3d51fc5e
@0402 3d49c7a3
@0403 3d655eb6
@0404 3de604c8
@0405 3d9ab7f3
@0406 3da717ba
@0407 3d9e3e8f
@0408 3d959910
@0409 3d9586b5
@040a 3c8d16f2
@040b 3ca6ec7e
@040c bc816b06
@040d 3cf6c8c0
@040e 3ba1f108
@040f 3dc7ec96
@0410 3dba5f66
@0411 3d82f917
@0412 3d0b23a2
@0413 3d7e5a53
@0414 bb3bcdf5
@0415 3c944e60
@0416 3d6cdc97
@0417 3cc7936f
@0418 3dbb75f3
@0419 3d84ce25
@041a 3d44f73e
@041b 3cb2e65d
@041c 3d9f25e0
@041d 3d6edd58
@041e 3db7e3bd
@041f 3d9099a1
@0420 3d5d4729
@0421 3dc29087
@0422 3ce3e3f1
@0423 3d3d1917
@0424 3d440bf3
@0425 3c256f86
@0426 3be0a0cc
@0427 bd061ae8
@0428 bc7a2eae
@0429 3a8ca24d
@042a 3d678a9f
@042b 3cf0039b
@042c 3c9a6fcc
@042d 3d024c77
@042e 3d7f64b2
@042f 3d4e11b2
@0430 ba3a1409
@0431 3d101cc7
@0432 3cf27ea2
@0433 3d36ae09
@0434 3d489cd2
@0435 3da52716
@0436 3db8a875
@0437 3d9fc53c
@0438 3d186452
@0439 3dcfd8c0
@043a 3d57ae81
@043b 3d98e726
@043c 3cc6bb24
@043d bbdd26a5
@043e 3bb164c8
@043f bd2910d5
@0440 3c06a672
@0441 3c11554b
@0442 3c8edc68
@0443 3c5766c0
@0444 bc91baf6
@0445 bc2ec8f8
@0446 3c32ab25
@0447 3d3f05e0
@0448 3d252234
@0449 3c4a7073
@044a bd14be1e
@044b bd2ba012
@044c ba754588
@044d bc5b7bb9
@044e 3cd365b8
@044f 3ce04628
@0450 3c7fd543
@0451 3bc946da
@0452 3b229bb7
@0453 bc2ee151
@0454 3c411097
@0455 3d761926
@0456 3be59f8b
@0457 3c8dff68
@0458 3a97f3b8
@0459 bc79261c
@045a bca97656
@045b bcfa125e
@045c bc67c6b2
@045d bd265dba
@045e bc636869
@045f bcc66f00
@0460 3c89af88
@0461 3c84c718
@0462 3cbd815c
@0463 3d0b8318
@0464 bc2219ea
@0465 bc41399a
@0466 bd102da9
@0467 bd39e3fd
@0468 bc1f60e3
@0469 bcd7025d
@046a 3d3a48c9
@046b 3da6a34a
@046c 3d285d9a
@046d bca7bd7c
@046e bba67345
@046f 3c328e7e
@0470 bb876b96
@0471 bd7d6583
@0472 bd3f6145
@0473 bcd37870
@0474 3c362691
@0475 bab5c4d9
@0476 bd47f38d
@0477 bd863f85
@0478 bcc6729f
@0479 bc1edef3
@047a bcbd3b6e
@047b bc8b1825
@047c 3d03b92f
@047d 3c5a18da
@047e bcae393e
@047f bd23b390
@0480 bd942448
@0481 bd7945f7
@0482 bc8695a0
@0483 bd32df30
@0484 bb936248
@0485 3cb406c1
@0486 3cb00417
@0487 3d2a8f2f
@0488 3d5288e1
@0489 bcd86d37
@048a bd0e77cb
@048b bd6d86d2
@048c bd1de2f1
@048d bd372403
@048e bd8bdf11
@048f bc5976d3
@0490 bd39f33e
@0491 bc0b6c24
@0492 bcc84b65
@0493 bd97748e
@0494 bd00b03c
@0495 bbe1f904
@0496 bbc6b29e
@0497 bcca11be
@0498 bc9d30b0
@0499 3d07f3ec
@049a 3c2e35d9
@049b bd7f8eb7
@049c bd0b2f8c
@049d bc765958
@049e bc70fcb8
@049f 3d5c17f3
@04a0 3c8fe76f
@04a1 3cdd6028
@04a2 3dbfca34
@04a3 3d9ae7a2
@04a4 3ca12e73
@04a5 bc297ed7
@04a6 bd5701b9
@04a7 bd80d74d
@04a8 bd3a84bb
@04a9 bca6406f
@04aa bb1f6d7c
@04ab bd0bc12e
@04ac bc59c77b
@04ad bd5c1ba2
@04ae bd341bb6
@04af bc28a09f
@04b0 bd89828c
@04b1 3cc73c90
@04b2 bbbc2621
@04b3 3adc6be0
@04b4 3d01223f
@04b5 bd0d59cd
@04b6 3c333d4e
@04b7 bcb96ad5
@04b8 bba59346
@04b9 3b9eebe9
@04ba 3d47d1ef
@04bb 3cc5a097
@04bc 3cf60379
@04bd 3ce13c48
@04be 3d822921
@04bf 3d2f3870
@04c0 bcc00c97
@04c1 bd8afc81
@04c2 bd617f7f
@04c3 bdddc69f
@04c4 bd6380bb
@04c5 3b77b0b6
@04c6 bcfe1b05
@04c7 bb364ba6
@04c8 3ae6762a
@04c9 bd848dd3
@04ca bd2a528d
@04cb bd39d679
@04cc bd09b67b
@04cd bcb5d159
@04ce bce35494
@04cf 3ce542be
@04d0 bb5654c5
@04d1 3d0bb164
@04d2 3cf84345
@04d3 bbe5d204
@04d4 3c4ec4ba
@04d5 3c823c46
@04d6 bc1b13ff
@04d7 3d56d774
@04d8 3d1723ce
@04d9 3d5e24cb
@04da 3d672ad3
@04db bb848b46
@04dc bd39a50b
@04dd bd90e23a
@04de bd338498
@04df bd700bcc
@04e0 3c5d7231
@04e1 ba939f37
@04e2 bd4f7da4
@04e3 bd125b21
@04e4 3a3f1565
@04e5 bd748317
@04e6 bc6bd3fa
@04e7 bd302748
@04e8 bc47c8d2
@04e9 bc079eb7
@04ea 3ce55350
@04eb bc100a5c
@04ec bcda2e0c
@04ed bb8d7a0e
@04ee 3d17ae47
@04ef 3d50fe8f
@04f0 3c80deb1
@04f1 3ce7daa6
@04f2 3d360cb4
@04f3 3c5e1f9c
@04f4 3d57bd74
@04f5 3dba9b05
@04f6 3d69ed36
@04f7 3ba34ab0
@04f8 3c5d0b20
@04f9 bc2f34df
@04fa 3c547145
@04fb 3a8f6a95
@04fc 3c17038d
@04fd bce51a07
@04fe bc4bc728
@04ff 38aa1dcb
@0500 bd335e74
@0501 3c662dd3
@0502 bae05f80
@0503 3ccc580b
@0504 3c6f17ef
@0505 bccc1e5b
@0506 3c3a449b
@0507 3c72e160
@0508 bc96533d
@0509 3c9706a5
@050a 3d29c7b4
@050b 3dcfb257
@050c 3dc2645a
@050d 3da36f4e
@050e 3d8c7c33
@050f 3d8a13dd
@0510 3d1ce68b
@0511 3d948515
@0512 3bd71ce9
@0513 3d2a8021
@0514 3d028214
@0515 3cc8be28
@0516 3cb552c6
@0517 3c3a9f01
@0518 3c61c217
@0519 bc137ac6
@051a bd4347ab
@051b 3c1924dc
@051c bd2c0847
@051d bd077d7e
@051e bc696921
@051f bc5f0199
@0520 3d2ab676
@0521 bbb41cec
@0522 3bdbd1b6
@0523 bc978e4c
@0524 3c43a479
@0525 3d2fe2e1
@0526 3dd724d1
@0527 3e03d22f
@0528 3db5d848
@0529 3db71a8a
@052a 3d486714
@052b 3d98548e
@052c 3d23bb20
@052d 3c8f4d2e
@052e 3d5965b9
@052f 3d2fba3c
@0530 3bc46907
@0531 3d1ac973
@0532 3b345191
@0533 bcef322d
@0534 bcb68646
@0535 3c959504
@0536 bcd6b2ab
@0537 bcfdc264
@0538 3ceab425
@0539 3d478965
@053a 3d0086f8
@053b 3d5af4c4
@053c 3bcb9a5c
@053d 3d2f6372
@053e 3b45a69e
@053f bbbecb27
@0540 3c6416ed
@0541 3ccfef6d
@0542 3d572191
@0543 3daf3f0c
@0544 3de002f6
@0545 3dad870d
@0546 3da493a9
@0547 3d3e2535
@0548 3d41d42d
@0549 3d1ddfa2
@054a bcdc8db2
@054b 3d0d3566
@054c 3c174a9a
@054d 3ca0564b
@054e bd0e6e0f
@054f 3c84960f
@0550 3cba2dc1
@0551 bbfd9b84
@0552 3c31add0
@0553 3d03f2e0
@0554 3c1944dc
@0555 3d4ee81a
@0556 3d8a1f47
@0557 bb9dee28
@0558 3d3c94e4
@0559 3c9dfff4
@055a 3c6ab3c2
@055b bcc83850
@055c 3b918b22
@055d 3c016358
@055e 3d316b6b
@055f 3dce3a4e
@0560 3dde607f
@0561 3d4da84c
@0562 3d1cf775
@0563 3d60187a
@0564 bc24f671
@0565 3c8716c4
@0566 3d245c5d
@0567 3da115ab
@0568 3d95c0ff
@0569 3af20a11
@056a 3aefc73c
@056b bc0d412f
@056c 3b724adc
@056d 3c2a7553
@056e bd12ddda
@056f 3c94caa2
@0570 3d36dc69
@0571 3d302a41
@0572 3c5ae446
@0573 3d336b9d
@0574 3c0ada41
@0575 3d26e0bb
@0576 3bf8c24d
@0577 3c598e80
@0578 bcebc1c4
@0579 bc444450
@057a 3d819ffc
@057b 3db72d2f
@057c 3dd26a6e
@057d 3d62e218
@057e 3c5f358d
@057f 3c64b457
@0580 3d627e54
@0581 3d094290
@0582 3cdc4405
@0583 3d4849e7
@0584 3d9ae2a5
@0585 3ce186d9
@0586 3d6c0888
@0587 bc81f8e3
@0588 bc885735
@0589 bcec9884
@058a ba50a93b
@058b 3c103b2a
@058c babd7253
@058d 3cec9ab4
@058e 3ae85f72
@058f 3d2601c4
@0590 3c104c26
@0591 bbd03fe5
@0592 3c0a8205
@0593 3b959290
@0594 3cd7bd00
@0595 3cc7d70c
@0596 3d333b79
@0597 3cc15d1d
@0598 3d5ea651
@0599 b928fe8c
@059a 3d80131e
@059b 3d3888f4
@059c 3d7d90a3
@059d 3da62f89
@059e 3dd03863
@059f 3d326f0d
@05a0 3cfd8582
@05a1 3d8ded4d
@05a2 3b48f62b
@05a3 3c1c5109
@05a4 3c55c81a
@05a5 3d8b25a2
@05a6 3ccf1d4f
@05a7 3cdab18e
@05a8 3ca9091b
@05a9 3bdab097
@05aa 3d386400
@05ab 3d675b5d
@05ac bc54b728
@05ad bca5eed8
@05ae bac46f84
@05af bc562186
@05b0 3c9f292c
@05b1 3caefdeb
@05b2 3d3242e0
@05b3 3c82c4d3
@05b4 bad8f85b
@05b5 3bdb9b5c
@05b6 3c22a3fb
@05b7 3d9ac27c
@05b8 3d9275c8
@05b9 3d11d8bb
@05ba 3d0affee
@05bb 3d9c5729
@05bc 3d231e11
@05bd 3a5fe91d
@05be 3d40d9bf
@05bf 3d22c6ea
@05c0 3d4a21a7
@05c1 3d786e08
@05c2 3bc557a4
@05c3 3c35c4f5
@05c4 bc1b0da8
@05c5 3c3a96e8
@05c6 3d3e1893
@05c7 3c26e2bc
@05c8 3cad882f
@05c9 bd02fe0e
@05ca bcd94abf
@05cb bb838628
@05cc 3cb8b150
@05cd ba962869
@05ce bca65540
@05cf bd07fede
@05d0 bcd89683
@05d1 3d18a553
@05d2 3a08fe8b
@05d3 bb6a841c
@05d4 3d2c94fd
@05d5 3d34bc1d
@05d6 3d0ff33a
@05d7 3d1545fc
@05d8 3d5301a4
@05d9 3d82439e
@05da 3d21f23d
@05db 3c1c1434
@05dc 3ca8f157
@05dd 3d00c26d
@05de 3d42cadc
@05df 3d108a5b
@05e0 bc4ffa89
@05e1 bb43a78b
@05e2 bc6de9f3
@05e3 3d1e7ae2
@05e4 3a55c58a
@05e5 bc816a01
@05e6 3b0f42be
@05e7 3b4b1b50
@05e8 3c90be4e
@05e9 bcf672da
@05ea 3cf10fd5
@05eb bc7ed334
@05ec bc8c66d5
@05ed 3d129bf8
@05ee 3b8c8888
@05ef bc69c3bc
@05f0 3c3436aa
@05f1 bbfc1be8
@05f2 bc5b24d1
@05f3 3cf146bc
@05f4 3c5f4d2b
@05f5 bb0158d2
@05f6 3bb0d5e5
@05f7 bcea7cec
@05f8 bc057676
@05f9 bc3a3a2f
@05fa bc7b4ac7
@05fb bc0f6457
@05fc bca6e6cd
@05fd 3c995fd0
@05fe 3ced5a75
@05ff bd0b7e8e
@0600 3d0e6e53
@0601 bd074fbb
@0602 bd0ba51a
@0603 3c8d737e
@0604 bc91a2a5
@0605 3d03241b
@0606 39187300
@0607 bc4268f8
@0608 3cfdb90e
@0609 bc0eaf58
@060a bca4ad20
@060b bc9f360a
@060c 3cda0cca
@060d 3cc4e630
@060e bc069fca
@060f 3cbb76f6
@0610 3d0ea657
@0611 bca7930a
@0612 3caacb4c
@0613 3c9b7f5a
@0614 3cdad9d2
@0615 bc5516b8
@0616 bb091e00
@0617 3cb7b818
@0618 3ab504a0
@0619 bcdd5d7a
@061a 3ce3d316
@061b bd0344ba
@061c 3cdae4f0
@061d bc93435a
@061e 3bf85bf8
@061f bcb84018
@0620 bccf5abc
@0621 bc960c53
@0622 bc8b9980
@0623 bc968c3e
@0624 3d0a513f
@0625 bcfa65b3
@0626 3c34e4f8
@0627 bbe44694
@0628 bc8d4c85
@0629 bce32ffa
@062a bd0c00da
@062b 3a980ac0
@062c 3bf015e0
@062d bc5fe840
@062e 3ce0af6e
@062f 3c06e018
@0630 3cab9216
@0631 3c28dcf4
@0632 3cd15d66
@0633 bcb674f8
@0634 3c8dc380
@0635 3cb6bdac
@0636 3a3474c0
@0637 bbb27630
@0638 bcdb1c90
@0639 bbeee9c0
@063a 3c8f8350
@063b b9c08d00
@063c bca7193a
@063d bb6dd7a0
@063e 3ce3d270
@063f 3d061b53
@0640 3bc5391e
@0641 bbcd02f1
@0642 3c9e9eca
@0643 3c7092a3
@0644 3c136ae0
@0645 bd0d7767
@0646 3d093916
@0647 bcb72e72
@0648 bbbb39c8
@0649 3cc2eedc
@064a 3be610db
@064b bc79f8c5
@064c bc0fdf6d
@064d bb0a5a37
@064e 3ca20ce6
@064f 3c9a530d
@0650 bc9d786a
@0651 bcf13ab2
@0652 bccd9b2d
@0653 3ced7479
@0654 bcf9bfac
@0655 bb70633b
@0656 bcbbb23a
@0657 39adf480
@0658 bc0894f8
@0659 3b33fc7b
@065a bcf11270
@065b bc733667
@065c bbb2a417
@065d 3b4a6c2a
@065e bce544a5
@065f bccfa70a
@0660 bcf8b39f
@0661 3c453922
@0662 bcabe4b4
@0663 bb62a9d9
@0664 3ca99081
@0665 3cdcf952
@0666 3cfdbb57
@0667 bb0be47b
@0668 3d639db0
@0669 3d95ed07
@066a 3d2be9f0
@066b bc3fab66
@066c 3d145895
@066d 3cd4dd1b
@066e bc320391
@066f 3ce7ec51
@0670 3d3a0a79
@0671 3c8e304a
@0672 bca978c7
@0673 3cefe742
@0674 bc3f6f60
@0675 3bb456e8
@0676 3ca5b7c5
@0677 3ab7f8a9
@0678 bd1b6112
@0679 bc58dce2
@067a bbd74eb4
@067b bcf4d90a
@067c bd9d9731
@067d bd17edd6
@067e bcd5f733
@067f bcd5124a
@0680 bd148d84
@0681 3c1768a5
@0682 bb14e4f6
@0683 3c5e57ed
@0684 3cf541ca
@0685 3d693b79
@0686 3c3a5f03
@0687 3ae80fe6
@0688 3c0d8342
@0689 bc5412bf
@068a 3bc12f87
@068b 3d27660a
@068c 3ce474f4
@068d bb4ca0c6
@068e 3cf26226
@068f bcf16fc3
@0690 bc8340c4
@0691 3c7244ae
@0692 ba92541e
@0693 bcfa4e2b
@0694 bb2403a5
@0695 bb7a155c
@0696 bc6fa3b3
@0697 bce3e20e
@0698 bd6a6121
@0699 bd345a67
@069a bd1bd48d
@069b bcbfa352
@069c bd91d28e
@069d bcc08a84
@069e 3d2a19f1
@069f 3b844019
@06a0 bce6fa4d
@06a1 3a0b4752
@06a2 bc976026
@06a3 3c5d9a1d
@06a4 3d13d039
@06a5 3baa5072
@06a6 bd16a0b3
@06a7 bb534e2d
@06a8 3cbf44d4
@06a9 bba665fb
@06aa 3d018224
@06ab 3ce79cfe
@06ac 3b1250b1
@06ad 3d154f48
@06ae bd0a50e8
@06af 3c8986a9
@06b0 bd0394a6
@06b1 3aac8064
@06b2 3a2ac3ee
@06b3 bc862bc7
@06b4 bd6c973f
@06b5 bd9aaa3e
@06b6 bcbaec74
@06b7 bc53e1f7
@06b8 bd67beb8
@06b9 3ba10fb7
@06ba 3aa51229
@06bb bbcddfc5
@06bc 3cedcc7b
@06bd bd06485f
@06be bce11632
@06bf bb9d37f4
@06c0 bd1ef9c1
@06c1 bbe48e52
@06c2 3c60f4b9
@06c3 3cc77a63
@06c4 bc813840
@06c5 bcf0a8d0
@06c6 bce14ed5
@06c7 bceee528
@06c8 bbfd4b38
@06c9 bcdd8325
@06ca bc55429c
@06cb 3c41f618
@06cc bcd6402a
@06cd bc9112fe
@06ce bd1a4cd4
@06cf bd1cab18
@06d0 bd0ed84f
@06d1 bd826924
@06d2 bd5a1457
@06d3 bd72cb81
@06d4 bd25712c
@06d5 bc65a536
@06d6 bd84efb0
@06d7 bac1cc0f
@06d8 bb8a344c
@06d9 bb4cf556
@06da bd09fcf7
@06db bc970a21
@06dc bd1fb190
@06dd bcdb00cd
@06de bcf2ca4c
@06df 3c40a2bd
@06e0 bcc9dc12
@06e1 bc7b0e7e
@06e2 bc61b594
@06e3 3c1e2b13
@06e4 3c6a09de
@06e5 bca6adc6
@06e6 3c58a624
@06e7 3beca59c
@06e8 bd29efb4
@06e9 bd3df8a8
@06ea bc993d52
@06eb bd454e63
@06ec bc761184
@06ed bd3736bb
@06ee bd18933e
@06ef bdad6fa8
@06f0 bd207471
@06f1 bdb2a0d0
@06f2 bda103b2
@06f3 bca0ad0a
@06f4 bd3ea69d
@06f5 bd2c9d9a
@06f6 3c302585
@06f7 bd11c16d
@06f8 bd3be0c1
@06f9 bd8691f9
@06fa bcc6cdba
@06fb bd839a4d
@06fc bd1c48f7
@06fd bc724041
@06fe 3ba9a6e3
@06ff 3d0053a9
@0700 3cce93c8
@0701 bc3dfd7a
@0702 3c8881b4
@0703 bc697224
@0704 bbcaaf9a
@0705 bc3f6d02
@0706 bd428c8a
@0707 bd374526
@0708 bd394e82
@0709 bd0ea8b5
@070a bd06a02b
@070b bdb8905c
@070c bd9c3379
@070d bdba4dcc
@070e bd4d2f27
@070f bda41a36
@0710 bd664f94
@0711 bcaa862e
@0712 bafe8cd7
@0713 bd402e7a
@0714 bd75e46a
@0715 bd941342
@0716 bd9b61de
@0717 bccdc1ad
@0718 bdba4c0e
@0719 bc5e9441
@071a bcaf17ad
@071b 3bfd471e
@071c 3d03ff58
@071d 3cc044fb
@071e 3c92effa
@071f bd5496bf
@0720 bca7ea05
@0721 bd9c743d
@0722 bda549cc
@0723 bd721d1e
@0724 bd467fa9
@0725 bd445b28
@0726 bd045cdd
@0727 bda3a701
@0728 bd13171f
@0729 bd0de99a
@072a bd01950a
@072b bda73437
@072c bd946259
@072d bd458ca4
@072e bcab9eff
@072f bcd4af99
@0730 bce3e4ff
@0731 bc1eded9
@0732 bdb75fc0
@0733 bd5a1cdb
@0734 bda2db17
@0735 bbe28746
@0736 bb65eb4a
@0737 baacac33
@0738 3bfa2343
@0739 3bbaf657
@073a bca4f30b
@073b bc3e9a66
@073c bd75578e
@073d bda160a8
@073e bdcb2cb5
@073f bd97adfa
@0740 bd52095b
@0741 bda92ae5
@0742 bd5baf50
@0743 bd9afa3f
@0744 bd5527de
@0745 bd43fb68
@0746 bd7fd363
@0747 bdc74383
@0748 bd886a1a
@0749 bdbe456d
@074a bd8a225a
@074b bd8d1be7
@074c bc28716c
@074d bd8be71a
@074e bda30388
@074f bda1a468
@0750 bd984d70
@0751 bbbe988f
@0752 bc63cc5f
@0753 3b92c880
@0754 3ce49a59
@0755 bc0e7ed0
@0756 3bd08d03
@0757 bd8b5738
@0758 bd25e415
@0759 bdabaebc
@075a bdaa6149
@075b bda79982
@075c bd939899
@075d bdcbde1b
@075e bd31cc79
@075f bcf9545f
@0760 bd323334
@0761 bd0e4b36
@0762 bd8c1552
@0763 bddddf39
@0764 bde3fcae
@0765 bda5e407
@0766 bddca1da
@0767 bdc78fd6
@0768 bd348997
@0769 bdc1440a
@076a bd796b58
@076b bcbb977c
@076c bc4495b0
@076d bcf1b944
@076e 3cf1845c
@076f 3cc4d018
@0770 3cd440a2
@0771 3ce17b7b
@0772 3c48540a
@0773 bd2da314
@0774 bd5f8ea3
@0775 bdc0b55c
@0776 bd4e1359
@0777 bdad066d
@0778 bd7f4952
@0779 bdd0b807
@077a bdc26592
@077b bc866e92
@077c bd644524
@077d bcc897cd
@077e bdc3749b
@077f be171987
@0780 be2303a2
@0781 be0a2e4e
@0782 bdb4f0bd
@0783 bde73bd1
@0784 be0642dd
@0785 bdb2a4a6
@0786 bd96dffd
@0787 bcffcf02
@0788 bbd8a401
@0789 3cf82bbc
@078a bc76fbae
@078b 3cf193a6
@078c 3ca8a526
@078d 3ba9fcf1
@078e 3cbbfb16
@078f bd5b7ef4
@0790 bbe419df
@0791 bd42cbd8
@0792 bd33a140
@0793 b93922ab
@0794 3be08823
@0795 bc1c7b9a
@0796 3cc79ce1
@0797 bd22ecdf
@0798 bd713800
@0799 bd6eeeb3
@079a bd7c1d2d
@079b be00c90c
@079c be0b9a7b
@079d bdaaa725
@079e bdd231fa
@079f bd83b01b
@07a0 bd3425ec
@07a1 bd48497d
@07a2 bcdb210c
@07a3 3c1bd098
@07a4 3baf5e1a
@07a5 3c84a053
@07a6 3c1edb5e
@07a7 bd01235e
@07a8 bcd480b0
@07a9 bc6fa052
@07aa bc59ba16
@07ab babb18f8
@07ac 3d002af7
@07ad 3cda3ab7
@07ae 3db7ed2b
@07af 3d374fb3
@07b0 3d6572d2
@07b1 bbfd8da6
@07b2 3d317108
@07b3 3c86984f
@07b4 bd3836df
@07b5 bd983d04
@07b6 bd504aa5
@07b7 bd27580b
@07b8 bd296854
@07b9 bd312caa
@07ba bca2d116
@07bb bbc0978c
@07bc 3d5bdc18
@07bd 3b7e4b1a
@07be 3da21bfd
@07bf 3cfbb064
@07c0 3d47afd9
@07c1 3cecc77e
@07c2 bce13417
@07c3 3c0d27a8
@07c4 bb339b70
@07c5 bcb24eb9
@07c6 3cc5508e
@07c7 3d1593ce
@07c8 3e037e4b
@07c9 3de3d61d
@07ca 3e2cf321
@07cb 3dd720a8
@07cc 3d95377f
@07cd 3d507c80
@07ce 3d30bd5a
@07cf 3cde323a
@07d0 bc6aadba
@07d1 bc95a0c2
@07d2 3cbf9966
@07d3 3da5a813
@07d4 3dc59136
@07d5 3d95ef71
@07d6 3da6a1a6
@07d7 3dc7ca0f
@07d8 3daec4c2
@07d9 3ddbc8e4
@07da 3d818f5d
@07db 3d9f9d4d
@07dc 3d8bbe9b
@07dd 3cee151f
@07de bd039683
@07df 3c0d97a8
@07e0 3c845bdc
@07e1 bc88764c
@07e2 3d2acd5b
@07e3 3de08511
@07e4 3e28c7d2
@07e5 3e1f68b6
@07e6 3e2c6662
@07e7 3db8b4c6
@07e8 3de0cd92
@07e9 3d97a60b
@07ea 3ddd0d20
@07eb 3d1927dc
@07ec 3c83052c
@07ed 3d4f7f73
@07ee 3d992785
@07ef 3e0e26b4
@07f0 3e0b0a95
@07f1 3e427745
@07f2 3dfe9a32
@07f3 3e16b411
@07f4 3dc36152
@07f5 3da6b896
@07f6 3d787a65
@07f7 3d30860c
@07f8 3c4c8e1e
@07f9 3d4d057b
@07fa 3c78d0db
@07fb bc3a78a0
@07fc bc24ce60
@07fd bcc96557
@07fe 3d2e6703
@07ff 3e0be235
@0800 3df4282e
@0801 3df402c0
@0802 3e1d001a
@0803 3de51409
@0804 3d5603fa
@0805 3d648c92
@0806 3d6a51ff
@0807 3c837195
@0808 3d1878f7
@0809 3e01373c
@080a 3e21e5fe
@080b 3e3deddb
@080c 3e44b153
@080d 3e5b4c29
@080e 3e0df6b4
@080f 3e0a6787
@0810 3dc728ed
@0811 3dcc4c77
@0812 3dcb07ed
@0813 3dc5e29f
@0814 3da804bc
@0815 bbc01af3
@0816 bd01632c
@0817 bcc80260
@0818 3ca79f70
@0819 3cfacd37
@081a 3d333e81
@081b 3d84b4bc
@081c 3e2bb9a6
@081d 3e0ec067
@081e 3e00dabb
@081f 3e0e5eab
@0820 3d86df13
@0821 3d3a0993
@0822 3c23cca4
@0823 3da1f734
@0824 3dee5bd8
@0825 3dfb454f
@0826 3e56fc14
@0827 3e767b87
@0828 3e6963bd
@0829 3e4eb346
@082a 3e26ae00
@082b 3e03aeb2
@082c 3df13c1c
@082d 3e089ec7
@082e 3e040200
@082f 3da8a9d7
@0830 3cbb1168
@0831 3d1a97ff
@0832 bc9eb4c4
@0833 3d04b8e3
@0834 3c015cde
@0835 3c5c9e0a
@0836 3ca32bd6
@0837 3dbbd491
@0838 3dc2c93e
@0839 3dca7bc4
@083a 3ddd1a89
@083b 3d63fa26
@083c 3d194bb5
@083d 3d8d35ff
@083e 3ca40e8f
@083f 3d098dae
@0840 3dd25dd5
@0841 3e256d5a
@0842 3e0237d7
@0843 3e23169e
@0844 3e2f37da
@0845 3e0536b3
@0846 3e27ef5b
@0847 3dc45e03
@0848 3dcc8308
@0849 3df84f5b
@084a 3d85da29
@084b 3d20c7ca
@084c 3d8db84e
@084d 3ce35622
@084e 3b60a3f9
@084f 3c254635
@0850 bca1e1f1
@0851 bc3feaea
@0852 3d146c44
@0853 3da26ce8
@0854 3de7b475
@0855 3e0a7803
@0856 3da1f7dc
@0857 3dd38051
@0858 3d45a354
@0859 3d418745
@085a bc4e4d27
@085b 3d2825ce
@085c 3dafe930
@085d 3db631fd
@085e 3dbb13e8
@085f 3dd02560
@0860 3d6bdd6d
@0861 3ded4034
@0862 3dbd0172
@0863 3dd3443d
@0864 3d4dc14b
@0865 3db514d6
@0866 3db46d4b
@0867 3d2da4bf
@0868 3d68ada1
@0869 bc96360e
@086a 3ba7f4b7
@086b 3b9ee5cb
@086c 3c7cdbdf
@086d bc5fe596
@086e bc9e5365
@086f 3d19e176
@0870 3d8fb8b0
@0871 3d92d42a
@0872 3d8e1b6f
@0873 3cfb8072
@0874 3d1863db
@0875 bce65912
@0876 bcaa2edf
@0877 3ca8b1c1
@0878 3c019455
@0879 3b047dc3
@087a 3d466614
@087b 3c8c9b04
@087c 3b9f4cd3
@087d 3d65e049
@087e 3c4d3a66
@087f 3b732851
@0880 3b7b0df7
@0881 3d88ecb0
@0882 3da7ee45
@0883 3d893000
@0884 3d54bc96
@0885 bb7985f9
@0886 3c69dfa3
@0887 39895080
@0888 bce822a4
@0889 3cef0f2c
@088a bcbdcd6b
@088b 3d29e2c2
@088c 3cecdefc
@088d 3d25b5ae
@088e 3d0cfca6
@088f 3ccd07c0
@0890 3b4d3d7b
@0891 3c67926d
@0892 bd6a0275
@0893 bd0df43c
@0894 bd048f3f
@0895 bd8b060b
@0896 bd2ed9ea
@0897 bd6e6281
@0898 bd43b07f
@0899 bd33aadc
@089a 3ad64bad
@089b bd56510b
@089c 3c955436
@089d 3c58ac5c
@089e 3d7327e9
@089f 3c5889af
@08a0 3c69f887
@08a1 bafdc2fd
@08a2 bd106004
@08a3 bc9e2867
@08a4 bbdfc2b8
@08a5 3ca6b412
@08a6 3c273424
@08a7 3ccc8ca0
@08a8 3d0ec35b
@08a9 3d62298a
@08aa bc49bdff
@08ab bd3a3c2d
@08ac 3c9c2011
@08ad bbcdd2a4
@08ae bd023c1d
@08af bc5d2731
@08b0 bd3cf2e8
@08b1 bd7b8ba0
@08b2 bdf3e452
@08b3 bdb35a84
@08b4 bdabf31d
@08b5 bdb696a2
@08b6 bd922cff
@08b7 bd31da75
@08b8 3c3ec265
@08b9 3cbc87eb
@08ba 3d207188
@08bb 3d24da7d
@08bc 3ccd3d1b
@08bd bc5fe790
@08be 3cf3778c
@08bf 3c487af0
@08c0 bd0f3b02
@08c1 bc9b9c9e
@08c2 bc523fc4
@08c3 3d14b68a
@08c4 3cbdf0e4
@08c5 3d7b3fb8
@08c6 3b0ec291
@08c7 3c39c0e8
@08c8 3ca49b7d
@08c9 3d872ad4
@08ca 3d0c1e55
@08cb 3cf3d68b
@08cc bd30f4a8
@08cd bd197dea
@08ce bd9ecb47
@08cf bcd02f42
@08d0 bd8e95cb
@08d1 bc5aad55
@08d2 3c21e432
@08d3 bb9e5435
@08d4 3d63f582
@08d5 3d7ce895
@08d6 3d8ae9ca
@08d7 3cf43e5f
@08d8 3cd6dd19
@08d9 bc6d8106
@08da bcb60537
@08db bc381926
@08dc 3c46a3e0
@08dd bc852298
@08de bc9344e9
@08df 3bd9a7af
@08e0 3d3189e8
@08e1 3bb0806b
@08e2 b99c76ce
@08e3 bc540c03
@08e4 3cdc1d8b
@08e5 3c2d19cf
@08e6 3d1510d5
@08e7 3d5126dc
@08e8 3d047a9e
@08e9 3c5f499f
@08ea baa1d0de
@08eb 3cb29050
@08ec bc482489
@08ed bc880161
@08ee bc18fb05
@08ef 3d5fdc0d
@08f0 3ca0a85d
@08f1 3d132245
@08f2 bc3c5f01
@08f3 3d1acb33
@08f4 3c184c79
@08f5 bc901856
@08f6 3d10b3a1
@08f7 3ce06b1a
@08f8 bb0d70d0
@08f9 3c72c63b
@08fa baf60b13
@08fb 3b012715
@08fc 3c0e490d
@08fd 39f44df4
@08fe 3cb4a1bd
@08ff 3c5c42f3
@0900 3a3f6e16
@0901 3b557168
@0902 3c89a549
@0903 3bf9196d
@0904 3cea8734
@0905 3cb3c779
@0906 3ca7d736
@0907 bb9d630b
@0908 3c392f20
@0909 bb6a4220
@090a bd12c721
@090b 3b3a11d3
@090c 3d1251aa
@090d bc37c065
@090e bc89c87c
@090f 3c35e206
@0910 bc8a94c5
@0911 3d058a21
@0912 bd0e72d4
@0913 3cecdf3e
@0914 3c1b0370
@0915 bc599b72
@0916 bc24b57c
@0917 bc2a0006
@0918 3c160700
@0919 bc63fdd2
@091a bd0baa37
@091b bcce6df5
@091c 3b1635b0
@091d bcfa8d4c
@091e bbec8e08
@091f 3cfd88be
@0920 3cc3c43a
@0921 bafa2640
@0922 bc7eedc0
@0923 3c0bb9d0
@0924 bca639a3
@0925 bc9244c7
@0926 3cdcc7ae
@0927 bcf2cc6a
@0928 bc9d5b30
@0929 3c7e96f0
@092a 3b8ee8d8
@092b 3b888958
@092c bd093b2c
@092d bc33b80e
@092e bcd59955
@092f 3d0640ff
@0930 bcfd76d1
@0931 3ba0fad8
@0932 3cd69708
@0933 bcf3afb5
@0934 3cf5650a
@0935 3cdc0066
@0936 bb9e191c
@0937 3d0bffc9
@0938 bce55bf5
@0939 bbc9e040
@093a 3c28a438
@093b bccd30e5
@093c 39ee5f00
@093d 3b993e30
@093e bb0949a0
@093f 3b4098e0
@0940 3cfa5502
@0941 3c80cfc0
@0942 3b833e40
@0943 bd0df614
@0944 3cf1718e
@0945 3d0aafd7
@0946 3b5dadd0
@0947 bc084832
@0948 bd114a1a
@0949 3cabaabc
@094a bc280ae6
@094b 3cd3d416
@094c bbc3d5a4
@094d 3cbc8520
@094e bb4b47ff
@094f 3cb90c9d
@0950 3c817f2c
@0951 bab7e2c8
@0952 bb3a389a
@0953 bc8b59e3
@0954 3cdcff6c
@0955 bc7fd690
@0956 bce5c706
@0957 bcc32b28
@0958 3d021a6a
@0959 bba8e618
@095a bca09edb
@095b b888f23f
@095c 3ce627aa
@095d 3d148a3b
@095e bc4689ca
@095f bccd8704
@0960 3c5bd3be
@0961 3cae8699
@0962 3c5678c2
@0963 3d01a7d7
@0964 3d043712
@0965 bb365656
@0966 3c69d2a0
@0967 3caf2ff2
@0968 ba446840
@0969 bb2c8e2f
@096a 3967575a
@096b bd16ba8c
@096c bc2fbc5c
@096d 3c0ace50
@096e bbd43e58
@096f bd284ddb
@0970 bd827416
@0971 bb7801db
@0972 bd0882a0
@0973 bb91b06d
@0974 bd58c455
@0975 bcc6d897
@0976 3cc0c853
@0977 3c506444
@0978 3d2ce0bc
@0979 3ca29376
@097a bb8efae7
@097b 3d172073
@097c 3c887048
@097d 3aefabf0
@097e 3d169d2d
@097f 3d6f210c
@0980 3c3e0c46
@0981 3cc8e18c
@0982 bcca2933
@0983 bbd71470
@0984 3b072810
@0985 bc971da7
@0986 bc8d8c25
@0987 3c97b0b4
@0988 bc2b692f
@0989 bd84a451
@098a bdb252e7
@098b bd8fb1a8
@098c bdbb4c08
@098d bde8413b
@098e bd381e0e
@098f bda27164
@0990 bcfaf7d9
@0991 bc893f2b
@0992 bd206f15
@0993 bc8ce25a
@0994 3d1326ce
@0995 3c2b2d21
@0996 3d17fc7e
@0997 3cdffedb
@0998 3d4a67f4
@0999 3c25d013
@099a 3d34a31e
@099b 3dad1640
@099c 3d7df37d
@099d 3beceb9e
@099e bca691a6
@099f bd0d14fd
@09a0 3c45ab64
@09a1 3c7d64f4
@09a2 bd22ccde
@09a3 bd6e09c0
@09a4 bcc9c4f8
@09a5 bdd6f33e
@09a6 bd4cdc02
@09a7 bd635415
@09a8 bd7a46f2
@09a9 bd5cb247
@09aa bc3268a0
@09ab bd7dbee4
@09ac bd86fc07
@09ad bd93ed80
@09ae bc9acb76
@09af 3d4ca185
@09b0 3c466ce8
@09b1 3c82ebf2
@09b2 3d59ad47
@09b3 3d2ca601
@09b4 3ccb65fb
@09b5 3c03965c
@09b6 3d47c1e2
@09b7 3dbd9aea
@09b8 3db49457
@09b9 3c3f1c41
@09ba bc3e2367
@09bb 3b885950
@09bc 3bdd21e9
@09bd ba9de0e0
@09be bbd627b6
@09bf bbe38c42
@09c0 bd7a16cd
@09c1 bd30bc58
@09c2 bd3b8a74
@09c3 bca25ecd
@09c4 bd318e82
@09c5 bd6bf3a1
@09c6 bcd86146
@09c7 bcc723eb
@09c8 3c381404
@09c9 bcd2c54b
@09ca bcbd08bc
@09cb 3cef2a05
@09cc 3d757e96
@09cd 3d0c1d34
@09ce 3c25cb6b
@09cf 3d6744e5
@09d0 3d6cb1c8
@09d1 3d29af3a
@09d2 3d0a2bb2
@09d3 3d91ef76
@09d4 3d36cb83
@09d5 3d7b6dcb
@09d6 bbf6744c
@09d7 bd0777df
@09d8 bc541fa4
@09d9 bcd34295
@09da bcc7b333
@09db bd04a75e
@09dc bd9cdba5
@09dd bda35579
@09de bca77f04
@09df bc38ed3e
@09e0 3d02ebfc
@09e1 bd375976
@09e2 bc9efe5a
@09e3 3a90b1f8
@09e4 bc9ac614
@09e5 bd2c3419
@09e6 3aa13cf3
@09e7 bca475e2
@09e8 3d6588d3
@09e9 3c908624
@09ea 3ca0d9b3
@09eb 3da5f68d
@09ec 3d234efa
@09ed 3d6773df
@09ee 3d9244e6
@09ef 3ba0e60d
@09f0 3bc29501
@09f1 bc054f8d
@09f2 3cb3c53f
@09f3 bce7cb22
@09f4 3c8f85e6
@09f5 3cf4459c
@09f6 3c4117ba
@09f7 bd965abf
@09f8 bd35fe28
@09f9 bd9036d4
@09fa 3c1e22b8
@09fb 3c157d04
@09fc 3ce5b225
@09fd bc4bb3c2
@09fe bc55734f
@09ff bd2d14cb
@0a00 bd979218
@0a01 bd82755a
@0a02 bd693912
@0a03 bc925b31
@0a04 3d9e282a
@0a05 3d88a044
@0a06 3d6586a6
@0a07 3d84494a
@0a08 3d6ee9d5
@0a09 3d6f046e
@0a0a 3d81913a
@0a0b 3cd3d785
@0a0c 3ca6f620
@0a0d 3d06c821
@0a0e bcb99579
@0a0f 3ce5d323
@0a10 bc932f2c
@0a11 3cf87e27
@0a12 bbefefa7
@0a13 bd7687a6
@0a14 bdbc85da
@0a15 bcf4fe21
@0a16 bc2ceec2
@0a17 bd3676d6
@0a18 3cc394d0
@0a19 bb561306
@0a1a bc75ad7c
@0a1b bd73e937
@0a1c bcc62415
@0a1d bd46e432
@0a1e bb1354b0
@0a1f 3ce6b81d
@0a20 3c82e801
@0a21 bc916b16
@0a22 bcf801c0
@0a23 3cb828be
@0a24 bc44c74e
@0a25 3d2e151d
@0a26 3d27d858
@0a27 3a8ebafb
@0a28 bac2acb6
@0a29 3c2ad348
@0a2a 3cd28aa7
@0a2b bc9c67ec
@0a2c 3c020559
@0a2d bd142692
@0a2e bd8fe05e
@0a2f bd5eb029
@0a30 bdb7f7c8
@0a31 bdab48a9
@0a32 bd226474
@0a33 bc2c27b5
@0a34 bc6af76e
@0a35 39147983
@0a36 bd0d7691
@0a37 bbad2b73
@0a38 3c15256d
@0a39 3c94d165
@0a3a 3d42b4be
@0a3b 3c9da2db
@0a3c bc568b29
@0a3d 3c75152b
@0a3e bc5ce672
@0a3f 3b6b481e
@0a40 bd3d9487
@0a41 bd05a2f6
@0a42 3bab86d4
@0a43 3a8f0f68
@0a44 bc21b7c9
@0a45 3d030d86
@0a46 3cd7132b
@0a47 bc0d4536
@0a48 3ccf2b96
@0a49 bb7632fe
@0a4a bd2e0b3c
@0a4b bd4afc59
@0a4c bd7e68a5
@0a4d bda07b80
@0a4e bc7c41b3
@0a4f bccb436e
@0a50 3b96e3c6
@0a51 bcde37ba
@0a52 bd1ce180
@0a53 3c1db2e0
@0a54 3d8be20e
@0a55 3d4e24d6
@0a56 3dcca7f7
@0a57 3d1cf8df
@0a58 3cb4a811
@0a59 3d129559
@0a5a 3ccfd51e
@0a5b bb969198
@0a5c bd46481d
@0a5d bd1fd3d4
@0a5e bd67159d
@0a5f bcdd4df8
@0a60 bd298692
@0a61 3c146319
@0a62 3ce06fd5
@0a63 3cd4cf80
@0a64 bc696204
@0a65 bc15dba6
@0a66 bc5300d2
@0a67 bd8628c4
@0a68 bd3d0b0a
@0a69 bcafddf9
@0a6a bc0a6f38
@0a6b 3be199d2
@0a6c 3d50d723
@0a6d 3c375e13
@0a6e 3cdca72f
@0a6f 3d572937
@0a70 3d8d5071
@0a71 3dc57d1e
@0a72 3dade229
@0a73 3d5e10f6
@0a74 3d99d338
@0a75 3dab7d99
@0a76 38adb037
@0a77 3d07f8fd
@0a78 bd1eb296
@0a79 bd866c93
@0a7a bccdee43
@0a7b bd842bed
@0a7c bd33b65a
@0a7d bd3236b1
@0a7e 3cb42a2d
@0a7f 3c0768d0
@0a80 bcf30178
@0a81 bc6d441b
@0a82 b8be79de
@0a83 3ba242e8
@0a84 3d2cb31e
@0a85 3cb95dce
@0a86 3ccad443
@0a87 3ce582b7
@0a88 3c7d02c4
@0a89 3ca0d7ef
@0a8a 3d7f3f79
@0a8b 3d93163d
@0a8c 3d97aa0a
@0a8d 3dc4667b
@0a8e 3dd7e748
@0a8f 3daa4422
@0a90 3cd6be62
@0a91 3d339768
@0a92 bcf4deb8
@0a93 bd002ef2
@0a94 bd05550a
@0a95 bdad1237
@0a96 bd6862e5
@0a97 bd0a7b62
@0a98 bd651249
@0a99 bcd45a3d
@0a9a 3d0e51b8
@0a9b bcf3aece
@0a9c bced9e81
@0a9d 3ca63d83
@0a9e 3c5786d2
@0a9f 3d41d5e5
@0aa0 3cebb764
@0aa1 3d08629f
@0aa2 3b32d2b1
@0aa3 3c3ebc0a
@0aa4 bc960619
@0aa5 3d1a68b9
@0aa6 3df6c35e
@0aa7 3dfdf8aa
@0aa8 3d95a8c6
@0aa9 3d65c243
@0aaa 3da8cb1d
@0aab 3cea3891
@0aac 3c457ffc
@0aad bc56f35f
@0aae 3caceda4
@0aaf bd7a1def
@0ab0 bd0bbb93
@0ab1 bd5675b8
@0ab2 bd56caa3
@0ab3 bd928ca2
@0ab4 bd8bcdb1
@0ab5 bd143e58
@0ab6 bc291511
@0ab7 3cf65f42
@0ab8 bc1731ee
@0ab9 bb41d5f5
@0aba bc147eb9
@0abb 3c34b33c
@0abc 3d137dee
@0abd 3cb6eda5
@0abe bd0f7e83
@0abf bc8a8709
@0ac0 3bdaec13
@0ac1 3c592e11
@0ac2 3d950323
@0ac3 3d47460e
@0ac4 3dce47cd
@0ac5 3d723f9e
@0ac6 bb62cb77
@0ac7 3c8104c4
@0ac8 3cbfae89
@0ac9 3b68f3b8
@0aca 3c34308d
@0acb bd575731
@0acc bd8cd4b5
@0acd bdcf091f
@0ace bd480592
@0acf bdd885d0
@0ad0 bd997870
@0ad1 3c0ac532
@0ad2 3c58d4c4
@0ad3 3cfb5a82
@0ad4 bcd13009
@0ad5 bc682b29
@0ad6 3c47c98c
@0ad7 3ca1c914
@0ad8 bd259acc
@0ad9 bd99cea9
@0ada bc292bf7
@0adb bcedec5c
@0adc 3d4807f4
@0add 3ca0bcfb
@0ade 3d65187c
@0adf bbc82d59
@0ae0 bc2bf990
@0ae1 3b9bc564
@0ae2 3d4b0cb9
@0ae3 bccde706
@0ae4 bc9deade
@0ae5 3b41d6c5
@0ae6 bc529569
@0ae7 bd144b86
@0ae8 bd61b181
@0ae9 bc904e9c
@0aea bd3c1644
@0aeb bdcc979f
@0aec bd2475e1
@0aed bd234df7
@0aee bc451c37
@0aef 3ce9555e
@0af0 3d033952
@0af1 ba5732e5
@0af2 bd15c872
@0af3 bb6ba544
@0af4 bd9194b8
@0af5 bd54a165
@0af6 3c5b13c0
@0af7 3d15ef89
@0af8 3c74129d
@0af9 3d17fe9e
@0afa bb67e4cf
@0afb bcd885a6
@0afc bc72bd93
@0afd ba37e9b4
@0afe bb08395b
@0aff 3d74aa8e
@0b00 3d4dc904
@0b01 3ce6f80a
@0b02 3ce6e52c
@0b03 bbcc75f0
@0b04 3b5874ca
@0b05 bd8df779
@0b06 bcb71188
@0b07 bd9f4b45
@0b08 bd1821ce
@0b09 bd16b232
@0b0a bc7bf9e7
@0b0b bca03c40
@0b0c 3c2e49e6
@0b0d bd198b54
@0b0e bcdde213
@0b0f bc812516
@0b10 bdae5eb8
@0b11 bd2f5715
@0b12 3ccf5256
@0b13 3c6cc91d
@0b14 3be67ddc
@0b15 bc269a25
@0b16 3c961977
@0b17 3d135b9b
@0b18 3d822ed4
@0b19 3c8e949e
@0b1a 3d2c5021
@0b1b 3d6241e9
@0b1c 3aec2b2c
@0b1d 3bca6ba3
@0b1e 3d14a7f9
@0b1f bbd145ba
@0b20 bbfaea24
@0b21 bcff1744
@0b22 bdacdfc2
@0b23 bda6d073
@0b24 bd893dab
@0b25 bcdbe431
@0b26 bd04608d
@0b27 bb2524f0
@0b28 bc30753a
@0b29 3c91d65a
@0b2a bd05b418
@0b2b bd50880c
@0b2c bd97f445
@0b2d bc89e919
@0b2e 3bad6f27
@0b2f bbfcf1f1
@0b30 bc0f83d5
@0b31 bcbf25b3
@0b32 3c61a9a9
@0b33 3d87f70c
@0b34 3d914834
@0b35 3d8bf163
@0b36 3d565181
@0b37 3d6f92ec
@0b38 3d581e26
@0b39 3d905100
@0b3a 3cb62a18
@0b3b bbf3b397
@0b3c bca82ba0
@0b3d bdb1fdd5
@0b3e bdd1d88c
@0b3f bddaf657
@0b40 bdca6625
@0b41 bc69bcaf
@0b42 3b1f0c5b
@0b43 bcee88ac
@0b44 bca50b91
@0b45 3cba4ea0
@0b46 bca64868
@0b47 bd52bcf2
@0b48 bd175f1b
@0b49 bdb079b4
@0b4a bd0f45dd
@0b4b bd8542c3
@0b4c bcca2e7b
@0b4d bd2ca072
@0b4e bd55378a
@0b4f bd3efbf3
@0b50 bc8a3442
@0b51 3d743c70
@0b52 3d0c466e
@0b53 3daf3062
@0b54 3d7235ec
@0b55 3cfe11f5
@0b56 3d194460
@0b57 3ccffda5
@0b58 3bcf7e87
@0b59 bdc378e6
@0b5a be19bd08
@0b5b be0da7d8
@0b5c bdfba701
@0b5d bcf162f0
@0b5e bcbf8624
@0b5f bcea08ef
@0b60 3cec5c3b
@0b61 3caa226c
@0b62 bcffcdf4
@0b63 3a8cc3bc
@0b64 bd58a1d6
@0b65 bcf808e0
@0b66 bd0c753f
@0b67 bdb10137
@0b68 bdc5a263
@0b69 bdbaa6cf
@0b6a bde67632
@0b6b bd7bbdca
@0b6c bcb7cd0a
@0b6d bc75cb24
@0b6e 3d4b02d9
@0b6f 3c80a53e
@0b70 3cc807bc
@0b71 3d53697b
@0b72 3d3ab1e6
@0b73 bc8fbc66
@0b74 bd0b6a78
@0b75 be07581b
@0b76 bddb1983
@0b77 bdfe6e02
@0b78 bd4e7cd9
@0b79 bca78fa7
@0b7a 3c873080
@0b7b bd090f7a
@0b7c ba3a38a0
@0b7d 3a923e17
@0b7e 3cc61033
@0b7f bd3814fd
@0b80 bd04b2ba
@0b81 bd5ec49e
@0b82 bc938a67
@0b83 bd8e0488
@0b84 bd1da520
@0b85 bdb5ed60
@0b86 bd1930d1
@0b87 bd50b133
@0b88 bd0ddb7d
@0b89 3cb295ce
@0b8a 3d12315e
@0b8b 3add1c68
@0b8c 3d101bc0
@0b8d bb9a99f6
@0b8e 3b5a6ad6
@0b8f bd0d638a
@0b90 bdcacc8c
@0b91 be00d486
@0b92 bdfd285b
@0b93 bdc29c6f
@0b94 bdacfd25
@0b95 bc1cbad0
@0b96 bce1ab54
@0b97 bc29d75c
@0b98 3c91ab9e
@0b99 3d07c95d
@0b9a bd11ecc0
@0b9b bd3a6452
@0b9c bc96906a
@0b9d bc853ae2
@0b9e bc1f5e75
@0b9f 3cee4a50
@0ba0 bd25ec54
@0ba1 3cb103bb
@0ba2 ba31478c
@0ba3 3bbc28d3
@0ba4 bc6b819c
@0ba5 3cf05bec
@0ba6 3cc7eaa6
@0ba7 ba88c2d2
@0ba8 bc697166
@0ba9 ba984db1
@0baa bd0fb3dc
@0bab bdb6d59b
@0bac bdb71a5e
@0bad bda9deca
@0bae bdfbb245
@0baf bd3a4d4d
@0bb0 bd73589c
@0bb1 bd095ffc
@0bb2 bc306f59
@0bb3 3cd98aa0
@0bb4 bc5b5aa0
@0bb5 bcc20a61
@0bb6 3ca959de
@0bb7 3c4d82db
@0bb8 bd0b3bfe
@0bb9 bc32598a
@0bba 3d6f6e7d
@0bbb 3d890ab2
@0bbc 3b2ae74c
@0bbd 3cbf1eab
@0bbe 3cd2df72
@0bbf 3b794aa1
@0bc0 badabef7
@0bc1 3c0559f1
@0bc2 3c248a1c
@0bc3 bc82f2f7
@0bc4 bd2690e2
@0bc5 bcef93dc
@0bc6 bd55efa0
@0bc7 bd592d82
@0bc8 bdbcba1e
@0bc9 bdc4570b
@0bca bd1ebe7d
@0bcb bd319864
@0bcc bd005747
@0bcd bcca77ce
@0bce bc4ce1b6
@0bcf bc56a08e
@0bd0 3d0efb71
@0bd1 3d0d7e83
@0bd2 bcc3087d
@0bd3 3a440ec2
@0bd4 3c00b56a
@0bd5 3c30d6a5
@0bd6 3d07657b
@0bd7 3c7e9a62
@0bd8 3c9b6430
@0bd9 3c75dc52
@0bda 3ba36a11
@0bdb 3d4bae12
@0bdc 3d00ea67
@0bdd 3cbd66dc
@0bde 3ba8f55c
@0bdf bc247ecc
@0be0 3d566c8a
@0be1 bc5b82a6
@0be2 bd1b0d39
@0be3 bbdd7e8f
@0be4 ba9b0700
@0be5 bd496702
@0be6 3c071dac
@0be7 bcf51133
@0be8 bccff648
@0be9 3cdb15b8
@0bea 3c3d8c56
@0beb bcb8a99e
@0bec 3c66ff94
@0bed 3ae21567
@0bee 3aef799e
@0bef bc95ba41
@0bf0 bc2cb4f3
@0bf1 bced22a4
@0bf2 3d00aacc
@0bf3 3d0054eb
@0bf4 3c827590
@0bf5 bd15108c
@0bf6 3c16103d
@0bf7 3c9fbb8c
@0bf8 3cbc7397
@0bf9 bb2eeb5c
@0bfa 3d01fbf7
@0bfb 3d00d896
@0bfc 3cfa029e
@0bfd 3d268abf
@0bfe bcc7a53e
@0bff 3cc0d123
@0c00 3cccc6b1
@0c01 bca38dbe
@0c02 bc31b042
@0c03 bcd35ef4
@0c04 3c0659ad
@0c05 3bd9ee83
@0c06 bcca1d5d
@0c07 3abb27e0
@0c08 3c5a33f0
@0c09 3ccb431e
@0c0a 3ba1f6cb
@0c0b bca00d2a
@0c0c bd0d3d14
@0c0d 3b6f24f3
@0c0e 3c9e1c2a
@0c0f bc7a9150
@0c10 3c81cf5d
@0c11 3c8b2ad2
@0c12 bbc6f02a
@0c13 bc889445
@0c14 bc9a8329
@0c15 bc95efed
@0c16 bcfab2bc
@0c17 39de1931
@0c18 3c4b1c4c
@0c19 bb2bc128
@0c1a bd07c3af
@0c1b 3b37b20d
@0c1c bd00f796
@0c1d 3cf87de0
@0c1e 3cd82bc4
@0c1f 3ba92f6f
@0c20 bce896ef
@0c21 3cedc402
@0c22 3cc568b8
@0c23 3c0a2380
@0c24 3c1f7258
@0c25 3cbc3776
@0c26 3cf6356e
@0c27 3c1ae7d0
@0c28 bd122697
@0c29 3bb6b850
@0c2a 3afe7e40
@0c2b bc6011d2
@0c2c 3c6cb9fc
@0c2d 3c4b9f94
@0c2e bbf21214
@0c2f 3c82a36e
@0c30 bc90fb3e
@0c31 bcd904e8
@0c32 3bc01f08
@0c33 bbbaf3f8
@0c34 3c3b17e0
@0c35 3cdbd3ee
@0c36 bc92ec9c
@0c37 bcba2350
@0c38 bcce520c
@0c39 bd018640
@0c3a ba8a8900
@0c3b 3c67fc88
@0c3c bc89f9e7
@0c3d bbf94014
@0c3e 3c168708
@0c3f b8577400
@0c40 3ca4584a
@0c41 bc7ca666
@0c42 bd043f17
@0c43 3ba2a628
@0c44 3c85b74e
@0c45 3ceeef3e
@0c46 bd08985f
@0c47 bcebb541
@0c48 3bd15ae0
@0c49 3c9bb27c
@0c4a bd0e989a
@0c4b 3cfd2c6a
@0c4c 3cbc79c8
@0c4d b899be00
@0c4e bb485b20
@0c4f bb83f810
@0c50 bc8977ea
@0c51 bcf3737a
@0c52 bcd0c50e
@0c53 bbc101a4
@0c54 bcce1bf0
@0c55 3b545ce0
@0c56 3cb1d0ac
@0c57 3d0e4eb7
@0c58 bc0a3b2a
@0c59 3ba21588
@0c5a bc1122dc
@0c5b 3d0a256b
@0c5c 3ca903e6
@0c5d bc60ced8
@0c5e 3aceeb9d
@0c5f bcd752d4
@0c60 bcabeedc
@0c61 bd04cae7
@0c62 bb95e67b
@0c63 bcc8db3d
@0c64 3c505dcd
@0c65 3b7502cd
@0c66 bc894729
@0c67 bcf26c95
@0c68 bc063819
@0c69 3c2aa4c3
@0c6a 3ce56b7d
@0c6b bcae42f5
@0c6c bbbcf33b
@0c6d 3cee8dfb
@0c6e bbe60f56
@0c6f 3cf42163
@0c70 bcccd5e0
@0c71 3c2c89eb
@0c72 bc336374
@0c73 3cc3d468
@0c74 3af76c65
@0c75 bc8efdf9
@0c76 bb687096
@0c77 3d124485
@0c78 bca8a3f0
@0c79 3bd3ec20
@0c7a 3cfd0fe5
@0c7b bcdf4f0d
@0c7c bd2985a4
@0c7d 3c5c2129
@0c7e 3c1da080
@0c7f 3c01e8d2
@0c80 bc638537
@0c81 bc888510
@0c82 bb8bdcb4
@0c83 bd528b33
@0c84 3b1c564d
@0c85 bc02a8db
@0c86 3c91a4f1
@0c87 bcb53d3e
@0c88 3c89baa3
@0c89 3c9751a4
@0c8a 3d2b3688
@0c8b 3b9079e0
@0c8c 3cae47ba
@0c8d 3cb43b03
@0c8e bcc3ea17
@0c8f 3b854d53
@0c90 3c951b4b
@0c91 bc8e3bbf
@0c92 3c1481c1
@0c93 bbdea09c
@0c94 bb8fae78
@0c95 3c63c303
@0c96 3cbc87ec
@0c97 bd0c83e4
@0c98 bcafa91c
@0c99 bd621048
@0c9a bdb447bd
@0c9b bdb0f913
@0c9c bddb3450
@0c9d bdb16bc0
@0c9e bdcd5d39
@0c9f bd9efd57
@0ca0 bd983362
@0ca1 bd7a31cc
@0ca2 bc18ab64
@0ca3 392ea61e
@0ca4 ba747853
@0ca5 bc2453a6
@0ca6 3cd393d9
@0ca7 3cd67e75
@0ca8 3d42a212
@0ca9 bc3e46ec
@0caa 3b28d736
@0cab bc5027f3
@0cac 3d1e0587
@0cad bc44774f
@0cae bc56086c
@0caf b9c5bf00
@0cb0 bcc10c68
@0cb1 3cb140a5
@0cb2 bc1b72f4
@0cb3 bd82dac0
@0cb4 bd0a6a5f
@0cb5 bd719a7b
@0cb6 bdd8566d
@0cb7 bdb37916
@0cb8 bd8e88d6
@0cb9 be14c527
@0cba bdbf2105
@0cbb bd88e0bc
@0cbc bd41f9f9
@0cbd bd808038
@0cbe bd50b657
@0cbf bd411d93
@0cc0 bd08225f
@0cc1 3b7560f9
@0cc2 bd1b60d7
@0cc3 3c7b9de7
@0cc4 bb82e2d7
@0cc5 bce0a6f1
@0cc6 3c28371a
@0cc7 3bc412ea
@0cc8 3c5bd257
@0cc9 bb49907b
@0cca 3cffa9c3
@0ccb bd0132eb
@0ccc 3d01350b
@0ccd 3c7ca192
@0cce bcc28a7d
@0ccf bd1210b5
@0cd0 bd8cc04e
@0cd1 bd9bc8dd
@0cd2 bdb4e069
@0cd3 bdc99473
@0cd4 bdbce5b2
@0cd5 bd8c950f
@0cd6 bdeab30b
@0cd7 bd190da2
@0cd8 bd34a099
@0cd9 bcc8323f
@0cda 3a47a713
@0cdb bb187f13
@0cdc bca8fd7d
@0cdd bd110fda
@0cde bccdd4e8
@0cdf 3cfbde03
@0ce0 bc7b49b4
@0ce1 3c64ffee
@0ce2 bc6f33fe
@0ce3 bcef014d
@0ce4 3cd7a824
@0ce5 bc613093
@0ce6 ba717156
@0ce7 bc661e6a
@0ce8 bc1c3682
@0ce9 bb985a93
@0cea bce5de90
@0ceb bd3b16e2
@0cec bca2768c
@0ced bcac56d8
@0cee bcf27f0d
@0cef bd983eb1
@0cf0 bdc8b12e
@0cf1 bd0a0da8
@0cf2 bd533f5f
@0cf3 bd06139a
@0cf4 bc708329
@0cf5 bd7eaa28
@0cf6 3c6a75fc
@0cf7 bd087770
@0cf8 bb11c1ed
@0cf9 3c831240
@0cfa bcbe7d9a
@0cfb 3c60efe2
@0cfc bc0424b4
@0cfd 3d2f17ec
@0cfe 3c3c0d67
@0cff bd5ba5f5
@0d00 bceea528
@0d01 bcde085b
@0d02 bc6bd89c
@0d03 bca4b416
@0d04 3cb77f01
@0d05 b9d6af98
@0d06 bc66e2f7
@0d07 bd30b785
@0d08 bd1b85df
@0d09 bd5b127e
@0d0a bd08e32b
@0d0b bcf2187d
@0d0c bcd62d2f
@0d0d bc88309f
@0d0e bd2d3968
@0d0f bd15a901
@0d10 bd7c4a2f
@0d11 bd3f0b04
@0d12 bda3d35f
@0d13 bd850183
@0d14 bd29fb08
@0d15 3d1ceb21
@0d16 3c071cc1
@0d17 bc6b2d22
@0d18 3b341672
@0d19 3c3751d1
@0d1a bc23439b
@0d1b bd3199df
@0d1c 3c1d7d23
@0d1d 3c32ec28
@0d1e 3ba17c2d
@0d1f bd062d2b
@0d20 3cf38970
@0d21 3cda7aa5
@0d22 bd2b1c22
@0d23 3b5cf524
@0d24 bcf4cd05
@0d25 bcc5ee09
@0d26 bd43eba6
@0d27 bc75b795
@0d28 bd8c8188
@0d29 bd918ea7
@0d2a bdb852e1
@0d2b bd9291e4
@0d2c bd7a3c05
@0d2d bdeb79c5
@0d2e bda49527
@0d2f bd223414
@0d30 bd1fada8
@0d31 bc6fa341
@0d32 3c36860c
@0d33 3c97819a
@0d34 bc06db82
@0d35 bd449b96
@0d36 bc43f3d4
@0d37 bd27e0a8
@0d38 bd61873d
@0d39 3ca46b43
@0d3a bc6213c1
@0d3b 3ce0c893
@0d3c 3c13d5ee
@0d3d 3c1af448
@0d3e 3cd86137
@0d3f bbaae876
@0d40 3bfb232d
@0d41 bb1072a7
@0d42 bca8e037
@0d43 3caefbc0
@0d44 b84685ea
@0d45 bce59639
@0d46 bd8f932e
@0d47 bd914c85
@0d48 bdcd90e8
@0d49 bdeaeaae
@0d4a bd8ca845
@0d4b bd6b8fb1
@0d4c 3d11855a
@0d4d bb9e4021
@0d4e bbfa71af
@0d4f bc22998f
@0d50 bd76a5c6
@0d51 bb9d8211
@0d52 bc6ee1ad
@0d53 bcc598ec
@0d54 bd047279
@0d55 bb721d2e
@0d56 3cd11b1f
@0d57 bc1ae4a2
@0d58 3cdb71e9
@0d59 3d07d3ca
@0d5a bc2f4ef2
@0d5b bb3f5a8d
@0d5c 3c9d3dee
@0d5d 3d9166df
@0d5e 3d76d45e
@0d5f 3be1f41d
@0d60 3ccdb1be
@0d61 3c5bf77f
@0d62 bd60f656
@0d63 bca01fb7
@0d64 bd5b97b5
@0d65 bd8fd8c8
@0d66 bc3a5ea1
@0d67 3a76dd33
@0d68 bc3f95d6
@0d69 3d16463f
@0d6a bd181f7a
@0d6b bca65bd1
@0d6c ba51c237
@0d6d 3cf16962
@0d6e bd2271e4
@0d6f bd2274f8
@0d70 3d167f33
@0d71 3cf843b0
@0d72 3c78ce6c
@0d73 3ccf15e6
@0d74 3d074f4b
@0d75 ba03a8e7
@0d76 bc165285
@0d77 3cd9b460
@0d78 3d9ac08e
@0d79 3d812754
@0d7a 3d392097
@0d7b 3d9183ba
@0d7c 3db09693
@0d7d 3d37f003
@0d7e 3cfdea90
@0d7f 3c10cab9
@0d80 bc514e7c
@0d81 bd75b012
@0d82 bcc41217
@0d83 3cc3002e
@0d84 bd1f34f4
@0d85 bd49c746
@0d86 bc81f08e
@0d87 3a14f950
@0d88 bcb19ecf
@0d89 3d36150f
@0d8a 3c964cbe
@0d8b 3d819d50
@0d8c 3d91af03
@0d8d bbaae23b
@0d8e 3cc98183
@0d8f 3c1155bc
@0d90 bb3754e0
@0d91 bccd8111
@0d92 3d072003
@0d93 3d849e5c
@0d94 3db047c6
@0d95 3da40e32
@0d96 3d97b8d9
@0d97 3ce73c08
@0d98 3cc6c636
@0d99 3db5db65
@0d9a 3daf8d6b
@0d9b 3d63614f
@0d9c 3d819050
@0d9d bc43a666
@0d9e 3cef5fe7
@0d9f bd3416aa
@0da0 bcded785
@0da1 bdbf1a59
@0da2 bd69b699
@0da3 bcbeee7c
@0da4 3d3980f8
@0da5 3d5c86f7
@0da6 3ce9b11a
@0da7 3d78b4d7
@0da8 3d44375e
@0da9 bb52413a
@0daa 3b9002b7
@0dab 3cdb1dc2
@0dac bc5a27a0
@0dad 3b63b0e8
@0dae 3c27b2c7
@0daf 3de7ab0b
@0db0 3d80659e
@0db1 3d953110
@0db2 3dced06c
@0db3 3dd622ab
@0db4 3da67560
@0db5 3e0b9178
@0db6 3dc7d23a
@0db7 3dd92248
@0db8 3c97acfb
@0db9 3c4776af
@0dba 3b6daa8f
@0dbb bda70fed
@0dbc bd89ac9c
@0dbd bd418243
@0dbe bd1d6b7c
@0dbf 3cc2ff53
@0dc0 3d575e93
@0dc1 3d28e5c1
@0dc2 3d80ffbd
@0dc3 3dcec575
@0dc4 3db7807c
@0dc5 3c553452
@0dc6 3afaed7c
@0dc7 3c2b3994
@0dc8 bac10320
@0dc9 bc7d05ba
@0dca 3ca1ffb5
@0dcb 3d947e48
@0dcc 3d19ca57
@0dcd 3d3067c0
@0dce 3d92ce83
@0dcf 3d81cd0b
@0dd0 3dc474d6
@0dd1 3e085510
@0dd2 3df0d4b3
@0dd3 3d57f6b5
@0dd4 3cee6cd6
@0dd5 bc5292db
@0dd6 bca5c036
@0dd7 bd9a0ce9
@0dd8 bdc13667
@0dd9 bc8e8e8d
@0dda 3c9c36b0
@0ddb 3be12e2c
@0ddc 3d62ad24
@0ddd 3d592ac8
@0dde 3dc03f8d
@0ddf 3db62285
@0de0 3d957078
@0de1 3c9ab29f
@0de2 3d0c55fd
@0de3 3b37bb00
@0de4 3ce562d7
@0de5 bcc9ba97
@0de6 3d80518f
@0de7 3d5d93fa
@0de8 3db1b6a9
@0de9 3d9c4681
@0dea 3de88ed0
@0deb 3e0cea18
@0dec 3deb9360
@0ded 3d8bb2ed
@0dee 3d8ba77d
@0def 3da32263
@0df0 3d6c3ca8
@0df1 38de74d7
@0df2 bcfc6c8b
@0df3 bd5b936e
@0df4 bd11626f
@0df5 ba3f8061
@0df6 3cea8221
@0df7 3d123982
@0df8 3d0a1266
@0df9 3d8012d8
@0dfa 3d345434
@0dfb bb64c9a0
@0dfc 3cc2e4f1
@0dfd bc6afc25
@0dfe bcd5b5fb
@0dff 3c097008
@0e00 3d0a0556
@0e01 3d045d41
@0e02 3d04dc8b
@0e03 3d6b476d
@0e04 3d6ddc37
@0e05 3da42ec3
@0e06 3d3ca4cc
@0e07 3dbc2b5e
@0e08 3ddeb1fe
@0e09 3d44f1d4
@0e0a 3d63cf60
@0e0b 3cd2dcb1
@0e0c 3c95d3b3
@0e0d bc5a14de
@0e0e bd75eb06
@0e0f bc9e7558
@0e10 bc608e5d
@0e11 3c990fb3
@0e12 bbf9081d
@0e13 3d087e66
@0e14 3c8189fa
@0e15 bbf4bc47
@0e16 ba372cec
@0e17 3d0caf43
@0e18 bcd5bdb3
@0e19 bd1d92a5
@0e1a 3b2e8cd8
@0e1b 3cf0e66e
@0e1c bd0a7d04
@0e1d bd16de47
@0e1e 3bc46042
@0e1f 3d3f1b38
@0e20 3da795d5
@0e21 3d924110
@0e22 3dbb388e
@0e23 3d8ddd3c
@0e24 3d8ab156
@0e25 3d90c246
@0e26 3d65b43b
@0e27 3d4c7bc5
@0e28 bcc08a83
@0e29 bd29aa8b
@0e2a bc56415a
@0e2b 3cddaef3
@0e2c 3d62ea3c
@0e2d 3d341cbf
@0e2e 3b17e6d9
@0e2f 3bb8f26a
@0e30 3b3b66ff
@0e31 bd4abddc
@0e32 bc1ffeac
@0e33 3c038fc8
@0e34 3c17b0ca
@0e35 3c581bc2
@0e36 3c3432cb
@0e37 3c9ef0ba
@0e38 3c235452
@0e39 bcc0e4be
@0e3a bceac3cc
@0e3b 3d298ee2
@0e3c 3d8303e3
@0e3d 3dbb68a4
@0e3e 3d0038bf
@0e3f 3d2ea1c5
@0e40 3d7c1d8e
@0e41 3df2d6af
@0e42 3d5c0de7
@0e43 3d32def1
@0e44 bb4c8a46
@0e45 bab8e15c
@0e46 3d484f5f
@0e47 3dad99a8
@0e48 3c8c80cf
@0e49 3cabb3f6
@0e4a 3cdf77ab
@0e4b 3c12903a
@0e4c 3b82aa38
@0e4d bcba2af0
@0e4e bab32e0c
@0e4f 3b52649c
@0e50 bc5ec2d8
@0e51 bcc1b097
@0e52 bc94ab56
@0e53 bc97f335
@0e54 bcbf91b9
@0e55 bb32eb9c
@0e56 bc57afc2
@0e57 3d12507e
@0e58 3de31628
@0e59 3de35ad1
@0e5a 3d913fad
@0e5b 3dd17ca7
@0e5c 3d91ae74
@0e5d 3e012965
@0e5e 3d69b862
@0e5f 3cda9ca4
@0e60 3b9b2caf
@0e61 3d22b798
@0e62 3bb3c976
@0e63 3cd58c50
@0e64 3d810e07
@0e65 3d87f0c7
@0e66 bb99b8da
@0e67 3cc16b2f
@0e68 bcccf5d8
@0e69 3cd72161
@0e6a bd2de8c4
@0e6b bb28d13c
@0e6c bd1cdbf0
@0e6d bc7df3b9
@0e6e bca6a33f
@0e6f 3c46da99
@0e70 bc49a91b
@0e71 3ca73da3
@0e72 3c790f72
@0e73 3d2f2da1
@0e74 3da4c823
@0e75 3d5f34d5
@0e76 3d526b66
@0e77 3db6c8f0
@0e78 3dd890a1
@0e79 3cebc93a
@0e7a 3d0e6a15
@0e7b 3d947d92
@0e7c 3d4aab2d
@0e7d bacb3387
@0e7e bc37b8f5
@0e7f 3d2b8a6b
@0e80 3b76ac6d
@0e81 3c9b41e5
@0e82 b8a9677f
@0e83 bcf8d8b6
@0e84 bcdf535c
@0e85 bd45701d
@0e86 3c405093
@0e87 bca0304a
@0e88 bc8fe257
@0e89 bc873a51
@0e8a bc4353ae
@0e8b 3d0962a8
@0e8c bcf966b4
@0e8d 3b0825be
@0e8e 3d3b94eb
@0e8f 3da57ad3
@0e90 3d9076ab
@0e91 3d9251d4
@0e92 3d622ad4
@0e93 3dc0af50
@0e94 3d28e9b5
@0e95 3d87b560
@0e96 3d074a12
@0e97 3dbcc9f2
@0e98 3d93223f
@0e99 bc2a62d3
@0e9a 3ce8f405
@0e9b 3af8e528
@0e9c 3ce1f4bb
@0e9d 3c846714
@0e9e 3c4c596d
@0e9f b8c9ca63
@0ea0 bc748052
@0ea1 bd7715fd
@0ea2 bbd7a1cc
@0ea3 bd8aa022
@0ea4 bcf6a7b7
@0ea5 3c85dc2e
@0ea6 3c80e0ea
@0ea7 3b9ab5d0
@0ea8 bd0c76b6
@0ea9 bbfa7729
@0eaa bbeeacd5
@0eab 3d3443ed
@0eac 3ca777e6
@0ead 3d43ab16
@0eae 3d40c02d
@0eaf 3dc2ec53
@0eb0 3dc1d610
@0eb1 3d9ff205
@0eb2 3de678c6
@0eb3 3d9c0300
@0eb4 3dbd35e6
@0eb5 3d8cfca7
@0eb6 3d28afba
@0eb7 3ce63e57
@0eb8 3d04af57
@0eb9 3b10fd0c
@0eba 3d24e828
@0ebb bc7b8bca
@0ebc bd0553e6
@0ebd bdb77a1c
@0ebe bd29f6a7
@0ebf bcbfc4e8
@0ec0 3c6aa6ff
@0ec1 3bcf941e
@0ec2 3d05ccb4
@0ec3 3b753f10
@0ec4 bd018097
@0ec5 bd07f0c9
@0ec6 3ce897e2
@0ec7 3c60fb70
@0ec8 3d0c29ac
@0ec9 3d9c1914
@0eca 3d993616
@0ecb 3d86e565
@0ecc 3df5fb16
@0ecd 3dae1c37
@0ece 3e0babe4
@0ecf 3e047280
@0ed0 3e1cf976
@0ed1 3e2148dd
@0ed2 3db172eb
@0ed3 3d9812ca
@0ed4 3d94b670
@0ed5 3d4fa774
@0ed6 3d07c768
@0ed7 3c2f5e7d
@0ed8 bd3d8952
@0ed9 bcffbe54
@0eda bd765d58
@0edb bd281e54
@0edc 3adf4ac1
@0edd 3c9a83fc
@0ede bc387c7e
@0edf 3cc9a71a
@0ee0 3c491540
@0ee1 bc06ebe7
@0ee2 3c3cb31b
@0ee3 3d04ccfb
@0ee4 3c717b0d
@0ee5 3d6f4fbe
@0ee6 3d9d7f3a
@0ee7 3de4c9ce
@0ee8 3e00956f
@0ee9 3d9faad0
@0eea 3e02f341
@0eeb 3e33fd3e
@0eec 3e2460dc
@0eed 3e11b4a5
@0eee 3e144b1b
@0eef 3de13be5
@0ef0 3de1a89d
@0ef1 3dccd87e
@0ef2 3c99c7ac
@0ef3 3b7ea24e
@0ef4 3cf7e58d
@0ef5 bd1af75e
@0ef6 3cad9ee5
@0ef7 3cbbe476
@0ef8 bd0890f2
@0ef9 bd005c9a
@0efa bce4a199
@0efb 3c805938
@0efc bbe44938
@0efd 3b231fd6
@0efe 3c19aca8
@0eff 3c47df7f
@0f00 3cfd6a57
@0f01 3cc4b277
@0f02 3d09affe
@0f03 3d3adae8
@0f04 3db2868d
@0f05 3dd06e80
@0f06 3dcc9f8e
@0f07 3da4e88d
@0f08 3d9c805e
@0f09 3db54aa8
@0f0a 3da9a19c
@0f0b 3d9878dc
@0f0c 3da48d7f
@0f0d 3d2326c5
@0f0e 3cc224bd
@0f0f 3d0f24ab
@0f10 3d25138e
@0f11 3aeb53f5
@0f12 bc163971
@0f13 3bbd62d6
@0f14 bd143156
@0f15 3c4e564a
@0f16 bbb54095
@0f17 bcb9f66a
@0f18 3c20ea10
@0f19 bbf60bc3
@0f1a 3cc4fad6
@0f1b bb2e470c
@0f1c bc4ae6a1
@0f1d bc891d22
@0f1e bc8e908e
@0f1f 3cef82a3
@0f20 bb2e59e0
@0f21 3d1a8466
@0f22 bcefff96
@0f23 3d0ae7a7
@0f24 bcb99106
@0f25 bb3c1636
@0f26 bba4f180
@0f27 bcb91e08
@0f28 3d130a8d
@0f29 3c909bf4
@0f2a 3c84793f
@0f2b 3be265e9
@0f2c 3ce74f22
@0f2d 3be38f75
@0f2e bd06ae41
@0f2f bc4a3071
@0f30 bcc7b656
@0f31 bca2f6bc
@0f32 bcb4ed78
@0f33 bc65250e
@0f34 bc23a838
@0f35 3cc429ec
@0f36 3d0ebbef
@0f37 3cfdf122
@0f38 bcdf593c
@0f39 bcc68dd0
@0f3a 3c182198
@0f3b 3c94fd06
@0f3c bca204a0
@0f3d bc587dc0
@0f3e bcd69ed0
@0f3f bb8db928
@0f40 bd090b44
@0f41 bbf98308
@0f42 bc42e120
@0f43 3c0a4014
@0f44 bc6b3058
@0f45 3c2c8460
@0f46 3cc3638a
@0f47 bc86b0f7
@0f48 3c8ec202
@0f49 bd0aeb0d
@0f4a bd0fb6b0
@0f4b bc89c31a
@0f4c bc7eb066
@0f4d bca9ed13
@0f4e 3a6e6880
@0f4f bcfa9f1a
@0f50 bd0c37b3
@0f51 3ca430b0
@0f52 3cf9145a
@0f53 3cfcba3e
@0f54 bd114b35
@0f55 3cd9fe92
@0f56 bc403e06
@0f57 bcd5d91e
@0f58 bcfc01be
@0f59 bcbb8423
@0f5a 3c6bc8c4
@0f5b 3c239e30
@0f5c 3bcc7a90
@0f5d bc581198
@0f5e 3c48e9f4
@0f5f 3d0ed3b5
@0f60 3cd51452
@0f61 bbf5e880
@0f62 3c1bffb0
@0f63 3d061a31
@0f64 bc8e02b7
@0f65 bc406aee
@0f66 b99a2c00
@0f67 3c3bede8
@0f68 bd0d5e87
@0f69 bcd9b0c5
@0f6a 3cc0fc48
@0f6b bc39c7ca
@0f6c 3cffd806
@0f6d 3c862398
@0f6e 3c8897a8
@0f6f b9c92299
@0f70 bbce0b16
@0f71 bcd18a39
@0f72 3ab75fc4
@0f73 3cfd9687
@0f74 bc4436de
@0f75 bc862fa7
@0f76 3ce272bf
@0f77 bca882c2
@0f78 bc1d1db1
@0f79 3aa026ea
@0f7a bc9ff1ee
@0f7b bd22391b
@0f7c 3c051cfc
@0f7d bc1623dc
@0f7e 3b186493
@0f7f 3cbf1cf4
@0f80 3cd09b17
@0f81 3cd3633e
@0f82 3cd29dfc
@0f83 3cc242c4
@0f84 3c1a4e2d
@0f85 bc6c456e
@0f86 bcf4601f
@0f87 3bebc5d0
@0f88 bc21afee
@0f89 bc919ed3
@0f8a 3cf71553
@0f8b 3c8868d7
@0f8c 3b6bcaa5
@0f8d 3c0eda60
@0f8e bca8cd19
@0f8f 3c346004
@0f90 ba9f5669
@0f91 bca7a104
@0f92 bd1ce6b9
@0f93 bd16a664
@0f94 bdac98e5
@0f95 bd9cead0
@0f96 bc88e711
@0f97 bdae04e4
@0f98 bd4b756b
@0f99 bd80f610
@0f9a bdb15a0a
@0f9b bd724c10
@0f9c bd65f1ab
@0f9d bd7363e0
@0f9e bc3e4f8a
@0f9f bc55bfc7
@0fa0 bbd2b23c
@0fa1 3cec64cc
@0fa2 bcc81c67
@0fa3 bcde4008
@0fa4 bd0e1fa0
@0fa5 3c313a6e
@0fa6 3ce8a9f7
@0fa7 3c58de31
@0fa8 39e6600b
@0fa9 3c1966b1
@0faa 3cb80507
@0fab bd0f13e7
@0fac bdb2e0d8
@0fad bd81defe
@0fae be0b2d85
@0faf bdc32ffb
@0fb0 bdd6120d
@0fb1 bd97ae12
@0fb2 bdb71d68
@0fb3 bd8c63bb
@0fb4 be0ecf61
@0fb5 bd8fc08d
@0fb6 be1e9a2a
@0fb7 be0df0be
@0fb8 bdc52207
@0fb9 bd81c02b
@0fba bd44bffb
@0fbb 3cb51921
@0fbc 3d4004ee
@0fbd 3d194d09
@0fbe bbb08029
@0fbf bcea8f3c
@0fc0 bd086efd
@0fc1 3c259344
@0fc2 3cd37395
@0fc3 3ce964b6
@0fc4 3d31af61
@0fc5 bcc8d0f8
@0fc6 3ba25634
@0fc7 bd0eb35e
@0fc8 bd6b46c2
@0fc9 be0650b2
@0fca be032a44
@0fcb bdcf3137
@0fcc bda8b958
@0fcd bd62a927
@0fce bc8d1a8d
@0fcf bdb26876
@0fd0 bdd18dc4
@0fd1 be04c1da
@0fd2 bd8d1407
@0fd3 bdce4981
@0fd4 bd6eb1a5
@0fd5 bcc3e82c
@0fd6 3bcfe28c
@0fd7 3d663894
@0fd8 3d10c632
@0fd9 3d2bf05f
@0fda 3bd1ad46
@0fdb 3ba20ac0
@0fdc 3a9a2f45
@0fdd bc8fb9f1
@0fde 3c8f3498
@0fdf bc17b484
@0fe0 3d24cdd3
@0fe1 bc894375
@0fe2 bb0e8d59
@0fe3 bd88a8db
@0fe4 bd92912d
@0fe5 bd8dd36a
@0fe6 bd0f1b95
@0fe7 bd360556
@0fe8 3cb41fef
@0fe9 39ff02cd
@0fea bc41ddb0
@0feb bc89beb5
@0fec bd2f46a1
@0fed bc04947e
@0fee 3d152d6e
@0fef 3d41bcb9
@0ff0 3d6f2406
@0ff1 3d936745
@0ff2 3d0f6fab
@0ff3 3d1ecdc7
@0ff4 3d9b332b
@0ff5 3b91c756
@0ff6 3c8f52a9
@0ff7 bd11877d
@0ff8 3d081d38
@0ff9 3c5b9ac7
@0ffa bcc658cd
@0ffb bc55a813
@0ffc bc959c90
@0ffd 3d2518b8
@0ffe 3d083044
@0fff ba8d9846
@1000 bcbefa4d
@1001 bca21736
@1002 3cb14ada
@1003 3ce31fcc
@1004 3db335c8
@1005 3cf0e201
@1006 3d197204
@1007 3cdd6366
@1008 3d4380c6
@1009 3c8546c0
@100a 3d37c582
@100b 3db21fff
@100c 3db62e18
@100d 3d8ac2e9
@100e 3d4e82f6
@100f 3d5583f8
@1010 3d0c4f83
@1011 bb12a754
@1012 bd0017dc
@1013 3c25edf9
@1014 39d1c47c
@1015 bca8f0a4
@1016 3cee9d6b
@1017 bcbd0e68
@1018 3ceda017
@1019 bbea24d1
@101a 3cd23bef
@101b bd067493
@101c bcdf22bb
@101d bc325317
@101e bbb6aba5
@101f 3cb361f6
@1020 3d8dbcfd
@1021 3dc55a3f
@1022 3d40c93a
@1023 3cfbd82b
@1024 3d5e8b95
@1025 3d050055
@1026 3d451c76
@1027 3d8c5751
@1028 3da7b67a
@1029 3d254166
@102a 3d9d2f35
@102b 3c8bf43f
@102c bbef771a
@102d 3d0ba84d
@102e 3b72ea50
@102f bca2d1dd
@1030 bd00d849
@1031 bc6d717d
@1032 3c8a256d
@1033 bcc2c065
@1034 bcd8432e
@1035 bd03bc16
@1036 3cc072b6
@1037 bc8d70f3
@1038 3ba1612a
@1039 bd842910
@103a bdce8cf2
@103b bd182615
@103c 3c1b917f
@103d 3d2ae18e
@103e 3d3cdcac
@103f 3d05bc29
@1040 bcaa50b0
@1041 bcf265bf
@1042 3d135b93
@1043 3d6a718f
@1044 3d46edc1
@1045 3ce9cb6a
@1046 3caba76d
@1047 3ca1fd42
@1048 bb506d5b
@1049 3d19a7cf
@104a 3cd41c55
@104b 3ca241bc
@104c bca31d5c
@104d bc831cf5
@104e bc985ad0
@104f 3cc2fb43
@1050 bcbc0402
@1051 bbbda019
@1052 bc42cec1
@1053 3d60851d
@1054 bc44df14
@1055 bdbb373c
@1056 bddc32b3
@1057 bd5658a7
@1058 3bf5dfd8
@1059 3cdfe56d
@105a 3a894161
@105b bc75f16e
@105c bc55dd1a
@105d bbb7ce74
@105e bca3e186
@105f 3bffcc65
@1060 3c4023b6
@1061 bbfa2b5c
@1062 3b7a9de0
@1063 bc156e46
@1064 bb87ddfb
@1065 3c8f25c8
@1066 3cfe3d4e
@1067 3a1c102a
@1068 bcd56c57
@1069 3c8dcd49
@106a 3c993ee4
@106b bd4c636e
@106c 3c91025d
@106d bcb4cb4c
@106e 3d05d943
@106f 3ccd13d9
@1070 bce7288b
@1071 bda8a2ac
@1072 bd5b0670
@1073 bc4af5e4
@1074 bbbe4920
@1075 bd0fdeeb
@1076 bb80f237
@1077 bc47045f
@1078 bda08f56
@1079 bd814a89
@107a bc3e5e59
@107b ba927a74
@107c bbc2c416
@107d bc43c53c
@107e bc483615
@107f bd7eb5d6
@1080 bd653827
@1081 bd4549ef
@1082 ba1136c6
@1083 3d0b16c7
@1084 bc8392b3
@1085 3cac1b15
@1086 3aaf01d6
@1087 3cbad3de
@1088 bd33b6a8
@1089 3c8c693c
@108a 3ca76cf1
@108b bc89a286
@108c bd0bbe22
@108d bdb015c6
@108e bd0b6689
@108f 3b5d560a
@1090 3c0d8e64
@1091 3b539e32
@1092 3d07026c
@1093 3ca184d2
@1094 bb2d39bc
@1095 3c856d59
@1096 bd227c87
@1097 3cbdc67b
@1098 bd1fd127
@1099 bd39daa7
@109a bd19d234
@109b bda92016
@109c bd4367a7
@109d bc568968
@109e bcd5d59f
@109f 3cd5faba
@10a0 bc1795d2
@10a1 3ce4939d
@10a2 3afa569f
@10a3 3bcf48d3
@10a4 bcae68c0
@10a5 bcfaef9a
@10a6 3b50f6cd
@10a7 3cc85ccb
@10a8 bd335ecf
@10a9 bcd371ab
@10aa bd7c68c0
@10ab 3bc7f329
@10ac 3c8c87c4
@10ad 3c6a4887
@10ae 3be09d8e
@10af 3d3fe93e
@10b0 bcafa883
@10b1 3cb33114
@10b2 3cadd9c1
@10b3 bb708cbe
@10b4 3d353d3a
@10b5 39d368cd
@10b6 bd168288
@10b7 bcaf8c3c
@10b8 bd9a9978
@10b9 3c0d50a4
@10ba 3b3ab887
@10bb bd015776
@10bc 3cbba4fa
@10bd 3c27f2ba
@10be bd23d36d
@10bf 3c12888e
@10c0 bc5dad0d
@10c1 bcdffe8e
@10c2 3cb76640
@10c3 bcf372a7
@10c4 bd2a5561
@10c5 bd735e76
@10c6 bd7476bb
@10c7 bca346cb
@10c8 3d181d98
@10c9 3d547196
@10ca 3d992bb7
@10cb 3d8725d8
@10cc 3cf69b9d
@10cd bc742c18
@10ce bca8c706
@10cf 3d18cfc5
@10d0 3d56fc91
@10d1 3cfef4cb
@10d2 3d25a4f7
@10d3 bd406f06
@10d4 bd8b7cda
@10d5 3bb344d8
@10d6 bca00678
@10d7 3c531414
@10d8 3c313480
@10d9 3cd8a1ab
@10da bc02fff6
@10db bcb48b6c
@10dc bd88c325
@10dd bd68d247
@10de bd3ccb8e
@10df bc13581f
@10e0 bc8a586e
@10e1 bdca3fa7
@10e2 bdb749e1
@10e3 bda39f2c
@10e4 3cf334fe
@10e5 3d5aa6d7
@10e6 3d6c15a3
@10e7 3d660d4a
@10e8 3d515986
@10e9 3d1ad063
@10ea bbf4084c
@10eb 3d3657a7
@10ec bc408397
@10ed 3d0a0c10
@10ee 3c0a03e8
@10ef bd071a97
@10f0 bd8999cf
@10f1 bd3c9c3d
@10f2 bc68d3ee
@10f3 bc0ccc24
@10f4 3a2626a5
@10f5 3c619d99
@10f6 3b4938e1
@10f7 bd324a3b
@10f8 bd62ae5b
@10f9 bd88009f
@10fa bb3dc387
@10fb bc411036
@10fc bd2dbae8
@10fd bdbe16c3
@10fe bde53d81
@10ff bd97375f
@1100 3c3c5f6b
@1101 3d8fe49d
@1102 3dbeb3cf
@1103 3cc9f1c7
@1104 bc1db715
@1105 3c88deac
@1106 3cfb600a
@1107 bcf5345e
@1108 bcd125f7
@1109 3ce51890
@110a bc609e87
@110b bd390cee
@110c bd283493
@110d 3bb5d1b9
@110e 3c8c2f67
@110f bd057fb8
@1110 3c54a32f
@1111 bb6b6026
@1112 bb104974
@1113 bcb1d3bc
@1114 bd96506c
@1115 bd8311c0
@1116 bd825497
@1117 b97277f1
@1118 bd86f96f
@1119 bdd577d7
@111a bdf1f647
@111b bd76109d
@111c 3d05efe8
@111d 3deb8fed
@111e 3dff8703
@111f 3d8f5718
@1120 3cda7433
@1121 3c0cf9af
@1122 3d0efc4d
@1123 bcf7f313
@1124 bc8171ab
@1125 bcce94b5
@1126 391fa8c8
@1127 bb45a023
@1128 3c010a0a
@1129 bb858c46
@112a bba00f7d
@112b 3cd3df4e
@112c bcff0f7f
@112d bb209b27
@112e bc4b0c9c
@112f bd1bf817
@1130 bd046b9b
@1131 3bdb91f9
@1132 bd1cebf8
@1133 bd628501
@1134 bcb9ade8
@1135 bdbc1243
@1136 be0bbf62
@1137 bdb41186
@1138 bcb924ac
@1139 3d83176f
@113a 3dda1811
@113b 3d7c786d
@113c 3c295429
@113d bbe041b3
@113e 3c3164c5
@113f 3ca5d2c2
@1140 bc1350db
@1141 3ccdbe4a
@1142 bc5b616d
@1143 bc2abf12
@1144 3b8aecab
@1145 bd22140e
@1146 3c1b4f07
@1147 3d082603
@1148 3cd6513d
@1149 bb1faaee
@114a 3c80981b
@114b bc9a87cb
@114c 3b535db0
@114d 3c9c285a
@114e 3d5e2400
@114f 3cebcb31
@1150 bcea5c1c
@1151 bd5fe758
@1152 bdc11d95
@1153 bd2790dd
@1154 3bdd8ec4
@1155 3dadcc1c
@1156 3d245d66
@1157 3d6fb209
@1158 3d436f15
@1159 bbf07405
@115a bcbdc1c9
@115b 3d22e8b1
@115c bc0d75fd
@115d 3c82bf8f
@115e bd2c8a4c
@115f bd0ad52d
@1160 bd039414
@1161 ba294371
@1162 3cf25efc
@1163 3bed52a0
@1164 bc7d6999
@1165 3c231441
@1166 3c84780e
@1167 3ccf1850
@1168 3d01278e
@1169 3bd21981
@116a 3cc44b58
@116b bb8b7b1e
@116c bd0482e3
@116d bd34a530
@116e bddfd824
@116f bd62be12
@1170 3c6b9ca6
@1171 3db64500
@1172 3d8e9e12
@1173 3d912006
@1174 3c5a759d
@1175 3cc1aafd
@1176 3d2c026d
@1177 3d01c8f3
@1178 3d007d15
@1179 bca80f55
@117a bce52a97
@117b bd00d8df
@117c bc1410f4
@117d 3cc2dcbe
@117e 3c93a078
@117f bc01c126
@1180 3cad3e4b
@1181 bbd0e286
@1182 3cdbf5c8
@1183 3cec1c63
@1184 3bcd06c3
@1185 3d00cf2f
@1186 3d014684
@1187 3ba2246a
@1188 bcaa1b1e
@1189 bdca75ab
@118a bde23023
@118b bd1dbebb
@118c bc0a28d0
@118d 3caae42b
@118e 3d2b9cc1
@118f 3d902afe
@1190 3cf0c676
@1191 3d36882a
@1192 3d0addc8
@1193 3c691950
@1194 3d48f1f1
@1195 bc23f291
@1196 3c3d3e06
@1197 bd1a395c
@1198 3c638781
@1199 bb97987c
@119a bbc882a6
@119b 3bad7fa3
@119c 3ca4c0ef
@119d bd08aeae
@119e 3a5699e8
@119f 3ccfdaa2
@11a0 3bcfc3ba
@11a1 bbe170a0
@11a2 bd293136
@11a3 bc6391f2
@11a4 bd232a2f
@11a5 bd9ed9b9
@11a6 bdd69d40
@11a7 bd87b729
@11a8 3cbee295
@11a9 3d1c4a62
@11aa 3d094733
@11ab 3d72139e
@11ac 3d27c87c
@11ad 3d02a4e9
@11ae 3cfab544
@11af 3db92cc1
@11b0 3dac9626
@11b1 3b638894
@11b2 3d208434
@11b3 bd005873
@11b4 bd23befb
@11b5 b975b3b2
@11b6 b90b8fb3
@11b7 bd0d0fa6
@11b8 3d05260a
@11b9 3d0e9c88
@11ba bce32003
@11bb bcc104cb
@11bc 3d14f142
@11bd bcbf894f
@11be bc156d59
@11bf bca680ae
@11c0 bd19d69c
@11c1 bc732567
@11c2 bb3bba8f
@11c3 bced08ec
@11c4 3cabc00e
@11c5 3cb23853
@11c6 3d3aadaa
@11c7 3dcbe846
@11c8 3d865b57
@11c9 3d00ee2c
@11ca 3da72e20
@11cb 3d8a5f8b
@11cc 3d367617
@11cd 3c4ae0ca
@11ce bc56dfe8
@11cf 3bc307b6
@11d0 3cbaa4dc
@11d1 3cf8949a
@11d2 bc828529
@11d3 bca66cec
@11d4 3be25ca8
@11d5 bb78c21c
@11d6 bd22c00c
@11d7 3cfea67f
@11d8 bc3674da
@11d9 3c3fc4c7
@11da bc2ec6b8
@11db bd489007
@11dc bd193e21
@11dd 3b36f6b7
@11de bc817c6a
@11df 3c2d3295
@11e0 bd09db47
@11e1 3c1ca633
@11e2 bc47850b
@11e3 3cf9b199
@11e4 3dbb6440
@11e5 3d9a5c58
@11e6 3da90194
@11e7 3db57dd4
@11e8 3d622ed6
@11e9 3c5c6f5b
@11ea 3ca337e0
@11eb bcdea958
@11ec 3cea2776
@11ed 3cd73133
@11ee bcaf49e6
@11ef 3c6e03f8
@11f0 3cdd4206
@11f1 3cf00637
@11f2 bcf894ba
@11f3 bd2f69ab
@11f4 bc39165a
@11f5 bd238fda
@11f6 bd1c488c
@11f7 3b7b8282
@11f8 bd229967
@11f9 3ba62195
@11fa bcd64ca8
@11fb ba430234
@11fc bcd640a4
@11fd bc9615ab
@11fe 3d427d15
@11ff 3da0d392
@1200 3dd34042
@1201 3d8d6e29
@1202 3da9f77b
@1203 3d34abe3
@1204 3d3d0259
@1205 3c91563d
@1206 bcdaea67
@1207 bce3a9c9
@1208 bc24e611
@1209 bcdfdb71
@120a bc651e78
@120b 3cfa1df2
@120c 3cdec1c6
@120d bd00e4f5
@120e 39c3689f
@120f 3c80909b
@1210 bc6b1aa6
@1211 bd70da94
@1212 bd4bb5fe
@1213 bd1e52a7
@1214 bd00935a
@1215 bcd738ff
@1216 bd1036fe
@1217 bd104405
@1218 bca9ece4
@1219 ba8f2b1d
@121a 3d0deaa9
@121b 3c90ae9a
@121c 3d4d72b9
@121d 3d2488b0
@121e 3d21d6e1
@121f 3d2b6a07
@1220 3cf60930
@1221 3bfa593e
@1222 bc026303
@1223 39c8526e
@1224 bc99b696
@1225 3d0314bc
@1226 bcb6e38e
@1227 bae346c0
@1228 bb4ec2b0
@1229 bcead373
@122a 3b83b1ad
@122b 3bc773d8
@122c bca97f66
@122d bd077bae
@122e bd10c053
@122f 3cce499e
@1230 bc6e2bc7
@1231 3c40871e
@1232 bb826ec9
@1233 3c4e0659
@1234 3cc39972
@1235 3c04b358
@1236 bcc20ce6
@1237 bd0d59dc
@1238 3ce6e228
@1239 3c2c42b6
@123a 3ba3baaf
@123b 3a258988
@123c 3cd7a547
@123d bcacc2f8
@123e bc3b6af4
@123f bb49ed72
@1240 bd07dca9
@1241 3c5893fd
@1242 3cb57cc8
@1243 bbaa2924
@1244 3cf49c0e
@1245 bc30cafc
@1246 bc96b830
@1247 3c53a5e8
@1248 3cb3979c
@1249 3cd955d0
@124a 3caaf38e
@124b bbc34ff8
@124c 3b7bcc00
@124d bc87b283
@124e bd0984bb
@124f bd0890a8
@1250 bb89d550
@1251 3d0d281d
@1252 bbe76f54
@1253 bccd9578
@1254 3cc60a00
@1255 3a84ee60
@1256 3b685810
@1257 bd0f2936
@1258 3d0a105d
@1259 3b03d810
@125a 3b84ed40
@125b bcaadef0
@125c 3d0c1223
@125d bb0beab0
@125e 3bab6b90
@125f 3c4adb64
@1260 bd0b497f
@1261 b9f4e780
@1262 3c113a28
@1263 3cd9b380
@1264 bcbefa35
@1265 3ccc2fee
@1266 3d0fe487
@1267 bc700758
@1268 3c143fa0
@1269 3ba6b298
@126a bce09d58
@126b 3d1006a9
@126c 3af1e7a0
@126d bc55e652
@126e bab1b560
@126f bb17f460
@1270 38dc7e00
@1271 3b197ee0
@1272 bc1ab58e
@1273 3c9a1b08
@1274 3cc1ffb0
@1275 bd0e12bc
@1276 bc40486e
@1277 bd0a9b95
@1278 3c8d7ebe
@1279 bcac7b6c
@127a b8c43000
@127b bc76c806
@127c 3cc14f10
@127d 3cc771ae
@127e bad6345e
@127f 3d105983
@1280 bcd5d937
@1281 3d06cbb2
@1282 3ca38e5c
@1283 3d07d0a1
@1284 bc64cff4
@1285 bbf84d9c
@1286 3b9f7c3c
@1287 3cc800ec
@1288 bcb72bc9
@1289 bc841845
@128a 3b3e73b5
@128b bbec7ea8
@128c bc98addc
@128d bcccfc13
@128e bc91180b
@128f 3d0c9714
@1290 bcae1a7a
@1291 bcf77e75
@1292 3c52b037
@1293 3ce02b35
@1294 3c753d3a
@1295 3c9d979d
@1296 bce8f1cf
@1297 3d007af5
@1298 bcb25e15
@1299 3be5a65a
@129a bc5a5f3c
@129b bcf4d52b
@129c bc6402ac
@129d bb3e8091
@129e bca00766
@129f bccd5c22
@12a0 bcd41a25
@12a1 bc2d3ba0
@12a2 bcb8497b
@12a3 3aa6b8fb
@12a4 bb4982d2
@12a5 bc866fa9
@12a6 3c8898af
@12a7 3d030ba7
@12a8 3d24cda5
@12a9 3d2d9d91
@12aa bc8a62c4
@12ab bc89068d
@12ac 3c9311e8
@12ad bd09f10c
@12ae 3c540bb0
@12af bcfddce0
@12b0 bcf37d64
@12b1 3cb0def3
@12b2 bce6ce01
@12b3 3cc4a5b2
@12b4 3ca908b8
@12b5 3c2f87b3
@12b6 bcf4a993
@12b7 b9cd4d0f
@12b8 bc782076
@12b9 bc9296f1
@12ba 3b7ba1c8
@12bb bd2dc0e4
@12bc bd225fbc
@12bd bd4fd4e9
@12be bd97036e
@12bf bd87b4da
@12c0 bd226025
@12c1 3c96275a
@12c2 3d6d599d
@12c3 3cd3c037
@12c4 3d8dce2e
@12c5 3d9450bc
@12c6 3db0e379
@12c7 3da21627
@12c8 3d899098
@12c9 bb3fab65
@12ca 3b1d0885
@12cb 3b280d63
@12cc bcdf44bb
@12cd 3c8efec0
@12ce bcfb7508
@12cf bcd2b2ce
@12d0 3c3cd9bd
@12d1 3bdbba4b
@12d2 bc7362d3
@12d3 3ccfc71d
@12d4 ba35da61
@12d5 bca80d2e
@12d6 bcbc289e
@12d7 bd59eb28
@12d8 bd34a21e
@12d9 bd10d705
@12da bd6fd24c
@12db bd75e401
@12dc bce0937e
@12dd 3c263a96
@12de 3db71f66
@12df 3db96f57
@12e0 3e074090
@12e1 3e09302d
@12e2 3dacd496
@12e3 3d308431
@12e4 3bffb049
@12e5 3abd45dd
@12e6 bc429cf2
@12e7 3c334625
@12e8 ba98a77e
@12e9 bd280808
@12ea 3b18cb72
@12eb 3b6c3790
@12ec bcc86c42
@12ed 3cd13050
@12ee 3d13a3c2
@12ef 3c1a6213
@12f0 3cab4c58
@12f1 bcafb9cc
@12f2 bc31cb0f
@12f3 bc6ceb4e
@12f4 bc836f99
@12f5 bc510cb7
@12f6 bb641597
@12f7 3d2cd509
@12f8 3d7ca8fc
@12f9 3dba3739
@12fa 3d4708e6
@12fb 3dd479f5
@12fc 3e0e3755
@12fd 3dfdc0e7
@12fe 3d7fa104
@12ff 3dbca93c
@1300 3c4c6efa
@1301 3ce6a81f
@1302 3cc095a1
@1303 bd0751cf
@1304 bd6ba117
@1305 bc88bc72
@1306 bcdfbce0
@1307 3ca0bf9c
@1308 bd01ea21
@1309 b96622dc
@130a bcafeedf
@130b 3c734127
@130c 3c99138b
@130d bcc6a42e
@130e 3c3023d7
@130f bc062435
@1310 3c927cd2
@1311 3d3c61b4
@1312 3ce80342
@1313 3ce9cd20
@1314 3d96a70f
@1315 3c0432c7
@1316 3d337d79
@1317 3db2c22c
@1318 3d739b9a
@1319 3dc819d6
@131a 3d8bf2aa
@131b 3d571d26
@131c 3cf819a8
@131d 3c895051
@131e 3c2b4ddc
@131f bb91eab1
@1320 bda683ec
@1321 bceb2153
@1322 bca00484
@1323 3cde4b08
@1324 3d10bcca
@1325 3b683340
@1326 bd08992b
@1327 bd1ff33e
@1328 3c9a7596
@1329 3cde4829
@132a 3d65b5ac
@132b 3d7cc882
@132c 3d6f43b6
@132d 3da8cee8
@132e 3d24ab24
@132f 3c849b02
@1330 bc03fbe6
@1331 bc52c6cf
@1332 3c78fbf6
@1333 3d947fe7
@1334 3db3dc18
@1335 3deee2ed
@1336 3db180a9
@1337 3d53b98f
@1338 3c9d33c3
@1339 bbfe2aae
@133a bcd81a09
@133b bd25101e
@133c bd6e5efc
@133d bd93ee8f
@133e bc625a39
@133f 3c09bc72
@1340 bcbd7c82
@1341 3b2ad78b
@1342 bc91f49b
@1343 3c1a83bb
@1344 3c74d47f
@1345 3c86bb91
@1346 3dadd9c0
@1347 3da85867
@1348 3de02483
@1349 3d23e8fe
@134a bc91a035
@134b bdae31d5
@134c bde61234
@134d bdab33b8
@134e 3c566345
@134f 3dd0c94a
@1350 3dfe0717
@1351 3e49340a
@1352 3dfade4b
@1353 3dd4fa58
@1354 3d2adfc4
@1355 bc569c09
@1356 bd28ff47
@1357 bd773437
@1358 bdd0f352
@1359 bc0b302b
@135a 3cc9da31
@135b 3cd02497
@135c bd11a10e
@135d bc68b8b1
@135e 3cb9f729
@135f 3cb8f3b9
@1360 ba1fd631
@1361 3d82751e
@1362 3d486342
@1363 3d954967
@1364 3cf63819
@1365 39e3ba50
@1366 bddf79fe
@1367 be25571f
@1368 be1fa8ad
@1369 be0c4d99
@136a 3caede32
@136b 3da57625
@136c 3e1f4dc5
@136d 3e4659b1
@136e 3e00cf56
@136f 3db9211b
@1370 3d6a4976
@1371 bd3b8067
@1372 bd35c626
@1373 bd71f005
@1374 bd5100e3
@1375 bcf77a35
@1376 bc274885
@1377 3c889da0
@1378 bcb8c0c1
@1379 3cec8be0
@137a 3cbd95b7
@137b bc5e9370
@137c bce7c929
@137d 3cb11550
@137e 3c237611
@137f 3b9942c8
@1380 bc60f651
@1381 bd4bada7
@1382 be15f66d
@1383 be4c1b45
@1384 be332f53
@1385 bcca51f3
@1386 3d88f3d2
@1387 3e1d84a3
@1388 3e0e4b50
@1389 3e1aaedb
@138a 3e103902
@138b 3d447d64
@138c bb71b974
@138d bd3601a5
@138e bcc4306f
@138f bc5c9c64
@1390 bca580af
@1391 3c9961c9
@1392 bcb9c7d5
@1393 3cf0be7a
@1394 3d09f5b9
@1395 bd0af68e
@1396 bce24bb7
@1397 bd18bae4
@1398 bbcfaaeb
@1399 bc50276b
@139a bcd805bc
@139b bb2d0162
@139c bcd707f9
@139d bda65973
@139e bdfc059f
@139f be11cc8f
@13a0 bd3668ea
@13a1 3d314896
@13a2 3dd88bdc
@13a3 3dea7753
@13a4 3e2db404
@13a5 3e04ff3a
@13a6 3daba021
@13a7 3c535d08
@13a8 3b563169
@13a9 bb2e65a9
@13aa bd314a6e
@13ab bd09a9dd
@13ac bcaf32ef
@13ad bcf99142
@13ae bcf43eb0
@13af bbd00d80
@13b0 3c89ef2c
@13b1 3c480108
@13b2 bd08ae27
@13b3 bccb3422
@13b4 3c4adf4a
@13b5 3c7a6a78
@13b6 3ab3c544
@13b7 bc1c9fc7
@13b8 bcd0b7cb
@13b9 bca065e1
@13ba bda5cf00
@13bb bda61faf
@13bc 3c13f545
@13bd 3dbe430a
@13be 3e022ca6
@13bf 3e1a6fa8
@13c0 3da0eab3
@13c1 3d846819
@13c2 3da74c68
@13c3 3d64b119
@13c4 3d22086e
@13c5 bd3bf01a
@13c6 bbfa7075
@13c7 bc881a2e
@13c8 3c7c45b9
@13c9 3c6088e1
@13ca 3cd7eba1
@13cb 3c9df472
@13cc bc94e295
@13cd bd02c169
@13ce bd19a6e2
@13cf bbf333d3
@13d0 bd3e46fb
@13d1 bd26546e
@13d2 bc38c969
@13d3 bcb1aaf8
@13d4 bbfb395f
@13d5 bc76a323
@13d6 bce31b48
@13d7 3c868a2f
@13d8 3bfc485e
@13d9 3e08369f
@13da 3dd6d48e
@13db 3da92ab7
@13dc 3dcc27a9
@13dd 3d8d69f1
@13de 3d5616bb
@13df 3c83b092
@13e0 bc219718
@13e1 bc532e16
@13e2 bd170756
@13e3 bd1aa7b1
@13e4 3ca55450
@13e5 3c300895
@13e6 3cdbbc85
@13e7 3c8b1bd8
@13e8 3c851e6e
@13e9 3d0fea90
@13ea bc0d2709
@13eb bc906c0e
@13ec bc82f31b
@13ed bcd5f6d5
@13ee bd1c7377
@13ef bd05e141
@13f0 3be0c847
@13f1 3ccab3e0
@13f2 3c84a543
@13f3 3d5d01ba
@13f4 3dc9f20f
@13f5 3e1c28d5
@13f6 3e185631
@13f7 3dd5c6a4
@13f8 3d57452d
@13f9 3b4670d9
@13fa bcd10838
@13fb 3bf1752b
@13fc ba5034a0
@13fd bcd6d0d4
@13fe bcd6e0c9
@13ff bd47a9a1
@1400 3bc97389
@1401 3c7e4c9d
@1402 3c062fd8
@1403 bb44de00
@1404 bcf918e2
@1405 3c87c23b
@1406 bd00715a
@1407 bd166d39
@1408 bd6346c4
@1409 bd8fff35
@140a bc9792ef
@140b bd44d3f4
@140c bc5bea4e
@140d 3c9bfd49
@140e 3d043772
@140f 3d943939
@1410 3d77596d
@1411 3ddef65e
@1412 3db60317
@1413 3d8a1826
@1414 bc6ca209
@1415 3c1da73d
@1416 bc4e027b
@1417 bc315894
@1418 bc9f3df0
@1419 bc9f0a8c
@141a bd414d82
@141b bc6db6d9
@141c bad85379
@141d bd07c28a
@141e bcc90316
@141f bc270dd2
@1420 bc1a99ae
@1421 3b0f3491
@1422 3ad1d8e4
@1423 bd4237d7
@1424 bd20a4a8
@1425 bd3d37a1
@1426 b95d64e2
@1427 bcd0a12d
@1428 bb661363
@1429 3c5dfb4f
@142a 3cd0cc00
@142b 3c164896
@142c 3d6ae116
@142d 3d8eae5b
@142e 3d7c36bf
@142f bb802923
@1430 3b58f3a6
@1431 bd1e5bdd
@1432 bc8d8e8f
@1433 bd6cfde6
@1434 bd062340
@1435 bd81d8ba
@1436 bcfc8f27
@1437 bd6f17e0
@1438 bbc4b4ad
@1439 3cc9d796
@143a bca2e971
@143b 3ca17c70
@143c bce76f3d
@143d 3c8b83c9
@143e bcb6e1d8
@143f bdd0ec6e
@1440 bda3deee
@1441 bdaaf380
@1442 bd0243a3
@1443 bd7a889a
@1444 bd8d169b
@1445 bd7a822d
@1446 bcc95fd4
@1447 bd507dab
@1448 3c7df9c6
@1449 3d1c4340
@144a 3c05bcb5
@144b bd852fca
@144c bd5bf073
@144d bce88dcb
@144e bda30977
@144f bd5db476
@1450 bd868d2a
@1451 bda6c09c
@1452 bd9ce5e6
@1453 bd4373a5
@1454 bd3cc0ec
@1455 bca9b530
@1456 bbcc53cb
@1457 3a38d0c0
@1458 3d05bc3a
@1459 bcc6487f
@145a bd76fadb
@145b bdd72cc0
@145c bd5a6cb7
@145d bd8bf119
@145e bd9507c0
@145f bdd12197
@1460 bdb8aa76
@1461 bdfc357c
@1462 bdb8a31c
@1463 bdab15d3
@1464 bd31b2d0
@1465 bd954fcb
@1466 bdbe3b59
@1467 bd8bf58e
@1468 bd901dee
@1469 bda4ac23
@146a bd330348
@146b bdae6131
@146c bdbbe3a7
@146d bd2d0ad1
@146e bd0583b0
@146f bd13efff
@1470 3c054310
@1471 bc1791a4
@1472 3c154798
@1473 bcf70385
@1474 ba84e0fe
@1475 3cd8b8d6
@1476 bdb5e18d
@1477 bd8a0828
@1478 bdff21f2
@1479 bda0d7f3
@147a bd9d2cf0
@147b bde1af24
@147c bdd5098f
@147d bde33266
@147e bdd9aa45
@147f be264110
@1480 bdee8542
@1481 bde55d26
@1482 bddb906f
@1483 bd2de548
@1484 bda2f27f
@1485 bd889328
@1486 bd70266f
@1487 bdb83e8e
@1488 bdb00061
@1489 bd809c42
@148a bd837767
@148b bcf32323
@148c 3c05c447
@148d 3ce9b177
@148e bcda7283
@148f 3c52bc70
@1490 ba4feaff
@1491 bd1603a7
@1492 bd13d101
@1493 bd6b248e
@1494 bdc131a0
@1495 bdc50641
@1496 bdd4bf49
@1497 bdb2a5e7
@1498 bdda220c
@1499 bdd0ce13
@149a be09d460
@149b bdaf9b3b
@149c bdb61efc
@149d bd9f366a
@149e bdd21a7b
@149f bd976642
@14a0 bde11b74
@14a1 bd4d2a6f
@14a2 bd973c06
@14a3 bdbb95c1
@14a4 bd82a26d
@14a5 bd14a335
@14a6 bd9b85df
@14a7 bd3b06f6
@14a8 3b6ca3a9
@14a9 bc8d549a
@14aa 3ce0bf3e
@14ab 3caa6ff5
@14ac 3c8a5953
@14ad bbde0536
@14ae bd50d33b
@14af bdd02cf8
@14b0 bd49d7a2
@14b1 bd10e2eb
@14b2 bd034677
@14b3 bd105ae3
@14b4 bd1d3ab9
@14b5 bd3bf5f6
@14b6 bd95d533
@14b7 bdaa26b7
@14b8 bd82c732
@14b9 bdafde9f
@14ba bd992586
@14bb bdc22917
@14bc bde78b08
@14bd bd537fe4
@14be bd0ab920
@14bf bd2f1a71
@14c0 bd3d99d0
@14c1 bd975c38
@14c2 bd5d0245
@14c3 bd7106e8
@14c4 bd123334
@14c5 bcae9bf2
@14c6 3d02901a
@14c7 bc76ddbc
@14c8 3cd2f925
@14c9 3bab2efb
@14ca bc8e2389
@14cb bd435bcf
@14cc bbb195e6
@14cd bcdaaf64
@14ce bc8f5da2
@14cf bd8aec46
@14d0 bbfc1189
@14d1 bd43ae87
@14d2 bc872460
@14d3 bd64a178
@14d4 bd71fe9d
@14d5 bcff4a0c
@14d6 bd10aadb
@14d7 bd5a5f87
@14d8 bdac3866
@14d9 bd961c58
@14da bd5b3374
@14db bd463b0a
@14dc bd139d9c
@14dd bcf67e10
@14de bd29be7f
@14df bcdc4519
@14e0 bd180b7e
@14e1 3ccd8d23
@14e2 bcf95742
@14e3 3ce571ce
@14e4 3c5832a0
@14e5 bcd09847
@14e6 3b753b02
@14e7 bc072cc8
@14e8 3bcd2a54
@14e9 3bfac60b
@14ea bd4d3a76
@14eb 3c55b07f
@14ec bd233125
@14ed bd72f323
@14ee bd25d3cf
@14ef bd74023a
@14f0 b8d6fa1c
@14f1 bd620112
@14f2 bc055d6a
@14f3 bd6632bb
@14f4 bc43f366
@14f5 bd23b325
@14f6 bd1ad4e8
@14f7 bcfedf5d
@14f8 bd1565fb
@14f9 bc16ceed
@14fa bc834fd9
@14fb bd06115d
@14fc bb03c8e3
@14fd 3c239eb9
@14fe bcd2c004
@14ff 3c572f00
@1500 3ca63516
@1501 bce9f38d
@1502 bc4769a6
@1503 3b9a9c7a
@1504 3c5d51fe
@1505 bc931bf1
@1506 3c100bac
@1507 bca6f875
@1508 bd25ddf7
@1509 bcca29c0
@150a bd038211
@150b bbef5a49
@150c bcb85924
@150d bcb89471
@150e 3cb97ee7
@150f bd219794
@1510 bcbafd1e
@1511 bcfe6010
@1512 bd1cce88
@1513 bd23c816
@1514 bd649798
@1515 bb8fec82
@1516 3c2a099a
@1517 bcd765de
@1518 bc408f00
@1519 bbf8e601
@151a bcb2e93c
@151b 3c0c0e00
@151c bc33650a
@151d 3c9fab49
@151e bb88a9e4
@151f 3c8d128c
@1520 3d1a4410
@1521 3bff20fc
@1522 ba88fa89
@1523 bc8de333
@1524 bd3d60be
@1525 3b79dff9
@1526 3be4c07d
@1527 bc179c29
@1528 bae3db33
@1529 bcbef490
@152a bd7ac58f
@152b bd6a468e
@152c bcfecabe
@152d bcb0c2e3
@152e bcf220ed
@152f 3b86c7aa
@1530 bd297b97
@1531 3c9d3a03
@1532 3c058fe2
@1533 3cfbb45a
@1534 3cb3ff0f
@1535 bc9b9d29
@1536 3ccb68fa
@1537 3b0f9bf0
@1538 3cce7638
@1539 3c5ce8d5
@153a bc31ec52
@153b bcacd506
@153c 3d0300ca
@153d bcf13589
@153e bd0dd5c1
@153f 3c23cd8c
@1540 bc2eb1d0
@1541 3c906271
@1542 3b07723b
@1543 bd088381
@1544 3ac69b9d
@1545 bd02b33c
@1546 bd09f7f1
@1547 3c2a5483
@1548 bbc930cd
@1549 bcff8a11
@154a 3d028203
@154b 3abee200
@154c 3c21c05f
@154d bad21a60
@154e bc293076
@154f 3c7ee611
@1550 bcef9e00
@1551 bd0cebb9
@1552 3c4e58e8
@1553 bbc74f24
@1554 3b671be0
@1555 3d0f922f
@1556 3c17ca34
@1557 3baf1528
@1558 3ce3193e
@1559 3b64c910
@155a 3b2922b0
@155b 3d0ce9f1
@155c 3d07d7f1
@155d bc7923aa
@155e bce15cd8
@155f 3cbf8dd8
@1560 bcede305
@1561 bccb07da
@1562 3c035adc
@1563 3cca6670
@1564 bc81ff07
@1565 bcc2566e
@1566 3b45b610
@1567 3c056f40
@1568 bd085220
@1569 bc54b5c0
@156a 3c001780
@156b bc659eb8
@156c 3cc2c52c
@156d bc1d1820
@156e 3cc3ce4a
@156f bb283300
@1570 3d0598f3
@1571 bc5b51f8
@1572 3c32eea8
@1573 3ccd1fe0
@1574 bd04821f
@1575 bb59ced0
@1576 bcc62013
@1577 bc989bae
@1578 bcf7e055
@1579 bd0ba830
@157a 3ce008de
@157b bc705f40
@157c bcbd12e5
@157d 3cf1cb5e
@157e 3b078d80
@157f bc168da0
@1580 bc0af4b2
@1581 bc6d5e4e
@1582 bcdb5e73
@1583 3c1b1100
@1584 bcddd7ba
@1585 ba8fe900
@1586 3cec831e
@1587 3c9fdf7e
@1588 3cb948aa
@1589 bce86c71
@158a 3c200d88
@158b bc7f1b74
@158c 3cd22022
@158d 3c579b58
@158e bc3214e6
@158f bcbeb4a3
@1590 bc8a0f53
@1591 3c347b07
@1592 3c5e2f1f
@1593 bb6998e5
@1594 3c4df06c
@1595 3c95e804
@1596 3d0072f9
@1597 3c9417a3
@1598 bc3e969d
@1599 3c95a69a
@159a 3c6e92a3
@159b bcb78a8e
@159c 3b81f952
@159d bc9e2c57
@159e 3c589b0f
@159f ba75090a
@15a0 3c027cbe
@15a1 bb95aa1c
@15a2 bd0ede53
@15a3 3b987cda
@15a4 bd0775b3
@15a5 bc92bfe2
@15a6 3c8df739
@15a7 3ce87c8e
@15a8 bc20b420
@15a9 3cdce155
@15aa 3cdf3fd6
@15ab b9bf5491
@15ac bc4c766c
@15ad 3cf124d4
@15ae 3ac5e71f
@15af bbf1db94
@15b0 ba39040c
@15b1 bcb2b05a
@15b2 3c8e2427
@15b3 bc368a92
@15b4 3c998302
@15b5 3cb4b359
@15b6 3b88971e
@15b7 bba0f78a
@15b8 b92196ae
@15b9 bbf73bc7
@15ba 3c82599f
@15bb 3c98c759
@15bc bc368dda
@15bd bcf36730
@15be bcdfeae5
@15bf 3b3edc72
@15c0 bce127e9
@15c1 bce36443
@15c2 bce31566
@15c3 bccf8ba8
@15c4 3a1dbc80
@15c5 3cf9cabd
@15c6 bd07e2b8
@15c7 3d0fd1dc
@15c8 3c911559
@15c9 3d067e01
@15ca 3ca9fba6
@15cb bd22eca6
@15cc 3bdaf8fc
@15cd 3bb6fd56
@15ce bc0450a4
@15cf bcf6a000
@15d0 bd50f427
@15d1 3b986eaf
@15d2 bd88840d
@15d3 bc97d074
@15d4 bd41af66
@15d5 bd24cbb8
@15d6 bbf9c0de
@15d7 bd1f30fe
@15d8 bc8fcde0
@15d9 bcbf1cad
@15da 3c72a8e1
@15db 3af25af2
@15dc bcaf1e9c
@15dd 3c844012
@15de 3cc0d2b7
@15df 3d0ed07b
@15e0 3cd58192
@15e1 bc9ed47c
@15e2 3d087116
@15e3 3c8602e4
@15e4 bc40ae4a
@15e5 bc7add9c
@15e6 bcae4760
@15e7 bd375621
@15e8 bbea47bf
@15e9 bb9de809
@15ea bc52f132
@15eb bccb725f
@15ec bd210485
@15ed bce55059
@15ee bcd6c9f5
@15ef bca882f0
@15f0 3c27b93d
@15f1 bc8aa782
@15f2 bce3cf54
@15f3 bc254e06
@15f4 bd2fb26c
@15f5 bc4c25c7
@15f6 3c8483d5
@15f7 bd2e2454
@15f8 bd54e3bf
@15f9 bd235fa4
@15fa bd08ae9b
@15fb 3ca2d6ce
@15fc bbf63f10
@15fd bcfe12ab
@15fe 3b8a0ce7
@15ff 3c3a5ffb
@1600 3cde37e7
@1601 bd329470
@1602 bd2520f6
@1603 bcadbc81
@1604 bd0054cc
@1605 b94705a5
@1606 bb9af58a
@1607 bb77df99
@1608 3c45a3a0
@1609 bc1321d4
@160a bd23b942
@160b 3ca99ddc
@160c bb837b4d
@160d bcc66a9f
@160e 3cacb219
@160f 3c0860f8
@1610 bd0ac73e
@1611 bd118893
@1612 bd376ed6
@1613 bbc2cb23
@1614 3add1fdd
@1615 3bdc6223
@1616 bcd5c72d
@1617 3ceb4cb2
@1618 bce074b6
@1619 3ca17f59
@161a bbdbac8f
@161b bcced40f
@161c bbdcd816
@161d bb3da5d7
@161e 3c36784e
@161f 3c9d2c2e
@1620 3d26b6f0
@1621 3d2748fe
@1622 3d5a20c3
@1623 3c93b484
@1624 3d8564d4
@1625 3d8bc17f
@1626 3ca987e6
@1627 bbb927b1
@1628 3ba50310
@1629 bba6f86c
@162a bd02dd80
@162b 3c3f6774
@162c 3c85f0a3
@162d bd3bc3ab
@162e 3b4dfed4
@162f bcfa9435
@1630 3c397787
@1631 3ca3c79e
@1632 bbecaa89
@1633 3c894f2f
@1634 3d110b5f
@1635 3cc8bb96
@1636 bcc63e4e
@1637 3d258ae2
@1638 3d04514b
@1639 3d311939
@163a 3cc2a55b
@163b 3d0e04ee
@163c 3c85cb98
@163d 3d263563
@163e 3d81624d
@163f 3d446529
@1640 3d616ee6
@1641 3d61c82d
@1642 3d7ec20b
@1643 3cf4da67
@1644 baed7949
@1645 3ad46474
@1646 3d27a501
@1647 3c0808a9
@1648 3ccaf108
@1649 3c0867bb
@164a ba8e0f5a
@164b b9b44a21
@164c 3c8f77fb
@164d 3d17ba63
@164e 3c2d3511
@164f 3d023922
@1650 bcf3cef9
@1651 bc5f30cd
@1652 bc90c124
@1653 3d209719
@1654 3cd6f954
@1655 3cd0b203
@1656 3d2e0e6f
@1657 3d80c0dd
@1658 3d0d8ca3
@1659 3d4a6a5e
@165a 3da3890a
@165b 3d712394
@165c 3d2d743a
@165d 3d9b8e81
@165e 3da2978c
@165f 3ba28950
@1660 3c1914ca
@1661 3d2fc958
@1662 3c41066d
@1663 3d327a28
@1664 bc7c7f39
@1665 bc0124cc
@1666 bd141345
@1667 bc6a5a1c
@1668 3b85f639
@1669 bc8252fb
@166a bbddc8b1
@166b bc8474a6
@166c bcfe84bb
@166d bc9cb02a
@166e 3d14b6b5
@166f 3c8ec36c
@1670 3d1fc480
@1671 3c19f05d
@1672 3d2fec0e
@1673 3d4f80d3
@1674 3cb70312
@1675 3d0a8acc
@1676 3cd9aae2
@1677 3cb2a1f1
@1678 3c5a7e9e
@1679 3d16fb6a
@167a 3d831c6b
@167b 3cfd4ccb
@167c 3cff6c0f
@167d 3d10cd7b
@167e 3c393aed
@167f 3cfe0039
@1680 3c0f4f1c
@1681 3d2fcaa8
@1682 3d0aadff
@1683 bc131c3d
@1684 3d347220
@1685 bcb5be6b
@1686 39f3fa01
@1687 bcd6c566
@1688 bd0d5ff9
@1689 bce1147f
@168a 3d284c30
@168b b8eec88e
@168c bc6ff956
@168d 3cb62ad8
@168e 3c81477b
@168f 3d6c1672
@1690 3c416ddf
@1691 3d3cce6d
@1692 3c653db8
@1693 3c97e8ab
@1694 bce48b6b
@1695 3cbc79b5
@1696 bc411061
@1697 3bde3192
@1698 3d815d3d
@1699 3ccc1e16
@169a 3cb1212b
@169b 3d05b55d
@169c 3b834f1d
@169d 3c9217c1
@169e bd0e6e4a
@169f bbc321eb
@16a0 bbe07ffa
@16a1 3d0faa89
@16a2 3cb7d925
@16a3 bcb7f07e
@16a4 bd046f2b
@16a5 ba8849ad
@16a6 bccab362
@16a7 3c04d167
@16a8 bcc20b25
@16a9 3cca6ef1
@16aa b9c7fb9f
@16ab 3b3ddb0b
@16ac bc91e6f4
@16ad bd0e13c4
@16ae bb182a98
@16af 3ba23c0f
@16b0 bd230760
@16b1 bd7f0d77
@16b2 bd0e2e38
@16b3 3c699de9
@16b4 b86e7e70
@16b5 3d337c3e
@16b6 3d0d101e
@16b7 3d2721ca
@16b8 badfe0d5
@16b9 bce152d5
@16ba 3ca052d1
@16bb bcc10a8d
@16bc 3d0d4cb6
@16bd bc60140b
@16be 3bb4b832
@16bf bd09d4ac
@16c0 3bac4600
@16c1 3c5a823d
@16c2 3cde2f45
@16c3 bb8de950
@16c4 bcdcfda3
@16c5 bd32c916
@16c6 bc67716a
@16c7 bd29d53f
@16c8 bd34f6d0
@16c9 bc430592
@16ca bd631051
@16cb bbd9d2b1
@16cc bafd3460
@16cd bd261d10
@16ce 3ca55a65
@16cf bc4bab4a
@16d0 3cf7f45d
@16d1 bc5b9d33
@16d2 3bc3bd9e
@16d3 3c08e3e4
@16d4 bcfbb146
@16d5 3cd89a5e
@16d6 3cc85e45
@16d7 baed7f7d
@16d8 bc9f8c87
@16d9 3d0c629d
@16da bd066c03
@16db 3cc3e5e2
@16dc 3cfbb11e
@16dd bca17cd8
@16de 3ca9d230
@16df bd0f9771
@16e0 bd0ddd0f
@16e1 bc9da1f9
@16e2 bd400b9a
@16e3 bcbdc1fe
@16e4 bc4038cb
@16e5 bd56aaa3
@16e6 bd77a307
@16e7 bcfc4300
@16e8 bc4ae425
@16e9 bd258014
@16ea bcc089ed
@16eb bc3b223f
@16ec bd017a4e
@16ed bcd6319d
@16ee 3a7817a8
@16ef 3ce675e8
@16f0 3ce1ab1d
@16f1 bb06ef89
@16f2 3c4aa5c0
@16f3 3cb33bbd
@16f4 bc2f5daf
@16f5 3c84a8f2
@16f6 bc98ee58
@16f7 3c1bfc5c
@16f8 3c80eeb8
@16f9 bcd4cb39
@16fa bc4e849d
@16fb bd3c3e12
@16fc bd4cc18e
@16fd bd3d43a4
@16fe bc491270
@16ff bcfc2f03
@1700 bcdd8264
@1701 bca5ff5c
@1702 3cd95d03
@1703 bbe43867
@1704 3ce8ffd0
@1705 bc63c825
@1706 3ce6e657
@1707 bbcc3166
@1708 bc9cc2b2
@1709 bcc0f6cf
@170a 3bab3266
@170b bc85e024
@170c 3ce84beb
@170d 3ca906dc
@170e ba096f6e
@170f 3c863c0e
@1710 bba7037d
@1711 bb3e7586
@1712 3caceeea
@1713 3c290998
@1714 3c103025
@1715 3ce2ca10
@1716 bd11426f
@1717 3b23a431
@1718 bd15879d
@1719 bcc0f78d
@171a bce381c7
@171b bb313333
@171c 3ca6222e
@171d bb19e842
@171e bc7aefef
@171f 3caeab0b
@1720 3c53400d
@1721 bc6a4c2e
@1722 bc8b6b70
@1723 3c8fe5f2
@1724 3c039cf6
@1725 3cd07ad5
@1726 3b99a5f0
@1727 3c58d1e8
@1728 3ca119cf
@1729 bd1683d1
@172a bbb107ec
@172b bcd4a68f
@172c bc807f5d
@172d 3c6f6d53
@172e bb81fde4
@172f 3d09d8cf
@1730 3cbdc514
@1731 3b8eb012
@1732 3c9f244e
@1733 3d06a099
@1734 3d0eb60d
@1735 3c16979d
@1736 3cf4e32e
@1737 bb96cf7a
@1738 3c32ac42
@1739 3c7961f6
@173a 3d180e1a
@173b 3c6ac044
@173c 3c94f97f
@173d bcd96ce2
@173e bcb5243a
@173f bb262da7
@1740 bc410c3f
@1741 bc69afe6
@1742 3cd3dac1
@1743 3cd454a3
@1744 bcbe4340
@1745 3c32410e
@1746 3ca99418
@1747 3aba25fd
@1748 bca4324a
@1749 3c6c7ae3
@174a 3c81d434
@174b 3c730650
@174c 3bec0aa0
@174d 3ceffc18
@174e 3d5f64d4
@174f 3c8fb55c
@1750 3d1f1571
@1751 3cf4f263
@1752 3d120ef6
@1753 3d01b0d9
@1754 3d279bc9
@1755 3cce269c
@1756 3c500add
@1757 3c88a7a5
@1758 bb4b3176
@1759 bcb0e618
@175a 3ad2bcad
@175b 3badbf41
@175c bbf9707f
@175d 3cb21f4c
@175e 392883f2
@175f bcd2f876
@1760 bc108a50
@1761 3ba2998f
@1762 bbaf9b4b
@1763 3d0bda16
@1764 3d1b2ea7
@1765 bc9dcb1c
@1766 3c891251
@1767 3b862928
@1768 bd0809d7
@1769 3ca18292
@176a 3b656534
@176b 3bc41b9b
@176c bca6abac
@176d 3c9e7727
@176e bc2fd82f
@176f bb09ab92
@1770 3c9f3923
@1771 3cf1ed9d
@1772 3cb4aaa2
@1773 3be01df6
@1774 bb7c0da4
@1775 bc2b0215
@1776 3d06f0ad
@1777 3c5197d2
@1778 3ce8b256
@1779 bc66f913
@177a bcc22444
@177b bc9b7cb2
@177c 3cf9c0dc
@177d ba7de262
@177e bc275238
@177f 3cf7c3f8
@1780 3d5215f8
@1781 3d32c3ce
@1782 bc61a03e
@1783 bcdbdd43
@1784 b9dff2b9
@1785 bcf06074
@1786 3d67eb8a
@1787 3bcdfbeb
@1788 3bec9b0b
@1789 3cc9e475
@178a 3d0915fc
@178b 3c816a4e
@178c bb95ff16
@178d ba07eeb9
@178e 3d43d3b7
@178f 3d46a11b
@1790 3ce32428
@1791 3d38514f
@1792 3abaf527
@1793 bc849bbe
@1794 3c032eb8
@1795 3a94d5a7
@1796 3cb7449c
@1797 bd051521
@1798 3c0cb450
@1799 bcc78637
@179a 3c829694
@179b 3cc2aba1
@179c 3bcbf7a5
@179d bc93fcd2
@179e bcd403c6
@179f 3cb211bd
@17a0 bcb7ad33
@17a1 bce4c44a
@17a2 b9cd7c69
@17a3 bb1add28
@17a4 3d077aa3
@17a5 bad4f337
@17a6 3ca35fee
@17a7 3d3686f9
@17a8 3d244b27
@17a9 3ca1077f
@17aa b981236a
@17ab 3c853260
@17ac 3c49a0f0
@17ad 3d2eb2f1
@17ae bc934535
@17af bccbe83d
@17b0 3c2adeea
@17b1 bd174dbf
@17b2 bc63d3ac
@17b3 bbae1d99
@17b4 bc5eade9
@17b5 bc76add2
@17b6 bc9e73ec
@17b7 3d49a131
@17b8 3ce76a4b
@17b9 bcfbdcbb
@17ba 3cd0795d
@17bb 3c7ff9cc
@17bc 39426361
@17bd bc42a0ce
@17be 3cfe732f
@17bf 3cdc7027
@17c0 bc71c050
@17c1 bd184031
@17c2 bcde9c65
@17c3 3c9c710f
@17c4 3d0c5d18
@17c5 3c0312f1
@17c6 3b0c3441
@17c7 bc4b9a4c
@17c8 3b2b9dcb
@17c9 3aa8b511
@17ca 3b6a2923
@17cb 3d0555dc
@17cc b9a602e5
@17cd 3bd93fa7
@17ce 3c76c063
@17cf 3d107b35
@17d0 bc8ae8ec
@17d1 3d23b603
@17d2 bc52b1b2
@17d3 bb921607
@17d4 bc69836d
@17d5 bccf9f21
@17d6 3d01fcd4
@17d7 bbd91448
@17d8 3d0aba0d
@17d9 3bc8714e
@17da bc45913a
@17db bc9f1b33
@17dc 3cc992dc
@17dd 3b90a63b
@17de 3cbee61f
@17df bc8cffb4
@17e0 3cf104dc
@17e1 bc439183
@17e2 3c8320e0
@17e3 bc117a6c
@17e4 bbfedcd0
@17e5 3c1d0b9b
@17e6 b8f496c5
@17e7 bd0fd9c0
@17e8 bcbe2eca
@17e9 bd00a6b7
@17ea 3cc79095
@17eb 3b79ac73
@17ec bc1a8949
@17ed bc767d24
@17ee 3d014408
@17ef bc0d78ac
@17f0 3d1fc912
@17f1 bcc23278
@17f2 bc172c85
@17f3 3ce248a2
@17f4 3a8e5b40
@17f5 3c01bc09
@17f6 bcaadd47
@17f7 bccdfdb2
@17f8 bc595f30
@17f9 bba2c925
@17fa bd1e9f17
@17fb 3c31d6f8
@17fc bbb61d12
@17fd bc7d2f59
@17fe 3a2bdcdd
@17ff bc85df22
@1800 bd50e03b
@1801 bd4976a7
@1802 bd12f081
@1803 bce329c3
@1804 bd441ba8
@1805 3b153c8e
@1806 bc8237f6
@1807 bcfa57db
@1808 3c4ea18c
@1809 3c8c72ca
@180a 3d09b63a
@180b bce7dbc0
@180c 3ae60988
@180d bc0d7668
@180e 3cfdda50
@180f 3b1a1bd0
@1810 bcd9cef8
@1811 bce63cd0
@1812 ba2c19e0
@1813 3d21e530
@1814 bc1ec389
@1815 3c4582a0
@1816 bd2b384e
@1817 bd1ffb30
@1818 bd4cdab6
@1819 bc2e08d6
@181a bcea7978
@181b bba35976
@181c bcdc55d8
@181d bcd62c7a
@181e bd59ca47
@181f bd31fe3c
@1820 bcbd9a39
@1821 bc807777
@1822 bd87a732
@1823 bd0850e9
@1824 3bb56661
@1825 3c1139b4
@1826 bcb90698
@1827 bb6225a4
@1828 3c7f4ec0
@1829 bccee0db
@182a bc95cf8e
@182b bcc3fa38
@182c bcf83721
@182d bc62a0d7
@182e 3badee1c
@182f 3d10b442
@1830 bbe23c65
@1831 3ce18f86
@1832 bb555e7d
@1833 bd0ae72f
@1834 bd40900e
@1835 bd1f4d24
@1836 bc12b7f7
@1837 bb740911
@1838 bc723254
@1839 bca9db34
@183a bd238a2c
@183b bd0bd69f
@183c bd3e5071
@183d bd1c644a
@183e bc400cbd
@183f bd3c61c6
@1840 bccfadc7
@1841 bc84e23a
@1842 3ce2208a
@1843 bc35c5dc
@1844 3cc783b3
@1845 3c8e7998
@1846 3c3a868f
@1847 bc76da8e
@1848 3c2e4170
@1849 3bbd4696
@184a bbe4a007
@184b 3a58e389
@184c bd07e71c
@184d bccd439e
@184e bca443a8
@184f 3c34a597
@1850 3b50e1e2
@1851 3ceacbc2
@1852 3c497b5a
@1853 bacc9de6
@1854 bc815f27
@1855 bcea42ea
@1856 3c2f69f2
@1857 3c89ce74
@1858 3c61578f
@1859 3cf98a3d
@185a 3c008816
@185b bc9ab971
@185c bc7f28cf
@185d bc10a9e9
@185e bc619be8
@185f 3cbec66c
@1860 3c070805
@1861 3c7d1288
@1862 3ac0b146
@1863 bd0e5b8e
@1864 bc22c040
@1865 bc68d26a
@1866 bbad4a9c
@1867 3c971abc
@1868 3d0b730b
@1869 3cbe97de
